node {
  name: "input"
  op: "Placeholder"
  attr {
    key: "dtype"
    value {
      type: DT_FLOAT
    }
  }
}
node {
  name: "transpose/perm"
  op: "Const"
  attr {
    key: "dtype"
    value {
      type: DT_INT32
    }
  }
  attr {
    key: "value"
    value {
      tensor {
        dtype: DT_INT32
        tensor_shape {
          dim {
            size: 3
          }
        }
        tensor_content: "\001\000\000\000\000\000\000\000\002\000\000\000"
      }
    }
  }
}
node {
  name: "transpose"
  op: "Transpose"
  input: "input"
  input: "transpose/perm"
  attr {
    key: "T"
    value {
      type: DT_FLOAT
    }
  }
  attr {
    key: "Tperm"
    value {
      type: DT_INT32
    }
  }
}
node {
  name: "reshape/shape"
  op: "Const"
  attr {
    key: "dtype"
    value {
      type: DT_INT32
    }
  }
  attr {
    key: "value"
    value {
      tensor {
        dtype: DT_INT32
        tensor_shape {
          dim {
            size: 2
          }
        }
        tensor_content: "\377\377\377\377\t\000\000\000"
      }
    }
  }
}
node {
  name: "reshape"
  op: "Reshape"
  input: "transpose"
  input: "reshape/shape"
  attr {
    key: "T"
    value {
      type: DT_FLOAT
    }
  }
  attr {
    key: "Tshape"
    value {
      type: DT_INT32
    }
  }
}
node {
  name: "w_in"
  op: "Const"
  attr {
    key: "dtype"
    value {
      type: DT_FLOAT
    }
  }
  attr {
    key: "value"
    value {
      tensor {
        dtype: DT_FLOAT
        tensor_shape {
          dim {
            size: 9
          }
          dim {
            size: 32
          }
        }
        tensor_content: "\202\235\266>\225y*\277\211\032\035\277A\256\217\276\022\266\235>\022\251\034?\203\261\024>pC\005=\343\332\307\277\030>\301>\016\255*=\352\306\261?\307\345\247?[\320P?<\t\264\277\"\264x=\211d\207\276!\341\352>\234%\022?\260\310\004>\347\006-?\264\t\220\276\354A\324=\007\000/\277q\205\222?\227\322;\277\t{\030>N\355\313\275\215\205\215\276\255\310\307\276\263_M?\341\332\245\276\"K\"\276e\243:\275\366\351\226?\217\317\301\277PUs?x\303\374?c2o\276F\021\255\275\266~\027\277i\036\001@Q\337\234\2761\277\035\276\021\336\217<\231\237\036\275\210d\000\277K\322A>,x\202\277P_u?\251\013\303\277[\361u?\337\257 \277rx\307=`\036\230>\317\\d?]P\254?I.\356\276E0\255>u\275\004\277\226J\031?\033\330\215\274]v&\277BM\301\276\267\2233\277\212\033\220?k\212\256\273\320<\323>i^\017@}\307S\276N\201\300?\373\310\230\277\302w\314>\335\346\324>\034@S?6\217\001@\301\026x?\260\236\016\277\006\374\017\277\"Y\216>\276g\354\277tF\020?\202\r\310?\277S2?\341\022)\300 \013\240\277XlF\276\331\327\214\277\243g\311\276\021\354\271>\235\023\220\277\033\225D\276\326\352\004?\222\tD\276\260\301y\277\363\351\263>\333&\251\277d-\213\276\035X8\276\312\023\231\276\337\310\335\2778\213\261?\0134<\277w\225\352\277\000\316\024?\345\270y\277$%K=B\034\004?C\3252\277w\306:\2763;\006\277\240\001\263>\254\n\025?\006\337\020?\354\321\034>\326\247\312>\'\321\376\277\007$F\277\206\354\250\277\202\024U?\2329\266\276\361\014\035\277?\3646\276%\277\256\276\303x\306>\315\025\253>\200 \"\277\267xe\276K\'\216\276/\370\234\277P\005\352<\354u\356\277\251W1?\237F\n?\006;\210?\335\252\221\276C\236+@_k\260\277\204\\\255\276\210F\241?\001i\013@\246\370o?\367@,?-\261R>0B\372>\373p\007?o4$\277\035\214\263\277X\033\345\277\336\251\322\277L\337\007?g\022\370\275\345\331\357\277\2460\312\276Z\355p?\233\357\212?\031Z\315\276\221\247)\277:i\003@#\253\206?\245l\213\277V\366\r\277C\000\022\277\317\034&>8\237\036\277p\361+\277e\256\270=\245\311E\277z?\322\2742:\027?;\245\'?|\210/\277`8\361\276l\233\200>\253\274\347\277\353\010\226\275\267*\235?S\211\363\277\201\252T>\265\343\024\300\327C\232=\323\356\361=\014\235~?m\227\325=`:\226\276G.\304\277\225\272\250?\232\247g\277\234\360\033>\243+\223>\243\005\337\275\177Y\256<\354\331\032>%Q\207\276)?\376\277\272\255\246?\021\353\022@u\252G?\301\216\260?\r<\301\277 t\307=h\366z\276b,^\277\212Lr\277\tM\211\277\037\351\013?.\365\267\277\330\036\022\277\334|\247?\330\370\217? e\\\277\036\'O\276>\334\035\277)\376\203\277\204B\300>{U\337\277\202\330i\277n\320\206\277\214\260\311\275\370|\004\277\341\252\271\277\031y+>\260\371\214\276X\221%\277\373\361\321?\273\230.\277\024\374\311\277\340o\304>\245\\X>BO\266?\364\013\245>\0314\262>\027\312\227?\031\323\305>\037\275\254>\340\214k\277\264\350\212?v\202\322\276.0\307=\373\033\324\277\360!\220\277\262\235\202?\023\311J\277\235\322\236\277MHY?-\235\327\276\251\223w\277\237\014\377\277\321\363\232\276\235\372\355?\207ox\277\332a\350\276\346f\004\277)\364\322\277l\216\363>\\\275B?\365\220M\2775\324\017\300\332\215\301?\'Z\r\300\026\354!\277\341\212\263\277\247\305.?\245o\254?\026J\316>d\205\247?qI\337>$\200\375=\037we\277S}m=5\323\274>{\253\231\276r^\231?\217v\350=P\311\252\277P!\014?m\205\332=&\314{>\\\0337>_\213\256\277\262vU?\033 X\277y)\252\277K*i\277\246\203\372\277\255x\024?\316\005\260\277\030b\201\277"
      }
    }
  }
}
node {
  name: "b_in"
  op: "Const"
  attr {
    key: "dtype"
    value {
      type: DT_FLOAT
    }
  }
  attr {
    key: "value"
    value {
      tensor {
        dtype: DT_FLOAT
        tensor_shape {
          dim {
            size: 32
          }
        }
        tensor_content: "Z\355\310\276H\214\001?\004\307\366<\0077\220?K\227\310>8-\261?d\300\306=%\350\311\276\313\216\246>\367\217X\275\360T5?\252\301\014\275\221K\214?(@?>\341\326\030?\305]\207?\230R\365\276\342\251\315?lL\"@W\035\337?S\002\215>/(V?\336\247\017?:<\014@y\2011?N\003\003@<\361\315\275`\036\256> \205\005@d\263\016@0;\242?\213\303x?"
      }
    }
  }
}
node {
  name: "MatMul"
  op: "MatMul"
  input: "reshape"
  input: "w_in"
  attr {
    key: "T"
    value {
      type: DT_FLOAT
    }
  }
  attr {
    key: "transpose_a"
    value {
      b: false
    }
  }
  attr {
    key: "transpose_b"
    value {
      b: false
    }
  }
}
node {
  name: "add"
  op: "Add"
  input: "MatMul"
  input: "b_in"
  attr {
    key: "T"
    value {
      type: DT_FLOAT
    }
  }
}
node {
  name: "relu"
  op: "Relu"
  input: "add"
  attr {
    key: "T"
    value {
      type: DT_FLOAT
    }
  }
}
node {
  name: "split/split_dim"
  op: "Const"
  attr {
    key: "dtype"
    value {
      type: DT_INT32
    }
  }
  attr {
    key: "value"
    value {
      tensor {
        dtype: DT_INT32
        tensor_shape {
        }
        int_val: 0
      }
    }
  }
}
node {
  name: "split"
  op: "Split"
  input: "split/split_dim"
  input: "relu"
  attr {
    key: "T"
    value {
      type: DT_FLOAT
    }
  }
  attr {
    key: "num_split"
    value {
      i: 128
    }
  }
}
node {
  name: "rnn/Shape"
  op: "Shape"
  input: "split"
  attr {
    key: "T"
    value {
      type: DT_FLOAT
    }
  }
  attr {
    key: "out_type"
    value {
      type: DT_INT32
    }
  }
}
node {
  name: "rnn/strided_slice/stack"
  op: "Const"
  attr {
    key: "dtype"
    value {
      type: DT_INT32
    }
  }
  attr {
    key: "value"
    value {
      tensor {
        dtype: DT_INT32
        tensor_shape {
          dim {
            size: 1
          }
        }
        int_val: 0
      }
    }
  }
}
node {
  name: "rnn/strided_slice/stack_1"
  op: "Const"
  attr {
    key: "dtype"
    value {
      type: DT_INT32
    }
  }
  attr {
    key: "value"
    value {
      tensor {
        dtype: DT_INT32
        tensor_shape {
          dim {
            size: 1
          }
        }
        int_val: 1
      }
    }
  }
}
node {
  name: "rnn/strided_slice/stack_2"
  op: "Const"
  attr {
    key: "dtype"
    value {
      type: DT_INT32
    }
  }
  attr {
    key: "value"
    value {
      tensor {
        dtype: DT_INT32
        tensor_shape {
          dim {
            size: 1
          }
        }
        int_val: 1
      }
    }
  }
}
node {
  name: "rnn/strided_slice"
  op: "StridedSlice"
  input: "rnn/Shape"
  input: "rnn/strided_slice/stack"
  input: "rnn/strided_slice/stack_1"
  input: "rnn/strided_slice/stack_2"
  attr {
    key: "Index"
    value {
      type: DT_INT32
    }
  }
  attr {
    key: "T"
    value {
      type: DT_INT32
    }
  }
  attr {
    key: "begin_mask"
    value {
      i: 0
    }
  }
  attr {
    key: "ellipsis_mask"
    value {
      i: 0
    }
  }
  attr {
    key: "end_mask"
    value {
      i: 0
    }
  }
  attr {
    key: "new_axis_mask"
    value {
      i: 0
    }
  }
  attr {
    key: "shrink_axis_mask"
    value {
      i: 1
    }
  }
}
node {
  name: "rnn/MultiRNNCellZeroState/BasicLSTMCellZeroState/ExpandDims/dim"
  op: "Const"
  attr {
    key: "dtype"
    value {
      type: DT_INT32
    }
  }
  attr {
    key: "value"
    value {
      tensor {
        dtype: DT_INT32
        tensor_shape {
        }
        int_val: 0
      }
    }
  }
}
node {
  name: "rnn/MultiRNNCellZeroState/BasicLSTMCellZeroState/ExpandDims"
  op: "ExpandDims"
  input: "rnn/strided_slice"
  input: "rnn/MultiRNNCellZeroState/BasicLSTMCellZeroState/ExpandDims/dim"
  attr {
    key: "T"
    value {
      type: DT_INT32
    }
  }
  attr {
    key: "Tdim"
    value {
      type: DT_INT32
    }
  }
}
node {
  name: "rnn/MultiRNNCellZeroState/BasicLSTMCellZeroState/Const"
  op: "Const"
  attr {
    key: "dtype"
    value {
      type: DT_INT32
    }
  }
  attr {
    key: "value"
    value {
      tensor {
        dtype: DT_INT32
        tensor_shape {
          dim {
            size: 1
          }
        }
        int_val: 32
      }
    }
  }
}
node {
  name: "rnn/MultiRNNCellZeroState/BasicLSTMCellZeroState/concat/axis"
  op: "Const"
  attr {
    key: "dtype"
    value {
      type: DT_INT32
    }
  }
  attr {
    key: "value"
    value {
      tensor {
        dtype: DT_INT32
        tensor_shape {
        }
        int_val: 0
      }
    }
  }
}
node {
  name: "rnn/MultiRNNCellZeroState/BasicLSTMCellZeroState/concat"
  op: "ConcatV2"
  input: "rnn/MultiRNNCellZeroState/BasicLSTMCellZeroState/ExpandDims"
  input: "rnn/MultiRNNCellZeroState/BasicLSTMCellZeroState/Const"
  input: "rnn/MultiRNNCellZeroState/BasicLSTMCellZeroState/concat/axis"
  attr {
    key: "N"
    value {
      i: 2
    }
  }
  attr {
    key: "T"
    value {
      type: DT_INT32
    }
  }
  attr {
    key: "Tidx"
    value {
      type: DT_INT32
    }
  }
}
node {
  name: "rnn/MultiRNNCellZeroState/BasicLSTMCellZeroState/zeros/Const"
  op: "Const"
  attr {
    key: "dtype"
    value {
      type: DT_FLOAT
    }
  }
  attr {
    key: "value"
    value {
      tensor {
        dtype: DT_FLOAT
        tensor_shape {
        }
        float_val: 0.0
      }
    }
  }
}
node {
  name: "rnn/MultiRNNCellZeroState/BasicLSTMCellZeroState/zeros"
  op: "Fill"
  input: "rnn/MultiRNNCellZeroState/BasicLSTMCellZeroState/concat"
  input: "rnn/MultiRNNCellZeroState/BasicLSTMCellZeroState/zeros/Const"
  attr {
    key: "T"
    value {
      type: DT_FLOAT
    }
  }
  attr {
    key: "index_type"
    value {
      type: DT_INT32
    }
  }
}
node {
  name: "rnn/MultiRNNCellZeroState/BasicLSTMCellZeroState/ExpandDims_2/dim"
  op: "Const"
  attr {
    key: "dtype"
    value {
      type: DT_INT32
    }
  }
  attr {
    key: "value"
    value {
      tensor {
        dtype: DT_INT32
        tensor_shape {
        }
        int_val: 0
      }
    }
  }
}
node {
  name: "rnn/MultiRNNCellZeroState/BasicLSTMCellZeroState/ExpandDims_2"
  op: "ExpandDims"
  input: "rnn/strided_slice"
  input: "rnn/MultiRNNCellZeroState/BasicLSTMCellZeroState/ExpandDims_2/dim"
  attr {
    key: "T"
    value {
      type: DT_INT32
    }
  }
  attr {
    key: "Tdim"
    value {
      type: DT_INT32
    }
  }
}
node {
  name: "rnn/MultiRNNCellZeroState/BasicLSTMCellZeroState/Const_2"
  op: "Const"
  attr {
    key: "dtype"
    value {
      type: DT_INT32
    }
  }
  attr {
    key: "value"
    value {
      tensor {
        dtype: DT_INT32
        tensor_shape {
          dim {
            size: 1
          }
        }
        int_val: 32
      }
    }
  }
}
node {
  name: "rnn/MultiRNNCellZeroState/BasicLSTMCellZeroState/concat_1/axis"
  op: "Const"
  attr {
    key: "dtype"
    value {
      type: DT_INT32
    }
  }
  attr {
    key: "value"
    value {
      tensor {
        dtype: DT_INT32
        tensor_shape {
        }
        int_val: 0
      }
    }
  }
}
node {
  name: "rnn/MultiRNNCellZeroState/BasicLSTMCellZeroState/concat_1"
  op: "ConcatV2"
  input: "rnn/MultiRNNCellZeroState/BasicLSTMCellZeroState/ExpandDims_2"
  input: "rnn/MultiRNNCellZeroState/BasicLSTMCellZeroState/Const_2"
  input: "rnn/MultiRNNCellZeroState/BasicLSTMCellZeroState/concat_1/axis"
  attr {
    key: "N"
    value {
      i: 2
    }
  }
  attr {
    key: "T"
    value {
      type: DT_INT32
    }
  }
  attr {
    key: "Tidx"
    value {
      type: DT_INT32
    }
  }
}
node {
  name: "rnn/MultiRNNCellZeroState/BasicLSTMCellZeroState/zeros_1/Const"
  op: "Const"
  attr {
    key: "dtype"
    value {
      type: DT_FLOAT
    }
  }
  attr {
    key: "value"
    value {
      tensor {
        dtype: DT_FLOAT
        tensor_shape {
        }
        float_val: 0.0
      }
    }
  }
}
node {
  name: "rnn/MultiRNNCellZeroState/BasicLSTMCellZeroState/zeros_1"
  op: "Fill"
  input: "rnn/MultiRNNCellZeroState/BasicLSTMCellZeroState/concat_1"
  input: "rnn/MultiRNNCellZeroState/BasicLSTMCellZeroState/zeros_1/Const"
  attr {
    key: "T"
    value {
      type: DT_FLOAT
    }
  }
  attr {
    key: "index_type"
    value {
      type: DT_INT32
    }
  }
}
node {
  name: "rnn/MultiRNNCellZeroState/BasicLSTMCellZeroState_1/ExpandDims/dim"
  op: "Const"
  attr {
    key: "dtype"
    value {
      type: DT_INT32
    }
  }
  attr {
    key: "value"
    value {
      tensor {
        dtype: DT_INT32
        tensor_shape {
        }
        int_val: 0
      }
    }
  }
}
node {
  name: "rnn/MultiRNNCellZeroState/BasicLSTMCellZeroState_1/ExpandDims"
  op: "ExpandDims"
  input: "rnn/strided_slice"
  input: "rnn/MultiRNNCellZeroState/BasicLSTMCellZeroState_1/ExpandDims/dim"
  attr {
    key: "T"
    value {
      type: DT_INT32
    }
  }
  attr {
    key: "Tdim"
    value {
      type: DT_INT32
    }
  }
}
node {
  name: "rnn/MultiRNNCellZeroState/BasicLSTMCellZeroState_1/Const"
  op: "Const"
  attr {
    key: "dtype"
    value {
      type: DT_INT32
    }
  }
  attr {
    key: "value"
    value {
      tensor {
        dtype: DT_INT32
        tensor_shape {
          dim {
            size: 1
          }
        }
        int_val: 32
      }
    }
  }
}
node {
  name: "rnn/MultiRNNCellZeroState/BasicLSTMCellZeroState_1/concat/axis"
  op: "Const"
  attr {
    key: "dtype"
    value {
      type: DT_INT32
    }
  }
  attr {
    key: "value"
    value {
      tensor {
        dtype: DT_INT32
        tensor_shape {
        }
        int_val: 0
      }
    }
  }
}
node {
  name: "rnn/MultiRNNCellZeroState/BasicLSTMCellZeroState_1/concat"
  op: "ConcatV2"
  input: "rnn/MultiRNNCellZeroState/BasicLSTMCellZeroState_1/ExpandDims"
  input: "rnn/MultiRNNCellZeroState/BasicLSTMCellZeroState_1/Const"
  input: "rnn/MultiRNNCellZeroState/BasicLSTMCellZeroState_1/concat/axis"
  attr {
    key: "N"
    value {
      i: 2
    }
  }
  attr {
    key: "T"
    value {
      type: DT_INT32
    }
  }
  attr {
    key: "Tidx"
    value {
      type: DT_INT32
    }
  }
}
node {
  name: "rnn/MultiRNNCellZeroState/BasicLSTMCellZeroState_1/zeros/Const"
  op: "Const"
  attr {
    key: "dtype"
    value {
      type: DT_FLOAT
    }
  }
  attr {
    key: "value"
    value {
      tensor {
        dtype: DT_FLOAT
        tensor_shape {
        }
        float_val: 0.0
      }
    }
  }
}
node {
  name: "rnn/MultiRNNCellZeroState/BasicLSTMCellZeroState_1/zeros"
  op: "Fill"
  input: "rnn/MultiRNNCellZeroState/BasicLSTMCellZeroState_1/concat"
  input: "rnn/MultiRNNCellZeroState/BasicLSTMCellZeroState_1/zeros/Const"
  attr {
    key: "T"
    value {
      type: DT_FLOAT
    }
  }
  attr {
    key: "index_type"
    value {
      type: DT_INT32
    }
  }
}
node {
  name: "rnn/MultiRNNCellZeroState/BasicLSTMCellZeroState_1/ExpandDims_2/dim"
  op: "Const"
  attr {
    key: "dtype"
    value {
      type: DT_INT32
    }
  }
  attr {
    key: "value"
    value {
      tensor {
        dtype: DT_INT32
        tensor_shape {
        }
        int_val: 0
      }
    }
  }
}
node {
  name: "rnn/MultiRNNCellZeroState/BasicLSTMCellZeroState_1/ExpandDims_2"
  op: "ExpandDims"
  input: "rnn/strided_slice"
  input: "rnn/MultiRNNCellZeroState/BasicLSTMCellZeroState_1/ExpandDims_2/dim"
  attr {
    key: "T"
    value {
      type: DT_INT32
    }
  }
  attr {
    key: "Tdim"
    value {
      type: DT_INT32
    }
  }
}
node {
  name: "rnn/MultiRNNCellZeroState/BasicLSTMCellZeroState_1/Const_2"
  op: "Const"
  attr {
    key: "dtype"
    value {
      type: DT_INT32
    }
  }
  attr {
    key: "value"
    value {
      tensor {
        dtype: DT_INT32
        tensor_shape {
          dim {
            size: 1
          }
        }
        int_val: 32
      }
    }
  }
}
node {
  name: "rnn/MultiRNNCellZeroState/BasicLSTMCellZeroState_1/concat_1/axis"
  op: "Const"
  attr {
    key: "dtype"
    value {
      type: DT_INT32
    }
  }
  attr {
    key: "value"
    value {
      tensor {
        dtype: DT_INT32
        tensor_shape {
        }
        int_val: 0
      }
    }
  }
}
node {
  name: "rnn/MultiRNNCellZeroState/BasicLSTMCellZeroState_1/concat_1"
  op: "ConcatV2"
  input: "rnn/MultiRNNCellZeroState/BasicLSTMCellZeroState_1/ExpandDims_2"
  input: "rnn/MultiRNNCellZeroState/BasicLSTMCellZeroState_1/Const_2"
  input: "rnn/MultiRNNCellZeroState/BasicLSTMCellZeroState_1/concat_1/axis"
  attr {
    key: "N"
    value {
      i: 2
    }
  }
  attr {
    key: "T"
    value {
      type: DT_INT32
    }
  }
  attr {
    key: "Tidx"
    value {
      type: DT_INT32
    }
  }
}
node {
  name: "rnn/MultiRNNCellZeroState/BasicLSTMCellZeroState_1/zeros_1/Const"
  op: "Const"
  attr {
    key: "dtype"
    value {
      type: DT_FLOAT
    }
  }
  attr {
    key: "value"
    value {
      tensor {
        dtype: DT_FLOAT
        tensor_shape {
        }
        float_val: 0.0
      }
    }
  }
}
node {
  name: "rnn/MultiRNNCellZeroState/BasicLSTMCellZeroState_1/zeros_1"
  op: "Fill"
  input: "rnn/MultiRNNCellZeroState/BasicLSTMCellZeroState_1/concat_1"
  input: "rnn/MultiRNNCellZeroState/BasicLSTMCellZeroState_1/zeros_1/Const"
  attr {
    key: "T"
    value {
      type: DT_FLOAT
    }
  }
  attr {
    key: "index_type"
    value {
      type: DT_INT32
    }
  }
}
node {
  name: "rnn/multi_rnn_cell/cell_0/basic_lstm_cell/kernel"
  op: "Const"
  attr {
    key: "dtype"
    value {
      type: DT_FLOAT
    }
  }
  attr {
    key: "value"
    value {
      tensor {
        dtype: DT_FLOAT
        tensor_shape {
          dim {
            size: 64
          }
          dim {
            size: 128
          }
        }
        tensor_content: "=\003\315=|p\250=\204\370\3209\332\253\'=X52>\277\223D\275\377\220\376\274\017\245\246=\226\222\004>-\004\343\275\2126\t>\210z>>{^\005\276)\033\257=e\376\344\274u\355\376\2750:\367=\323Fy\273\363\241\005>\324\220U\275(\352\317\273\200L\321=(\370t\275y\225\212=\030f%>\346\275\366=Eax\275v\260Y\274\273\332\034>F ,>\306\240\275\275\262/\322\275\220\330\327=\376/\033>&\301A\276\337g\236\275\035\035\007=m\346?\273\200|\245=\263(2>n\352H=^\027\023\274V\314O<VM$>|*u=*}\222\275\211\362\236=\025\274\310<\321\004\217<\006\304\201=\252(2>\366\017\247=&@\036>\214o(>\206\361\303;\300e9\275?\275\016>N\354\370<\314s\022\276\320=\201\275\2600\307=\374h\224=:\346B>\233b\266\275\363\252\307\275(\337\362=\037a\322\275\336\242\006\276(w\235\271H\237\311\275\334\207\360=3\"\022\275\250@F9\017\3505\276\361\264\341=/\035\373=>\270!\276\275\3120\276\211\210!\275{l\230\275\265b\222\275\010\023\003\276\217r{=\2649B\2765\2720\276S\022\261\275#d\261\274\035\340\257\275\362\244y\275\306=\013\276\300\240\352<\374z\035\27650$=X\276&>\177\3765\275lN\221\275\310\337V<\033G\242\275\256\327\020=0&\340=\005\314\236<\217\230\307\275\335\341\004<0,\374\275\314\261n<f\033\034\275\027\366/\276\325\'\360<\303\344\257=\320\320\016\275.\t\217\275\311\370\337\275\201&\273\274\267H/\275\257\342\261=\032\312\353=\326\225\320\275\277@\233\274\224\376\231=L\240\201\275\325y\336\275\027C\204=\351L\021\275.xp;\374\242\277\275\037\333\251=\354\376h=\247\277K\275`0\312:#\341\202=tu\360=P\325j\275\347P\033\274R\\\"\276\001n;\275>\035\035\276l\350\010>\376\315\305\273n\031\325<\2268P<\227Y\273\275O\272\314<\272\n\200<\246\243\375\275\354m\367\275p\006\2719\346\r\013>\205\255\324\275y}\227=9\024\373\274,%\027>\367h\260=<N+\276\237\315\032>\t\330\350\275\023i\003>\254\324\361=b\\<\275I\3135>d\265\013\276\247\367\036>\316B->\346\344\033\276\030\356\303\275?\221\020\276\362|\354=\274\341\365<\240t\025>\370h:>\003Y\031>t\035\023>\342\207\230=\261r!\276C\177\375\2754\032\010\275\033T\366<\203\270\034\276\t\227\257=}\244\304=NO\367\275\312\212\370<\2512\034>\313\355\n=J7\315=#q\262=}\017\330\275\217\252)=\345\260\253=\336\204>\276\034\321\305<\001m\370<G\354\007\276b6\t\275\243>.\276\000%\211\275\351\000\202\275rV\033\275\000B\314=j\360#\276\346\245\361\275\257\222\205\275Q\364\356=\0337\032>)\032\251\274.\r\364=\316\262G=?>\364=\307\206\276\275+\353\277=\244\363\302\275F\177\037>\264N(\274j\213\026>\363\277\254\275\375L+\2755\342\333<\202\217\233=\325\301&\276\327z\350=@\240c=\324\241\032>\262\211\010\276\227\207\266=\027\316\236=\331D\335=\307)\332\275\203d\010>\016\300 ><U\376;\221\3252\275\253m\t=_y\377=\322\020F\276}n\230\274:\303;\275\257\370\t\276\366k\360\275\216n\205<;A\360\275\276w%>?\343\206=\376\010\303=\226\033}\275\361P\260\275\230\205!>$V%\276C\315\033>\206\363\324=Q4\361\275\213/\363\275pNA\275Pi$>\240\223\003\274\376M|\275{\304\300=%\364\020\276u\202\326\275>\307\375\275_\277d\275\361\316\364\274m[\260\274\370\277\342=\346j\222\274Q\244\216=.f\314;\034\333\307=\222j\r;.\324(>\215\245\217<\342:\212\275\204(\376=B\311P=\345l\220=\2405\r\275\"\357\330\275\223\342\346\275\214t\034>e\\\236\275\255}\014\276\020\002B=\245\275+\276\204\322\002\276*i\034\276J\032\242<VJ\362=\204\320\025=(\246\376\275\2366\306\273\024\350\266=W\233\241=\2745\235<<\224\256<\341K.\276H%\307=\270 \037>\312e<>q\361\217=\033qk=F\335p=\2010(>\350\261N=\355Y\247\275N/\235=\236\014!\276O$\224=\320\243\340<\343\177\003>gL2=U\3762=)Y\005>I\005\355=\354\357\262=\3548G\275\365d4\276.\306%\2754n\340\275T\324\022\275i\304\'>\364\373\257\274\213\346\256<M\006\322=\002\356O=\236$\373\275\225\3439>\276\007\351\275\245\307\002>\365\265\271=\236H\210\274%\220\241\275\307\307\376\274\001C}=lu)=e\237\r>_\036c\274\377\372\001=;\375\227\2754\332#\273\227\346_\275<\321]<\360\232E\275\245\312\326\275\222u{=\035m\025<8\237\325\274\3739\247=\355\237<>\301\343,\275OZs=\217\256\334\272a\004\314\2756\373\340=\035\211\026>n\212\204\275\3115\302=&x\363=\303\177 >=\367I=N\314\322\273!J\312\274-\362\372=A6\005\276\211\007\336\275\364\371\317\275\313Ac\275\373\343^\275x\205\r>V\'\271=\024\343\372=\002?/>LM\027\275\347\262\020>\210\201\020\276\315\211\026\276\270\214%\275\324q\355\275\361\334\031>\2066\243\275\243$\247\275\365\205\r>ak\030\276\306\325\010>\355M\333=\331\327\035>W\274\203=7\303\315=\265\001\t>\024\3545\275-9\235<\234\022\030<\215\001\234\275\246\226\225\274\t\275\234=\222ZA\276\252\3020>\025\275\225=\364\027\325\275\242\244\325=\230\026\332=\031z\217<\337\210\222\275\003\337\006\276a*!\276\264N\r>\034\360\3159\341\356\201=\24589=\2119\001\276\341\317#\276\2341>=iu\016\276T\364\025\275\216J\000\276X\225\032>fxg\275\002\331\334=\206\250\256\274\266\233\007\276\304j\006\276c3\002>$\350\270=\362\221\037>\240~\225=fs\003>LkY\275\214\245\274\275\2303\254\275\310Qv=\023\371\002\276z\014\r\274W\001\022\274\"\350\274\275\201\230\227=ya:\276Qs,=F#\010>\177D\022\276\274\2556\276gVQ=\353+!=[\363#>\275,(>\000\267\036=\"\007\006\276\201\337\261=\n\225n=\266\252\013>\266\303\245\275\315\245\205\275\311>\206\274\024D1\276Z\'@\275+\263\200=\006\264\024>\021\2224\276jP\224=\340\346\344=\246$R=\315\030\331=\224\325\262=A\023B\275\023\331\333=\'H\037>!\242\026\276T\376-\272\367\230X<\363]\027>\016\262\215\275\254\033\300\275o\221\306\275\310\351\016=\3160W\275\025\322>>\036lL=@\206d=\372\3169\276x\311\324;\325\376\346\274[\303\311\275\222\321\317<\357\215\203=}S&>\302\035\322\275\220L\031\276\367\210\t\276\227O.>q$\020\276\372?\223=\221\034\007\276U\257\363=\276\245t\275\241s\214=\277\306\332\275\300.B\276\303ah\274\311K\350\275T|\017>U\245@>\374\256\340;\300e\254\275\032\250!>^\264\n\275\300\017 \276\003o\342\275\345\204\014\276\324\306\244\274M\376\231=\36260\272\227\376\235\275\242\353)\276\2507\277<\257\246\342\272\201\323\013=f\314\245\275,\310\025>Y\260\304\275b<\221<\221\377\002\276\311\377\367\275\340\256\t9?]\">Q\307>\276\364\022\r\276\'\"\250<h\025\023\276\346p\3579|\300\264;g\202\021>W\342\014\276\347q\346=\337i\324\275\033\306\270\275\247\360\255=\237\335u=hJ\025>\306J >|\224\345<\306_\014>\337\361#=k\305\240=\255\2305\276\035\201\002>\226\264T=s\005+>z@\013\276wH\035\276\220\016\221\274@zY\274\n\217\230\275;\346\023\276\325\354\031<Si\024=\235\274\354<\355\026\327<\364\371/>\320\305\341\275P\333\245\274\220y\t\276\006\253\255\274\257\317O=\204\\\311\275[\207\320=\031p\261\275t\323\337\274z;\021>\336\313\224\275/\371\354=\346y\\=\260\265\371\275\010\233\312\275DC\022>\345x\n>\007\032\246=\307\010\232<\004\007\215\2751l$\276\306\2711\275>0\326\275\241\337\021><\341\207\273\010\0345\276k*\t>C\366\220=4\357\321=\343\337M\275\036{|\274&L\"\276\317lM<Lu\002\275\336\307\"=c\312\277<\023\242%>\301\257\354=/\255\216=\323\207\365\275\302U\035\276\361\206/\276\037\003B>\266[\376\274\242\n\'\276\214\231\223\275\027\351\010\276%g\345=\365\026@\276A\020\213=2R\003>-\0109\275\262\010\342\275f\266Y\275\242\373\'>\267\274\325\275\233s\274=\"3\014=\256\267\355\275\271\302\214=\274\022\035<\224E\240=5\242\332=\373U\005>\372\036\004>5\246\037\276\305\306\025\274\227\245}\274\330\004\013\276\031\000\314\275\256a@\275\206\275\363=\252s\013>i\376\212;\032Y\025\276\232+\006>i\201.\276\033\025\036\276\320;\340\275\006\211\211=\212i\034>\330#\343\275\316@\367=\036\210\322\275\310\316\">\277\256\017\276\355m\341\274G\300\333\275H\004\016\275`D\207=-d#\276\221\201!>\265\316\366<h\366\021>\241s\331\275\237\215\004\276\265/\320\274h \314\275\266\021\243=\231\217\225\275s,\205\275\230h\215=\010h\240\275\3702J=K\2375> \003\263=\367O\033=n\266\244;~\\\\\275\021\207\300=:\003\311=\'\243\034>\016YI=\2063\245\274\336\2128\275u7K\275\252\232\251=eA8\276\033\267\023\276\332t\260<\331\314J\275\261\214\202=\270p\250=\\\230@\275\211\270\000\272\365*\242=4\264\211=\370\216\275\275\335P\010>\317\336\367\275\207\324\"\275\304\242\371=\363:)\275\322Y\210\274\234\262O\275|\242 =\302\006\231=\023\021+\276:3\005>\321B\026\276nu\347=\236\204?>\345U8\276\303\025\023\276)P|=o\227\344=\335\357\001\276\001(\250=\254&\273=\341by\272\253\354\010>\'9\263\274:\254\204=\347p\255=\311\243\336=f\246\354=\037\231\001\276.$\032> ;\243=\223\366\350=\210m6\276}\336N\275c\237\'\276\002D\017=\345\253%\276\026\347\300=\375k\254\275=\017\344<\365\270\200=\300a\273\275\341U/>\271Y\025\274mS\241\275\251\241S\275\304\021\020\276c;\005\275\3539(<=\245\005>\240\024\007\276ix\023>\271>\t\276\330~\342=Z\355\002>\233\241\224<\323{<=\224\025\271\275x\350\373=\361\314\360\275\273@\250\275\213\373\027>\022w\306\275\230m\354=\266H\314=f\274\207<\322\200\003>J\317;=\350d\006\276\007n\326\275\371\\\341\274\236\357\327\275\177.\214\275\312J\220=\342\267e=:\242\016>\325c\270\274\347Bg=k\276\352\275?\343\031\276\\\217\242=\253S\006\276,\002\200\275X\3537>\323\235\202<\031d6\276\264a\352\2755\315\210\275i\335=\275\030\331\037=\205\336\007\276\246n1=\032A\270\275\230\275 \276\020\221\020>gv\003>sX\350=7\376\000>\257\267\022>\n\327\361\275]T\\\2754U\213=|\037\027\275\306\020\031\276\246\001p\275\305Y\225\275\202!\t>I\257\004<#|\022\275S\021\025>\257\t\232<~\270`\275r\377\261=\220\013 \276\031\347#\276\270H\233=\306{\261<\334p\031\275\030\230\037>S\265\227=\362\342\267\275\232\217\256=\364\004\014><S\376\275\371\316\033\276\360\035.=\253\211\230\275\205\362\332=\013\000\301=\364\302\r>\255\373\334\275\220l\337<\307\354\327=\253\307\016\276\034\022\032=^\251\344\275[p\035\276\267a!\276\202\020\017\273<\237\023\276\367G\333==\371\220=H\331\376;\227U\014>+\005k=\340\334\231=\272\001\344\275\264\255\360=\204\325h\275\0167\223=\266\"\266\275F\027\273\275,\034\021>\317\326\251;V\333j\275\260\360\217\274\371\177\376\275\033\2564>Z\375\215\275/b\013\276\236\332\314\274\351}\271=\006\202\002\276\201\263\007>A\213\034\276\251~\376\275\026`\364;\341i\255=&\264)>\215l\216=J\336\373\274W\324\212\275]\361\031>\301\364\334=x\341#><\322\260\275\300\221\351\274\215\010\002\276+\326\204=\263W\031>c\375T<t\263\211\275t\307\216<\226\367\032>\367>\320<\333?\353\2740\241\010\276\244Y\005>\360~\031>\275\302\336<o\003\264\274\371\202\305\275\201\245\017\276\306@2=\324S\355\274\334H!=-^W=\376\223A=m\364\207\275\236\330->e\2008>mB\200=G9\302=\204\302\014\275\323~\031=\326\010G\275\360\357\271<_\277\255=\377V==\355\217\222\275\214\323\366\274\301H\010\2762\2108\275Oy\220\275\352\021\007>\362x\252\274HU\206\275\325L\273=\010N\232\275\260\340\343=\235JW=\035S\005=6D\263\274\036\026\200=\0054\314\274\340MP\275\352\2533\276T\220\315=0\021\035\272\260\016#>;\302\223\275\342\t\214\2753z\321\275\370\340\327<\303T\t\276I\r\034\276\367\373z<\211G\225\275\320 \210=FL\032\276f\n\301=\361\207#>\253\276G<\031O\211\275E\027z\274\300\037\004>#\225!=\300jC\276\365B\016>d\207\210=/\035\035;g,\375=\352\213\031>|\024\035\276\247\304\222=\355\327\374\275+\007-\275\252=\034>\022H\276\275\337\203\233\274\377\367\010\276n\244\362;\260D\303\274\\\354\033\276\241\343\036\276d\356\005>t\'\204\275\246\300M=\350\215\366=\374\345\355=\031\224 >\240p\245\274\300\367t\275W\226\251\274\002U\254\275.\342\006\276w\335%>\327\023\340=x\001\252=\271\350\207\275\347\003\214=K\241\n>\302\364\237=\207S\016>\270\007\240=\332\037\024\276\364H\205<\3503p\275Q\364\321\275\376\033_=\303\262\">\256\273\024\276>\223\246\275?\222\373;\303U\343\275\\#\022<\355\367\260\275[\026L\275F@\224=\364\003W=\270\341\345=\301\305s=%\367\037>\304)\024\275l\030\027=\262\250^\275\356\204\253=Dk\374\275\226\017\375<g\030=\275\363\214\362\275#v\204\274\337\330\230\275\237\213\302=\010\026\255<%\331\205\275\347\340\322<v`\362=\326\237a=\356q)=&=\251=l\263\016=c\334\332\275\032\213\350=\3548D=S@\245\275\256\210\006\276O\375\t=\177\017\326=\205\363\207<\371?s=q\262a\275\036\231\260=\374~\235\275\037\032B>\372Y0>\274!\360<-\316\324=\177\253\302\274\360Rp\2751\373\231\275\236)\033>\265\276\177\275\267\321\036\276\335\240,\275\261\273\253\275\230\256\312<\304\2318>\025\347\007\276S\3514>~\357e=#\207\023>\372\260=>\256\010\237\275L\266\031\276#\266E\276\210\365&\2746\214\3359<\3651>&G\010\274\007\250\010\276\t\226\246\274\033\326\031>\325\273\007\275J\033*\274\266\346\">LK\'>f\002/\275\353\333]\275\203X\223\275V\244\003\276v\377\325\2754}\304\275\025\276\037>\265\216$\276\370\200R\275\021Lu\274\2332/\275b\226R\275\3175^=\233\\e\275~\260\2159s\317\336\275R\367\372=\362Z\266\275\201 >>\204,\353=(\024\n\276)\373\244={\314\032\276\235v\254\275\177K \276N\370/\276\314\001*\276\364\275\237=\300\254\317\275c\267K<la8>=y\314=\332\031\202\275\330\200\327=\231\203\340\275\316\004\002>Y&\215=\206\242$\276\215\r\311\272B\373\343<\323\033\216=xR\216=\351\002E=s\016\374=\035\315\312\273\026D-\274\3659\026=8\014\267<\223k?=P1\343=\000\352\031\276\016\242:\276\3429\031\276\003\271\302\275\350\366\214\275\254\345%\276\376\n\027\274r\355\t\275\216\n\006\276`\202\031\2758\013b\275\306b6\276\273T:=\022<\361\2750\214+\276+M\251\275v`\264\275\250e@\276\000\0166\274\331\\~\275\303\224\354=P\344\304=H\360\335=W\340\325\274\220C.>\334N\200\274\265\200\375=n\240\024\276#\217\244=\212V#\275h\333\006>\3707\227\275(l\227\2755\274\356=?d\013>\273\330T\275\337H%=\263\311\033\276\325\'\226\273\374\237\021=\036\377\372;\345%\251\275\366\314\372=\005j\242<TX\226=\376\374\267\274\347\210\031\276\034\345\237\275\230\214\001>f\202\372=\205D\002>o\202\247=\231\300\272\275\277\211\304=|\035\007\276\203D\313\274\276\025\212\275\234\235\003\276\017\240\016=\320\265\252=\232r<\275J\000\374\275f\372\022>\337j\r\276M\317c\274(\257\267\275\202\026Z=\351c9\275\032\357T\274\304\215\002\276\204+&;\335\335\321\275d\261\225\274\366U\020\276\001$\257\275u~\025\2762\215\356\2759\301\352=\230 \337\271;\224,;Bl\206=n\262|=X\362\333\272\337\264\023\2767!\002>C\020O\274\323\232o=\323\310\013\276~\216\032\276\205}\014=\333|\202\274^/\202=\027g\004\276\311=\'=\214\013\000\276J\005\262<\355h\255\275\n\305q=\277[\262=\007\205B\2766S\003\275Kr\320;V,a\275\336$ \276)\254\234=\300C:>\245k\r>\315}\341=\201\030\031\276\235G\022>\234\\;\275\"L\266\274>\2052>\232\217\273\275\301\n$<W\261\316=\203P\005>\203\225\267\274\223\020\347<\330!\001>\233\3730>#\336\252\274\006\223\371<*t\231=\220\204\264\274\024\331\033=\272U\036\276\204\010\001<\310\221 =O\205\275\273\r.\004\276\224H\336=P\2075\273pA\334\275\301\007\036\275n\235:\276\247Y\313\2757!\030\273\332\316\301\275\362\025)>\232\n*=\034\254\026>\317\3040>\306=\370=\360\227\020>\222r\361\275\262\312\361=\2375~=\250\031\316\275\036L\372:\237X%\276\323\260\264\274\003\227W=\3219\225\275\036\371\254=\244ru=\313\331\223=`\213\014\275\366rL\275\254\350\257=\235\360!\275a\202\246=\003\022@\275e\316]\275L>w=c\003\027>YZ\245=6\225\023\274\002R\237\275\341\n\317\274\324w->\320\031\315=<\023\226=8\034\200\275p\276\356=0|\201\275H\363\307<r0>\276~D\000\276\201-\254<\233#\204\275\265\225\026\275\212;k\275\265\317\035\276\312k\264<\026(\320=A\364\002=\330[\305<9\007\340\275\367|l=\254\344\032<mv\240=\272\213\360;\244\177\027\274f\020V\275\260\206\036=\262\2544\275\3122\213=\026$(\276Lr@\276\030\027@\275M_\311\273V/\322=\231:\'\275\2642\362\274\320-\014\276\236\027\346=\272 \002\276:\310[=c\302\314<\311\367\034\276\255\217\211=y\020v\2758\376\300=}S\237<\253\225z\274\361\300;>D\230\t\275j\376\030\275\3545@\275\0044\232\275\021\023\235\275\217\203\233=\373\341G=\232[B>$\017q9\201\033I<\312F\n\276\356\372)\276\036\337(>\335V\'>\371\036\214\275\320\351\223\275,\202\227=\022\177O=\347/K;\242`\230\275\351\344C\276\276M>\276b\306\367\275\201\273\026\27503\302\275]\366&>O8\255\275\244\256\">\201\237\224<S2\007>=\310\274\275\265^\331<\233\317/\275\320\323\340\275\376u\276\275\034j0>\271&\023>\304\230?\275>@\225<\340o\257\275%\372\307=\207\220\343\273x\214G<\310\006\312=\365>y=\367\340\351=L\337#\276\240\014\t\275\256\210\346\275/\205(\276\022\3379\273\241d\246\275\253.\220=>\203\035\276\222\231\357\275\247\242&>w[\214\2750Q\016\276\344>\013>;\302*\275{c\002\275\334\206\320\275\300\2457\275{Z\010\276\014\366B\275h\324\271=\212\220\034\276\3444\256\274M\035,\276\031\207\031=e\344\377\275\240\016C>v5\013>\213\016\245\275\232\376$\276d]\257=\313\254\031\276\306\031\325=3H\020\275\344\347\275\275@\335\330=\346\021g=\246z\023>fx\315=\214\255\275=\316T\031\276`\367\251=\023\252+>A\224e=\242)\325\275.4\204=\230`\"\275F\352\351\275\302\r\362={\025\243\275\334\030 \2762k\210=\261\226\336=\307\336&\276\030\000\300=xV\014\276E\036\023>Rb\365\273\267\343\266=k\240\266<D\335\332=\346\206\373\273\253<\004=\nq@\276\345\270q\274\322\333\305\275G\347\340\275\037\r\217\275\202\217\266=?\010[=\231\273\306<+\037<\276\374\254\220\275\307\377\266=Y:}<\246\321\361:\356\244h\274m\030P=\232\214\335\2756\360+>\226\351\234=\242U\210\275Z\302\006=\231\331\n\275\373\2134=\265B\021>vr\017:\310\246\354=\254\204]=\362^!\276\371\230\005=\305\3619=x\272\177=$\"\310=.\237\246=D\250\372\274kY\262\275\250\024\371=\001\2537=\037\356b\274\033\021\352\275\213\034\000\276\362\332+\275\261\2451=\002\251~\275\305\260\242=\232y\303\274\256\302]=\004\236\036>\301\342\010\2768\373O\275\327\367\221=\374 \021>\264O\224\275\266\240\341<_W\035\276\336\315\013>\2660\021>DF\266=\036{\024\276_D\373\273/p\256=\213\014\\\275\2723\275=\342\263\031>\364\330\004>\031\317\007\276\226Z\240;\212(\013\276Vk/\275\252\005\324\274\252\206\370=\310g\r\276rQM\274\344\307\236\2751\'\367=c\364w\275\306\260\033\276\313j\266\275p\2113\276\217$\222<\327i\n>[\332.=\314G\267\275Z\305\031>\307B\346=G\247\274=]\225\026\275f\340\204=`[\004>=\231\n>\264\270\016\275b\350\352\275\205\222\206\275\2345\037>\322\312\370=\321\316x=W\021==\276P\241\273B\273\314\275Xu\250=\273\204\321\275\277\307\r\275y\352=\275\340\343}\275\366\204\303= i\347;\000)\233\275\250#\207=\270@,>\003\206\371\275\333\244K\275\256\275\276\275\310\235\036>L\030\266=\232\230B\276\276C\027>8 p\274\253z\273\275\005<\206\275\263\270->%\367\225=\201R\316=\036\251\205\275\304\302\313<\034\220\307=\312[\030<qU\201=\236y\002>\266I$>}\037q=\234\374\t>\255M\276=MJ5\276\\c\363;)W\'\276\257T*=!\316\002>\351\277\274\275\313Kg\275*\324\004\276\252\256\003>\316F\304\273:q\360\275\304o\302\274\004\336\320\275\000\337\327\2758\320\341\275:Z\204\274!z8<\354m,\276\317\271C\276]\257\242\275u\t\230<\347Q\240\274\243#\313=\341I\313\274\245C\233;e\226\'\275\002r\037=G\326\363=\032\232\221\275\2024\267=\340Y\301=2\223\034\276C\253\357\274\004\347\234:\035\220\016\276{W;>\321!,\276\236i\237<\263\312$=\233\013F<\024q\231=\303U\335<\320\310\t\275\276l:>4\000\270\275\2565Y\275\231\355\003\276\267\223\265\275\340\007\037\276\333F\230\275}\331\365\275E\301\357=\2351\362=\322S\332=\016\306/\2765\n\014>[\034\000\276\322\324\356\274\313s\276\275ac\t\276\024\314\320\275\366\244\223\275\316\026\000\275\361\024\330\275\251\216\023\276\231\013\376\2754T-\276\312\333\326<\004u\214\275\360\016\t>\r\366\236=\240\255\302\275\211\352)>m\204n=N\3224=\241<\341=ID\345\275\311X\367\275,T\303\275$@\002\276m\213\027>\257\237\257=\366@\035\275\204\314\247=\237\337\336=\214\344u\273\242n\261=\352A\005>X,%\274q%\010=mq\244\275\374\375h=\216k\217=pC:\275C\275\306\275\006y\207<0f\332\275o\3713\276\2332\325\275\260\324(>~\2712=\374@\006\274\2453\016\276\365\026\023\276h\214\313<\027\322\347=\3372\305=\203\004\007\276\221\267l<x5\032>\000\301\004>y\036?=/\305\236=n\372\206\2756\364\255;\315\272\300\273H\336\010>L\024n\275R\357\342=U\204\370=G\024y\274\320b\376\275\202\006 \275Q\366c=\212B\211=~4\370<\3205\237:\264V\330\275\327L\017\276P\\\204\274\224\000\033>\273\253\266\275\304k\314=\253\t\302=|M\211=\023ME=b\203\010\274i\236\255=\250\tJ\275N\321)\276a\344\243<zG\027\275\337\237\225=\375%#=\305\254\036>\236\321\013=~-\342=\344\261\033>J\013\010>\346\014\303=\256\005^<\000\357\300\274\036K&\276\266y\220=\204\251:>\336i+\275\000\272\313\275K\366\010>\260\303*\276\224u\027\276\311%\005>\217\364(>\260\201&\276_\357X\274\351\270\210=KP\236\275\214=s=_\255/\276pS\335=\302)\r\276\314\277\275\275\327Z\'\276\006\240%\276\230\302\351=\373/\247<\025\207\020\2768\2779>\241\205}=h\263*>\372\305\304<\212\350\307=\014\262(>>F\274\274\346f,>\305\327\217\275=\237\353=-m\203\275\004\271\320\275\3420\327=\216\367\000\2760R\225\275\374A(\276\\\216.\274mD\303<\017\'\034>i\243\000\276n_\353\274\024%\210=\363\016T\27443\024>\204\373\'\276\210\346p\275\303m\n>\323Y\212\274U\353\354=m`\333<\232\'1\276o\262\310=y\332\027>x>+>#\316\237=\366%\210=m,\240=)%a\275\334\244\220\274\3604\325=\234\244\005\276\333\211\336=\254\365C=C0\205=\3646\271\273\362v\006>VT^\275\313\322\251<L\247\003\276T\313\014\276F\370\016>r\242!\276`v\355\275\271fd={\362Y\275\177]\300=\304\025\352<\377\002F=\351\262\356:\0031\346=Z?\314\275\201\tg=\374\006\314\273\211<b:\"\307\372\275\301S\247\275\033\347v=~\233e\274G\330\026\276e8\346<\335w?=\224\336\246=\317\213\316=\000\344\317<\232c2\275\342\367\234=y\365C\276\310\260\345\275\324L\202\274Z\220?\274\264\305\275\2750\'\251<T\023\325=5R<\275uwT\275\200\025\372\275p?\002>\343\022\027\276\002\274\226<2\320\217=\361\255\351<\224Q\273\275\010\'7\276ew\205\274\036\250\r\276\003\277\'\276\233\315\022>\317q\270\275&\312\374\275\001\360\002>\334\303\016\276\273\362%\274\311Pd<\335Q\214=~=.>\276\314%\276\275\236P\274,\363\n\276\205d9\276\250\224\256\275#\347\t>\232Z\242=L\035->\376R\217\275?\272\026=\376\257 \275\213\342\347\274\016\364\'\275\033\277R=\364\233\306=/\225\212\275\241\233\214\275\204\213\351=\310\362\240\275\\\r\001>\244+\027\276\206O\033\276]\020C<\005\031\261\275\t\013\252\275\234\304>\274w\240\271=\356\r&\275&\206\023>L\r\221=s\362\232=\336\364\024>\262\271\232=\355\305\221=\351x\357\274p\321v=\211t\002\276\311I\353\275\350$\014\276\254\350v\275>\217\027>\353\251\023=\270}y\275\316i#\276\371\007\375\275\354,a:\005w\313=\242\300\374=\364_a\274(\373}\273\351\274\274\274?\201\364\273X\331\037<a5T=!\207\004>\255wa=(\222-=\203\234)=\275d\302<\331\316\301\274M\203\204\275-\222\010\2755I\226=|\305@\276\360\0048>\232\223,\276\0247\265\275O\370\327:\216\n\236\274\3200\r\276E\000\265=J\374\000\276\361I\t=\272Z(\275\364@\305\275)1\327=\003\200\037>\243=\331=\265\001)>\226f\316=L\002\256=h]\375=\326\265\201\275\372\307\375\275c\025\312=\223\211\037>Q!\033\276+\370(<\212P\376\274\245\363x=\275\260w=\243\215h=)\315\220\275\371\343\246\275\317*E=\252\014\200\275\323\312\202\275\254\025\034=\243\337\025\276\326\314\325\275>@\356\275\227\316?\275\346\235\032>S1\253=\370m\353=M\345\254=m\323\240=M\347\255=1\004\241\275\013\376\037=\n+\257=-\300\006>\244\023\323=0B\375;\254\364\000<\363\037\265\275Z\331\272=\020\247\006\276\214~\227=\272=*\276\223z\377=\255\307\026>\303\272\300\275\375\"h=\344\346\023>\213\367\351\275\237iB\275T\035\254=\355z_=\025Y\203\275\250\230\022\275\010@\317\275\267\217\034\274S\216\024\276\332\313\002\275\001\"\373=\371\371\303\2757\252]=\344T\237=m\337\310=k\345\333=4\022\255=\327E\326;F\037\203\275\300d\024>\034\232\270\275\374y\352=\n\306\321<\232\201i<\"y\323\275\313\257\036=\304\016\261=\330|\216=`\377E>\2665\373\275\"/\356\275\302y\365\275_\244#\276\226\347\206\275\212\347!>\025k\">\304\344\021>\342;*\275\270~\265=M*7>\375T\224=`\277\030\276[\324\256\275z\363\226\275\366\r\217\275\364`\371\275G\357Q\275\361v\252\275\265\356\005>A\302\031>w92\276\263=\337\274\273\203\004=\031\222b\275^\037\007\275\324P,\275\251\225\000\2767k\373\275q\241$\274\335\312$\2769\261\n>\177\227\240=`\004\363\274ZJ\341\275\177\0060\276\2249\347\274<\367@>\022\322\362=\355\034E<\034\330z=\334\371\n=\233\265[=8\037\326=n>\000\273-&\302=\342\2603\276\346%\031>3s\244=\212\266\342=\303g\202\275\362S*\276#o\301\275\375\253\363\275D\026\031\276\272\216\232\274\2365\022\276\303\267==*\231\217<\334\375\324=\367l\233=\332\221\036\274\311S\267=tLF=\345\337\035\275w25\276\355H\351=^C@\276S)\247=\342\3734=\262\237\264<\273\276\023\276<W\334=\263#\r\276\256\026\013>\242\262\005>\364\2562=\265uN\275\007\313\005\276\220\006)\276\344\020=\275\236!\007\276\303\271\033<\305X\023\2766\264\367<\2169\257=Gc<\276\030\233\321=l\333\362=t\366U<\276d2>\351\314\024>\236P\353\275\262\254\r\275p\203\221=\272 \311=\350r<=\244t\337=\014\033b\275\323M\031\276\r\334]=ft\200<\340\363\255\273]/\007\276\304\262\265\275&\226\254<{\214/<\320\333\023=\243\331\246\272\323\326\273=\267\331\017=^\257P\275\301\263\216\274\264\264)\276\001\352d=\340\022\024\275b\304_\275\030\251\347=\242\334\332\274\351^\261=K\335\n\276\341\260\321\275\372\035\231=\240\337\036=\251\322E\275\020\331|<[Y\213\275\244\007\303\275\207\002\215\275c}\247=\255*\r>\373>\372\275\231\r)>D\320\226<P\013z\275\234\223\357\275o\3177>\271*\"\2765\263\250=\302;\326\275\322\214/\276k\374s\275\353\314\351\275\030\336\240;\2337\211\275\3241@\276\217-B\274.)\203\275\036\310H\275*%\001>\226\0301\275/2\340\275\210\301\326=$\240\032\276\347\356m\274T3\337\275\024\233\216=\375\003\370\275`\022\302=l\275l=0\024\010\276\240\351\271\275*\217X=\376\363\030>?1\300=\331\234\"\276\203#\211\275x\207\030\276\250\212>>Y\264\306\274\362Z\016\276^)j\274\'DR=\367N~=\214I_=\177,\024>#\017\271\275\333<\026>\026P\016>5\235\225\275\331\235\331=\2611\006>\2234\016>3\202\031>\252\265\303==\251\257\275\2132\025\2761\353\367\275\245\360\345=\030\206\023\276\031\027\313<~C\335\275\2459\357=vV\372\275\362\337\005>\255\244\026\275j\252\206=\024^\t=\261\037C=\307R \276\273hp=\205\314\003=S\325\300=5\'\310\275\004\202\257<V;\201:\023\356#\276\371\244\266={\3470\276\300\342\225=7\375\377=Y\206b;\370\3638=\206&\373=\220\222I\275\216\343\035\276\024N/\276\001\352\267\274\355lm\273)<\345\274\360\377\177\274e\341\251=\270\317\004>\355|\013<\272-#>\206\220\352=\344\261\005=\350\354\223\275\322\316\021\276F\255v\275\177\276\342\275\004\276\303=Z?\035\276\010\323\035>\031a\345=\030\036\216<\245\343\364\275]\265\237\275\262\241\224=\210\2632\276>#\243\275{N\031=\342\3731\274\244\346;\276\322\006\322\275\3039\222=1\360M\274\314W\214=!\311\024\275\313\3740>@%\035\276\027\343\205=\231H\260=\337)\354\275\222a\367\275\304E\013>y\203\320\275\024\003\210=\311\245\035\276\265\'\033>T\217\001>\311q2\276aYi\275\227\000\206<!D\376=qz\325\274\322\247\337<\277\031\241=\\\312$>\3412\372\275\246\231(>\327p\005\276\315\021\335\275\243K\241=D\234\326=\363Q\031<\272(\035\276\034c)>\205\243\027>\232\237\244=U\210\313\275Nk\t>\331,\214\273uQ\016>o\244\330\275k\031\231=w\314\">o\010\242=8r\024>\307\275<\275l8;\275\357\025\266\275]\004\237=\340\215{\275Cj\266\274\200D\373\275q\007\365\275$\342\367<K\2033=w\350\027>:\244\017>B\210\376=\013g\305=\310\253Q\275nu\n\274)f\207=Oc\013\276)\231\257=\231_-\276\377!\235\275\350l\033\276K:;\276\377\036<\275\033:9>\350vf\271Uo\300\275){\311\274*\257\246\275w?\300=\352\020\'>\317\374c=G,\333;jA\351<\273\231\006\276\331\351\234\275\374\315f\2752M\242=\306\017\025\2764\374\333\275\262\272U\274Sv\341<N\376\327\274Pd\016>m\030\333=}H\023\276I\030\234<`\226\312=\310/\027>C\327\323<[\213\036\276\242k|\275\3421y;\277\370-\274\022\354\027\276\246\207\222=br\005>i\265\322=\006\330\334=,\037\321\275;\377\241\274&\334\363=\370*\307\274\256\346\245=\365\377p\275F\214\327\275\376\225\000>\254U,=\037,\352\275\353\376V=)\353%\276\367\275\'>\250\214\340=\271\340.\276\264:\255=\321r\210=F\241\001>\312\232n=\201\363\201\275\353\332/>\034\031\320\274\027gV\275h\332=\274h=\036>\033\366\026\276\354\227\227=I\312u\275\0353<=\216\321\363\274\212}\017=\234\255&=_\202h\275\032%\020\276x %<\231\2602>~\024+>\265\340\327\275\3550\371\275;\200O\275\276\347\030=\306\003\340=k\212\220\274\303f\235\275\326a\263=\"\231F\274\240U\222=\022\247B<K\210D=\207\341\236\275v@%\276\377\323\031\276\330V\271\275>\205\255=\220\335\222<\267\305\002\275#\364\n\275\275\013&\276\016\212\177\275\324P1\275\273\3556\2768\221\033=\006\270\237=H@_<\342X`\275\301\372\242=\005\265\222\275\304\017\366\274\263L\352\275\375y\373=\023\311B=\375\334m\275\251hL\274{W{\275\217\0052>\341m$\276\262Q\230\275\177m\007\276\232\335\270\274\322\307\215<\344\001\020\275\\\320\021>\364\0048\276$\314\224\274*\345\375\274(\032\035=\273ru\274\234$\033\276\026\214\030\276\262\222\211\275\300\311\215=Y$&>\034[\345=\221U\365\275\366.+>\325h\344=l\341\036\276\302UZ=+R\305<X\213G\274\274\342\005=SHp\275\356\326\020>\363\233\004>\227\227\263=g\026\022\275\3128\345\274\300\032#\276\250G\260\275\264\303r\273n7v=:\304\217<n]6>\326/\305\275T\204c\275i\230\204\275\370\021\003\276\006\326\310\275\027r\035=\343\033\240\274\005\026\244=\273-\341=\014\014\273\275\027\310,\276\361\236\010\276\336\0165\276\030n\021\274v/\221=\240\331\220=\362\235`=24\356=h\355\215\275\323=\016>\303a\002>\001\352\027>\027\312\324=\306\347P\274GI,>\320m\214=\344\204\362=0\223\360\275b\355g=\275\324?\276l\330)\2764\272R<Pl\324=\010d\247=3\353%>\274M\202=v\363\317;\017\2563\275\256\351#\276\224~\210=QP\022>\347\245\360=\220\014\t>\301\314\241\275nn\200\2752\357\r=Z\376\210<l\351\351=D\305\"\275\n\r3\275J\356\003>\335vA=\275KN\275\257\016\245=x&\215=\257d\257=\235\334\t\276\350\320\022\276gF[\275T\006\206\275\027\306\374\275\013\217l\274MC\334=a\340\375\274\303\312\022\276\355\261\255=\tr\241:\t\005\313\275\356\262\303\274`\252\003\276\001\266\333\275p\030Y=/\234\023>\305;\366=\366\275\222=\344]\211=\373\215\035>\0230#>YM\202\2757:\256=\"T\020\275DV\355\275\246\227Q\275\004\315\263=N@\247\274r\272\253\2757\365\022\276\345I\301\274\301?G\276\256\221E>\323@3\276\317\372%\276\320_M\275f\253X\275\231\251\276=p3%\276g\324\333=Z\034\036>7\251\270\275\002\024j=\366\364\034>\231d.\276\272\2510>\\\nD\275\212\263\235=\367\'\302=\347\260\013\276\245\353F=>\240`\275]\356\037>\3712d<\177@\036\276\200J\202<W9\302=\213\345\362;6\366\\=\330\316\240=\374\323\016\276\332B\024\273C\317H\276+\233\345=\320\256\233=\221\032\237\275\000\245R;\025\306\000\2761\252p\275\034/#\276\260\337/=\302\3559\275\224\346g=Fi\026>\201\305\316;\271\351\317\275L\020\372<v\241u=\033R\213\274\016\206\331\274t\010\030\274\364%\306=\002\324\370\275\210j?\276\314f\271=wo2=r\032\n\275c\372\037\276\276\331\221<\221I\323\275\013\300\256\2745d\210\275\340\332\266=k\324\252<\244sF\276-e\226\275l\364\367<_v\263<\350\263\302=\263\363A\276\344|\016\276_^\330=>\005*>\301\022\321\275\216L\353=+7\266<\277\200E=*b\233\275\330\303#\276\221Gb\274T\341\314\275\341\035\316=\002\236\364\275\260r\000\276\3133\323=\262%N\274\031\267\007>\020\003F\276\307$\265\275\260-r=\004\022\026>v\202\270\275G\004$\276\361\005\325\275@\375\247;:\207\235;`\305\316=\236\270:\275;\255\253\275\366\307\304<\317\\\224<\023\252\354<\376\314\355<\211/\311<\203\257\000\276q\203r=H\005:\276Sj\254\275\031A\305\275:\363\302\274\322^\007<\346\336\214<\374}\005>\337\372\343\275|0j\275K\003\355\274j\025\306<\357\355c=,-\354\275\332{\021>EC\301\274)KE\276Mup=*\366\265\275\276\303F>\315\315\352=\n~\376\275\352\364Q<\037\323\336\275\367\365>\276\306(\022\276\'\375\264=\201\002\243\274]1\036\276\352\377\256\275\2467\261\274P\030.\273B\223_\2741Y\'\274\017\377\223\275\256<\371=\240\022\217\274\026\257F=2\301\202;\371\317\210<*M\271=b{\r\2741\014\003>\374\221\306\275\226\235\025>G\213\201<7J\035\276\377\256\201=Fi\n\276\034\234\351\275\246\240\330\275\243b\230\275D)\323=5_\003>M\035\250\275+!\351<\205\225\372=\270\001\000\276_\305\355\275\311\010\211\275\377cp\274z\364\272<JB\353\275\003\302\362\27310\370\2751tN\275\252\223\331=,wM=\023\323\016>\024G\337;\336\343\255\275\262\257\035>\376\364\253<\265\357\010>\363\331\224\274\250\266\210\274:e\211\275\335\272\001\276\242`M\274\373\307\332;\325\265\201=Ss\314\275\315\343\\=sI3\276\313\260\237\275t\305\013>\032\265\204\275X~\260\274\225\347\007\276\312}\n>\321\247\030\276\rK\034\276C/\214\275{$#\276\'\315/>\256$;>y<\014\276\236&\n<\235.\313=#\316\017\276_X\200=B@\310\275\233B\270=\242\323]\275z\323\'\276\377q\317\275\250\r\236<\266\335\024>\346\317\252\275?X\362=hR\025>\3700\030\276\217\224\203\27588S=t\'\255=\\\026\223\275\375\235\006>A\267\237\274\227f\341<\320\237\336\275\025\024&\275\375\226\036<\360\213[\274\353Q\302\275\315l3\276\340\277\007\276\227\036\001=&=\333=i\346\327\275\016M\277\275\243\250\254\275o98>{\213e==\027E=\030\341\315\275B\236\016>\205\252J\275w\263\301\27410\360=}\360\255\275\356 i:\347}\370=}\022\211\275X\235\374\273\263j\202\275q\321B\275\304\237\304=\305\331*>$x\001\276\275\303\334=\022\t~\273X\310\"=\021\344\026\276\266-\213=A\271)\276\324\305\212=c\212\004\276sG\267\275\322\346:>\014\230\203\275e\307:\276\030m\010>\272\2411\276\313w\026>\033D\237\275L{\244<\3602\033\276F\216D=A\340h=\003e\032>\242\213\347=\225\207\035=\035\215===\252\021\276\202Ln;\326f\264\273L\030\247\274\305\351-=\245x3\276T\264\204\275FJ\006\272!p\267\275\310\2073<Ci\225<\257\352(\275\237*\274<\234\256\017>6v\264\275^\217\227=\"\354K\275\313\025\004>\210f5=\323%A\275]\361\310\274\377\245\305=\373\205\010>2\301\341\275\347\214\032>5\340\035\276F\314\313\275\3450\273\275\374\214f=\331\347;\276\007]<\275\327\372\n>(\027\257\274e%\260=C\204\'>@\223\262=\331_\016\276D\"\004=X\375\022\276\304\264\271\275.|\023>\203\367\335\275 (`\272\321>\361=U\213\032\276\357,>=\366\271>\276\313\364\214\275\t\256\243=YM\377<O_\356\275\366\363U=\226\t\030\276\243\200\303=\t$\212\275\210/\244=O\244\006\276\357\245\036>\021\250\315=D\345\272\275\370\343\032>\360\366e\275\377\204\326=>\202\n>D\221\207\274\004(\240=Y2p\275-O\213=F\370\301\274\306\224\306\275\331q\240=_c\341\2754h%>`\350\237=\'\2005>\362\265(>\263\002\361\275eI\r>:9\003>\370e\217<\217/\023<\346\021\034\276\014m\367\275\376\020\244\272\350\332\037\274\255\211\036>x\370\221\275\361\322\374\275\033{\245\275\203\025\352=\3700\"\276^\320\020>y\262@\276\256\351\013>\377\177-\276\321\370>=J\241\023\275^0\002\275\214\236\321\275K\377\332=|\3237\276\003\353\336\274\306\016\035>\371X-\275\252\214\325=\0275\025>\336\223\016\274\343\317\024>\242\326\034>\216^\355\275\362u)=\177\031\234\273\322\367\n\276\326\020\230\2742\321\372=\033\322\364=\032\233\331;D\357`\274 ?\351\274C \346\274\335\r\022>\340\2133>\346\332.=\340#n<~\265E<\2458\200:\002\2119\2760\367\030\276L\214#\276(\254\025>\025A\324=T\333>=\272\351/\276L\350\206;-\035\014>gZ8\274\376j\025\275E\347\205\275J\005k\274\2075\024\276\223 +>>\374\301\275U\177\365=\332\356\'\276\313\014\037>\202\266\001>\320Z\232=\010\337\032>\230S\315\275x\035?=\253y\234\275|\212>\276\266Cm:Q\017\310\275\244Ny\273>\017\024>\251]\022\275j\311\037>\316\003z\274\252\016\247<\316y\022>\212\032;>\312*\250\274>o5\276\240\270p\274x\216\241=\177\322\243=SV\227\274\363m\244=\342z:>~\270\007\275\270f,\276=|\276=\031\361I:\002W\002>\305\336\320\274$\001\373\275\341\264\001>\330e\355=\006\210\013>t*\">\347\371\226\274+\005j\275\336=[=-\251(\276\313\201\r\275\326\300\235\275\337\004\025>t{\037\276\223\245\003>?04\276D\\\003\276\277\2752=\333:^\275y\367(>\246\2254\273e\256\337<\252\031I>\374\3439\275+\357m=\320U\247\2748C\356\275F\272\036>\315\230\336=r3\311=\235W\217\275\271\3340>A\301\210<4]*\276\245v\030=\313$\353\2755\374\323\274\214\3721\273\244\222,\275\344\014\013\274\246\253\';\336d#\276\'\332\031\276j\024\021\275\245K\341=\352\254\255\275\360p\004\275\315\332\014<U\017\221=\025\212\320<\340:\026=\243w\226=\250\000\321\275~\332\326\275\214L>=\236\"\265=Zj\345=\205\034\014>\334\377{=K\364\256\2750\232\'\2758\"\230;\022\251\020=\215x\305=;\202\263\275@\367\013>\322\261\277\275\362x\334<\265\016\017\276\242\321\014\276\226\270D\275\274\033\324\274\003\363\202\275\310\242\253<\\\203\006<<\000\322=\342qM=\355\200\353=\006\241\311\275Q\231\271\275\315GI=\232R.>\024\364\247\275\006\367\013=Ea\242\275\327\230\024\276\275\024\274\275\316\026\357\275\021+2=\033g0>p\026\213=7\2627\276\2763\232\275\313\353P\275\347\036>\276\260\314\245=\3611\253\275\022\316g=\262\274\217=\023\275b\274\246\317\310\275\354\330\332\275\366tM=s\177,>\245S\213<\311\206\025\276\344\024\016\276D\302\246=\324\237\346=\010\026\004\276\245\'\263\275\256\330@\275\354\202\340\275W\233/\276\030\360\217\274\320ce\275d\202\037>\260\004\325<d\305A\276cY1>\267\0238\275\177\003\336\275\307Y\r=\306\224{\275_\261\224=j8\203\275Y\356*\275\222\r\023\276\223\271\306\275|\016\006\276\207\223\'\275[\024@=\340\256\305\274\274a\305\2752\223\226=2,;;9`\375\275\247i\007>6\275\306=\270\254p=\016(3<%h<>%Z\020\276\2508\021>7\276:=\262+\014\2760ef;\302\313~=~r\360=\321\305\204=\220As=!\202\007>\263ab=\327\357P\273\005\270\004\276\316\366\025>\030\0035=]\350\\=hX\203\274-9\272\274\255]\235\275s\223\016\276\220\366}\275\023\t\251=\252\246\314\2756\233\r=\224w\355\275\014\361\332=\023\302\315<e\004\013=\332+Z\275\020\300\213=\021\337\016\276PH\261\275^\3013\276\317\323.=Q\321\343\275Y6\222\274?\007z<\364\225\310\275h\243&\276\271/\">x\352/>\335\265\037\276:\207\205\275\253\364\005>\016E\347\275\336\357s\275\235C\304\275\304\254\271\275H\267\"\276\312}x\275\371$\256=\020j\312<5\004%=Z\025\370<\271E\037>\373\276\256=j\300\317\273\377\265,>\261\250\035=\220Q\002<X:\r>\214\267i\275\310{\362<\331)\260=U$\230\275\276\323\364\275\231~\365\275\254\260,<\313\010\216\275Kp\322\275\260\243\035\276_[\307\275\217P\337<;3\000\276\177\221\312\275WRN\275f\313\373\275\360u1\276A\361\310\275\364\213\262=\2033\362\275r\352Z\274\370\216t=-\346\251=fu\224=\037\026\022>\'_\301=\033x\343=\340\324q=\0163\263\274\377H\013\275\343\031\356\275\346\216\010>\311$\003\274\245\224\207=\372\234\023>\342\032\365=\330\241\'>\277l>\276u\356\002\276\337\004\225=\321\342)\276\277B\031\276b\205\343=@\001\177<\202\313\030\275\201S+\276\204\224\364=\363\276\334=%\364|\275\355\'\301=!\311\003>\207\375\352\273\240$A=s\217\006>\2121\377\275\344\311\352<\334\344\367\274\374\211>\276\253\'\313=XD\001\276\234 \310=k\000\026>\202\025G=\216H\247\275\352D\252\275\277r+\276:{\242=4\251\032\276\236?\017=\006\275\200<\250\271\302=\037\324\235\275[\"\357\275\272\300v<E\220>>\277\0170=\036\351\340;\'i\363\275YS\017>>\240;\275\274\257\247=Br\003>\306\035\352=f\372T=\377S\365=\362\230\235\275N_y=\377\"\014>\374\r>=\243\265\033\2763\341\020>\"\3679\275p\241\325<\325w#\276@\016\365\275\3017\320=\257\251\227<\261\351\033\275^\335\334\274\253\364\037>\274\351\216=\341]\223\2741\303\013<\026\310\350\274E\327\010>\345\266\317=\t\026>>5z&\276\200a\367:\350\231|\275_o.>\235\216\215\275L\0142\2769l\211\274\363\325\030\275I\243\017>1\234\211<\342\250\225\275\215\200\"\276\254\205\352=C\350f\275\354\351\233\275\325\006\327\275\341\023\237\275\356\355\345=\341\372-\276>\355\235\274\245V$\276\262\365&=4\370\336<\272\267\023\275M\320\377<\373\205\r\2760\231\016\276\200P\236\274\016\216\036\276\245\005\353\274\237=\245\275S\316\372=\246\370\\\275\3236\264=r\267\003=f\216\334\274Av\232\274\255H*\276\020\371\211\275\273\344\237\274\312\316\341=\004\3064>\244~:\276+\347\230=\335C\343=\356\005\010\276\236\212Q=\334\031Z\275\361s\315=\027\n\216\2756G\320<\217\324\016\276\343:\364\274f\0000\276\276\323\242=g\324\000>\322=;\275\243\366\377<\003c\305\275\272(\272=z\253m\275\335\225\033=>)\342\275\017\230\006\275\363Y\336\275x&\206\2716\032/\276T\205\210\273l\323\315\275KY\305=@\205\323\273[A(\276\310u\027>\'N\021\276\345\271\010\275\0360\374\274\324:\200\274}\337\322=\320dc=\357}\271<C\272\026\276HV\017\276\272\200\363=\223\276\354\275\250\245\270\274x\255\325<\327\t1>\036\326\202=\222{\346<\270\005 \276QK!>Y\n\301\273\001\206\271\273\376\271\026>\316\341\030<`(\304\275\376\235\000\276\235G\317=Zr\236<\304,\353=i\002\266\275\226)\000\275\214\304\360\275\320\235C\276]\241!\276\022\357\037>\314y\256=\251xm\274\366\210_\275G\026\311\274\372{\030\276\251\266/\275\365K\007>\212\352;>\035\217\351\274\310\304\354=\207\330\367\275\016J2=\233Z\331=\264\265\313<\014|\000\276\177(7>\376\031\363\275\336\352\352=\213|\026<\313J\335\274\r8\235\275hy >\367\356 >\"\205\273=\367\253\026\2766\323\007>V\277+=\367\321\004\276\241\2755\275Z\316q\275@\2253\276B\267\344\274HE\014\276\275\030Q\275Q \345\274v;\325=)\204\037>\021;\350\275\363\305\361=\333~\367=\330#\031\276\206\253\305=\316J.\276\344-w=\354\237\005>Y\325\341\275\377-\243\275\262\220\305\274\346M\023>*\177\022\276\306\200\352=\236\362\377\275Ms=\276\301\341L<\336U\003>_\262\365=V\226\260=<J\366=}\0068\276F0\346=\277o\014>x\335\027>8\025\251\275\302\364\014>\222\003(\276\"\3203\27692w\275\027dF=.\017\215=`\331\267\274U_\361\275\013\226\201\272\007\262\371\275\025\251\373=\tV\036=\225\017\020\276\355L\347=j\261\202=\016Y \274\325\212\206=\312\375\322<Fy+>\322\331\010>b\271\254\275\030\355\025\276X\274\311=\271a\016\275bo\030>Av\361;\000~\275=^\317\226\275\016\215\331\275`g\371<\351H\276=\360t\002=\376A\352=;$\002\275su\331\275\216W\222= \224\t>\017\256\016>S\022\362\275\214D\034\275\2379d\275\006\251\336=\340\264\364\275v\207u\274+\214\r\276\217\0234>U$\223=22\365\275m7\030>\221\321\036>\016\355\210\275\314K \276\001J\276\275pg\311\273e\002\236<\310\025\201<E\007\370:\034\346\341\275\260d\t\276\271\267\014=f\303\236\273\"\022\207\275?}\031>W\344\227;K`\033<8S\252=U\341\300=\013V)>\td\332\275\033\262\247\275\274\304P=BR\251=\223;T=\004\312\270=\345i\311\275dG\200<\003\"\265<\013\204\363\275\022>d\274\3046\343;|\026\\=\035\300]<\3020A\274\204\"=\275U\357\247\274\223\255\022>\243W-\274\031\233\003>IE\010>\317{\274<\231\t7\275\034%\024>\234L3\275\362\272\324=\003\321\030>\371\335\365\275\205.8\273?u\377<\270\377\034=0\344\370<Z\217\n>(\301\332=\320;\017\276\210?\001>W`=\275\274\252\024\276\213O;\275\216\340\221\275\3439r=\243@\251\275\350#\025\276\327\360\024\276\240u7\274\243T\307\275\222I\274\275\346d\017\275\3537\315\274C\205\353=\216\311\023\275R\321\t=s\035\002>\265a\'=I\242\207<\304:,\276\216a\276=m\242\t\274\277\266\025>\204\223\016>n\232>\276d\2047\276\260W\241\275\rds=\271\2474>\307\352$>\2507\315\274\001\367\377=n\342\240\275\275\213<\276\226\223\014\275\222Qu\275t\000\266=\270\317\304<\225G\327=XB-\276,#\000>\007[\013\276\213rk\275\207\004\013\276\211\333%\276*Y\357<\313\377\036\276\020\251\205=\235R\347=f\265B\275R\301\274\275\030\022\352\274\037\2306=5\3630\275\266\3514<\035\277\302\275\275\344G=i*\203<\032\242\036\276\204u\276\274,{\300=$\242,>X\224?\275\205\010\004=\265\241\013\276\370A\021\276\347\331+>\364\267)\275\005\316\033>\373\312\007\276}\264\000\276\363\216\003>\353\333\217\275\314kn\275\360\020.=\210\300\351=\264\2619\275\331\331\317=\330\247\367\275\215\211+>\345\374\013>\360\277\210\275\027k\023\276\004\005f\275T\215 =\260v\006\276U\372r\275d\\\224\275\244\324\203=\305\232\220\273\370\005\263=\313I(>\021a\007\276\263\205\031>cU\006\276\036\270\301\274RC\345\274j\355\036=u\317\t\276\212\266\262\275_\325\327\275\365\374]\274\020\373d\271\216}8\276\323/\274<q\2447>\260\336X\273\252\033&>\201L\023> A\241\275\363\214==\316\336\214\275\305\212*\274\271m\222=\201k\253<g\2038\275\'\350\214\275\213.(>\036\231\311= ,\264=o3*>\373\270\340=D\224\016\276\001Z\035>\340\023\312\274\237\244\274\274]\253\326=\236\251\214=\266\253\207\275{e\026;\204\'\013>=\365\274=[\002\343=b&\321=\0163\334=\320\240\277\275!w\305\275\316\354\316=\276{\023>KS\236<\025?\001\275Kxu\275\236=\210=\236\210\364<\211\362\213=\265\353\242=\274\266\211;\201\307\270=\275X\233=S\021\020\276\242\352#==\275J\275\344\016!>\032\314m\275\356\322\325\275\373\211\335=Z\351\311;\371~\335=\037\261\255\274\312\300\347\275\243h\022\275\227\346\335=\002\0102=\265`\246\274e\340\020>V\346\260\275\252\233\310=e\347q\275\014\245i<\037\324\016\275\247\233\027>\377\344\006>\nsj<\3079\302=\214\346\350\274Y\364\022\275\246\324\233\275a!K\275\360\224&>\330V\236\275\2017\021>\353I\303\275\244\241\374<\326\337\312=\204\356D\273*\210\233=\333\010\035>\360\334\270<\2452\333\274\200\0306\276 \250\357\275\274\322\220\274?\250\037> \032\275\273\352L\271=\006\322\230=\001\204\016\275r\010\024\276\253\023&\276\251\326\035\275\001\367\035\276\202\031\030\276^\202\276=6\312\227\272-\0269\276R\337q\274=\211.\276\2344\276=<p\334=<+\341\275\225\"\274=}s\352<\236\320)\276\201\360M\275\242\210\353=T\367\211\273\246\274\205<?J\234=\273\245\007>\225\210H=u\346\020\276\244\247\323=\277b*\275\021d7=`\272\007\276\303\235\000>\255\200\006=\320\340f=\275`\036\276\322=\200<0\244\343<X\250\'=\261\337\320=\022#\324\275\266\"\314=\237H\r\276\226\212\032\276\312\247\371<\n\371\001\276)y\026>9UY=65\213\275t\005\002\2766\211\316=L\001H\275.\030\223\275\022b\365=\263\215\023=\332u\212=\344\352\271\275\262\2700>\263{\314<\250\335\243=\217\304\030\275+\006 \275\264\227\223=n\274\024\276\360\245\266=\\\276$\276\013r\032>\'\221\300\275\250=\223=+\213\035<\'b\272=\343n\r>\227\305\027\276{\344\262\274\214k\251\275fs?<zE\252=\n1\211=\270\256\261<\230\016\032\274\250C8=\374\362\215=E\264<\276\303\013\346\275\326\226\016\276\014\252\016>P\007\260\275P\205\205\275\243\317\021\276\326\\\326=\r\202\335\275PU\242\275\265i\024>\222\023P\274\264\356\241\273\037\340\355\275\370\346\246\275\247\307S\275`p\002>o\353\300\275Q\334\035=\372Vt\275\306\t\305=8+\345=\231\252\332\274N\212.>^X\247=\370\226\345\274\354\303*>\356\242\033\275\207\230/\275\010\034\031\276Y\213`=\312\347C=\310\212;=OA\010>\304}\221\274\254L\216\2750\345\252\274\305>\n\276{\253[\275\223\203U<\303\256^\2759\025\r>7CN=\316y\004\276\001\244\020=\212\'\r=\2530\245\275q;&>\305\236\026\276\n\304>=,\3121>\022J\272\274\302\323\031>\216,6=\002\001\374<\026\023\t>\326\354\366\274t\261\000\276\314g\375\275\305\335o<\206W\244<\250D$>\225\001$\276\345\353\327=\243\262\300\275\265l\334\275\331\205\365\275\246\033&=\3763+\276\206\217\364\275)\230!\276J\336)>\363\261P\275v\354$>\201z?>\270\267\335\274@\004\270;\031\367\373=\334\260\026>\025\262\332=\350\222t\2757\263j=+\274\204=$SL\2749\006:\276\230\2347=+\352!=l\033\272\275\316\315\250\275!\031\036\276\230\253<>\212\230Q=\024T8=\374\276\334\2741\001\023>\n\217\344=\301\014r\275\006\225\307=AP\031>%p\032\276rr\320<\265\360(>\010j\022=\362\3503=\203\303\n\2756\346q\275\350kD=\214S\004>v\001\"=a\035#\276 T\027<\234\330\271=\216D\364\274\232$\025>\302\300\211=A\014\333\275\267\274\246\274 \361\034=\027\3718\275\315\377\227\275\267\223\324=n\332a<O|\023>\322\212\314=\365\013\031>\3669\326\274\350\364\r\276*k\004>B\0165\276O}\"\276( \372=\341<\017\276O@\006>\212t.\276F\332\260\275\224\326\373\275\305\3467>\036\340\333\275\034\004\021\276\3723\027=\210\327\027=\350I\303< \354\341=\352\3651<\346{g;y\353\002>\363f$>\006\020?\276G\t3\276\001*\037\275/]\023\275^\013\346\275\004\223\037\276^\244\366=\304T\210\275t\265w\275gQ\370<,v\213\275\"\021\017>\035]\373\275\272[\264=\371#\203:oZ\004\276\262R.>\377\231%\276Nd|\274\\\366=<\223\371\t>\240\244!=!z\016=\331\267\376<\007\341\236=\345\326C=\355|\257=\330:D\275\301\334}\274m\376\217<\254t$>K3\237\275P\256\030>\215\000\337=\343|\326=\250\355V=\242A,>\244\'\035=\242;\005>\354\367C=\222\024\324=\236\303H\275\313\252N\275\341L\260=\245\206!>J|;\274\355\362]\275\370\314\003>\277j*\275\357-\217\275\373\253\013\275.\2762=\245\346o\274}E\246=\026\306\346\275\265\342\245=\305\344\021=KA\265;\354\277\304=\030e2\2761\"\374\274\362m)\276\t\232\242=0\344x\275\335\304u\275Q\225\367\273\tS.>_\206\206\273\036\006\211\275q\373#>\3015\316\2755\204\'>\371\023\016>\375X\206\275g\324\027\274\335T\t\275(WB\275\227\375\364\275\017+=<\033\035\367\274\226\307\343\275\007\206\312=o\345!=r\035O\275x\240m=\343\365\032>\204i6\276\366\231\271\2743/c<\206\314\213=\264\024\305=f<\300\275\336\205\327=\366z\304=\021\271I\273\354\270\271<w-\275\275\266>O=D\214\024>\312c\366\2758\323(\276\245\027\303\275\346P\013\276\311\232\235\275<v\325\275\315\267\350=N8\021>\271\014\333<\342\037\036>\014D\256\275\002\321`<\232\376\243=\246\242\255\274py\267=\010#\325\275\212\233\033\276\342$_\275_t\226\275^\343H=\3354\225\275\270$\231\275\032R&\276,/7>\t\277\302=v\200\271\275\313\330)\276s:N;\000=~\275\205\331\231<\224\3402\275EHt\275\356\027\n\276@i\303\275\351\277p\274.\337\037<8\000/>\270\212\023>%n\332\274\362B?\276\364ew=\221\3131\276B\003\021\276(b\030=\215.I\274\001;3>\332\222\026<.\244\026\276O\255<\275\342_\337=E\017\'\276\356t\036=J\324;\275\212A\307=v\030\010=\372\345\377=6a\n\276\271\240\032>\017\033\223\274\216-&>\207\335\262=\310\3779>\373[\r<\035,\010>\353D\204=^7$>\213\206\000=S\220\275=\302\352\035\275\373\330\241\274\361\'\020\276\271\366\213\272>\267W<jr\007\276v\356\357\274j\r\345<\252\373\020>\263\255\353\274\"\220\252=3\005\325=p\274\264=\250P\025\276\356\365\377\275\376\261\014\276u\203\337\275C@\313\275\024\214\247=\035:\277=_7`\275%\350\024\275\025\360\202\275\217\204W<\0270\352=.\373\234\274\tn\033>\274u\266=\364#\273=\235k2\275#\365\013>\211\341!>zT\217\275\230U\030>\001V\305\275f\372\036>\014k\372\274\210\010\210\275Hs\230\275\377\r\351=,\206\220<-\344t=@0\033\274\203\355g=\275\3640\276cC\271<v\010)\276\262$1>!N)>\325:\013>\331l\330\275\257\322\002>d\n\312<\006\351I;\356\031q=@\005*>{\367\'>\247\027\333=lsy\275\350\206e=r>\316\275\256\0172\275\260\250\263\271<\030~=\373\037\006\276\227\r\311\275\211\210T<\253\322\335=\221\364\357\275\220:\006\276\350\374\">]+\360=\001DB>\322C\245=\376\253\323\275\250B\377=\216\224\023\276Zw\023\276\353f\t>\212&t\2751\273\331<\333\207y\275G\304\263\275\002\271\375\275\376\212\216\275\242*\220=\2370>=\346\372(=\367+\322<\331\376\016=Z\343\336=\344\2031\276\347\305\262\274RHF\274\342.\360=\266R\217=O\357\010\276\245\354\323\275(\020\004>\313\331\330= \254\233\275pE\252\275\300\n.>\301\225\217=\324U\005\275\031\003\345=ni\216\275O\275\034\276l\202\372<\234Q\014\276\377\r\202\275\261\324\212=b\247\242\275@\013\312\275\256@\237\274\351I\217\274[*\344=\321\020\303\275*\220\027>U\366\351\275\277\2759<\227\021,\276V\2065\276W\221\213\274I\016\231\275\272CF\272;\363\305=\273\002\353\2756\r\001\275W[\277\275Jk\362\275\360\030\034>\325<\265\274F\"\235=\006\232\264=\263N\316\275jE\312=\232E\033\276x\250\376\275E\335\n\276\277d\216<\216)\260\275\330\376k\274\215\314\t>M*\002>\334\304\252\275\314q.>h\247\n\275\262\314\336\275FW<>\260\344\362=\335\277B<\253\221\343=\341\345\222\275\345XD>\207Ku\275\226\314\347\275\203\311\020>9\034\007>\022\032\000\276\224R\026=\331\355\276<\270\207\254\275\337}\t=Fh\376\275N\302\330=\261\342k\275Y\217X=\1778j<\347`9\275\364\2341=\np\336<m\313\270=\371\215\202=F0\216\274\'j\235\272\342\036\301\275\2211\200=\013\257,<@\330\326\275\rF\342=Ozs\275\333[\024\273\357n\017\276\201\325\000>\227\261\n\276\260\034\030\275\366\222T=\337\217\374=\027\305\017>\271~\016>M\374\n>\357\2736=\340\265(\275\222\032\310=\204\260\026>J\021\264;\361\311\014\276\010\022=\276\255\364Y=Dh\030\276~\340\227\275B\274\360=\"M\272=\"T\023>\341|\321=\306T6=\220\246\253=\321\355@\275\220s\262=\025]\262\275g\332Z=\243\2715=Ez\347=\022\\T=\262\213\017\276\272\033\263=d\370$\276\362^\316<\221\260\025>\265\021\r>fJ\213<\327\201\003=\226\265`=\026u\265\275\200`]\275\201\013\017>\230\226n=\305C\027\276P\r\003=\221\346\233=\006\256{=\242\355e:\035\005\016\276\301\313\216=\330:\035\276\3442\'\275\300\364\255\275@\342\027>\257\201\364<%g\035>E\220{=\221=\242\275\340C\246=\036\026\207\275\313\014\220\275\275I\216\275\360\201\264<\352\177\376=\0164\306\274xC\030=y\345\035>\227\210]\275\221w\247\275\006\253\034>\271\020\017>\247\244\204\274\372\2161=Ep\341;\227\007\221<\0341,>\203e\330:017\276A\014i<.\306\345\274\312\247\020\276 b\010\276\341\361\227\275-\"->m\037\354\275\241\271$>\211#0>]\340:\275\303-^<\026\344\316=/\351}=\337\246\375=8V\016\276\227\242\022\275+\016==\n\025\214\274\367A\366\275\200\020+>M\324\326\275\020\341\277\274\370k\272=9\000\005=@\241B\276V\251\334\275\305E\031=+\351\310=\200D\306<\376\341\202\2743\356=>\024}g=\224\351\3769\264\177\334=\031}*=6\026P=\001y\037\276\257\232\010>\257Z+>\305Rl\275\314\025\257=p4\007\276*D|\275\372\326\310\275sC\t\276\235S\271\275\311\010X\275\337\212\030\276\246\235\316\274\016i\031\275\315\254\217\275\232\303\022\275P%\033\276\274\301\356\274\350\323\342=\246\313\273<\366\312\r\275\226\217\035\276\223\252g\275\257z\037\276\241\310\224=\234b!\276\212r\341\275\037\244\025<b\200\031>\261\327\245=e#\364\275\244\255\016\275\226\276k<?\236\374\275q\220\336\275\200[\023>\266h\\\275)\361\303=*\301\006=p@\014>\233\3758\276\264\344%>)\242\335\275\335{\r\274\370\020p=\347R\014>\323\'\253=\024\030\035=F\346(;\021h\007>i\316\000>\354\200,=LF\005\276du\337\274\312\230\341=\266{\001>%\231\365=)\314\">\217\0369>\373\'\264<:\324^\272`\014\247\274L\323m=\007e\205\274\330\335>=\335\2730\275\255\246\003>$\352\266\275\307\000\331\275:\224\017\276\356\321\330\275\010\362T=\370&K\274?\270\034\2769\037\032>`a\004>6\327\002\273H\260\037>\260;\001\276\\\313\340=\201\007\274=`v\244<?j\005\276\274\321\220=\204\270\300<d\277\275=W\235t\275\332\342t\275\212\252\207=\013q\244< w\374=W-\016\276\222\331\034\273\350\350\026\276U\3015=\004\305\014>\362\206\257\275}\344\354\273H,\203;\254\313\322\271\257\255\235=R\251w=\354\033\361=\215\r\007>\266\r\330=\t\205\377<\004\270\027\276m\252V\274\230|\350=o\343\270;!\023\311=\225\366\017>\'\370\216=\214\274\020>\370\313\350=\234\300\363=\224\'#=\200b\220\275\033LV\275\314\335\254=\271\256\027>\344\002\205\275\237j3>R<\344\274+\221~\275\372\016\024\276\230\023\033>}8\365<%\002\026\276O\355\244\275Y\216\200\275\223\214\035=\032\312\277=\274\022\373=F\246\305<+d\242<\365P\351\272\343\323\006\276\376\374-\276K\234\'>q8\364=T\301\356=\354eS\275\252\273:\2764\0173>)]!\275\377\342\037\276\223+9\276\240\313@=V\243\t>\333\346e=\013\214\240\275\222\302\251\273+^\340:\221\274\035>\037\262\017\276\276#\027\276\022Y\231\275nf\327\275\244\017{\275\'\262\253\274\307:#\276\022\3046\275\313\224\255=\310(\026\275\307\317\256\274\032T1=\365\030\t>\361#%\276\300V==\261\365!=l\033\202\274]\360\363<\010Q\003\276u_;\276\204\220\">\246z\256\275+@\267\275_\346\261=Q\220X\275\222\003\254=\317\025\370\275\371\241\255<r\376/>\014\017u=\340\334A=\367I\331=6p\266=\241u\231<cN\024>\247\307I\274\020\316\026\276lBZ=\206\326\205\274\013\306\202=\253\3733\276T\204\277\275\315\250\335=\257\232\271=\374z,\276\262\314(>f<\231\275\234V\002>QG\226\275J\361A\275\266\365\004\276\325\033\262=C;\240=\031?W\275\264\215\370<i\301\370\275\226\251p\275\260\356\006>T\205a\275\"h\270\275\177\016\270={\016w<,b\326=\340\375\216\275\361\3576=\307\233\034\276\366\343\363=\036/1\276\001\256\252=\3118\036>\254*\347=k\256N\275\226\346\267\275\010{\020\276\252\037\365=\212\265\325\274)Q\314\274zE\346=\346\257\023\276\324\331%>\274\313\302\275\2141\200<\244\3709=\020\346\335\275\253\260\235\275\224\313\004>*%\t=\244\312\361=\361\243\013>r\240\213\274T\027}\273+\223\003\275\327\2301\276\304\277\246=\326?\004>\241\353 =,\307Z=:j\005\276R\030\271=\005U\010\276\326\346#>;\037\223\275\353\332\000>\257\215,<|\0071\275\342\255\004>\237\004$>\265P)\276W\255\262\274\007\207\030=\216]\030\276R\363 =bi\010<5+\232\275vgR\275\t\306\001\276\276B\024\276Z?\314\274\210\325\256=U\356\005>I\222\225;=\261\240\274\003\205\325\275\201q\206\274\320\255\315=\027]\226=\203\227\310=\033\357\r>hb\221=+\215\t\276\250\024?\276\244\361\000<C\361\034\276\320-9\270$C\256\275\235\224\030\276\266\237O\275\364L\337=\341\242\233=\273\016w=s\231\210=\313\221\023>\331*,\276\242[\010>\325y\362\275\210q\322=\207\241\206\275J\315\207=pc >\242DQ=\3342\033>\321\t\375\275\217\342W=J\005\212=L\367\220=\223o\227<\005\361\202=e\\\235=\321\203\227<\352\020\256=\264\241\344\275 -\244=\010\236\004>\335\353\375\275\320\361\271=\224\222\353\275ZQ\257<\216\331\005\276c6o<\317~\027\274\377d\016>8\311\266\275\205z\037\274\332k\242\2750#\364<\021\252\025\275\265\304\004\276\312C\354\275\346\267\016\275I\032j=U*$\276[3\376\275U\361%>%\271\313\274\250\336\264=u\231\n\276\321\310\036>\347\305\276\275S\372\271\273\0214v\275\024/\276\275\027\323I\275\2546z\275@\220\215=\207r\242\275\350d\244<+S\340\275\000\223\354\275\343\000[<\254\2318>X`\236\275L\371M\275Gm\020\276O\'\345=s+e=\353\212\006=\344\013\007\275\243+\t>\306\223\021\276\236$\374=f\014\370\275@\020\245\275\'aU=5\213\"\275/\326\022>\014\226\227=\236\377\032>v\340-=X,\376\274\336\\\335;\003h\375=*\222&\2763\261\215\275\"3\213=\304\341\354=\226\237G\275\275\355\001\276\266\271\000<j\303\375=\243(u=\303\375\265=vty\272\310\0206>\372&\364<\365\303\'>5\256\307<K\356?=\016/@\274Fk\223=7\336\332\275@v\374<\360DF\276E\313\034\276\256:\236\275L~\005\276\247\375=<\246LP\274\276\256\322=\235\330\277\275\213\236\220<\256\227?>#\207\001>2?\364<b\232\221=\n\243\022\276\352\272x=\345\277\234\275\266)\230\274Dj{\275(\301\224\275\215;\374=\034\374\001\276\213\374\">M\255\217=t&D\275c\204\017<TP\227<\230\304\022>\300\002\r>\2052\025\276+\250\306=K\275M=P\366Q=\360\266\024\276\214\277\362\275\316\237\326\275ar =(+\302<2\253\205\274\253\014\353=z\227/\276\3549\007\276\3062\037=_\007u\275B\227\237\275\365bc=~\031\371=\254b\340=j\213&>\333\035\036>\303\226\256=d\020D\276)\355\244=\3452:\276\350\225\'\276\370\036\215\275:\024\325<\346\n\352<q\317\027=\252\202\213=8;\017\276\270\003\007>p\265\221\275.\030\211=wo\235<\010\365!\275n\020.>+\201\025=\306\371\371=\277h\000\276\320\274R\274\327q\264\274\217k\302\274ES\021>\303\205\003>j~\r>u\332\352\275\324\206j\275xt\221=D\024e;\263\016\003>\255\355\227\275\212\032\306=Vw4>\222\321\370<A,\257\275\006\251\004\276\267\247p\275\321\303\222;\322\242\"\275\335\272\325\275\032\2555\276C1\254=\216\226/<\333*M=~\033>\274\305\217I\275QwE\275\277\202\374=\203\214\003>\273\r\027>l`<\276@\244\364<2$\336<E\375(\276@\305\222\275\217F\006\274\213t\325=\3564\025=\331\232\262\273M\260\024\276U`\244\275D\275C=\370\262\006>\357*\236=\221\216D\275$[\242=\311\321\357=\362\212\253<\227\2513\275\234\353\t\276(\220\351=\004\337\267=\317 \355\275j\276\327\275i\304A<\367\360\030\276\355\007\300=\246E)>\206^<\275\365\016\240=\365\333z=\373\205&>\016\032\\\275\274\000\262<wlF=\252I,>(|\321\275\231\265\004\276\304\256\215=\306\240\326=p\366Y=4^\237=\t\375\357\275\n\305\"<\267\375\306=\201}\276\275\215$F>\223\t\232\275\372\027_\274\\=\035\275\242\323\330=\270\224\t>-\034)>nb\352\275k\014\360\274IE\032<\002s\004\275\325\202c<\323_\354<\350\375\274=%G\355\275\177\005\240=y\305\324\275\223\251F=\025X\274=\252\353\251;K\322$\276\245\t,\276\"/\001\276t\326\251\275\010\232\024=\243q0\276\364\0222\272Pl\263=,\254\'>*:\376\275l\266\000>\302\337\307=\024\347\336;O\0073\276DO\345;\237\215\021>yj\273\275\207l\006<\314\312\351\274L\326\256=\273\257w\275\030\373\365\275E\016\030>n\264#\276\244\375\300=-\303\037>\346r\010<\264\366\320\275\321?\345=\263^=\275\010,\251\274\251\344\304=\t\213\036=*\233\202\275\362\375\236=\275\273\256\2750\300\035>\026\024\271\275eT\010\276\325m\005\276(\376\227<\340+\351<\205\371\342\275\316H(<\314\210\320<\350Q\364\275>\325;=*\331\273\275\0014\366<\346f\005\273\346h\023=\204$\024\276\353|\347=\\\262\256=r\330\345=\334\204\310=c\361\357\275\313<\350\275\326AJ\274\254\201\000=\332\035\270\274-\346*\276J\270\221\274\371\241\363=\346\320\005>Cw\225<\354!\030:2:\300\275\227&\204\275\363\265*\276R\035\337<ey\036\276\362\240(>\3420X=\305.x\275\377\t7\276t\3341>\336m5\276H\274*\276\255\300\r=\275/6=\270Z\014=\004;\271\275\370\312\036>H;K\275\360+c\274\232\343\342\274\013\013\346\275\306\321\017>\\[\225\274\351)\240;\020Z\252\275\353\010\335=\235\326\237\275\341DN=\232\031\004>\260\246\207=\027\032a=\233\030\302=\r\2607\275\240*I<\220\2521\275\306R\334=\354\365\363=\265\247\003\276\025\250I\275d\210\020>\212M\356=b$\013=g \254=\3020\000>vs\245\275T\330\307=$\257;\274W\037\340=\347-_<\233Pt\275\2350\246=9\225\375\275v\001\030=\365\343m\275*\242<\276\177\335\206\275\"\346\216=\2035&=\227\036\201\275SI\214\275)H\024>\337\220W=7\233\017>\204\245\262:\266\376\314\275\210\340~\275\245p\362=}!\035=\333\021\241\274\375\272\275=\300?\322\275\372\322\311=W\314}=u;\321=\031[-\276\364\215\006\276[\300,\276V\341\250\272[O\022>\366%\235=\'\272\213\275\251\360\241\274<K0<Q\001\364<\002@\026>\2412,\276\265\305\005\276,y\255<\244\326\336\275&;:>\222\030\247=\324\224\210\274\030\337\376=T\264\207\274\353\217\264;b\341\007>\374Fu\275\2164\367\275\331\343\347=\345^\253\275\'\263\263=\332\257\364\273\342\353\361\275\305{\265=\337}\371;i\372\030>\022\317\221\275\005\262/\276}\355\231=M~\t\276?\236\345\274\355;\253\275\274\341v\275\037\375\370=\037\315\225=I\017\235\275\323\333@=s<\242\275\301\273\341=\223\007\227\274\007\212\206=Z\233\000\276x_\025>a\000\373\274+3\331==y\331=\363m\000\276\372\352\377\275\252\252\374\275|\225.=\271\037\301\275<\206\275<kB\376=\t\336\026>\264\010A>-\222\000\275\224\337}=\307\320\000>\n \225<*\302\201\274\025\316\301\275\243p2\276\216\225\210=1#\250\275@\005=\276\232\031H=\243a\331=\274\334\255\274@N\314\275\037\212Z\275\032\264\020>\346\344\205\275.\247\031>\023*!=\237l\020\276\353\020\354\274\223?\255\275\372\022\023>\335\3362=\372};\2755\\\253\275\354{\306\275\324x\242\275U/%>\370\200\016\276\353D\327\275d\301\004>\354\321\213<Jx\204=\3316\242=\346\204\271\274\314^\363=\201\332\321\274\371M\312\275\304\335\377\275i\005\310\275\345\004^<\017\373\345\275\030\\\207\274^\374\351\275E(\204\275\213\243\036;\2401\277\275\2558\345=\016\215)\276\013\246\232=,\247\033\274\230\325[<\254\036\354=X\3045\276}?(\275`:\271\275j\224\264<e\263\223=\310\214\022\276\225\2137>)+\211=\266\026\343=\255,\354:\224Nj=\351\002\266=\000\211\220=\215\nh=q\372\252<\002\013\177=\226<\370<,\250J=\301\335\361\274\204A\020\276\22341>\253l\246\275k\220\036>\036\372\301\275\033\254\024\276\305\272=\276\351\221\266\275\266M\275<U\254\357\275\274\260|=\032\340\345\2742\001\331\274)I\303\275\221\223\033=\371\355\202=\277\021\264\275\354\355\033\276\325a\321:=\352!\276\201\220*>)\013\344\275\247\224S=\301\261\304\275\352\370\255\2751\205\233\275ay\005\276@\313\200\275\034v \274\023\010\224\275k\223q=\005\227\237<\355\347\344=\005\266w=g\335\243=\0060:\275t\242L95\212\217\275g\243/>\262\345\001\276\0061\207=0\016%\276\357x\352=)$\342=w\217\205\275J\265~\275\355\376|\275}q#\276\213\303\032=\231\010\251=\031c9\275\035E\r\276Rm\223\275\032\364t\275c*\257=|\013\003>.\202\274\274D\'\217\2752\257\r>\303\324\030\275\355M\272\274\255<\030\275\3160\300=\362f\376<\346\375\237\275\3613\320=6%u=[\2223=\2309 =\002R\321\275\323\026\024>\304\000\353\275n3^=6y\347\273\334K\252\275\201\217\275=\343Q\366:m\307\261=\026\233\336\274\323\024:=V\n0\275\364\361\246;\221\251\266=\3470\313\273\034\257\336=\033Z\\\274\315\243\005\275\020j#>,\264\302=H[\005>\222S\027\275\020&\311<1\345\031>S\237\353\275D\007\230\275\304\320\234\274w5\374\273GP\362<\315z\332<\310\214\017>\237+ \274\227\034`=\355\327\350\275\376J\022\276!\250\364=MK\001>F\3448>C\"\004>$\347\252=\201\314\205=\276\013\022>\251\222\250\275\374\346\034\276\024\346!\275\252\364\006\276\r\234\005\276B\356\245=\251\375\222=\374\220\323=>:\244\273\373\231\200=\333\360\333\275\226\325)>}\311\354\274P2\032=^\013\350\275j\274`=a\204&\274\242\n\201=\366\025\276\275\002\304&\275\234\332\300\274!\027\364\275\022+\202\275u\232\310\275\265W\004>\324&O\275\257h\022>\300\312i\275(\315\'>\311.\370=\344L\026>\316\034\236=\324\326\020>\315Q%\275\035 \325\275u\316\353=B\226\277\275\325b\255=\3536N=\006>\252\274<S\000>\275$,\276\370.\311=\026\264\241\275\335\036S\275\261\331\311\275\304\221\013\276q\354\017\274\0034\333\275&\016\r\276\207\013\030\276\264\304\245=\353\227\023\276\221D\332<\255\261*\276\311\267\250<uXA\275\336\271D=\303\324\232\275\217\006\375=\211U7\275\213\254\270\275\026\307\r\276\024k$>\014\\#\274\347\335#=v\345\023>\3628\024>\r-*\276\317\214\346\275ocx\275%\311\222=\014<b;Y\177\035\276\"\2047\274y\313\234<\304\2667\276\234\374\324=Ol/<\313~\266\275\361\250\263\275{\306\347\274\017\230\'\276\306]\313=\332)\377\275\255\221\212\275\311\305&\2766\262\347\275\346\345\006>\'@\020>\221f\017>Mb2>/\231\271\274?\3505\276&\315\241=\315\'T\275\007\351\001\276\016\242\251\272\032\373\001\275\340\005\314\275\004\217n\275\204=1\276Ln\255\275=\360\007\276\375\254\017\276\317\350>=\332\202\203;\204\327\031<>.\341=\2678\347\275\357\336\022\276\003\3109>K\3754\275\231\211c\274>\357\327\274Uy\307=\372\325\006\276\016\243\021\275D \036\2768\244\004>\202\205\345=\312\016\322\275\217.\313=\330\363H::/5=\335\241\327=\260Po==\037\272\275\032Y\306\275>\311\002\276\213\343\027>}}1\276?\305<>#E\032>+\250\026>;\260#\276\201R\203\275u\225\n=\203\310G>c\244\273\275\232\002\264=\203\252\332\274t\215\001\275B@\377\275N\374\361=\243\252\003>E\207\016>\020\"\300;\256\224\262<\310\232\035>\250/\243\275\203\351\007>{\321\003>\240\273\031>h\241\r>\355M\000<\224t\254\275:\201\303\275J[\323\275$\275\301\275_\233\027>\265\251\033\275Y\271+=9\242\024>0ub\273\232\251<\276\356\000\206=tt\002\276\226\337\316\275\t\277\373<\265\021\000>\322\247\212\275O\201\311\275E\311\002>3zY=gc\034=c\344R\275\226\204 \276,i\333=\0053]\275R\rQ=/K*\275>\237\027\276\304X\005>^\272\032>:\260\027\276\333\307\037>n\007\033\276\3769\230\275B\013|=O\317\354\275\206\224\013\276\261\244V\274\330V\321=\301\364\260<M86\275\\p\305\275\313Kx<E\363\034>\223n\020\276\216\250\251=8\306\346\275\261\276M\275\352u\221\274\361N\373\275\374\245k<7{\227<\261M\t\276\003\222\204\275\342g\230=K\231t=\320\364\236\275@u\217=\033N\003\276\363h\t>Y\325\216=\026\026\027\275\332\324\377\275 \026\245=\345\370\255=\023\251$=\357-9\276\354\375\246<\235h\023>\245A\203\275\001\306\335\274\245(Y=\024\326\332\275o\021\367=\226M\036>\3402\020>\034g\321=H\212\017\276\rj\r\275x;\212\275\232\\\224=\357:\313\275\312\342\265=\355\004\373\275_\317\364;u\203\030>z\335\222<\037!\003\275\255\214\264<\312\273+<\336\304\330<\367\225`\275zz\'\276\007\035\221\275\315\266\371\275\250x\032\273\021{\333=\215\236\373=;\2542\276\205\036\013>n\013\257;\003\247h=M,\201\2755\210\036>\035V.\275.pA>\204cF=\n\3374>\370\276\026>\267\272\206\275\206D\007\276\340Pl\2743);\276]\006!\275\021k\034\276\266\377;>z\221\356<\255[\252=\361\217%>\000<\353\274\254\005\304\275\000\265\236=JF\r\27630\264\275\261\377\032<\003\tO<\325\031\013>\3031\020\276\355\301\311=\256\275(\275\242\2763>\256n\374=\266\017G\275Q#\246=\035\013\234\275\272=\202\275\243A\035\276\312\3077\275\346\3349<:\303\024\276\023\025\020\276u\\+\276\016\256\310\274\312\367\346\275\376\340\320\274r~\023>\237\324\241\2757\336\235=\244\r\032\276\255\207\032\275G\0377\276\205h\252\275\326\233\206=p\372\r\274\353\022\033=\224;6\276\031\302\250=G\320+>\364b\220=\245\030c=\250\272 \275\277\032\n>?h\361=\373\310\n>\2141\020\276\363\303\014\275\305\351*\276\020\250\320=ja\344;FU\024\276z#\003=x\362\215=Z+=\275\003O\004\276\251_\t>U\200\355<\317\373\214\275W\203\n=\350\205\312:1\211\001>R\007\007>\346~2=\363;\254=\223\340\371\275V\350\242=\030\260\021>\246\307\n\275\302\254\025=\332U\210=\270\374\335\275LJ\024<B>\002>\333\031&\275nI\035\276\322\377\036>\320T\255=\313Bp=\230\263\304\275\252T7\276\310\272\340=?<\236\275\306\016\235:\317 \371<<\360\361\275\300?\374\275\372:\013>\036\233;\275a\253\020>J},\275= (=\321\227\313\275\352S\307=\324\265\212\273\341\343\004\276?V\376\275%\337\006>\n\362\350\275\010\027\3648\222\264\315=J\245\r>\335q\211\275\255\364\225<n\365\313=\367&\231=~\340\030\275m\217|=\334\314\241=I&^=\301\303\000>\371\222\005\276\365D\223=y\275A>\270\254\342\274\217\322\335\274\307\3560\275\343\206\363=k\242\344=\212\232.>\032\361\262=/\010\r>\321\224[=^5\315=\301\335\021\276&\032\251=\264<\351\275$,\034\276\023\345\302=\272U*=\353\2669=\274\235)\276^\\\003=\352\3725\276\365\273\203<\262\345\344=\230\232\231<\243\302\356\275F7\003\276\321\316!>`\024\374\274\264%\343=\031\225A\275\230\320,\275\267~\021>\216\257\020>J\362\362=\303\215\024\276\221\225\016\276\016\357\204<<\022\333\275\236\035\001>\230\037\026\276^\327]\273\004t=>\240~$\275\257\034\363<0\267)\276\033\327\250=\354\007d\275\0259+=\235\010\324\275\035Mw<x\263B=\337\264\271=S\364v=p\\\317=Ok\230<\016\354\017\276\334\217\356=\227\353#=\303\340==\2654\022\275\224\200\352\275\205\362\\<\000>\214\275\321t\236=\313\212\252\274\356\020\325\273\221\336\207=)\270C\275\023\243\034>3D\034\276\305\013\034>\002u\234=\321\371\370=\345\024^=\007m]=\352\213\314\275\306\\3\276h\300\027\276\223\267\272\2733x\037\276\033\3040\273\342\220|<\n&\354\275\350\035$>@\017\024\276\005N\033=\214\022\016\276D\352\273<b_\033\276T\364\242\274f\t\037\276\230T\203\273\263y\024>\371\302,>\304Z\030\276\243E\243\273uS\315\275Q\211\006=`\222\023>\354\233\336=%\322\375\275C\3147\276\317#\022\276\326M\347\274\005\032\262\2759\372\224=M\303\226=Nk\027\276Di\026\2758\244\033>\222Z\006>S\200\331=\254\230\312\274>:\022\276\001\036\372=\307g\317=\004\235\355\274\007\010\013>\376L\221=\325\"\024\276\300\305\250= C\023\276\301F\307\275\315\340/\276\005\331\356\274\025\013\204=\3060\036>\351\3432>\241\004\273\275\302\337\021>\002\363\301=\340\377\n>74$\276o\337\334\275\224\244(\276\312\003\333=\315?\221=\252\317\234\275\027\253\027>G\204\026\276+\\\000\2767\346\370=\223+\227\275\262\021\200\275w_\000>\177\336A\274\373\205\373=\327\303M=\272(J=Y^4\276*\316)>[\340\331=\036\246\246\2758\227\364=\330z\322=.E\244=t\275&\276\t2\005>\260\337\020\276=i\010=\352\003\365=\253c\017\276\206\204\003\276k\314\236\274\032\337\207\275\250\241\000\276\027\016\351\275\226,\343\275\345&\205=~\rU\275\275\271\216\275a\023\261=^\277\247=\347\346\003\276:W\031\276\352z\236\275\366\007\252=\341\340\030>\233\233\035=|\007\022\276\273\303\240\274\017\272\377\275\240t?\274\314i\016>\214;\036>\242x\324\275\366\214<=@5o\275_x\314\275\030\200\034>\204\233\034>\205\002\374=]\3443>\026ZF\275\324$\310\275\232\"\355\274J\'\215\275H\022\277=\035\336#>w\322\234<\325\244\t>y\003\374=\223\322\366=!\200(>t\273\341<DHc\275\245\357t=\347\340\202\275\311v\021\276\231\252\026>\231\376\360\275\345\370(\276n;)\276\177\363\360\275\203\244\306=UI\032\275\323\332\177=\356>\200:r<=\275\254Z\340\274\333,\334\275_\267\353<\360P\357\274j@\004\276\255\344\t\276\177A\244\275\313\326\334=\216\014\002>\203|\375<\370\263\233\275\317l\013>\377\267\313=-\257\003\276\031\213\366\274\332\361\333=\261\254\031>\007n\021\276W&\017\276\034\204\234\275\351\3729=\276\275?\275\302\345\273=\030\353O\275Yv\024\276\314\006]\275\033\324\374<4\237O=\035\032*>\261\222\261<\275\021\240=\232P2\275_\362\034\276\376\327)\276\347\324\354<\263\313\227=\006t\005>\250\r\035>\234#^\275i$\n\276=x\027>#\2221\276\205&\240=!\276o\275$\336\034>k\333x=\307p)\275nbE\275\037R\217\274\321)!=b\255\027>\337\270<\275\315\253\244\275\343\215\330\275\232}\354=\263G\033>g\206v<z\335\377\275\215BC=\3229a\274\223\340\275=\371*\334=\270C0>\351\331\264\275t\014\\\275GK*>\036\206\224\275\232\201`\275\316\350\365=\314g \276ld\265=\351\367r=\332\233\030\276\033A\035\276(\t\214<\364\227$\275\020\177\310<\234\tA\276~\035\265\275?q\371=\354\031\312=\032\334\031=\007.\"\275\334\303\206<\323O\035>/\336\206\274\221\027\327=d\206\032\276\223\334\343=\347\274\024\276= \351<od0>\272k\021>\0379\004>\023\215\370\274\007\222G;\301;:\275\371\232\022\275\303q\345=D\351\373=\230l\013\275\245\016\004\276,\034\220:\036\177\204\275\005\371J\275\215\271\223\275\367Q2>V\370\373;a7\024>+\301\r=\272\201C>\324\304\023\276\300n\025>N\003\010\276\277\023\307=tL\336=\264\010\001\276\323\343\006=\214x$\276\213;\010>V\321 >l6\376<\245\027\220\275Y\261\t=\342s\241\275\330\277\377=\315f;\274)X\030>QN >\335\367 =\257+\327<\322m+>\316W\242\275\233TW=\377\316\370\275\021\301\356=v\362\203\275k\252\002>\320,5>\341+\354\275\000~\007\270\2506}=\023\010\250\275\222\264\354<\267\272\240\275\204\360\231=\326\246/=\370\346\223\275\021\026\201=\022H\313\275^\3623=\267\253\315\275C\360\233\274\347Lw=F\373\306\2755\274\222=x\220\003\275\222\243\003\276\302-\371\275K\177\'\275QF\007\276\246ld<\361<\r>\271K\274\275`\177\210\275%f\251;C\216\323\275\347\000k<\323\324\311\274?gK\275\013\367\r\276\241\367\t>\330\021\226\275\002\001\343\275\217\354U\275H\275\006\276\024\034\013=\371a\273=\206\022\177=\353]\000>\"*\333=\221\336\t=\213\362\000\276\216\244\033\273uC3>\001\307\026>\365\207+\276\353\247\003>e\374\220;|\343=>\030\376==\026\352\'=i\273R=\265\222\025>FJ\242\275}=\246=T\325\322\275\2465|=\026}\310=\270\n\317\275\251\r\337=\230\325\037=!a\370=\335c\354\275\302WS=\302\200\375=/J\356;\254\031\024\276\324\317\230\275\3621\354\275[\233\276=0\270\016>8p\002>&~==\"\r\013>\213l\353=@\354\217\2731\211 <\n\324%>\233_\225\272\305\"\276:\375\366\335\274\036\276\265=\235\363\232=1,\202<\242\353\272=\327\004\035\276ne\333\275T\331\211<q\363K=^\356\247<)\347\031\276Bw\311=\244\224?\275\007:\354\275\354X\324\274\033\245L\275\231\226\360\2751i(>\034\253\352=\350\347\372=V\326\324=\326\000\301=\377O\027\276h\007\303\274\334{w\274\"|!\276q|Y<Lt\330=/\2073\276]\205/\275\202\372\310<\246cf\274+_\342\275S%\336=\374\244\353\274\301)%\276\023\325\210\275\205\r\320\275r\223\335\2759\307\200\275R\366\034=T\375\010\276\335\231\352\275\377e\375=\"kg=\343A\005=\226y1\276\255\216\265=\313P\311=I\002\210<\010\206\211=\377\364\030>\206\2460\276\357\325 \275$L$\276\215\335\027>o08>\223N\313\275\302i\005>p\244\345\275\275\300/\276\017\273\020\276\371$\317;\334qr\275\224\003\316\275\355\241\273\275j\341\352=^\276\022\275\211\313\261\275\242\302\023>\360\236z\275\214\260\"\276=\244 >\027\\\016>|\014\004\2766\020\270\275\210\262\037=m\351\326\275\231\3004\275\252\273\243\275\006\005\377;xs(\276w>\205=~\311\264\274\310\017\034\275+\205\035=a\216\265\275]\205\014>\205U\032>\2503\037\274(\215\214\275pZ~\275\r\247\023>\307\013\246\275<6\255\275\225[\341<\225\t\267\274F\0362\275\024H\230\275\376\274(\275\321\222(>\337rw\275\204\260\001\275\262\270@\276sh\326\275\304*\222\275k\256\004>\353\004\013\276\305\225#\276w\343c\273\347\021~<\232\264\r\275\314\274:\276q\253\225<wI\277=\342\207\226=\"\365\032>\370V\344\275n\245\355=\216&>\276\'\217>\2738O\372\274\246\030\026=\364/#\273^\357\202=\266\254\266=\374z\017=\227\225\206\273\244\253}<\267\006\026>\005\002\t\276\351\276\262\274\241x\203\275\267~|\275N\243\257\275\251\337Y=9\205\363\275\211\275\t=\376\234\211=z/o=\225|\032\276\036\361 \276\327\357\000\276\300\026\370\271\365{\004\276\336\247\237=\3009\003=\222&\303<\032\010\000>*\231\013>\255P\215\275\224\020I\274d\371\006>\237\247\r=\\9\323\274{#\025=\301\370\022>\314\321\324\275\250jg=\"p\331\275\332-\">\271\251\r=\366\014\'=2\224\262=.\263\216\275*\257n\275\267\025\300\2755|\"\274\314d\316=w\212\361\275n\267\000>`\342\206=m@\266\273\344\3709<W\320H=\203\263\344\275~MV=\333a\352=\311\0133>\tz\t=\256b\017\274IO\332=\272\005\302\275\0373\227<\275\323\020>\332\000\003\276\273\2154=w3\236\275\207\320\317=\027\3633\276/\277\n>0\307\226\275HT\207<\3624-\276\350\313\261\275 \t\344\275\260\n\001>>\000\370=\017\260\272;6\3467\275\230\241\375;\303v/>\344?\002\2762\265\211\272\271\313+=\274:\033\2769\005\002\276zq\363=P\263T;\005x\022\276\200\344\022>\266s\031>D<\026\276\t\263\325\275{\210\236=]\346\221;\004xa\2756\010,>\266 \246<d\211)\276\"\020\305=\321$\363\275i\345\014\276\037U\263=^\213\252\275Pn\372=\340\202\327=\224\316\245\275\260\234Z9\027\353\035=\205\367a=`\311\216\274.E!\276\321\246\030\276Zx\236\275Yi\024\276\216\266\003\276`0\347=\264\317K=\036)\345\275\276\307\'\276\002Uc=\204Q\326\274\245f\n>\272F\'=\313\344\325\274\232\274\001\275j\252)>\210\252\226=9\023\253=\314rp\275\2028\243\275SQ\212=\310\020\207=t>\032>E\207\n>\227;\027=\350\311!\274\311\306\270\275\264_B<\362c\377<\023G#=\376\213\'>$\3459>\236\250\026\276\324s\246=1\241\354\275\023\276\001\276\327\006\341=\002\227/\276\274*.\274\3067\336\275o3\225\274\233\007\207\275\374O\037>;\022\371\275\303\374\347=\036\345\206=\316\247$>i\254c:\323l\030>\360\354\362=\272\354\010<\026n\210\275@y\244=|\332\"\276\022\346L;\006\335<\275\327\3140\276\311\322\251\274\027\030@\276\200\302\035\275\364\377\355=\025\277+=\035\007\034\276\216\361\257\275D\377\335=1\013\026>\312\340\221\275\223\037\251=\306\274\266=\2325\240=\206~\001=\243J(=>\363\353=\3443\010=(Z\020>\231^\">[\350;\276\254\013\235\274\215hE\275\222\246\273=vd*\276\360n\367\275\nN6>\242\206\376\275\207q\017\276 \233\366\275F2A>\\\216\032\276\263\211\005>\363|\034\276\220>\242=.;\215\275\350\035\251\275`P\273\275\266\r\320\275\210n\331\275@@\234\275\367&<>q\362\375\275\272\243\000>|~\305\275CJ}=\037\271$<\276\235\004\276h\004\020\276\306\231\203\275B*\212\273\006D\215\275\234Qn=\"\033\030>/I|=7\266\352=\371i(\275\200h\352=\36292<\277!\256\275\351\202>\273\034\331\376\275$9\021>\207s#>\316\302:<\262\215d\275\2744\266\273\'5v\275\222\266\316\275\306\020u\275N\n\235\275\337\230\023\276\347)1\276\347Q\300\274\220%/\276\203\nM= \324\361\275\271q\264=\201\221\020\276\356u\250\274*\261\023>|\374\242=\311k\000\276n\r\361\274\332\212W=&\335!<\342\334\271=x\255\372=\257\t\253\275C\255\217\275\017\036\027\276S{\343=\224\331g=\326\247\336=\331\243r<P\212*>C\304\024\276\242{\036>\343\362$>\2319\260\275\276\026\271\274\n\006_;K;,>5Y\335=\315\r3>#t0=\245U\246=\375\005\017=V\370\024\276\343_\020>.\246\353=&\316\t>\030SE;\3042\316<\217N\003\276\345\035\010\276\362&/\275C&\235\275}\336\027=\346\320\270=\251\204\324=\031\r\235\275\374j\356\274\026w\017\276\241\023\367\275x\313\310<m\003\037>@\307\343\275wY\332\275Q\r\236\275\324\004\267\274\302\257\323=\014\326\237\275\371\372*\276u\004\254\275\177\312\215=\347*\">\364\342W\274>\241\'\276p\226\353\273\215\367\315\275YW\261\275\374\014(>\260\376.\275\356\277\304\273\34700\275nL\022>\262\260+> \360$=/`P\272\027#\266=/9%=\255\377+\276\005Oy\274\276\302->\031\243\\=J\244=\275\223\301\363\275D\364\375<6\010\201\275~\2658>5\346}\274\324\261\004\276\233\261\320=1O\347=\202\250%\276eL\024\276\210\275-\276\240\276h\275\300\327\227\275{\351\266\274\020)\017>\343\255W\273\332(\334\275\000\2732>\242\263\335\2744\217/>O\360->jA\031>YZ#\276\021k\327=\264k~=^\241\320<\270\336\372\275\254U\362\2759\247\020=\330@\252=\037\0260>)\026\026=\\\007\332\275\013W\320\2750\314\017\276\376\355\207=\252\304\304=d\246\301<40\261\275\365\341.\276\242\227\007\276x](\276o\007\300=\242\323\'=U\332\312<\n\242t=!\001\364\275\227\240+\274\014)\333;\201\032\017>\205\360\210\275)K\305=\321f\332=w\207\311\275\016\331\001\273\3270\300=\\l\035>\341\321\t\276\006\353\341\275\305W\034=!\333\274=\264U\275\275\347\324\302\2751\217\036\272Gx\223=#O(>\353\\(\275\270\021n=\333\323)\275\253\200R=V\022\210\275&\3517\275\232\352\005=\370\323g\275u/#>}\220\024>\264y\017\275\211\320O=\177\331\256=\332\025\331\275d\362\345\275\323c9\276\337\"K=\332b\230=W+\021>\206\004\315\275\023\215\007>\257\210\224\275\253.\025\274c\342\262\275\355\221\203=\373A\310=\034?\350\274\343\245\251=A\322\035\276\322\366,\276\344\353\304<\231?;=CD\000>\252\315\"\276\302\237m=\331\312\342\275\335\257\255\275o\316\247=7\270,=\371\362\013\276\3411*>\204\324\301\275\324\031d=q\320\317<\235\244\317=\024\200\362\2759(\021\276\207U@\275\027\"\352=3\247D=4+\022=\322\300\276=c\"\000\276\310\n\261\2756\213\257=&\356\205\275\2721\202\274)y\003>\231\021\223<(\272I;\237U\016\276\274\312\214\275\022\372\314=\250\334\206<\304\357\363:%P\301\274\204\203\031\276E\240\037>*\253\026>\214\326]=}\343\210\274\304, >\r\0074>\356=\365=\266\311\270\274\225\300\375\2751\254\352\275\211\334\225\274uW1>\313 \242=\021\350\005\276\374\364\036>n\274\034\275\277\266\337=\320\376\373=\351\365\246\2755\311:>\n\017\014>\335a\216=\007H\370\274\210e\017\275g\267\037\276\021\364\354=\022?\376=Fx\370\275\370N\235=\377x\n\276\3578\305=\274\034\317=V\006\270\275`9\257=\005\t\000>\"\037\203=IY\033\276\366M\277\2752( >u\330\347\275\350\3265=o9\350<>\261\251\275m\022(\276\213\037@=p%\010\276\327\374L=b\212<=\024WN\275A\234\357=\203\306\'\276\036\321$=\020\254\337\275)\271\305\275\267\262\352=7\346\213\275\321\021\034\276\372\207\021\275\213\276\300={|A><\207\220=c\207\376=\342\245\354\274\027\340\020>\310D\001>\376\331?=Vu\324\275p\350\273=\200:#\276\000G\332\275\345\322;\274\000\255\240\275\213\215\350\274~\202$>\230\177\335\275\341\203\007\276\344\375\247=7\250\273\275\243r\267\275\326+\231<\0369L\275<a\230=e\226\013\276?\2352>*\201j=m\257e\275\302M\'\276\\v\203=w\244\217=\240\317 >\215\013\035>\350\213\253\274\234\3436\275\036\234\014>a\204\024\276\213p\002>hT!>\264\021\375<D\024\006=Y\021\347\275C\007\357\275\317\021!>\263\016\302=8j\026>\252iU\275\343$\037>\2640\255=\0104\276=~W\270\274\006\242f<y\2668>2\213\230\275Z\346\327=\3162\224\274\202&\034\276\371\222w=\223\276\251=\364wN<\277\307\256\275\320\2435>32{=DW\022>Rua=\r\216\351=l\024,\276\376\267\332<\246e\263=A#\022\276N\017\257=7[\210\275\255\253\022>\327\020%>\274%\321\275\336\217\035>yQ\\=\030,\252=\332T\006\276\242\t\235=\260\214\237\275q?\240\2753<Q=\000&\207\275\215]\037\273\203\302\264\275\3556\230=\212K\232=\2053\371\275\033i$>UH\026\276\222o\325\274-\033\025\276\220\370\305\275\271M@\276M(\211\275Zl\266\275\023@d\274\332\254\300=\313\344\211=nO/=`\360\324\275[\236\312\275l\025\337\275\246\316{=\365\342\272</\206\322\275\342\276\203<\n\270\303\275[\350\r>\2738\031>\215B\021\276]o+=I^\r\2765M\336=\201<\335\274\305\263\221=\313\240\021\276(\215(\276\216\347D\275Gfz\275\223\257\024\276\362iV<\311\251c\275l\337\036=\014\273\203\273g\3557\276\036\272A\276\261]\332=\225\360\350<\347\274\364<\316\314\"\275\331)H=R\3453\275\013J\213<B\032%\276\230\340\250<\222\317\343\275\213\203.\274\032\277\231\273\370!\201\273_\r\027=\232\022\245=R\257\201=\335\301\240\273\214\214\244=\237\002\320<\213\216M= \311\367\275f{?\276\214\324\000=\027\254\014\276#v\230\275\004\362X\275\266\225\375;\377\232\230\275\337\224V=B`K=\301\306\033><X\023>\362(\223\275)\372\237\275\336\313p\275y\236\213<\203\327#>6Y\014\276\213*\236\274l\266\020>\026B\026\276\325\344\327=\214UP=\245\0024\275\3071\341=\033\031\270\275\317\035\005>.\037\227=V@\027\275\337\254/\276\333tF\274E\366\347\275\034[\031=\274\215\311;\204y\320\275z\276\226=\215@\037=!C\r\276\306\301\343\274\367\ny\275\3014\337=mpz\275\375\243\351=\342a\270<\366\013\3049\324@a=\033\376\025\276\031>\'=\026Z\320\274\341!(\2766\351<=P\260\370\275\320\n\372\275\350\360p\275\321A\010>j\316+\276\023\263\315<\304T\342\275\314\036j=\227|\365\275*y\032\276\220\204\005\276\215\205\260=T\303\024<\313\227B\275\024\257\316<hi\022>\013\243\275=<\340\204\274\025$\354\275\211\005\t=I\221\267<\024Qa\275\310\273\302\275m\310\010>c~\357\275g\211\r>L\355\330\275!\334&>)\255\315\275z\263\237\274D\366!\276\254\264&\276\r\025/;\351w+>\320\036\033\276\277s\200\273\021\203\007>:\2541=\304\236\227=\231\"\274\275\340\004\010>\377\306\324\275,