node {
  name: "input"
  op: "Placeholder"
  attr {
    key: "dtype"
    value {
      type: DT_FLOAT
    }
  }
}
node {
  name: "transpose/perm"
  op: "Const"
  attr {
    key: "dtype"
    value {
      type: DT_INT32
    }
  }
  attr {
    key: "value"
    value {
      tensor {
        dtype: DT_INT32
        tensor_shape {
          dim {
            size: 3
          }
        }
        tensor_content: "\001\000\000\000\000\000\000\000\002\000\000\000"
      }
    }
  }
}
node {
  name: "transpose"
  op: "Transpose"
  input: "input"
  input: "transpose/perm"
  attr {
    key: "T"
    value {
      type: DT_FLOAT
    }
  }
  attr {
    key: "Tperm"
    value {
      type: DT_INT32
    }
  }
}
node {
  name: "reshape/shape"
  op: "Const"
  attr {
    key: "dtype"
    value {
      type: DT_INT32
    }
  }
  attr {
    key: "value"
    value {
      tensor {
        dtype: DT_INT32
        tensor_shape {
          dim {
            size: 2
          }
        }
        tensor_content: "\377\377\377\377\t\000\000\000"
      }
    }
  }
}
node {
  name: "reshape"
  op: "Reshape"
  input: "transpose"
  input: "reshape/shape"
  attr {
    key: "T"
    value {
      type: DT_FLOAT
    }
  }
  attr {
    key: "Tshape"
    value {
      type: DT_INT32
    }
  }
}
node {
  name: "w_in"
  op: "Const"
  attr {
    key: "dtype"
    value {
      type: DT_FLOAT
    }
  }
  attr {
    key: "value"
    value {
      tensor {
        dtype: DT_FLOAT
        tensor_shape {
          dim {
            size: 9
          }
          dim {
            size: 32
          }
        }
        tensor_content: "o\355$\277\r\350\376\263\010\230x\276\222\2774=\324%M\275\242\261#>\205;\000\275\302\030\030\276\221\177,\277N\306\022\277\272\366\210=\3549\244>n7\'>\3415\t\277\1773\205>\354\336\014\2777\250\224\276\206\007\016>\214\017\251>X:\'<\357\277\203\276\351\370\244>\002bH\276+\207\216\274i\225\020>\235\333\031\277\277\323\252\276\311\244\014>\236E\312>\3312\257\275\024\233\202\275\256\232e=aeT>k ]5^7\025\275\251\307\315<\377\225\'>\261d\347\275Lxy<\\X\324=d\220q>97\001>ip\204\275\311\r\323\275x\210h\276\261\255c>\250\376\221\276x\203\335<\361>\233>\213\n\351\275\303#\201\276:Q\305;c{\225>\216\031]=7\244\374=\371O_=\034+\340\275\304\216\021>\2654\234=T\r:\276\032X\255\276\302vR>\306\204\321\275;\335\220\276\3662\t><\253d\264M\211R\275B\270\227\274\007\236\372=n\007:\276\262\276\023>n\325\r=#\2013>{\016\006\276a\216e=\346\232\224\272\234\377\020\275<\250b>\263\034\021\276v\236\276\274c\334\372=Z\207\312\275D\2350\276\264\202\005=gY<=]Y\205=\350\347P>\350`\200;\336i\324\274Q\376\243=\340\202\300=\034\350\267\275\323\r\235\276\365\364L=\262\265\306\275\247\002=\276\211\014\217\276\305\343\206\265\276\014r\275\232]+?\354\024\030\276\000=\203>\304\332\031\276X#\254\2768\242\220\275\237\024\224>6U\262\276*(\361\2758\336\322=$\320\340\276$\260\264\276\212\301\217\2771\357\315\273\036\243\210=n+A\277\0001@>GV5?\"\r\342\275_\252\037=S\204\023\277\242Y\177>.\313L\277\320\014g=\343#J\273bt\225>EL+>~t\314>v\022\232=\317\365\316=Y\255\03466Tv\276Z\341\032>\235\371J\276z~\247\276\364\255\201<_\204\360=\336\270\006\277P\243\251\276\3479!\276\226\020\034\276I\322L?\247\255\021\277&\373\030>\240\366\246\276\023\235\032\276z\375\002\276\250P\216\276/&\010\276\010\353\2069\277J\002\277&\234\260\276\350\322\375\275$\215\005?u\014\177?\317\356\271>\224\244\243=\343C0?\3275\354=\376\0108\2768\010w>q\373\025\27589\2215Af\000\277\343\323\260\275\373\265\203>\\a\002\277\010\365K>DY\262:\201\357`>>r\314\276\033\"\305=\207\233\010>nO\351=\260A\032?\304\256N\275\316\226q>\024\252n\274E\205;>a\364(\276=\252\246>V\362\212\276O\0371?\177\344\226>\324\365R\276\254p\332<\334Th>\215e =\323#H\276I>m\276\257\343\261\276\362\"O\276)W\342;\256\277f\277\230OB\273\330\335 \277i\031\247?\311\212\277>\337:\321?x\366\226\275\367X9\277\267\227\234\277\322L8\277\361YX?Rq\024@np\275>m\220\326?#B=?\246[\374\276\316\306u?W\245\344?\026_\306>9@\257>\032\360\367>\361:A?4u\350>\001_\206\275\324\371\030>h\2068\277\356\251>\276\247\021\267=\274\206 ?9\'\322\276\214\337`\276\311e\365?\250\330~>\224t\207=\377\335L\277\366\357\027\276w\303\"?r\337\273?\240H\274>\236\316\325>\nQ\327>L#p>\236\202\227\276\323\336\232\276\332\353\264>\013l\036\277\221\245\\=\323\255^?%\311\007?\3358\r>\227\247p\276\307V\204\277\247x\030?\022\334\"?3\317\035\277z\267\n\273\226\362\035\276\rG\031\277\240N(\276\'\327\017?Qs\020=\251y+>\211\376\250\275\356\004\342\275\320\276\000\276\267;}<2\342r\275\t?\345\276M\231\221?{Bu\277\264\\\247>\213m\264>}\265\367=\220\236#\277F>z>\255\216l>\004\375#?0%)\2771\022\031>\336{\037=\026\020\225>\376D\247\276\271c\203\2772\374\206\275\364(\356\276\"X\353\275D\216\222?\374r\004\276\267\254p>\024\330\350\2752\224$>\277\350\261\274\341\032\306\276HM\212=\225\232\270=\361[\n\277"
      }
    }
  }
}
node {
  name: "b_in"
  op: "Const"
  attr {
    key: "dtype"
    value {
      type: DT_FLOAT
    }
  }
  attr {
    key: "value"
    value {
      tensor {
        dtype: DT_FLOAT
        tensor_shape {
          dim {
            size: 32
          }
        }
        tensor_content: ";\342\007@>\233\206\275Q!\222?\305T\363?R\261\025?\243y\344\276\017(n?u\334\217?:\223\247?\205\201\250?\270\301>?a&\266?L\201\231>\227>\344\274\013\373\261?6\0370?\254\352\301\275\202\307$>\370\031\344>\337^\233?o\241(?\251\346\'\277\'7\316?D\034\250\270\n\360\006@rz,?!r*?\274(\266;\264$\037\277Y\224\354>\251\237^\275\250\310\021?"
      }
    }
  }
}
node {
  name: "MatMul"
  op: "MatMul"
  input: "reshape"
  input: "w_in"
  attr {
    key: "T"
    value {
      type: DT_FLOAT
    }
  }
  attr {
    key: "transpose_a"
    value {
      b: false
    }
  }
  attr {
    key: "transpose_b"
    value {
      b: false
    }
  }
}
node {
  name: "add"
  op: "Add"
  input: "MatMul"
  input: "b_in"
  attr {
    key: "T"
    value {
      type: DT_FLOAT
    }
  }
}
node {
  name: "relu"
  op: "Relu"
  input: "add"
  attr {
    key: "T"
    value {
      type: DT_FLOAT
    }
  }
}
node {
  name: "split/split_dim"
  op: "Const"
  attr {
    key: "dtype"
    value {
      type: DT_INT32
    }
  }
  attr {
    key: "value"
    value {
      tensor {
        dtype: DT_INT32
        tensor_shape {
        }
        int_val: 0
      }
    }
  }
}
node {
  name: "split"
  op: "Split"
  input: "split/split_dim"
  input: "relu"
  attr {
    key: "T"
    value {
      type: DT_FLOAT
    }
  }
  attr {
    key: "num_split"
    value {
      i: 128
    }
  }
}
node {
  name: "rnn/Shape"
  op: "Shape"
  input: "split"
  attr {
    key: "T"
    value {
      type: DT_FLOAT
    }
  }
  attr {
    key: "out_type"
    value {
      type: DT_INT32
    }
  }
}
node {
  name: "rnn/strided_slice/stack"
  op: "Const"
  attr {
    key: "dtype"
    value {
      type: DT_INT32
    }
  }
  attr {
    key: "value"
    value {
      tensor {
        dtype: DT_INT32
        tensor_shape {
          dim {
            size: 1
          }
        }
        int_val: 0
      }
    }
  }
}
node {
  name: "rnn/strided_slice/stack_1"
  op: "Const"
  attr {
    key: "dtype"
    value {
      type: DT_INT32
    }
  }
  attr {
    key: "value"
    value {
      tensor {
        dtype: DT_INT32
        tensor_shape {
          dim {
            size: 1
          }
        }
        int_val: 1
      }
    }
  }
}
node {
  name: "rnn/strided_slice/stack_2"
  op: "Const"
  attr {
    key: "dtype"
    value {
      type: DT_INT32
    }
  }
  attr {
    key: "value"
    value {
      tensor {
        dtype: DT_INT32
        tensor_shape {
          dim {
            size: 1
          }
        }
        int_val: 1
      }
    }
  }
}
node {
  name: "rnn/strided_slice"
  op: "StridedSlice"
  input: "rnn/Shape"
  input: "rnn/strided_slice/stack"
  input: "rnn/strided_slice/stack_1"
  input: "rnn/strided_slice/stack_2"
  attr {
    key: "Index"
    value {
      type: DT_INT32
    }
  }
  attr {
    key: "T"
    value {
      type: DT_INT32
    }
  }
  attr {
    key: "begin_mask"
    value {
      i: 0
    }
  }
  attr {
    key: "ellipsis_mask"
    value {
      i: 0
    }
  }
  attr {
    key: "end_mask"
    value {
      i: 0
    }
  }
  attr {
    key: "new_axis_mask"
    value {
      i: 0
    }
  }
  attr {
    key: "shrink_axis_mask"
    value {
      i: 1
    }
  }
}
node {
  name: "rnn/MultiRNNCellZeroState/BasicLSTMCellZeroState/ExpandDims/dim"
  op: "Const"
  attr {
    key: "dtype"
    value {
      type: DT_INT32
    }
  }
  attr {
    key: "value"
    value {
      tensor {
        dtype: DT_INT32
        tensor_shape {
        }
        int_val: 0
      }
    }
  }
}
node {
  name: "rnn/MultiRNNCellZeroState/BasicLSTMCellZeroState/ExpandDims"
  op: "ExpandDims"
  input: "rnn/strided_slice"
  input: "rnn/MultiRNNCellZeroState/BasicLSTMCellZeroState/ExpandDims/dim"
  attr {
    key: "T"
    value {
      type: DT_INT32
    }
  }
  attr {
    key: "Tdim"
    value {
      type: DT_INT32
    }
  }
}
node {
  name: "rnn/MultiRNNCellZeroState/BasicLSTMCellZeroState/Const"
  op: "Const"
  attr {
    key: "dtype"
    value {
      type: DT_INT32
    }
  }
  attr {
    key: "value"
    value {
      tensor {
        dtype: DT_INT32
        tensor_shape {
          dim {
            size: 1
          }
        }
        int_val: 32
      }
    }
  }
}
node {
  name: "rnn/MultiRNNCellZeroState/BasicLSTMCellZeroState/concat/axis"
  op: "Const"
  attr {
    key: "dtype"
    value {
      type: DT_INT32
    }
  }
  attr {
    key: "value"
    value {
      tensor {
        dtype: DT_INT32
        tensor_shape {
        }
        int_val: 0
      }
    }
  }
}
node {
  name: "rnn/MultiRNNCellZeroState/BasicLSTMCellZeroState/concat"
  op: "ConcatV2"
  input: "rnn/MultiRNNCellZeroState/BasicLSTMCellZeroState/ExpandDims"
  input: "rnn/MultiRNNCellZeroState/BasicLSTMCellZeroState/Const"
  input: "rnn/MultiRNNCellZeroState/BasicLSTMCellZeroState/concat/axis"
  attr {
    key: "N"
    value {
      i: 2
    }
  }
  attr {
    key: "T"
    value {
      type: DT_INT32
    }
  }
  attr {
    key: "Tidx"
    value {
      type: DT_INT32
    }
  }
}
node {
  name: "rnn/MultiRNNCellZeroState/BasicLSTMCellZeroState/zeros/Const"
  op: "Const"
  attr {
    key: "dtype"
    value {
      type: DT_FLOAT
    }
  }
  attr {
    key: "value"
    value {
      tensor {
        dtype: DT_FLOAT
        tensor_shape {
        }
        float_val: 0.0
      }
    }
  }
}
node {
  name: "rnn/MultiRNNCellZeroState/BasicLSTMCellZeroState/zeros"
  op: "Fill"
  input: "rnn/MultiRNNCellZeroState/BasicLSTMCellZeroState/concat"
  input: "rnn/MultiRNNCellZeroState/BasicLSTMCellZeroState/zeros/Const"
  attr {
    key: "T"
    value {
      type: DT_FLOAT
    }
  }
  attr {
    key: "index_type"
    value {
      type: DT_INT32
    }
  }
}
node {
  name: "rnn/MultiRNNCellZeroState/BasicLSTMCellZeroState/ExpandDims_2/dim"
  op: "Const"
  attr {
    key: "dtype"
    value {
      type: DT_INT32
    }
  }
  attr {
    key: "value"
    value {
      tensor {
        dtype: DT_INT32
        tensor_shape {
        }
        int_val: 0
      }
    }
  }
}
node {
  name: "rnn/MultiRNNCellZeroState/BasicLSTMCellZeroState/ExpandDims_2"
  op: "ExpandDims"
  input: "rnn/strided_slice"
  input: "rnn/MultiRNNCellZeroState/BasicLSTMCellZeroState/ExpandDims_2/dim"
  attr {
    key: "T"
    value {
      type: DT_INT32
    }
  }
  attr {
    key: "Tdim"
    value {
      type: DT_INT32
    }
  }
}
node {
  name: "rnn/MultiRNNCellZeroState/BasicLSTMCellZeroState/Const_2"
  op: "Const"
  attr {
    key: "dtype"
    value {
      type: DT_INT32
    }
  }
  attr {
    key: "value"
    value {
      tensor {
        dtype: DT_INT32
        tensor_shape {
          dim {
            size: 1
          }
        }
        int_val: 32
      }
    }
  }
}
node {
  name: "rnn/MultiRNNCellZeroState/BasicLSTMCellZeroState/concat_1/axis"
  op: "Const"
  attr {
    key: "dtype"
    value {
      type: DT_INT32
    }
  }
  attr {
    key: "value"
    value {
      tensor {
        dtype: DT_INT32
        tensor_shape {
        }
        int_val: 0
      }
    }
  }
}
node {
  name: "rnn/MultiRNNCellZeroState/BasicLSTMCellZeroState/concat_1"
  op: "ConcatV2"
  input: "rnn/MultiRNNCellZeroState/BasicLSTMCellZeroState/ExpandDims_2"
  input: "rnn/MultiRNNCellZeroState/BasicLSTMCellZeroState/Const_2"
  input: "rnn/MultiRNNCellZeroState/BasicLSTMCellZeroState/concat_1/axis"
  attr {
    key: "N"
    value {
      i: 2
    }
  }
  attr {
    key: "T"
    value {
      type: DT_INT32
    }
  }
  attr {
    key: "Tidx"
    value {
      type: DT_INT32
    }
  }
}
node {
  name: "rnn/MultiRNNCellZeroState/BasicLSTMCellZeroState/zeros_1/Const"
  op: "Const"
  attr {
    key: "dtype"
    value {
      type: DT_FLOAT
    }
  }
  attr {
    key: "value"
    value {
      tensor {
        dtype: DT_FLOAT
        tensor_shape {
        }
        float_val: 0.0
      }
    }
  }
}
node {
  name: "rnn/MultiRNNCellZeroState/BasicLSTMCellZeroState/zeros_1"
  op: "Fill"
  input: "rnn/MultiRNNCellZeroState/BasicLSTMCellZeroState/concat_1"
  input: "rnn/MultiRNNCellZeroState/BasicLSTMCellZeroState/zeros_1/Const"
  attr {
    key: "T"
    value {
      type: DT_FLOAT
    }
  }
  attr {
    key: "index_type"
    value {
      type: DT_INT32
    }
  }
}
node {
  name: "rnn/MultiRNNCellZeroState/BasicLSTMCellZeroState_1/ExpandDims/dim"
  op: "Const"
  attr {
    key: "dtype"
    value {
      type: DT_INT32
    }
  }
  attr {
    key: "value"
    value {
      tensor {
        dtype: DT_INT32
        tensor_shape {
        }
        int_val: 0
      }
    }
  }
}
node {
  name: "rnn/MultiRNNCellZeroState/BasicLSTMCellZeroState_1/ExpandDims"
  op: "ExpandDims"
  input: "rnn/strided_slice"
  input: "rnn/MultiRNNCellZeroState/BasicLSTMCellZeroState_1/ExpandDims/dim"
  attr {
    key: "T"
    value {
      type: DT_INT32
    }
  }
  attr {
    key: "Tdim"
    value {
      type: DT_INT32
    }
  }
}
node {
  name: "rnn/MultiRNNCellZeroState/BasicLSTMCellZeroState_1/Const"
  op: "Const"
  attr {
    key: "dtype"
    value {
      type: DT_INT32
    }
  }
  attr {
    key: "value"
    value {
      tensor {
        dtype: DT_INT32
        tensor_shape {
          dim {
            size: 1
          }
        }
        int_val: 32
      }
    }
  }
}
node {
  name: "rnn/MultiRNNCellZeroState/BasicLSTMCellZeroState_1/concat/axis"
  op: "Const"
  attr {
    key: "dtype"
    value {
      type: DT_INT32
    }
  }
  attr {
    key: "value"
    value {
      tensor {
        dtype: DT_INT32
        tensor_shape {
        }
        int_val: 0
      }
    }
  }
}
node {
  name: "rnn/MultiRNNCellZeroState/BasicLSTMCellZeroState_1/concat"
  op: "ConcatV2"
  input: "rnn/MultiRNNCellZeroState/BasicLSTMCellZeroState_1/ExpandDims"
  input: "rnn/MultiRNNCellZeroState/BasicLSTMCellZeroState_1/Const"
  input: "rnn/MultiRNNCellZeroState/BasicLSTMCellZeroState_1/concat/axis"
  attr {
    key: "N"
    value {
      i: 2
    }
  }
  attr {
    key: "T"
    value {
      type: DT_INT32
    }
  }
  attr {
    key: "Tidx"
    value {
      type: DT_INT32
    }
  }
}
node {
  name: "rnn/MultiRNNCellZeroState/BasicLSTMCellZeroState_1/zeros/Const"
  op: "Const"
  attr {
    key: "dtype"
    value {
      type: DT_FLOAT
    }
  }
  attr {
    key: "value"
    value {
      tensor {
        dtype: DT_FLOAT
        tensor_shape {
        }
        float_val: 0.0
      }
    }
  }
}
node {
  name: "rnn/MultiRNNCellZeroState/BasicLSTMCellZeroState_1/zeros"
  op: "Fill"
  input: "rnn/MultiRNNCellZeroState/BasicLSTMCellZeroState_1/concat"
  input: "rnn/MultiRNNCellZeroState/BasicLSTMCellZeroState_1/zeros/Const"
  attr {
    key: "T"
    value {
      type: DT_FLOAT
    }
  }
  attr {
    key: "index_type"
    value {
      type: DT_INT32
    }
  }
}
node {
  name: "rnn/MultiRNNCellZeroState/BasicLSTMCellZeroState_1/ExpandDims_2/dim"
  op: "Const"
  attr {
    key: "dtype"
    value {
      type: DT_INT32
    }
  }
  attr {
    key: "value"
    value {
      tensor {
        dtype: DT_INT32
        tensor_shape {
        }
        int_val: 0
      }
    }
  }
}
node {
  name: "rnn/MultiRNNCellZeroState/BasicLSTMCellZeroState_1/ExpandDims_2"
  op: "ExpandDims"
  input: "rnn/strided_slice"
  input: "rnn/MultiRNNCellZeroState/BasicLSTMCellZeroState_1/ExpandDims_2/dim"
  attr {
    key: "T"
    value {
      type: DT_INT32
    }
  }
  attr {
    key: "Tdim"
    value {
      type: DT_INT32
    }
  }
}
node {
  name: "rnn/MultiRNNCellZeroState/BasicLSTMCellZeroState_1/Const_2"
  op: "Const"
  attr {
    key: "dtype"
    value {
      type: DT_INT32
    }
  }
  attr {
    key: "value"
    value {
      tensor {
        dtype: DT_INT32
        tensor_shape {
          dim {
            size: 1
          }
        }
        int_val: 32
      }
    }
  }
}
node {
  name: "rnn/MultiRNNCellZeroState/BasicLSTMCellZeroState_1/concat_1/axis"
  op: "Const"
  attr {
    key: "dtype"
    value {
      type: DT_INT32
    }
  }
  attr {
    key: "value"
    value {
      tensor {
        dtype: DT_INT32
        tensor_shape {
        }
        int_val: 0
      }
    }
  }
}
node {
  name: "rnn/MultiRNNCellZeroState/BasicLSTMCellZeroState_1/concat_1"
  op: "ConcatV2"
  input: "rnn/MultiRNNCellZeroState/BasicLSTMCellZeroState_1/ExpandDims_2"
  input: "rnn/MultiRNNCellZeroState/BasicLSTMCellZeroState_1/Const_2"
  input: "rnn/MultiRNNCellZeroState/BasicLSTMCellZeroState_1/concat_1/axis"
  attr {
    key: "N"
    value {
      i: 2
    }
  }
  attr {
    key: "T"
    value {
      type: DT_INT32
    }
  }
  attr {
    key: "Tidx"
    value {
      type: DT_INT32
    }
  }
}
node {
  name: "rnn/MultiRNNCellZeroState/BasicLSTMCellZeroState_1/zeros_1/Const"
  op: "Const"
  attr {
    key: "dtype"
    value {
      type: DT_FLOAT
    }
  }
  attr {
    key: "value"
    value {
      tensor {
        dtype: DT_FLOAT
        tensor_shape {
        }
        float_val: 0.0
      }
    }
  }
}
node {
  name: "rnn/MultiRNNCellZeroState/BasicLSTMCellZeroState_1/zeros_1"
  op: "Fill"
  input: "rnn/MultiRNNCellZeroState/BasicLSTMCellZeroState_1/concat_1"
  input: "rnn/MultiRNNCellZeroState/BasicLSTMCellZeroState_1/zeros_1/Const"
  attr {
    key: "T"
    value {
      type: DT_FLOAT
    }
  }
  attr {
    key: "index_type"
    value {
      type: DT_INT32
    }
  }
}
node {
  name: "rnn/multi_rnn_cell/cell_0/basic_lstm_cell/kernel"
  op: "Const"
  attr {
    key: "dtype"
    value {
      type: DT_FLOAT
    }
  }
  attr {
    key: "value"
    value {
      tensor {
        dtype: DT_FLOAT
        tensor_shape {
          dim {
            size: 64
          }
          dim {
            size: 128
          }
        }
        tensor_content: "\341\323\010=\270\347\210\274H\202\366=Cj\252<\345\366\242=?\037\227>o\207\t=\336\314)<\372Ry\274 \272\262<E^Z=\244\016\235>1\231W\276Dg\020\2758\"\310<\200\371\201=\217\223\371\275\2458\327=\212~\027=\273S\036=\211\330u<V\006_=\277\250\020\275@zZ\275\013\267v<\271r\360=\331\200Z\275\035\255V<n\241_\275\347\032\276<e\315\342\273\032ZE<\200\352\227\275/H\006>\306\n(\276\226H\325\274\312\341\000\276Ku\030\276G\222\217\275k\227\322\274\\=\n<\335]M=\375\362\007\276\226\307l=\224\317\257\274%(q=\312\307,\275\237;$\275@\245\374=%\204\341\275g\244\005>\216U\235=\270\203\001>\333\340\237\275\366\246\314\275z\243%<Gw\331<\251\257\303=\243\3123=\024\014\354\274\343\343\273\275csX=?h\235=e\361\346<\023\'\005=\032\347\026\275\213\235\304=\272I\034=\0036#=\236\323\211=`\221\002=\207\357\265<\207\373\022\274\331\301\t=\253\335\332\273\230\200\203=\037T5\275V\177\253\274\256?\371<\257\203\326<\320\374\253;\014KL>\246Ys=\336X\234;\237\353\251;\002I1\275\332J\034\274M\003]\275.\233\376=*\260\367=\352\032\244<\301\272\300<\342\005\256=\234\330\013=\251\277\231\274M\352\337<\352\311\253=\366\273&\275\244\342\n>\204\275o=\332>\252<\253<\030>\261}\216<\336.:\275\247\301Y\274\235#\000\276\220\207\203=\035K\n=\0257\362\274\372\210\323\274\356\204\336<\274\265\340=/9\006<\265\232N>\3626\307=4\310i=\274r\214=\246\221\323=vb\033\273eP\206\275\004\257\370=^o\332=\362\262\036=X\035]\275\202D\'=V\325\263\272X\023+=\276\306\325;\303\033\2425\305\217\2064\344\nM4\354;\0134\307\305\0344:S\3360F\030\372\263\n\377\2154\222\010\0353\357\262\367\263\352\231\300\264r\030\3101<\364\2164e\254\2334L\354\3114\340\244P\265\315\374\274\265\330\3600\264\364\207H4\213\256\3275\2613\0246\322\001\3505\000e\3755\214\006h\264\006\271,2\337\267\3052o\346\213\263k\377\3764\324\347t1\363)\0055\353\033\2745\020\317\0275 I\306\266\002\317\2404.O\260\267\177\\\344\271\222\200\324\271\313\271\t6\224J\317\265*\235\227\266YP_5\340\242b\2660\2460:\202W\3179|\271\036\267\240kA5\205\331d\264\270\371\3774\013z\0105\366\034X3\311\264\375\271\235]\010=\206\246?6&\351<\270\242IC7?\001\0046\2519\351\273\222\341\213\272V)\0246\324\250\204\266S\255W\262:5\2246`\324:8]e>6\254\303\0266~N&4\304c\2735\007w\332\264W\013\2675\232T\2272\367\361\0164\246\323\2745HE\0053F\177+4\356\317\230\265\230\250B2\271S\3145\2606\2504\277\340\2035;.g\266Ft\277\265\251\361\004\263\340H\3104\212g\0056\202\223\\6\036,263\366_6\225\232]\264\355\345\337\264\361\271\2412b\340\024\264\365\035}5_\267\2343*\266\3125_\316k6\2070\3415\203\034\3726\266\215\323\265I\024\027\265 \222\0048\376g\3376:\240\3356J\016\0247Ez\0257\313 \2053T\023\0136\245\367:\264S\267U6C\205\0306\'\033\3354\376zW7K\310\273\266\213\256B\266\202>\3626\304\014\"7\200\345\3157\255\231\3036\251\364\3336\005\272\0366\024\375\335\264\312Ro\265Od46U\350-5uL\0027\000\033E6h\313[7X\377\0007A\250\2127\240\000\201;\034\221\301\274*\210n<z\374w<.\253s=\327\022\014:\242r\357<\330\332\225;\270\345&\274\337?\210<\005>\321<\n-\006>\236su\276\231\310\340\273j\374 ;\001\254\017=\177\261D>\332\265\216=\205a\276<\304\372\341<aB\220\273\002d\025=\343<x=\241\351&\275J4\270\274\370\034_=1=\314:\275\325\252;#\027\302\275\003\235\234<\201\357\276<Z\217\225;\216\305\213;\243q\020\274\305h\263\275~\364b\274\345\202\244\276n1\366=T\362a\275w\253\033\274\220\3643\273\\h\241<\240\337\365\275\370\362\346=?^\024>T\203h\274\246\017\271\274\220\332\253<+4\322\274v0\341<\301\r\362\275\356\232T>\331kK=\244\265j\276\343\327\034\276\261\202>;.\005U\275Z|\231\274\343\002>\275$\3721\274[\017\211=K\266\335<\257\206\006<tS;<\304\010\221<\275\340\216<\372\341\027=\336\321\317<r\330\247={\n?>\322\232\333<\225\221\'<\223\321\267\273\227K\321<\201`\261\274%Iy=,\370\336=\313J\337\2734\363\267<\005@{\275\217B\316<xd\005>\"\205\320=[\345\323\274O\304j\274}P_<\361\232a\273\373U4\275\272\266\271\275\264\337Z>h\020\367\274\'\226\004<1\332n\275m\370\341<|\367e=.|r<\326\371g;\276\262T<\201\3678=\030\032k\275\216=\316=\3560\363=Xh\004\275\303wF=\273c~\274IU\320\275i\324\252<\3139h=8\332\277<\343.Z\2732\273\r<\035@\376<Iv\232=\370X\345=\312\314 =\006\242\336\273\255\206\325\274h\333\265=C\"\031<.pW\275\376;\217\2733S\215=\266\263\\=++\307\274q\344q;\337\224u\2755\326z=\311\026\210\2738\177H\274\032T\260=\r\346\343\274\237\373\303<\201/\t>\212\004\230=\t\215,=c\010\300;\230\032;\275\354\244p<\347\334\010>\315\032?\276\337\014\365=\266\215\"=\233\266b\273\234\016B=\031M4>\216\333W=\021\373^\275\240\360\222<\032\220\201\275S{\320=\364\312\370\275q\313\250\275\255ih\2755\337\344\275)\354\036\275\243\231\303;\237\340\306\275\303\177\022=@\263\024>\006\277\250<\330\255!\276\'\233\207\275_}\336\275\363\373c\275\361t\265=>\035\264<\255\021\266\275\270\353W\275\223\364\274\274b\217\346<d\353\353;2m\023>\037\340\231\2759\344\246< Hy\275 \225S=\207\327\033>>%\235\273\"\007\304=K\000\'>\000\002%\276\216N\251<\004W?;U3w\275\373]~\275\326\305$\276\272v\361=_\216\t\275\"\336\362\275\377\302\211\274\\\236\030>v\3711=\270\345\\<\252\276D=\301\2321\276\223\207r=)\217)\275<\354]<MF(=\033E\026=\275\276\200\275&bk=\274\372`\275\213\017\206>L\360\255=\306\363\270\275\021+\307:H\305\002\276\341\207\005>\215k\201;\354j\000=\336\362\235\275\220|\300\275WK\364\275\226\333\377<S\\\244\275\330\3124\275\257 \023>\270\316\236=9\314\013=\321\306\240\274nbW=\230}\205\275\306\352 =.\345\262=\245\245\214;\333-\377=\013P\315<1\235\200<\\\276\030>\205\350i\274!O\225<7\275\217\275\203f\246<\026o\004>(;\254=\317\243\233=`mc\274me\273\275\321\273\301\274\234\376\202\275\246\255\262\275\2047\330=V\317\215\275\235a\037\274\273\230+\274%\273#<>\013\302\275\276\330\207=\363\000\016>\256\223\225=\223\237C>^\"\375==\377\211\274\2339\256=\347\200\031\276\227\034\255<d\311\341:\0319\233:d\330\177<\234\"\217=\313\245\200=F\305\331<\320\002(;VP\346\273\330cF<\304V\006=tX\205\275\373\tX\274\325\243\225\274\211Q\207;\233(\264\273\221\320\177\276f\350\017\275\215\211}\273J\tX=\261\014S<\210\006\010=%\035\374<\021VA\275\326o6=\256-\210=\213<\310=\021\0107;\342\022\210=\306\354S<.[\262\273\314\'+<\301\266\243\274`I\035>i\364\320\275\023\253\200<c\372\361=H\320\032\276\225\326s\275A\2153\274d\227\034<\0256C=3\206n\275\336\270\001\276\357\242\016<\\s\363=\236\271\332\274w]\206\275A\217\234\275sx!=\234~Q\275\232ZC\276\035\313K<#I#\275\230\370\270<\3432\244\273m=\265=r\262X>\252\236\221=\322\225d\274X\277\353\273\t\353]=\227\030\341\273\204G\300<\362\332\266<\222\240\224=\177\346\355\275\346\371\310<tFl=p;\000\276\333r\312<\267h\323;\311\004\327\273\216\367\236<n\305\214=\344{\300=\277\'\322\275\017\034.\274\r\372\306<z\001\272=\220\245\246=\366q\001\2753u\373=\265\201O=\204\376?=\202\345>\275Q\021\256<x\255@\275$\364\315=\033\346\016=K\030\213<$\027j<L\272m>{\312\243<\'\021\021=\356\213\255<\260\256{=\026\337\217=od\024;\254G\226=#v\357=$\354j=\262D\260\275S\222\020\276\305\231\013\274\n\032u\275\257\225\330<\326\031\025>\273\224\000\275@\014\222\273h|\037<\3149t\274\213\360\366=\265\257\341\275-\243c=\354\031\301=\020H\013=\355\000K;N\211\337<\240\374q\275\272\375f\272\334o\226=\252\277\303:`\320C=\237\230\216=5cN=\002\233\031\275+\250\006>\020\224\326\273\320;\350<\007\265\020\275\2263;<\177\323m=>\r(\276;\361\306<\2061\217;\224\221\340\273\032\277\275< :\223=@mg\276\275\200\250=k\006\253\274\366\003y;\223\215\304<C\034n<L\233\034\275\'\321\266\275^\005\014=\304\253Q\274\202\177\315<\214\331\262\274\311yj\275-\007\235=\254\267\377\275c\215&\276\246\331\343;\321\262H=\223\363\227<\360~,<@\275\203;\244\343\241\274OC\317=\037\220\246>\343\266\212\274A\026\001>N\271\356=\r\264_\275\350\362+\274Q!\023\273`\352\265<\236\344@\276\315\332\251=ys.\276\033E\375;\025\355\325\274\231\n\276\273@\t\225\275\313x}>\266n\000\275\333:_=\324>1=$\240\323;+\2745\275\213\r\225\273\010\317o>\020@2>\222\250%\276<Y\203\274\256\tj\276\210\026\323<\202T\257<?89<\263\327\240<u\262\002>z\350_\275\223\371\300<J\2502\274T\036\336\275\237\\\231<u\316=<E>\356\27399\007=\366#`=\tK\230>\rKJ>\223\242\223\274F\321\260<\365&\371\274\235\334\017>L\256I=\256}\007>:W\013<\217I\371\274c\002\245;\315\304\201\274\345\271z\275\272\303B<Hk\332\275@\';\276\001\306\225<\356S\343=-\205\316<\301\203\021\272\310\234\031<\255\242\3779\344\335\255\274{<\344\273\224\230\326\275\331\261:=K\236\230<;q\010\275B\265\027>\260\370Q\274\347-\271\275Q\343\363<\002i\037>\0346\333:\354\217\237\274lJ\202<\245\343\004>\230\004|\275\222{==dr\017=\371\250;=8\205\316<\371]8\274s\356\\<-\356\220\275e(\311<\261\336J=\247\033)\276\3632\305=\237\255E=y\2266\275\032A\211\275\353\210\274\275\220\307/<za\330\273kh\031=\353!\204<\346\253\203=t1\021>\272A\346<\345W\214;\370Y?\274q\277\203<\325\327\364;\275#\301\274\372g\365\275\272\225^\274\212\251\215<\257\376\222<O\271-\2760\367\244<\212\334\251<\267\326\254<44\205<E\246-=;\204W<\203\377I\275\035c\226=\332%\366=\211\t=\274\370\014\324;\327\266@=Kt\204<\204\241 =\267\223\006<\257g\316<\225?0>\016\352\017\276\034\0242\274\003z5={\265\034\274\210Tu\275\215\265T\274[\311\222;\276\263!=e\323\347\275\326\000\036\276Y\360E\275E\253m=\300\252\343\274\347\320\322=\361\350\333=\221V\265\275\265K\335;D-\344< \236\353=\325}\210;\002\212\032>\230\274%\272\236\205\360\275?1\251\275}\236R=p\241~\274\243\300\374\275\260\324:=\3215\336<\276d\237<X\375\201;\202\371\305=F\330\t\275\375\266\333<\305\362\245<\005$\337\275\340\235\320<>\\/<\356z\345\273r\021\313<Z\315A=\362\220P\275IV\224\275``7\274J\376\024=\374\301<=\372\275k=\0069[=\023F\243=\3163!<h\312\264<\243\243\206\2754\353:<\244vJ\275\370\235\006>b\303\037\2756\256|=\004Lj<\336\204\250=\004\003\300<\311\234F<\274\004\225<\276\326\020=\r\301\262\274\206h\364<\261\244X\275<\037\252=vc\303=\263\005\204\272*\030P\275\332;\346\273\037\032\020\275\022\231\370<y\264\361=\335\304\313=\2619\022\274\347#\366=F\227\341=\377\315]=?\317\035=g\221U=\0207\236=<\025\202=9\356\016=\257\266\201<O\365{\275@\005\200=\357\016\224=\254];=\016,M\275\277\376N=\020\311\355:v\261$\275\265\262\362=\"\212\026<6\205\007\275\246J\351<O\014{<\237\246R=o\371\245=\200d\226<\362\375\235;\n\263\217\273\244\003\023<`\307\277<.\247\207>Z6\267\275|\0173\273\202\206\030<\333WV=e2\302\275\347u)=/\3010=u\314\006=`\336o<\270d\327<\256V\036=\210k\365\274\205>\326<\321!O=V\316\030\275y\244\310;\210Q\261<]\037(<=\013e<\0058\361;r\177\221\274\325h[>\272\370\227\275\224_\'\275\272kT<\265<\004\276\363\000B\275\314\362]\274W\352X<\260I\205\273\366\364\313\275\240\234\311=rX\205=+\251\\=\206\372\304\274\346\322\345\275\002\235\214\275\370\340 \276\240\277\251<\034\225\307=j\t\203=mBK\274:I\316=\341\275\333;m\013o\275\323\222H>\250\263Q=\246\256X\274;w\217\275\332\307\207<\250\027\005=\017.\215<u\307\353;2\374\206\275a\340\264<\310!\273<\232\340\321=\211`\311=\037\027\230<Q\343\027<\r\224\216\273<~l<\034\261u=U\233A\275>\250\270=\352?K\273d\334\242<\005\344\302=^\305%=\tzg=<\033\"=\346\307N=Q5\237<\323EN\275\225d]<\262^\342\274\275\004\237=\006\013y=\237\247\250\272\243\337\"<@\032\315=\017\225\205<V\222\203<1\331}<B\353g=\030t\257\273\'1\376<\313\334\250\274iah=\3729\037=\313\010\260\274\223\007u<\221\307\236\273\201Y\006\275\273&\320<\276G\004\274;\326\225=\351Ob\273\025\215\371=\265\224N\274\242\350b=\030\350F=\267\377\320<\205\265\312=H\362\346<\013\240\336<T|z<4~\031\275\226\200I=\310$\204=\307\214\320<\264\014\244\274X\032\374<\330w\262<\004Rs<f\302p=\\\253H<R+@\275\245\246\017=\2335\301<\376\207U=\261;\030=]x\211<\207\200t<Bg\266\272\356\324\275:0P\227\274\336=\027>C\205\347\275\007\234\274:\334\213r<*\204\010=CJV\275-\321\261<\245\267\000>\377\005\220<\357r\250<\253\035\346<\344 \377<\256<i\274\305\002\017<\024\274\344=\342A\013\275eK\316;\306\\D\275\347D><\252\321\265\273\272&\321;\2540\246\274\277\033\022>\305n\'\276u_\332\274l\237\016\276\314\'\334\276\341\216%\275\001\243\247\274\251\261\217<I\215(\274\177c\340=Ua\331=\n_\352=\2412&=\351G\331\274S\207\200=\271\275\224\275t\006$\276q=\250\276\345Y(>\3215\224=_\324W\276\224~\366<\270_\345<\325\353\003\276\031\261\234>\'\274b\274\204!l\274aa\222\276\313\354\262<\000\264\021<\254\256[<\354\263\207<X\235y\275\215+\344<\210\266\371<\033\361\033=\327W/=\375\271\237<F\355\266<\232\330\247\272\303!C;\351)Q;;\247\000=\013\031\251=Q\365\027:s\211\316<r\205\351<\237`c\275\33670>\356\305\204=N\013\007<\002\200\337<\352\256\230\275g<:=\257\317(\274T\003\227=\266\035\275=bA.9\245\3006<\205\000\200<ib\222<\351\346\340\273\277gT<\2014g=\340\266n<\237\236\004=K\322\360=0\255J=\223\262\005=\372\315\034=\364,Q=L\265\236\272\271\336\251\275:\000d\274R\310\334<\312nk<0\006\2539.\321\272=T\215\344=\371\277\374<E\242\233= \351\306<\364\213Q=\332#E=o\305\230;\204{\371<\346\366\223\274to\231<\031\025`=_\006h\273\225\013]=\002?\343<)\352==H|\266\274Z$\261=ZFQ<[\212\021\275\362\347\354=\226b\246<\255#p=X\001\004>n\033\317<\023&%<<\014w\273[K\244<q\307\247<\206\014C\275T%s\276\205\356\000\274\227\036&<+z!=\311<\202=\376f]=\254\346D=5\r\r=\312\033\274:8~\004=)`\234;}z\025\275)\353\255<#R\034>\340\302\361\275\241V\031<3b\250\275hg\237<\300\002\222<\026%\235;\255g\242\275\000\313\r\276C\313->d\230\332\274Wyv\276\304\214\206;\222ua\275\242\244\207\274(\3132<\257u\361;\243\355\017\274\260;\206>\024O\n\276\373s4\275\351L\007\275\026\250A\276\327\342\201=\372\021=\275L\273*\276%\2648>\017#\375<\221\360?\276J;E=\315b\000<\337{y<H\213R>\214\375\031=\035\205\240\274\373\334\365\275TI\343<\337\350\360<\ndV<\211\241\317<\343S\267=\333\303\324=\220\253\377<\244t^<\316-0>\023W\273<E\353\223<_\315\222\273\024\030\336<t\026N=2[|=\033r!=\035\366\n\274|*\316<1\327\355\275\247\325\262\275\020v\243>\230\001\302=\036\275\341;W\203Q<\253=w\2757T\006;\223\212\027\275C-\352=\250\022\332=\276\221x\274|\251\203<\355\0009=\332\035\335<=S\006=\034\036]<.\306e=\234\337\300<\010\037|=\315\336\207=\301\242\201=\256\276\344=\301\226\236\274\341\211?=\301n,\274\307p\350\275\022c\246<m\322\222=?^T\273\230h\004\274KB->F\275\250=,\321\007\275\204\225\345=I\364\202=\316v%=*WB=\0258\263=\331\241\307<\377\026A\275ND\020=\033d\230=_!\\\274\022\271\001=\270\356\352<\342\272\226<\346\211}<\264f\207=\375\021\302\274\220\264\377<!\367?;\205\007Z<\326~\255=l+\320=\270\352\016=\274}\215;\177\367J\275Y\276\227<\365\362D\275\244\2625\275\301\301\260;\t3r;\'\250\017\273\276I\271<,f\344\274\273G:=\222\274\242<\263A\007=gI\225<\004\262\200=\260\310\373<H#\207\275`~\346<\320\023\240<\312X\007\275\022\255\217\270Q\253\n\275IU\311<\'\010\247\274\235\343\"<\315\265\347;i\325\324=x\357\331\275.?\326\274\301w$\276\327\245\200\273\343/\212\275\356\240\224\274 \027@\274\r\3641=\332\270\022\2761\0147\276\357)\270\275\257\"\214=\355\270\353\274\311\206\373=\207U\013\275\235\237\247=U\222\364\274\260\223&\276\177\262\324\2750\306\254=\031\375\035=\355\324@\274\004\313l=\323\321\\=\'\"\240\2756\237\221\274U]2>%\016\300<\367^\211=P\\\263<\020\251I=ee>;\0046\343\275\276v\001=>\216\275<w\267E\275+\365\374<\030\203?<\215\233\225\274bN\024=\261\201\244\275\224\374M;X,\364;z\345\264\274\370\303\21494\t\r\275v\216:>\260\005\251=p\3070>+\216$\275\312]\212\275\254\272Y\275\276\010\355<\236\206\214\275!\220\247\275\251\000\004\275Q\245\311\275\264\\\215<\2463-<\352%\n=y?\206\2758\275\266<\036\264><\246>!=E\342H<Q\246\351\275\225\202@=\003\254x=\311I\333;\216\017D=\027\3452\275\212\221P\275\364\370]=W\302\260=\364U\014=2o\r\275H\373\350\274)\026\264\275\245\215\245<\017\306\244<\313\315{;\336TH=\021}\335\275\237$\265\274\020%B\275P\222\243\275T\234c\275\0358\226=\322\014\026=\353y\005\276\033\2446=%\250\323\275\014\236\014>^\226\205\275\007A\204=\255\264\274=\326\341\251\275\322\374\273<\027\306\025>\317=\247\275\331\3154=\213K\272;\013\222\237\275\304\013\335<q\244\035<\010O\313\275\324\273\325\274\372\344\230\275\304[z\274\361\000F=\337cy\275\256\241H=\276\212\260<\032\270\341;/\272\374\274;\363\325=\010\315\343;L}\305\275\230\302\022>\207\026\333\275\322Aj=\337:\332=Z\021\005>1\374\025=\373^X=\344\250\212<!=W\275\271\002E=\222 \350=p\257\250\275\004\250\254=\252\2041>\336\355\274\275\005\335N\275\203\274a<\276\244\034=:\327\020>|\034h=\341\313\n>\204\221)=,\263v\2759\303\002>\3466\312\273\305\231\322\274\265\027U=W0\307\275\374\346\316=\225S\246\275\226y\376;E\242\022;\013=\037=\274\223\201\274(\"\201=\324\342H\275\t\2168>\000\211\300=&\356\327<3\035I=s\223}<\276\201\201\275\301l\006\276o\341}=\003*q\275x\351\300\275r\232.=M\232\017=Z\026o\275\307\004v=\027\316\256\275-\014y=\207p+<\027a\354;\244\215E=\265\203\274=2\236c>\335\336\005\276N\375\333=\216\212\205\2740\231\025=\305\240\230\273\260\001\334\275\024\232\273\275\253B\361<><\332=4k\320<\343\322#=?f\307\274R2X=/s\350\274\273A2=X@\312\271\177\201\007>\317\231E\275\230\274Y\275x\317\204<\032\'\273=\035\275\013\276\030[2\275\\\354\204\274F\251p<\347p\340=\247g\203=\230Z\354=\010X\032\275\372\2021\2765\316\244\275\344\314\312\274\265\253/=\223U\323=\252 \322<\332\331\325\275\2461\242:%\327\265:f\201\335\275\215\331\351=2^\025>\372M\375\274\333\205\227\275\371\t\007>\255&\226\275e\013\376\274\215\0260=?\022\322\270\033<\376;\276|\010\274GR\017<c\235\\= \222\377<\340\320\274<\370 \331:n\377\345\273r\263?<|DK=X\305\205=u\341\245=k\344\254\273\266\031\250<\216\236\t=B#\264\274\216\337\340<\377`\027\276\217r_=\002@\261;L\006\303<y-\252=v\021N\275w\203:=\331q\253\275\325@\304<\366\376\014;`\355\004=\177&,<\0261\337<D\016\316;\214\313\010\275\233s1>3\342\366=\030\2606\274%\t\021>\027\315;\274\361\322V\275\221\006\332\273\235\226\022:~\2514<\307\250\226=\nN\254\275OP\250\275\0173`\274dN\214\274/+i>\356\013-\276\025/\215\276\227\313\034>\027b\245=\222\375\211=\017\320\t>a\261\221\275G\272\020:Q\253\261\275\333|D=^\377\216;\253\3110\274\231\022\265=}^\332<\374\020\035\274\271\245z<\234J\263;\032\230\002=X0@\272fb\200<\316\302\364=FS\037\274\275X\254<I\006S;\341\231\321\273\014L\235<X\031@<N\214\355<:\273>\274\226\001\333\273\275R\225<S\333\256=\354\302;=R7\215\276\351Sh;9d*=Jy\227\273\276\341x\274}\026\346\274\342?J\275\312\351\327\275!\227\220\275&\301\210\275\263\331\005<\277b\211;,{\202<\371\227\273\273\365\205n<_it\274\220\275\273:Q3\256<\374*\033\274W\305\231=\213\362\033=Nh\211\2743\307\005\275\323c\006\274)U\237<\3269>=j\032\335\274\336.h\275\213\264\345\273\226\014\370<I\324\233=o\300\327=,\207\022\276:-\331<J\247>=\333\336\201;6\023\311\273\256;\203<)ow\275\204~z\272\"\025X=3\307\234\275*7{=\242\366\005=\237(\223\274A\214\360\274\266\236\226=\236I=\275\354\356\013=\301\375\002>(FM<X\346\207=:\t\305<f\225\t=c\226Z;!G\307\274\337\026\300<x<r=\377\316&\276 4\3628\3004\366\274K\347\016=!\314\343\273{\031\224\275!qe=\005\211V=\305\311\333\275\213\247\003<\246\314\226=FT\342\275\374F\215\2751\350\260=>\014\216=8g\004\275\225\024\323;k\305\202=\317\304\305<dQC\2743\017\314;^A\341\274\032Z\201\276\227G&\276d\022\316\274\346\002Z\276\245\264C\276\"r\201\275Rl\224\274JR\245\274\257r&=G\351l\275X \230\275\027|t>\206\360\024\276[\374\303\274\t\275\244=\340 \247\275\350\347\214=\263\371i\275\330\234\343;1%\203\275\216\270\375=1\363\324=\017?(\273>\222\213=p\006\310=\255\370\271\274\035\267X\274$\304\336\2740\246\014=\r\207e=PBh<\347\215\271\274g(\272\275\335\352\212={\303\002=\231\036\350\275\246\372\365\275\037-\350<\235\326.<\260\273\224\274\227\346\031=\314*\023<O\032\025>\351\002\034;\277\370\004\275\377\035,=\331\007\010\275\326_\354\274\236\262\313=\021\237\310=\001\365\027\276\303\243\273\274\342\215w<\250c\213\275\273\271\222\275\244.\214\275\001K\352<\221\340\020\276\372\024\202<\306\247\241\275\374\265\002=\240\212k=j\361\207<@\245\213=t\326,\275\333\327\304=}\360\232=/\035\030\274\3564?>\235\"K\275\225\303e=\026\273\036\274\341\210\345<\360\365O=\223\233\267=\010\2779>\n\031\351\274\252H\203=\347\351\235\275\350\261\005>23P=\367\2767=\210\343\271\275\213\3600\276b19>`BD<\215\020\253\275\311z\350=yE\203=\337\331\262\275X\273\202=\250\304d<\321\255\324\275\315\325\014\275\325\3527\275\360\353\365<L\n#=\225\263\010=K$\214<\311\033\331=r\257\324=\024\307\033=\232\3648<m\324D\274\244,\322<\203r\263=?\"\202<=+$=$\225R\275l!\007=\340\3759=\206\323M\275\000}\350<yH\210\275\006\002\333\274\267\007\342\2743\201\233=^\371\242\275\303\276\226\275\260\357\007>\332B\207<V\216>\276\345Y\212\273\213\002\305\272C\300\334<\314\030\232\270\262\302`<\365\210\216=m?\227\275\310\316&>x\210\025\275\222b\356=Y\202\373=\036\322\235\275\2355\345\274\3738\304\271\035\274N<\361Kx<\271\242M\276,\273\217\275\325_\212\274!\016+\275\037O/=UY\327\275]@A=\265\300\371=xC\302\275g|\243=\365\366\021\276\260\366\330=\320\313\226<\'\375\242<~\260\025>\347Q\370\2756\270\343\274B\260\254\275\217\235\005=\034|o\274Q\203\004=Z\250\200=\336\222\232<V\005\000<\004\256)= \3050=\353\3534<Q\033\021=\204\365\244<;X\320\274\275\273\'=\253\241\240=\017Q\014\275\036\215H=bw;\274I\307\222=\262=\317\274!\r8=\337\354O=\232\201\210<\315\346\250<7;\t\275\013\017H\275\255)3=,N\231\275\337~\302\275\003\243\256<\014_\211\274\020\222\325<o\276\310<\352\255\037=\t\213\205;W\252\377<\322h=\275?T\275=n\373\034<\244H\231=\356\216&>\027\345\022>\363\300\014\276<j\212\274\020Td\275$P\304;\336t[=\246\251\177;\367\352/=t\177o\275\245\344\242=E\313\n=r\323P=u\307\333=>ek=\227\202\235<\337\233\333\274`-\323:U4\234<\r\243\263\275\216\tL=\3243\345=\340\325T=\002\262I\275%\314@=\360\217\225\275A\003x=,\243\014=\3132\020<\334\010\006\275M\2234<\226\362g<\202\3126=\263\177x;*\312\240<l\275$<\224p~\273\220\244];\306\333\204;I\270\243>N\366\255\275\317\221W\273,\377\006<\355\367\237=\202\315m\275\302\207\211=\307\253)>~\301\216\274\034w[<\"\202\327<\247U\275<.\332\275\274\007\030N<W\341\241=Ee\265\275^@\253:\000\344\256\274\220\025\032<\351\323R;$\213\355;yf\034=\3456u=[\233\225<N\320\346\273\260R\344\271x\360\036\276\323\331<\275f\202\200\274\t\023\356;\'#\246:\017\340P\274c\374\n>\246\364\211\274\324\000Q=\330H\250\274w\266\023\2760La\276\327\355P=\030mW\276\367\200\376\275lE\251=\266\320\274\274!\032\020>\202\342\244<F\376\225\275BX\007?G\276 \275D\253\014\274\036x\216\276sId<\352\226\027<\263\272b<\311T\024<\001_)\276\312\253}<\352.\270<\240Z\276=\r\270\232;\203\235\247<\340\007w<\274\320\200\2737T\271;\225\234\033=\030D%\2769\201\246>wY\232\273\202J\222<K\021\014>O|\372=\207\360i>\tQ\030=\354\302C<l\336\217<[\273\225\275\274\203\325<\016\027\226\274\323O\022=d\276i\272\346\334\241\275K\007\255;TS\212=9co<\031I\030<\313\372M<\332BZ=\341|\342\274;7\251<T@\335\274\355\324\177=\260\364\025=\337\277\033<\234\217\035<\350vy\273\356\272\204\275\270\300\013<\257\213\215\275\267\313\016>\037\373\237\2733[;=\247\347u>\323>\317=\216\260G>\365h\271<>\n\027=\277\000\242<H\375\264\274m\213\310<\236\305\354\274\006\303\030=,\237\031=\233[\021\275\265k==\203N\203<\316\364\323;Z]\216\273\274`\360<\010&\327;\004u\211;\020\353\0259;u=<\267\347t=\233M\257<\357l\316<:\n\030:\242#\361\273\030\204~<\317sB=sZ\315\2759\357\226=\267Bm\274\217\355\262<\306\263\320;\030O\023\276\265\231\256\274)\247\023\275U\213\n<h\026\007<;g\n=h\366\276<\005tR\275\357\010\335<q\210\204=F.\365\274\016\274K;q\000\323=\313\034x<z\216\023\274#\010\253;\333J\026=\212\034\264<\362\365\314\275\\\264\226\274\210Q\254\274d\224\377\2758\322[\275\362\320\243\2730H1\270\210\336\260<\026\013\004\276\247J\232=\262\362\215\275\006\235]<\354H\232\274vp\243\275\261\333\201\274\3746\030> \001\023>\321\322==e8r=\\(\206\272k\362\360=\265\251\351\273\002\261\364<\374]D>\303\026\024\275\213p\022\274\270\007\245\274%Q{<\264\201\002<hVS<YX!<\336\243\364=\314O\316\275e9\235<\300u\'\273\201\r\032\276\017?\253<1Ql;\232[\315\273\344\316\302<\\9\000<\004\353H=\332\006\205\274\344\213@\274\362\255\320<\353\364t<\'\243D=\002\\H\275\216\254\004>\025F\365\274S\337\306\270\030\206\342\274\214\221;\275\005\251W\275\004\316\270=\003\261t=8\266\202=&Q$<\2526\017>6\034\253<\271\312\361;NOF<\312\221O\275\302\3557<c\3448\274\017\256\n\274I\323.=\346\213k=\255\377\225\274&\303\200\275\254\034\017\274\0239\035\275\353\260\250<&\262\334=\374_\262=\214G:\274\222SZ\275v\260\323=M\207\345=\250\330\010<\273\227\t<!5\020=\376]\206\275\363Zj:\333%\267\274\221\334\203\275\376\357\332<y\315E=$\037a\275\177\313+\272\024=+=\302&\252\274m\177\246<b\237\377<\250,:\275k\255V=\'&\276\274\341\001\\<bB\263=\305\372@=\272:\014=\005\274\224;\204a\000\275\221\351\273<\024\371X=\277z\037\276\253\"\220\274\377h\240\274\302\356\273\274\n\243\330<\364\351+=\200\304\227<\214\303\240<\377\000<=\030?L\275$\211\206=\026\303\245\275\016\370\215\275\231iU=\244\314\352\275\006\332\253\275U\213\313<\372\344\007>\251G\322<<\203\0239\205\201\005<\361{\243\274\020\317\320\275\023%N\275p\322\316\274qD#>\242\035\265<\035\223\212\275Y\002\251\274\006\315\217\274\325pH=n\205;\275O\302\032\276}4K\275:\271==y\036\366\274\336L)\276\311\3437<\376Y,>\035u$\276\214s\357\275@\351\217=i\335\031>\211\200\032\274(c><\362D\335=\005\010\200\275\377\377p=\010~\245\274zN\020\276\366$\005=\022\207\245\274\250Z\240<\274%N=mUI\275,>\033\276\035-\010=\345\027D\275\252\345\320=\331\342\360<\036yS<\316\300\020\274O\037\036=\265\255\216\275\306J\335=(;!\276\0015 \275P6\025=\327\302\027=PK\n>V~ \276]I\337<\001\365\337<{\326\276\275\000\253\220:\303\2055<\374\313\223\275\323\312\t\275\320\021\277<$\367\265\2743\202\251<YI[\274\267\302\r=\027\324\324\275[e\241<\216\371W=s\263\225<\r\024)\274A\3474\275I\365\203=\034\203\241=\230\225\027\276\206\303\301\275\270/H\275\"+E=\303U\206=\200\225?>\037\210\024>B \217\274\362\036\025\276]F\025>Dz!>\010\330\202\275\374\224\016>W\024\271\275\'M+\275\323\277|\272v\201l\275\244\311\253\275x\017\316=\273\260\242=Y\330\021\275\202G`<\nt\201=\364~-\276\233\337\035\274\265 \325\275\354&\340\274k\033\034<\237\204R<\375\024\357;\205\206P=\204@\255\275\254\300\362<\355no;\201\357\210\274\324\350\242<\255\224\241<\264#\277=\034\341Q<_i\252\274\007\334L;\261\265*=\264\243\267=/\357^=\226\327\321=Qz#\275\005\200\232\274o~A=\237\322\022\274\277Qd\275\335\342\357<\000W\017=#q\246\275\366i\247;\370\341\224\274\026\"\227<\257\354\270<\340\2142;@aQ;\323#\350\275\371\032\031>o\277+\274\350\334\215\275~\261g>\265\"_\275l\267\017\274 )\334\274^$\006=\252\313%\276G\003\366\275\034\340\376=\375\273\252\275?s\231\274K\177U\275mB1=\030\212m>\207\030\205\275\2232\340\274<t\010<\360\372r=uk\006>\317r\005;\357\325-<\000\021v\275\223!\371\275\216\216\t\274\025 ,\275\331\000\300<\351@\004=\304\360\342;\251i\251\274\3409\367\273\345\225\276<.\302\264<w\332p\274\236&R>\250\026\313<B.\031<_\003\t\274\311\334\000=\205a>=fe_>\270\305\214>\276\346\227\274\032\rU<p\255\032\275\025\003\360=\005\230C>\373\007\226=lTp\275\311\210\'\275\345\222\037=a:q\275\321(m\275\306\241\217<\331\200\273\274\344\010\032\276\300\232\r<Jf\206\275\367\031\304<\242\206\034=\030\305\025<\2246\365;\267-1\274~\333\340<\215\364\227\275\3347U=\321 \347=\265\377M\2742\007\331=\230-\323\274\253W&<H#\264<-\026\224:\341\3420>}Z_\274\275{\356<\262\255\310\274\236\273g<\276~\\>HI\361=_J\222\274W\2240\275\332\324\021>\322\265W\274q$\213\275\026\006\237=o\2159=e\220G\274Z\236\260\274w\371\364\273]\335\263\273\032G-\275\036\310\305\275\310YF<\010\326\377<\224\001\026\2755\016y<H\010\253=-x\016>v\276\020=~r\317;+\252\274\274B,\302<\245H\236\274?(\236\275\344}-\275B\016\010\273T0\t;\261\351j<\320\364%\274B\036\217=\235*\331\274\310\\\231\275\366\214\341;D\235\232=\265\030\210\274\240m\207\275\316tC\273\206\364\266=\004\257\234\275\330\374\213<G)\240\275\356g\336<\311/\031=h.\016<\231\351\222\275\227\361a\276k\234\264\275U\214\314\274I\2677=\257x\020=t\352\207\275\024@\247\274\032\324\313\273\362@\016=\007\362*>\210@L\275\263U\r>\247\344\234:\272\315\362\274T\341\210\275\202\260\037>\017t\347\275\226\005\214\275\217\254G=\035\273%\275Qa\036\276\232\300\013=\253\033\204\274{e\254<H\2363\274\356mZ\274\342\014\241\274[\036*>\222\347\273\274\t\307\220=%\201\240<\3719<=e$\t\272\005e\341<\330c\n=\001H\005\275\031N/\275\246&\000=\323\306X<Vu{\274\217\313\034=x\352[\275}\366\002=W\225\343\275\331q;\274\341\307&<W\333\237\275\374\316u=\354\267\330\275=\236\315=\021K\345\275b\355~\275\333\247]=\013\032\377\275J\007\216\275fe\243\275\004\325J=\321U\252\275\241\313\223<*m\223\275\265\222\026=\035%\276=\215\230\265<\311\256l=\225C\217=\270\214\000=1\371\347<\032G\007>3\2700>\324z\344\274\357;\270\2758\356d<m\266\032\276(\2759=h\311\300=v\036\177:\363\204\t\274\217\272h;\201\371+\276\363O\275=[:K=\026f\262=\335\033\217\275YV\216;\254<q=Hi\236\275\362w\245\275X\226\203\275\nZ\263=4\273\351;s\366`\275\310\371\022=\251\242\032\276f\211\322=<F\332<8\243\342\273\010\253\001<#\311\232<\001\314\214<\225\357\230=]\323@\274j7\345<+\267\316;rN\214\273p\256\247<g~\337=\376\212)\276J\326\271\273\027z\235\274\353\305\214;b3\004=\347[h=\373\0269<\234F\363\275\364\037e=C\217\023\274\255\2450=q\317`\273\'Sc\275\"=\010<\277\371\022=DY\316\275\n\3332<;7H\274\227\343\275<\"s&\272\325r\312;f\267)\274\030\311\215\275\216\221Z\27524\270\274\313\036\344\275id*\276\374\217r\275\264\352v\274\027\t#<<M)=\231L\325\275\"vB>\362\252\027\276\327[\334<\202\032\003\275p\327\001\276\346o\263=\266H\267=\306\212\214\275\202\003\016>C\325\243=\331\242\031\276\260\300\377\275\204\2019;\271x4=\246\255]9\370\321\306<C\353\260\274!\275+\276\0253\376<\306\263\037=\301\002\202<Ny\006=)=\376=\271c\035\273\251\362\355<V\000\310<(\247\213\275\313\007\303<|\317h<\341O\004\274\237\365\003=\315\262\013=\327p\260=\353\2028\275\2654\233\274O>\362<\034?\227\275\n\225\250=\376\236\306\275\361:\305=U\333\207\272\025\027b\274\006\245\244\273\264\372A=\'yn\275;\314\202=\264*\027>\336@\203\275\247\210\242<,u4=\016S\000=\302\203\373<r\354~<a\016\251<U\374\350:t\234\277<`E.=Ov\251=\013\313\035=\264o\231\275aG\256<\021\376p\274\036\355\006\275\211\325$=6\260\007>+4\'\275(\250\314\274\316\222\334=\236\017\024>Uj\331=_<1<$\376\324=S7\313=d^e\275\246\251\243\275f\311]<\351\023\214\275i\314N=\230\347\222=\343|\356\275\344\016\252=\377\227N=`}\n\274\037\366\177=\205\212\006\276\307\263\';\271\354\263<\033\253@\275\274#\213;\217\2322<4\211\202;\372C\363;\222\350l;\232\300\024\2724Mp;\377\264Y\272\030\013\010\276\005\026;>\202`\036\274\240&6:+\254\020\275\240\217\031\276\001\013\306\274\357\351\010=\362,\277;\277\316\002\274\302\375\221<\360\361,:\n:\236\274\013\212\200\274\344\321\031;\302\030\010\275\254\025\'\273Y\261\t=\304\rN:\351a:\272fhp:\221\260\252\272\251\027\027>\351K\215=\361\013U\273[\204T>,\234*=\260\261\002\275\273\200\203\273\214\020\305\274/8\374:G\0351>\256\310\207\275\021:\233>\267\230*<\\\n6\273\276\2745=\177\323\355\274G\264H=9\206\304\276!q9\275P\303j;\342\264\271=\375\275\211=\335\2701;*\027\241<\235\345\323>i)\332\274l\343\324:\006\270c\276\234J <\367\013!;b\267\003;D2\213;\t+\255:\240|\313\275\216\256\004<\344\245\200\275\337\316\235\276\020B;<\350\177\317;F\3401\272\010c\247;\232\330v\274\037\336\247\274e\017\002\276\246\211\037\2749=(;K\357\263<\002\335\273\273J\010-\275\0223\207=\2357\326\274\351\320K\274\236?\217\275\323\026*\274\022\372\245\273\230\177\314\274\'m\221\275&I\014\275\241\254}:\351\232\314<\261\236\321;\027\201\337\273gC\250:\037\253\205;P\231\261\274\362\'%\275LU\"\275Y\362\225\273I\231\343\273\317>\257\273\r\035\263\2740\n\004\272,\377\032\275\023\001\037\274R\356;\272\220\213\276;\225\321\025\2748\271t\2757\241\216<\034xE<\321\242C\274\245/\";\354Z\3179\351\210B\2746\013\030\275\022!\305\272\247\r\217\274]$\006\274\361\332:\274\003K\344\274\314\021U\275w\354\017\273\330R{\274\"d\257\274\'\037\320<q\216\355<|=\036=\215\347\216=;\356\266< \022\351=\221@\336=\263\305\037=%\237*<\247\025\n\275\272\323\276<\305l%=\224\264\262=\347_:=\345\233\200\273\267\353\221=\232\004?;\206A0\275\351\260\354<k\030X\275g\315\023\275\321f8=^Q\245=\3251\251\274\360\301\206\275l\210\205=\202\214\026>=>-=\254>\212\272+O9\275>\251\334<\230\016\016=\033f\210<\247_\263\274y\213\357=\005{\344\274H\321\315\274\245YT\276\232,\'\276\242d\241\275\210\325\354\2745\0040<sQ\307<\235\016\250=\000G\251\2754\335\323=/od\275\026\3648\275\370n\031>\217V\027>\0314`<\031\357\252\275\234D\266=\215\300\252= xz=\357S\373=\331\231\002<q\233\333=\367\\\007\276\360\000\025>\314\007\025\275D\255$>\316\337h\2751\241\341=\223C\024=\013\237e\274\351\305\307\274y\263\344\275\332?2=\367a\202\275\366\240)\275K\016\030=\257\251\236<\233R\223\274\020o\034=@5\260\273\244e\331\275\377\276F=\231\013N\275\255u\020\274\244\302\005<\337\\\250;\240+\356\275\020:%=\220AL\275R\336\351\273\033l\035\275\256\000\227=\204\235\211\275\222\214(>\177\335\365<\205q\266=\316z\315<\034\301\303;rM%=c%\206\275(\333\020=Re3\275\007\245\271=\3538\360;\331V\377\275ur\036>\376\246\355=\026]\374\275k\226\021\276\210\251&\275\022\225\334\275\366\203l=\255\216\203=\342hI\272}am;\213\374\243\272\206\346(\276\333\372\026=\375U\034\274\017jA=\276;\272=\323P\216\274\315\241\030>\204\270\223:\022\375\244\275\336\211\335=T=\001>X4\367=\326\364\035\276]\024D=\0045r=\247\361\250\275\312\n\371=|\345\323;\006\013,;\210\342\223\272\333t\232\273\356\031\343<ay\342\274_\340\312\273s\257\2729\031\232\242\2724\026^\272*\352*\274\253\220\231=\214\010m\275i\220\023\274\207\304\211\273\201\032g=\r\234\211=U\313c=\2005\254=\034\243\352\274\006>_;X.\003=\326F\375;\233\036\241;4\340D\273\267\026 =\026;\222\274\367\037\206;\243\3154\275\341q5\273\003F\226;0\034\370\272\302\231\211;{\203\030\276G7}\275zq0\2737\332\002\276/\004\177\274\031\003\006\274\256$Z\2732e\241;\005*J\271Ut\202:\307\256\033>\010\001\031;\315\316\021=\352\312\213;\035\202\205\275\034\371)=A\323\030>\223)c\276\\\267r=(=O<\310H\207\275\227\027\204=k\213`<R\025r=\257\301\227=\3737\007\271\350\310\313\273\242\030\217\275\373\032\312\273\032\213\304;t+\267\272\357\335\310;\022V1\275\374\t\251<\356\233\226\271\353r[=\023bX=\302W\202\273)\tY;\224\303\342\271b\027\033\2732\244\025\2753\225\326\275\266V\324=\220r\007\274\275\370t\273\217z~<\313D\341=\'!\341=w\315f=\037K8\275\310\251\277;\337\305&\275D\230W\274\234A\250;\370Q\032\275\335\304\235\274\357\254\214\274\337\200\235;axL\275\210\236\305\273\207?\365;\026\273\343\272\301\333\273<\350\242\217;0\362F<9\210\353<=\277\026=\034\035\017=\034kX;\311\305&\274fj\251\272F\366+\275\0356\304\274%3e\275)\241\247=\252\222\036\2741:\310<\300p\027=L\235\251=\2469\236=C\244\375<5iK\274\024\231\311;\276%\000=Rf\331\273\007W\273;]\311\341\274\314\270\224\273\351\013\177\274\030\227\336\274N\274\310\274g\237\225<\275\251\230<\373$\n=\312\365B\275\013\013:=L\220q\273\207\304\253<\216\'\361=F\237\213<\251e\"=\260\234\213<\016\361\206\275\235\354\235<\256\242\230\274ly\002\273\0229N\274\002\246\227\275\320@Y\273:^\177=\001\277\327\275\334\210\304=\nxC\276D\326\265=\016\201\222\274\023\007\257=\266A,\2744N\221\275\236k\226\274\207^:=+?.\276,0\035\2748V>\275JR\353<\257\265\177=Ma\240<\034\353\302\275\271\300H=>\225\335=\262\347>\275\037[\262=\231\023\334\274\005q\250\275\020A\037\275\311\340\242<\357\017K=\002\266\032>\034>g\274\211)\314\275\031\020\214\272\213\247H\275\332=\365=d\354\001\276\262\231\265\275\370\020\313=\347<\324\2758\030\325\274\310\346\033;\027\025F<\030c\027=\r((\276\270\311\203\275\311\277,<\300d1\275\324\227\273=\n\023\227=j\340L\274\'F\035=\r\030\204=^\016\030>\025\205F=d\230E= \273\311<\231,t\275\010@\035=\327\017\340<\257&G\274G\0375=\257S\256\275@\301\221=C\364\255=D\010\350\274\177G\232\274\327\023\322=1XF=\013\204\370\275\314\032V>\264\031\022=E&\214<\264\313\004=\235\215r<5{\221\275\344,\370\275\240k\245\275\0267j=^\'\016=\3120\025=J\333/=\302i\346\274\374\177\026=\356]\265=\325\017\353=A\276\270=`\264\335=\270\274\346==\252\006>\177\364\303\275\342\300\315\274?\032v\275\331s\324\275\017\303q=\236\267\014\275x\200\010\275\226\356\320;\2263\010\274\201\373\242\275\245\266\230\274\267\216\371<\000\206\023>k\306\337\2744\022V\275o\232C\274\363\030\311=\332\267\253\275\233d\277=A\023\014>;eO\275\376&\207\274o\216\301=\246\327 \276\214\312\007>`\303\365\275b,\300;\247\032\000\275\374\031Z=x\363\325;\346R\353<q\220\354=O,\275<:\006\314;\230\362\263\273\366\016\364\267,\377L=\031\257F>\315[7\276s`$\274@W\230;\332\270\260=[P\325\2748\200\032>[\340\237=2\355\330\274a\270\253;\351j\231<y\361K=\357\237\341\274\356\036D=\3169F\275v\254K\275\321l\236\273\365\313J\2752\273U<=\'9\273\030\344\007<-\366P<|\317\304\275\2458\354\275@\206\315\273\323\021\246\276\373\205`\2761\255D\275\350\316\332\273\006\2462\274\244\377\272;\241\336\204>M\357\272=%\342/>6\207\022=\236VK\274\232\222\300\2757\034\247\275bl\004\276\375j\253\276\2204k=a\341F\275K\242\004\275\031T\347<?\213\264<\275\020\252\276zi\200=\322T\315\274 \306\243;\217Y\201\274\347\223\312<\220\226\307\273\020\257\016<\020d\222;Y\313y\276b\010.>\035\223:<J\266\237=\nE\256>?\273\334<s\240\356;\242\361\326\273\242n\2118#D\034=\324>\224\275\242,S>D\263R\274\226p\013<\271-\277:<\\\267=\341\377\347<\231m\367;\330\r\205\274\267\3202;\224\235.\275\253\275.<\226\332\257\274z\213 \276h\001\373=\351!\246\274@JQ\274B\300\357\275\304\364\247<\351\213\313;\270\020p<\261\246>=\207\351+\275f\317W=\030/\307\274\036\345\n=\232\356\221=\233\255\363<\206f1=\225\307\243\273\253\355E\275\000\217y=\336\231\026\276\270`\022>h\3422\2748~\203\274\016\302M;d\025\352=\020\000\035>\333L\361<\"$\273<\336\322X:|\313\206=\362\345\310<\252\263\003\275F\"\302\274\273\364\207=]\2159\274dA\323\274\331\210\364\274\177h\336;\204n\211<Ws\313=\376\357Z8\033\220\211\274\221?\014=\310\210F<\343)S=\351\221\364=\361\343\310<\206P\021;#D\277\273\234\342s<\020\373\002=\326y*>N\207\034\276\263\3556\274\271E\007<m\021\024=\241\302\274\274\234|v=\356\356E\275=\274\205<\354\n\300:C.\024=G\233;=\177\026 \275D\016$\271\244\200\327<\"\261s\275y\003\203;\306\354\317\273\324\322y<Z\214\356<Q7\237;q\tg\274\210X\007\274\245\016\013\276\345\320=\274\311\341\356\275\352\352$\276\252\344T\275\2216\361\273\212\021\014;1\252]<\230\207^\274\373x\233\275\016yq\275\320\227\036=\261\357\226\274\"/Q\274\223-\026>H\310\243\275\034l\342=Jw,\275\370\364\352\274)H\201=\224\rK\275\254\275\360:p\314X\276h\313\363\275\276\251\031\275,\227\035\274\316\366\346=f4n<Z\257\007<\322\361;<\'\336\005<\352\201\215=\343\r\306=\322:\231<\302\2777=\255\244\001>\327d\267<\261\350\306;\"t\251\2735\221\262<p\372a=\212\2417\275{\215\233\274K?\370\273\372s4<\352}\013=\035\237_\274\224~\351\274\260B3<\364^N\274\267\223\024<\236^0\274X\354\275<`\213\"\275\032\232\235\274\034\201u=1\222(<\304n\334;\237\255\252\274\325\254\261<\3636\216\273\362\312Q<\016\346\370<\244\336\006\274\n\367K=\223&\344=\226\315\245=9\232\243=\276t\327\274\360\307\206<\316\304\367\273\367W\311\275\301\276\t=n\031\377\274\366\371\305\274?\232\r\274\271\331!\275g\'c=K\344S=3\310\365<\315\213\343<\362\347\223=\350\233<\272\356gW<IO\361<|\177J\275\264\332\221={\302l=\352\375\244\274\217\353\265=lJ\201<\251Mj\275\357\251g\274\0033\237=t\344\033<u\360\260:\004\r\233\274\034B%\273\"\326\241<\003\023\'\275\034\354\000\273\030\330-;\214<y\272\200\235m\270\013\304\215<\267\327P=\211\004\321<D)I;\306\271r\272\364\220\347<\316{\256\273\212\373C\274\033)\255\275(\267(<Or\014<\374\303\177;24\235<\017Q\247;\350[-\274\241#\376\27465\270\274\273*\001;<u0;\314\257{\272\202\247\252;HY\016\272\224x%\273\345\262\224>\212\020\014>\313\027D\273s#\374=\2230\243=\0358\310\273\267\307t\273\254\247\002<t\306g;\036\031\312\275\357<R<t\277\212\276\302\007Q<\270>49v\212\320\275`\250|\275\030m\215=\031A{\274\302\211\357;\340\032\334<\341\227\022\275\204\274Z<\0018+\274\363\256V\273YB\225>\301\003\352\273d\223O\273p\353\203\276\273\257\022;\026E\355;j<\005;\233`2<\237\363\345<\230)\325\274\226\215\252\272/\203/=W/\233\274T\000\303\270A\351_;XB_\272a\231w;\262\366\235<\322\271\220=s\2052=N\005+;4k\010;\376\035\003=\312z\354<\334\014|\271\001\315\2229\t\364n:S-\022<hf\233\274Rg\221<{\240\016<D\303\335\274v\333W\274\0347\315\274\302D\271:\003l\276<\376\331\3019\2040\014\273\215\225\2069\250\211X<r(\033=ho\'\274+\242&\275\214\222\355<\001\366i;\243\010\002\275)I1\274P\031k\272+\234\257;\231\2332<\253\307y=\374\250\265;\0372};\0071\335<\031\327\003=\325\236H<\0131\344\274%\373\032\274\324\360\301<5\207I<=b\272\274\225p\206<\222=\375;ZC4<,f\224\271\327\345\263\274\371\360\363<\234\315\263\273.;9\274d\341^\274\007\004(\275\353CF:\2456\035=\327\245\245\274\323\2342;\357J\241<\030i$\276\216/\001<\243~\263;\215{8\273gn\024:\215\300r=\211\256\370;A\224\\>\364\372r\274\203\200\363\272\004\025==\035D\023>\344 3=P;\320\275\332\241\227<\245U\217\274\013\356\205<\004g\020<})\203\274\345Lp<6\237\037\276\214q\205\275\265\307\2149\246ym\275\035&\026;\304\342\225\274\270\030\r;\026\016\2759z\317\271\276W\214]>\342\336\335\272\005\300:>\276\365\250>zs\t\275\366\"\314\273\016\002\362\274\354S\332;6\332o>L\333P\274\336\031\212\276\232A\002\275jTD9\'q/>\370\tD\276\262\375\177\276\017\367\356\276\017>|<\251\034R\275p\343\332\275\320w)\275:H\224<U\343\000\276%\323R>\027\023\204\275g\022\356\272\203I\275\276\274\311c<\244\354\231\274\360I\025;\232\\\002;\005\315\272<\257f\226<\026\2124<\032?/=\366\302\020>\263IZ<$\205\027<\235\020\263\272\014B\263:RsK\275\210\037\367=\034D==\215#V\274\026\347\2718\214\215v\274\001\rS=T1\"\276\237\340J=VA\312\274\364\r\001\275\351\346\231<\236N\010\275\372\270\214\272l\375!\276i\202v\275\212\016\207\275\314A\373\272\216\344Y\276},\024<\320\220\373\274!+\232;A\362\025\274\353{\234\2742Q\205\2746\020e\275\007/ =\0357#=ov\344\273d\2754=\375\254\320\272#\277\"\275.\204\364<\314\263\353<\2612#=\003\277\007\274;\336\217\275\244\306.=\003}\223<\355\364-\275\037\031[=\313v\231<\250k\341\274\227\341\277=\'+\251;\223\030A\274l\177\001\272wJ3<\3531\213\275;\272n=e\220{\2759\336 \275\002\363F\275\357\0266\275\230\366\021<\270\r\262\274\256\2746<\347\027c:\336,\350<\304q\035=#t\221;\224\332|;_\n\247\271\265\315\206:\\\322\n\273H\277\351=^\205\254\275\224\311\352:[1\235;\222de==\363\027=>\357\210<De9\275=\334\036=zL\007<Z/\314<\203\n\020=\334\316\214\2738\202\215;8k\254\275\213\333g<\200\211\266:\350\353Q\275\366\260m;D\366\210\271A\333_;C\212 \274\302\357f\275\324#!\275\321\0205\273\277\216\010\274eN\227\275\n6X\274u\242\366\273on\202<K\224n;\237&\254=\352\t\231>4Q\013<\"\256\262</)\020\274St\227\275\327\272\017\275\342V\244\274\337\202\243\275z\305\316=\027\034\222<\2403\337\275\321z\r\275S\1775<\037\230*\276\325\000\204\274\007\267\330<F\270\227\273NtM\275pf\315;\217\372\256;n`\302;\203A1<J\221]=$\251\317;t^\020<_\370C=\033\304\211\2747Q\307;/\017$<\033\351c\271\317\375\036;\233\006\027\274\332\232\021\272\363\036_\275=c\213:2\255\r<UJ\261<\240\356\336\274\325\212(=~\223\010=J:\247<\337\242\'<\003\326\255\274d\202\020=\317\001+\273\270M\216\274\366p\270<j{E<<\003\t;x\016n\275H\335\276;\303\222\n;8\216\273;\226\236?=\213_<=f26<\324H\366<|\000\"=\206\305_;\337U\025<\006\224\014<]\002\243\271\037@\210\274\3121?\274\340\314\276<\nr\215\275\255\335\346:\3421#=\310\246\227<\212\320\306;\331o\205;\261\374\t<\365cS=\322\235\212<\346FI=\033\312\306<F\352\235\273)&A\2740\210\211<\213g?<\225\030_;\371\305\326\273\177!\252<\361g\342;P\204#=\266\347#<2\327\251\273\342\222\024\274\027^%\273T\306\240<\304\022\272\274\266\025\206;\212\327\310\272\324\243\023:B\232\3549\270\347\264\273YKJ<\037R\207\275\020\260\336\271M\252\322\272\2636Q<\241\027V=$\362\205<\032\325t=\rJF=\312\207T\273\234\360\274;\313\221\030=\361i\216;!C\237\273\342i\r\274>G\010<2\355\371\271\261\332\221\275\267{\230:\370x4;\004\031!\272\246:\272\273\323}\342\275X\"u=\266\000\360:\247`\006\276.\2568>\023\200\002<\370un\273\264\022\326\270\336\257\224:D\375P=\377\\\247=\262\250!>\266\2021;\2469(;\273\035\355\275\301\340 =\234\324\322=\244.\307\275@H\337=\0064|\273\326\336H\275\250\205x\275\322F\206\2736\031\215\275\361\231\325\275\021\373\007<\325d\205:\010\352\004>\203;p;\362\006\006:F\017\222\272\277\325\216<\351\037\002=\344j\017\274\212\2141\273^\323<=K\335\313\273L\337\212\273\310\242\t;E\214+:\267\373#\273\205\234\032\274\374d\002\273%<\237\274\330\0065\272:PO\272Rm\207\275\013\017\223\274\223\rQ<\370\333\247=w\213\020=\030\034\375\272\3417\236\2747\247!=\177\333k;\"\250@\275\332V\374<\316a\035<\237\331\\\271\353T\252\274\017]\037\273\326\025\037<\277\025r\272\224~/=^\027X=\302)\2229\352\334$<.\225\010=(\264\002\272{\273\216<J\363\362;$\230\3378a#\345\274\330W\364\273T~G=\300\234V\275\270\222\255\271\336\317\253<\3555\021\275\374\202^9om\256\272\017\004\276<qD}=\251\014x\273\032s\031=*\002\353<\334!\303;\334\337(\275\033\035\320\273\312\373L<j\\P\274#\334S\274\273\2563<\251\277\301<\347\375\310<bu\201\275\001\024\206=\342\2607\275\341\305i<t^\326=w\212\322\275j?\030=\376\362\204<\347\277\300;\272\005\352<\n\314\236\273YPU=\343\330\325=CR\025\275},\257=\347\243j=G\334\036\274cdb=\3337\214\275!2y=@L(=\032Z\254=\272v\344=\304\003\242\275\006\217D=\356\231@\276\334D#\276\303\267t\2736\252\274\274E\034\356<\247@\205= \242,<\024\362D=.\220\372\275\033\304\364=`\026\017\275_\013\205=\332*\204=\035\316\227\275q\355\373\274\360\212\231\274_\316\216=`\021\346; \277.\276\022h\217\273\313S#\275\321R\027\275w|f\275{\235\013\275\223\351\337\275\347\337\224\275\232\331\313<\022x\n\276\260\252\216=\350\376*\276]\267\305\274\327\204\352=}\252\001\276#\236+<\357\242\332\274&l\214\274\303\205)=k5\337=pA\316<\315V\010\275\341\010\241=\237Qx=\253\374(=\302\260\\<\370\223W>\351\014\007=f\374\241<\332\272i\274\023\031@=\340\007\034=S\250\233\273\3055\355=\3167\017\2750\211\222\274k\243\322<\001\024\333=[\r\026\276\0250(>\237\334\036\274\003\363K\2753\243\274=\026\241\353\275\311r\246\275G\223\251\274\371\245x\275!yG=,H\344<\301\347\230=\257I%=b\003w<&v\317<0?\242\275\032\"\205=\231\315\230=\'\347\036=\000z\003>U\366\260=\020\007\232\275u\365\346\275\313y\303\275\005\002\277\275\264\241Y=B\275\030>5\375\255\275H\362r\275\307S}=\320A\261=\351\222\014>Z\330\227\275\242\262:>w\352\315</\313\244\275\023\203\313\272\371\"\302<\0243\277\275\3547\"=\032\225\331=\032B*\276\271A\300\274\311\261:=\225\255\021\276\000\314\240\275i\'\276\275\224\032o\273V\313\246;\225w\331\273\270\342\235\2743\311\200\275\322\255\224\275\265>\353\274\320G\246\273\325\240\367;\234\305\270\274\300\035V\275\262\310i\275r\377\351\274\347mY<UE&\274\245\305\317\274\021\032\241<\272\332\010\275\333\371\320;\036\001\177\274\323\2124\272\253\3144\275n\261\215<\177\322c=\271k9\2751\324\336\274C\340\261;\235^\253\273f\241\311\274\365f\252\274s@\263\274V\030\365\273\203\031\264<}J\337\275c\222b\275wf\226<\220h\334<\264\200\317\274\r3g=\177\362:<\333\351\237;5\276\314\274{\030\2419\210\330\324\275\264\353\227=\217$Q\275\035\251\311<x\235\205=\251\001\344<\210v\237\275\315\320Q=\035\320:=\205d\005\275!4g=A\215\332\274\243\000\372\272\241L\352=Eu\270\275p\316\210=c\244M<\216c\334;\203\237\256\274\372m\265\274\202\222\220\274a\360\200\273V5\036\274\033\020\274\274\307e\335\274Uzh\274Y7\000\276\\H\312\274C\374\025\274\302d\334;\213\343\364\274\030SS<\200\n\252\275\300\346\275=\334\311:<\210\377y\274\372\037\276<\222\243*\275\t\240k<\360\337W\275&\335\340\273\026%X;\216pR=\226j\276\274\314\346f=@\236\346<\300\200\323\275\340\206A=7\204<\274\375\266\314\274\242|\344\274W\247\342\274#\353~\27451\243\272\330I\317\274\332I\240\274a?X\275\2779X\275\301\252\224\275\314\304)=\002c=\275\233oM<\314\271\250<\366\252\331\274c\344\222\275\274K\230\275>\363M<H2\234<N\212>=\367\234\013\274\274\302\273\275p4R\275\200\254\202\275\204\317,\274F\363\230\274\267\201\237\274wa\213=\013\231q\275\016\\\177\275^\213\370\274b\202:<[\274\330\274\006\356k=\334\277\031\275\354\255M\274cs@\273\036\243\335\271\341\300)\274\030T\020\274\335\360\276\274\177\005:=\225\307\275\2742\000\301;\200\336\235;\030U^\274wC:\275\261\347\332=\313\300\313=l\377`<\251\300X\273\266\3464\275\225\267\260\275R\313\262\275@\2405=Bo\201\274\205K\200<\004\221B\273\225\267\253:\310\214\320<}\304\220\275])\251\274G\267>\275\236U\235\272\272\265\360<w\255q\274\313\226Y\273\230\314\305\272!K2=*m\263\275\270OV\274\310\275\312;\323\227)=+\266\273\275\203\2259=V\247\227\273\326\2522<\260\236R\274f\371\017\276t\255E\276iZ\222=\2250\237\2742\1774<\324\224\317\271Fm@\276H\377\0319\305\213\275=\2346\233\275d\226g\273\352+\010\273\275]\244=\201\2409\274Ot\246\274\322\001%>\317\323\321\275\362#\365:\205$\225=\353$\263\272\203<\222\273\336zO\271s[\313\273\277\201\035\276\330\\\013=\n\245`\274k\253\232=\n\263h\275[v\232\274\311)\354;&\244h;\0132\217\274\332qu\274\324j\205\275y\023\213\274\305XW<\253\314\004\274\263\272!\273\230\221\210\274\t\301\320\275\251[\267\275\220\250d<\007\037\310<\034\350e=\337\304\221<F\243\276<\316\332p\274_l\301\275\306\005\376\274\023\rF\273\324P\237=\334Z\225\274m\037\226<\000\233\023\273w+\335\274d\254\342<\2022>\273F\017n<&\033\006\275iZ3\275\372\264\215=\211\212\222=\367\244\344;\216]\231=\353\367>\275w6\266\275$5D=\225\272V<%9\362<\241\020\000\276\272\000\330\274l\022\317\275qe\215\275\220d\354\273bN\024=\313\032-\275\347\255\366\273\271%\345<\036\244k\275i\037\352\274yK\274\274\230\342\315\274\254\331G=\266E\237=\347i\016\274\022\276Z=\352\232\272\273\371\307\317<\027\215<\275\01353\273\200,@\274\177t\214\275Z\251*;\346\221s\273\346tq:aW\306;\020\377\301;\351\346\343\273\032\221\373=\364<-\274b\321\032:\354\222$<\352\014R=\355\000f<N\2470\276\242\324\344<\256O\212\273\364\253\3319L\251\036\275\231\204>\274\210\375X\274\037z\246<\321]\342<\271\037A\273\037\211\205<D\202\220\273S\316<< \206\330\271K \254<\236eG=|\232W=\310c\355;\201\323s=\340\312S>\237\312\363\274\002\177\245;~\304\036<\264-\\\272O\003\037\276\3243\001<\024\252\001\275+\346\004\272\031\203\206\271fC\007\276\214\267\r>\010\342S=H\331\000<\021\205\237\274\267\357\310\273HN\277<\371\346P=\273\371\n\275B\273]\2721.O\275\304\024\306<{2\304;.\003\026\276\035\310\354\273\367\222t<W.\217\273;\302\006\274\330\376\355=\021`?\275\013\202\236\273\342\366\232\274 ;\035\276\320hc<\r#\275\273\311\210\250:\341\035\352;@b\377\2741\241\354\270\264\005\211=!95\274\3135,:\037>\035\275m\223L<\200o\276\275-\314d\273\036\344\201<Q\205\022\274\303\330\030=k\210X\275\360:$\274C\235!\276r\335\213\275\332\352\220<f\226\371\273\211\014\025\274{\240\363\273\016c\010<\223)\004\273\025b\r\275%\373\031\274\227\373\356\274\263\2231\275J\374\220\274\263t\016\275N\334\211\274\345]\235\274\201\327\214:\304PV<\363\323.\274\376\020\214\273Zd\334<\252\372\030\274\303o\274\272\235h-<\273\223\201\275?\252Q\275\034(\236<6.\030\2722\341\"\274\254\300f9\375\374\037\275T\273H\274\200\271S\275\177\211T\275\350\346k<\210\374*\274\234\271K\274\214q]:\213\0072;\370:\215\275\210\0323\273##D<\024\013\225\274)\350\214\274\374\234k\275\2478_\275\272p\322\274\017\311\216\273\377\267\355;x.\255\274\371\374\026\275\216\232+\274\320]\006\275\206H\027<Sc\354\273\205\341\300\274q\007\016<\n6\367\274\344\345m<\020\216\277\274\362\201T;\340a&\275\246\352\000\272\265\267x=\022\207\330\274\2464\n\275\215\203\026=\377\002\232\273\204\207&\274\010\235\237\274\213\3119\274\034E\321\273S\016\236<7y\304=\315\236\242=\254\264\215<\n\252\271=F\032 >@LW=\321I$<Qlq;\246$\345\274!\313\361=\373o\327\275\343\240G<\342\345\034\2752b\265<6\223\022<\021\346\351\274\207\005[<t\013\\=[V\245=M^\314;\255\306\213\275\325\322\212\273KCC\272 \267\234\275U\201\275=\005\357 \275G$:<\301\212;\275\225\334\271\274\370\031\266\274j\313w\274\231\271\267\273\336@3\275o\350\213;l\332\313\274\002k\354\274\362\260G\275\377\356\263\274(\360\000\2742\341\316;\305\024\341\274\002\340\021\274R\367\314\273\355\353\211\274\372\352\026<^A\207\2740\030><\341\221\022\275\231g\234;\311\375\214\275\030z\001\273\013\211\231;\376x(=V\263\206;\237\222g=\3268K\274k\334\010\275\237\256\025=\216\365*\274\204ym:Cb\334\2743\006\312\273/4X\274\023}\345\274J\210\\<G\222\264\274]$\304\274\177\364\222\275q^\220\275<\261A=\276\34009<u\013<\314\201\211=Uh\331\274\213CH\275\t\322\222;\276\031\031<\377\246\201\272X%\311\273\244i\323\274\2427\270\274_\235\023\275\260\024\030\275$T \274be\204\275`Y/\274\2605\216=\347\256E\275\341\277w\2751\246\200<X\301\232<@,\254\274PLW\271\030\246/<\247\002\274<\333X\241\274\204\345\016=\202\362\342\273\342\364\271\273[\013\242\274\246`\031=\355aE<\017\240/\274X\035\025\273Hg_<*CI<\366\233\036\275|\211\226>I\334\366\273\261Q\275:\211\310x\275\007.\250\275\216\003\336\274\327Bs\276\"\024\244<U\351\006\274<\255\t\274l\3067\275N\377O\275\n\305\000\273r\025\014=\342\205N=\3327\37394\316\352=6\342\n\274\2561-<c\223\026\274\210\223\205<\340\r%=\233Gn\274\352\t\373;\340Te=mc\276=\002\205$\275\010G@<=\034\227<[\205\005;R;\000=\346\312g\276\375\216\r\275\310v3\2734\352\254:\317\207\022=:\2230<\350\376(\2759\352\005>\362\247\271\275l\n\344\271\375\\T>\300\303\330=\311+,\275EFd=\243\002\332\274\315\265D=j\366\256:N\272\010\276\230*\017\274\033\307p<Y\302N\274\211\252\332\274\021\255\274=\264\225\256\275{\356\006\274\252\230,\275\377\271\234\276\326\004\203<\360\202t\274\356M\035\273%\242R<\rBV\275\314\016S=w\372\246\275\322\353\006\274\206/f\272\017Y\010=_\335B\274.\354\203\276O\317\227\274\375\332\023<M\266\205\274{\004\021<\\\261\205\2754\030,\275\320;A\276\tW`\276N\324\236<\000y\234\271\340U\251=\037yT\2748l\014\274R\245\201\274Oby\275\332\340\261\274\312\240\001\275\331\324\217\275\324\320\024\275D!1\275\367\2477\275h\247\246\275\036\306\\\272x[\005\274\324\013+\274\217\031T=\331R\310:\233\'\277\273\'\321S\275\t\275<\274\033\330e\274\267}\036\276\026\372\\\275-\201\373\273\025\271\177\274\017\004\t\275jFZ\275`LV\275\004\3222\275\026\033G\275\010i\020<[\277\244\275\013\317\033=\333Z\242\274\014\310L\275C%\251\275\200\301\027\274\376\302\216<\020]\357\274\0009\246:\374\'H\274o\200i=\023\375\006=\202\306A\274\324\241\212\273D\323\222<[\310\002=M\366\361\275Z*\035\275\337 )\274\017A\t\272~\014Y=\211\3255=\026\276G=\332\323j\276\373\2061=\312\336{\274\205\261\335\274\261\007\327\274\302\006N\275l\314\026=\247\000`>\306\347%;\363R8\273j\023\210<\367\276};\005\356e<C\033*\272\000\001\251\274\336\322\356\275\274\273r=6\214x;y\003\215=\034\n\322=\374<r\275\032\337b<\212b\216<e\336_<\335U\023\276\212\273\227\276\231\316;<\021\366\303\274f\373E\273\0355P\276\324\255\325>\356\273\017>[\035O>\375\337\311\275\210\231\231\275\301\205I>\257x8=+\022g\275\250\246\204\276\207\244\031\275\"\271\342<zA\272;V\0019\276a]\371\272\216L\234<I\260\277\272\327\2037\274~\257\216= m\345\275y\306\251;\335\003\261\275\217\'Q\276$&\t=^Y\250\274\027\030\216\273\004\375\254<\350\351\334<Id\326=\3423:>\3335X\274\310\025\246\270\226\363\270\275\272F\235=\203\330B\275\227\3346\273\254\231\270\274E\032\252\274\360\255\212<\026\2368\275\246\267A\275\023g\206\276K\237==\237\356\356\272\310\315\376\273\177\032\236\275\211\004\014<\021\024J<\377\031/:7%-\275.qO\275\275\225-\275\014\034e\275\262\0179\275\322`(\275\220\321B\275\233\224j\275a\037T\273*\253%\275\2414\020=\230\2268\272\245F\224=\0108*\274\330\207\230\275\351\317\303\2758y^\275\005\215\r\273m\'#=5\2417\273\356\321\366\274\225\220\227=\337\360\024\275\246yX\275\034\031>\2752x\332;~\027\225\274\267@\242\275\010\206\243\274(=a\275^ d\274\217\276\216\275p-\354\271\310J\245<\262\224\020\274\274-\241\273i\313\353\274\260\227A\275\334\'8\273\322F\212\272\251\177\033;6w,\274@\354c\274g\013\203\275\210\0337=s\207\016;\300\271b\273\370%\213\274\342.\202\273\347>\201\274#\276\321\273\312\354\202\274\272?n9\353y\272\274\324\271H\273\225*\253<\363\254\221\274\207\340\242\274\030\335\261<\210:\255\272\343\256\230<2<\211\273\346\020\374\273+\211\202\272\277\273\260;\247\255\'\274\323\245\202\275\007<\353;$\346\304\274\276m4=\302\247\310<\257_y;F\022\356:Z\020H\2743\2544\274q|Z<$\214\210\275\351\234\262\273*\202\007<0\261_=\216\3126<\222\235\313<\247Xu=\001a\221\275\364\206\221\2739\203\252<\377\367\251\274\234 \202;\362\330,;}\312\344<\360\305\2619\212Om;\257\014\367\274n\302+\274\"\234S\274&\301\226\2739\217\231\272IJ\207<\253\222\324\273\032<3\274\377\304\247\274\002s\200\275\341zg\273\025&\352\272\323\316$;Z\303\202\274B\250\216\274|\375\260\275\255\354\205\274l\3419;\273\256\351\273\372+\013\272\355\016\222\274\347\313\332\274\367d\230\274\257?+;L\244\3308\232\021\004=4\210\344\272\274\200f<5\376\344\274\000\371N\275A\232p<\235l.\273f\376\326;N\373.\274\036b\034\274F\371Z\273},\366\272\261RH<\266u\023\274C\022_\273c}\362\274\326g\020\275\312\217\241<\003J\226;\332\374\020;\320;J<\347\036\215\274\312\221\255\274\030\212\327\273\262d\';\027\205y\274\247\225\014\273\027T\240\273\210\013\260\274\ti\324\273 \330\340\274F!\241\272\237\311\374\274N\017\232\273<\206\257<\274\311\255\274F\365!\275\034\\[<n\206\222\274\021\014\354\272\344\336\374;\016W\321\273\326\177G<\366\016,\273s\357Y<\006\245\371\273\016\243\202\274\345\210A\275\354\323\001;\006\346\245\274.6*\273\037f\216;\256=\236\274\335\005\266\274i[p<#\307j=5y\343;h\037\324\273\205\014\353\274\206\224}\274\223T\303\274\332,\212;n\352\275\274\304\214\333:\331y\r\275`3\357\273\332\2779=\247\227\323\274\276\313K\274\274\304d=^\3238\273\251\022\275<\247\\\203\274\006\001[\274\006\242~\273\350\265 ;\002\357\301=\317M\314=\252\237\206<a\211&=\355q\037\275\345q?=\222o\370;\317i\255;\251\315\327\2744\366\r\275N\230\335\273\"w\345<\306\201\'\274O\362\240<2\251\373=\005Y\300=*bb\275\310Z\313;\027{\252<q2\240\273\271J\213<\335\"O<\250L\247\273C\277\245=\370K\006\275\027\020x\274m\330\361;\362\257\002\275\203\265\274\274\324:\252\274{T)\274\203\034\224\273\013\375O<\271\304/\274\262A\300\274\207\331\303\274~j\211\275\222\374\217\274\320@\242\273\313\223\213;\033\264\326\274CbP\274\306\020\010\276w\366\315\275\330\003\376;^\022a\274\234\353\221\273[\307\365\274bu!\275\333\2763\275}\375\271;\243w9;\335\033\033=\206\335H9X\241#=\206.\277\272\216I]\275\350\027\024=\023\367\307\273\276\335\305<\215\362\312\274\207d_\274kl\016\274\370P\003\274\250M0<o\317\210\274\323\261\335<\301\224J\275\314-x\275&\231\353<A\201\232\274N\216\215;\305\313\006=\336?\262\274\250\340\251\274\366!\016\275\016+\345;n(\271\274\353\340|\275\031\214/\274\264\256#\275:\366\301\274k\n\024\275\027\000n;\362\3218\275\220\224!\274\347\035T=\347\322\345\274-Ce\275\342\263\365<\343]\320<\020B0\274\036\3241<\235\236\277\273\263\253\007=\343\257%\273\201\327A;\237cL\274#\2000:\221\014\247\273\317\206\203;\366\027\006\272\372\273\037:\350\'78h\246g9\357H\246:\273!>\272\010_\r\274\372\207\243:\205F\224\271#\262\'\274\275\244\020;\342\274\r\274\313LE\275(Q\230;\354\230\257\272\013&\005\274C\234\000:\356\030\212:\221WN;\370\266\361;wHG\274\340p\0175\t\022z;\036\362\0079\214A\024:\371\0365\270b\005\007:I\334\317<\256\377\205\273\217n\365\2706\336P<b\352\217\274\020X\t:\265{P:\334\356\307\273=\311\3119\306\254J\2741\233B<\242\004+\275M\000\031\274\373\201\031\272C\210\313\272\232l\342<\021M\210<\362\320\230\273\2123\\\274\232\373\345\273\325}\002<\264q\237\274v\311\005<2\3059\274\225@\007\275\265\3574\274\177\232\370\270V\325 <V\225\301\271\267\034q:\306H\317\271\311sh\273\352$\275\273j\276\214\274\305/\3349\266L\205\274\210\236 <j\307\2277\275\252\203\271y\003N9\007\215\3349\231\307\207;\023,\257;\035\223\212;\373\223\245:\020\313-\272\322[\2059B\277w;\017Q8\274\314&\363\274\231\203><\020D\254\272\001\273\023\272 ?\273:\214\331\2519\244V><_\315 <?PJ\274\022p\207\271\035\332\315<\321>\\\271\214\360\022:\227\031\277\271\345\365\240\273\\\370\2709\210\341?\274\337r\324\273Y\345\n\274{\341\313\272\345\000`\273m\357\003;\352\225\005\270\217\356\024<\315\345\337:\004\275(\273\226\267\217\273\261\276\251:\263@\033\274,x7\272\216<\306\272b\326\025\274\205\215t\274?\256\005<\266\017\302\272\345\271\243\272!\256f:\313\354\202\271\332(\260;\263;\251;;]\'\274a\205\002<\n??<\177\3524\274LY\3327\350\223\362\273\260\346Y\272\241|w\274\177\2210\273\022\317\364;\327\361\033=\316\266\t<F\322i<\366)n;\226\212T\273\340J/<d\233\016<\340\020\347\273^}6;\341\301\211\273\263\000;;\274=\n<\034\331\024\274\004\033\201<\374\030\2338\340\306\374;ZX\204\273\224%\267<\240$\034:\274\253\010\2751?s<\345\254\316;\336J\353\274\317\352\242:\014\320U\273\210\027\227;\356lg;\226\351\026;L\t\332\271\014a\265\274\344\217A=\213T\027\274\312\327C=\351\022h=\354\220&\275\310(\303\273\373\035\251\273\004\020\214<S\"\277\275z\313\256<\306\025t\274\317\243\354;R,\021\27438N=\032\250\224\2756\023\300<\260\322\341=?\253\300\274D\302\216;\\\227\034\273\003\361W=Pk\304:9t\207<\360B\207\275\014V\266\267\332\234S\273\262\304\375<\027}\233<\032v\001<\026\236\312;\311\237\247\271\004\321\177\273\306\r\276\274\210\003S<\313-{<\353)\330\273}\026s<\233[\251;0\215k\273\232gx<,\020\n\273!X;\273\231\303v\274q1\241\273S\327\307;u\336Z\274\370\274\030=\020\327F\274\021\'I=\320\361\227\274\277\200\233\273\02627\275\314\232\214\273\0202\320\274k\355\243\273QF\357<c?\233\274\024\315\030;f3\277\273\265mT<+\250P:\'\353\257;\206*\t\273\226N\205\274\356\214\001\270\265\025R<i\345\031=\013\n$=\347\223\235\27446\201\274\"\353F\273\322\236\013\275\240\320\016<p\013\263;\002\241\177<\323x\210\273\262\227o\273%\371\331<\306>\273< a%<\222D\232<j53<\334_\211\273\353\307\004=\263\372\004;\337\325\025\275\371\222t<\222\274\037=n\241\264\274\351K\362;\356&\226;z\361^\274U\301\370\273\207l\230\274m\240\367;[\320\210;\221\363\246\274\240\235\2247\344<\007\275 g\014\276\375=\347\274\360\222\031\274\366\314v;^5k\272\334q\317<\034\267\001>\210\3750=F\004\227;\360\302\224:\"\314\305\274\031i9\275BM\251<\232\206\320=W\331\222<\342\2547<\244\237\376\2729)\371<i\0148=\350y*=\370!\222\275\316(]=\214\234T\273\206\313V<}t\220;I\235\320;~\245\3139\255\354F\274\251\035\315;\030S\252=\303\264j\272\312_\007\276\216s\306<D\311]=\026\024\007<8B\274\274<\207\205\267\360\214\266\274%\243\316\275|\236L=I\315!<\244`#:\325Qt>\177\300\021\276\304 \034\276\330\200&\276\177\'\356\275\026\204\205\273-*\000\275$L\001\275gA\321<2\2460\274\310+\335\271<w&=\276\r\263;\237\350\032>\320\346o;\355D\2308\252\001Y\273\006\r,<\237z\216\2759\322\374<\000\313~\271\312\'\375<\214\221\251=R7\367\274E\036=\274\202_Z;%\371a:)\366\'=Z\rA>\377\3505\275s\330\217;\233>\273:\274\306_=\370\244\323\275\325/\364\273\340r\006\276_sj=\347V\210<\037\225\035=\307\306\027=\210\036\023=\354\321\030>\036TH\275\264\275R=\030\305\272\273\"\366\"\276\366z5<Oq\305<\317\323\221\272\032s\333<\3142\337\273\025\0034<\240Y\233\272N\350`\2740\234E\273Ga\352<z\345\013={\\c;\270\205i=]#7=v\330H=\341-\000\275\036\330\223;\347\231\326<\207]\302\274\t=\270\274^M\020<\201\026\216\275\'\261\211==\t\240<$%\333<\216r\024=q\304B=\n\204X=9\225\302<\363{\031=X\314\245;\n\177\246\273\204\030\001<M\324I=\313\361\207=7\346\263<X\010\270\273;\354\031<\350_\346\273\343\340\202\275\006\375\262\275\240E#\2754A\233:\201\302.<wZ\215\274\036c%:\234M>=BD\253\272\271\310c;f\021\0309\2702\344<G\225]\275\351X\216\274\025\214\202\274\233\0052<\225\022\251<6^U<\30238=\376\006\243=|r\010\275Uk\005\276X6\235\274S\2461\271\306L$\275[:\020\274Kp\225;\362=\014;\351\367\337\274\005\247\242\275\003M\221\275c\010@;\276V\301\274\333I\244\275\020\006}=\270\223\031\273\\\347\272\274a\322\240\274\370\016<>\257\014\317=\246\322\300=\n\0020:\257\312\214;E\034\026\276\306\213\034\275\016\362h\275\2125K\276$\021\247<~K^=\217ub\275Q[@\275\203\345;=\333\267\024\276\005 \226\2757\036=\275\354\267\251:\\\204\020\276.\311\341\273\341\262\345:\355\t\003;:^\001=\016!\000\276\001Y\006>\352\027\030\274\006c_<*\220v=\037\025\035\275\344x\236;vm3<\260\223\263\274\351\335!=!\035H>\252\372.\272\337:j;abg\272\220\231h>u\240\030\276\360\223\002\275\036\035\023\276\005\035I=\0347\300<x?\200=v\277\013=\315\246\224=\244$\364\274\245\317D\275-b\\8\373.\025\273\260i\231\275RD\205\274\254\027\343<p\242\204;\237\250\253=\016I\005<\350\"\257<\212Ot\275P\231\032\275\355\334\203\274\"\277\223=\035.\373=1O-<\334\303\031=7\\\321;\243]F=Wg\306\275\224\242P;\022\230\035=js\307=s\025\302\275\347d\273<\006i\"\275\353\260\252<\031\302`=I4\035=\031O\324<d\"\265={0\274\273\314\022\347\274\253,\355;\025\333\r\274\250\363\217\270;E\237<\321h\230=j\306\374=\332\037h;\'\276\352;4\002\177\275cs4\274t\261y\275\234\321 \275\352#\t\275&\226\370\273F\351g;\207\277\222\274\216\276\223\274)\205\r>\265l\026>\004j\365;\204\010\303\273\3469\3129\227\343k=\035\343\207<\2768\246\274\023-\021\275\343\275\256:\220\013\023\275b\t\226;\273\217\217=\312\333\322\274Z\231 \275\262|\031\274\2356\004\273\267c\205\274\217U\027\274\337\r\301\273\304\"\246\272\351\366\r\274ua\007\275\257=\026=x\366\343;\374KB\275\216S\247;\244\031\205=\001\360\202<z\203\001\275\262t\027\274\2537\206\275d\317,>\375\t\377=\3033\236\273\276\360\277<\323N\220\275E8\232=\304\021K<v\346\365\275w\226\314=\367\320\263<3+\373\274\243#\266\275\201\320\001=\265%*>3\214\022\276#\016p<`R\217;\036A>>\235\2036\274V\020q\274\245\352\210\2735\337\314;\255*\324\274\362\246\254\275\241\313\207\274\214\366\007\275\333\234f;\350\234\014\275\3674c\274\267!l;\213\231\220\274\t\177\243<\223h*\276\362\356\017>\336!\022<\005\355<\274\202\245\362\275\022\260\276\275\364\376\274=\237(\221\273\230\347\303\274p\312\213;Y\214\224=^\266;<h\275\207=\026\0307=\367\240\260\275\307\215$<[\032?\273\376\242\255<q\236z\274\n\350\254;Xq6\273W\376\257<\324\304\"<\234?\211\275%\022\220\273\036\335\366\274\3249\325\274\262\327\375<n;\364<%\002Y;\321E\220=lh\373\273\225\274\303\275P\331q<\364\320\350;\315y\302\274\327\020-\275.\224\216;\016\262\205=\017\350\200\274\013\2478\275\203\226\371:,r\324\274\347\240,\271\347\343\253=\306\037v\274+\245:\275\010Mf<\264\335\001=3I\227\274\016&z<\324\315\'=\030\307\271<\363\225\356:\264=\360\273\321\301\257:\023\205\3619\tI\r\274\371\204\227<m\343l\272\246\350n:\257=\371\270\226\003)\273\216\217\233\273T\216\252<\271b-<\212\340?;\202\330\231\272\3755\014<\366\343\305\274>\366\005\274)~\344<\250\206L\274\272\310\201:\013?.;I\003\016<\250:\214; A\302\273\267\204\245\274\267S\251\273\010\347\231:\013\301\245;\245\357\244\272D\010\242\273g\247=\272\304\037\364\272\377q\021=UY\211\274\027\230-\272\210Y\251=\204\264u\275L\2120<\317\376\020\2736\216\220;\376\313}\272\016TY:\326v\300\274\360~i<\226H\341\273p\023\227: \021\240\272\310e\313< \232L\274\350{\240\274\246\013s\274\372? \273\354D\025=f\341\250\274\321\200d;x%5<\331#\337<\237g\030\274\025\241\030\273\360\225\371<\315\201\n\272\353;S\273nWQ:mc*;DA\225\273y\005u;cx\021\273H9v\273\310+\355;\232\310@\273\236Z+;\244\230)\271\3051\230\273J\032\303\270\317b\244\273G*\227\274,\341D;\374\223\037\273\274,\277<<e\327\273\020\214\370;P\245\207\274\322\001\345:\326\003\003;1\345k<\346\370g<\344\376\016;\213\267\r<\312\026L\274\347^\231\273\010\371.;/\310\361<\326C\021\273\322\262\264\273\250(\373\271\264\001F<\024\2347<\202i^\273\270\364\245;\030\263\004\274\330\211\r\274k]\322;\321\307X<\242\356\330\270\230\220\300;!<a\273\317\363\r<\225\357\317\273\2235>;5\330b\273\363\305C;4\327\030<\327`\217\273t\245k\273\333\0270\274\252\271);\242(\202\274@m\005<\271\342G;\244\252\246:\032\t^\274\302[l\273\023\"a<b\2100;\352\243\257\272#\'\244\273b\205\032<\334 x\273V\307\272<E\302\272\274\3161n\274o\3136\275!\366\203\275\377\254\245\274\241\252\246\273I\243\241; fb\274\252\307o\274A\255D\273\261\276\004=8\361\251;\255F\317\2733c\314\274\367!\332;v\270\300\274t\017\271\274 \244W\274\341\031\010;t\r\010\275\323%B\274\274\303#=\025\3240\274\254,\014\275b\357\263<\233\022w\273\260\375\217\273{\177k\274\351\'&\274ID\247\273a\344\313<R\375c\274\014F\005=\177\002R<\033\220\273=\204\227\232= \256A=3\031\033<\242\356\334:\001\310\211\274\350\356\300\274WB\217\275\335@I=\377)\374\274T#\217<z\261\004>67\027=\364c\256\275\222\270\326\275\257\"\373\275\206X\303<\"\260\313=&.\347\274\036\213\226\273\366P\245=T\325\016\276O\357v\274Ga\026<\212\352\321\272&\372b\274\026\267\215\274\002mB\274\2620\270\273.\177U\274wJ\222;\365\305\256\274\261|\331\274\275\017\001\276\207/\222\274\231\252\n\274M.\211;O)\235\274\351\241\205\274\241za<\265\037r=\334g\257;9\244X\274\224K\004\271w\213\003\275\253\255:\275\362Z\200\275)a\004<j\254:;$I\000=\314\350\267\273]\210\026=\031\353\273\274\317~\245\275\311\200E<[\312\006\274\0317\345\273\322\214\255\274\263P\252\273\272m,\274=\331\237\274\241\n\037;\231\216\211\274\035\335R\275}\233T\275\305Kk\275\322\241I<\310\341\027\273\357\202\220;]d\244<\256\247}\274\350\021\304\274\324r\'\275H%\264;\200Z\224<\354\231X\274\377;\252\274\216v1\275(\305\033\275W\005\013\275nu\r\274\r\316\367\274Q\3378\274tSA=\024\372\323\274e\333G\275\231B2=\323\210\031\275\026\037s\274\262\216\260\273\352\325t\273\322CT=\222W+\274\234\277%\274\034V*=\246lb<B\261w=\353\304e=\361p\201<\224\3526;m\302\336\273\356\301\201<Ton<\227\354V=\266\274\217\275_\370\304\272\245m?;\007\244\245\274sq\263\274\311\367T\272O\004t=\244\037\226\273\321\t\301\273\371\236/=p}w\273E\036\203\275\363\327W=\261W5=\035TO\2748\320F;1\335==\315\372C<\331\304\202\272\272\357\202:\250\213\204<\360\217^=4F\020\276\276%\014\274\315\346\277<\240dC\275\255\225)\275\311\253q\27365\300;I]U<\017\000\341<\271|\026\275\377\321\321\2742!\304\272O\374;\274.\032\201>D\306D\275zK\246\274\210\000\204\274\351m\336\275\304\265\333\273\266\257\036\273\320\237B\274\030\351\312\272\372@\016\273\315\013R\275)\274\020\274\034\264\311\273P\010\255\275/\240\227<%2\327;RS\267;c\341Q\274\025L:<\222\202\323\274U\345\252<\227C\"=\021)\224=[\341><_b\\;\362\365\357\2738\336\240<\355\021\013\274\346\326`=\n\327u\275L\2652\273\361T\314;\216k \276\310\241\352<\255uA\275\372\"\207=\177a\021\275Oz\366\273\363\276\000\275(\353t\274\371\243b\275\341\030\333=\342\336\"=\366S\314\274k\306\021<\305\242X=4*\230<\205\035x\274\353\251d;\376r\303\274m=\316;\330o\306<\202\370\337;n.\207=\327\"\255=\247e?\275\332\301 \275\'\332\320\273\301\302\"\275&E!<=r\321;>o\r\274\325\000\277\272B\316\243\2741\036x\275\233\356\275=\225\362t\2750\343\354:J\276z\274\271\372K\2738\3453\271<\327\210\273\240$\222\275\304\026\177=\032\353Z=\010\302u\27406\306;\200h\271<\222\243\331\274\016\031}\275\3408\374\274\303D\025;(\\\322\274\3475\217=\372\365\377;e\373M=*w\335=y\005\020=\332@\010;\254\244\370\273\236\002\265<\027@\013<\310\213/\276|\340\032\276\001\177\226\274D\013\304;\214\001\320<\317\300\350\273L\325\374<\331J\213;\216\206H<\320\252<\274\2701\245<\375\365\325\274\254\200\221\275s\223\032=\256\264(=\010\007\375<G\0214\273\023\311\001\275\014\232h<\037v\270;\233\232\316;\354L\310\2740\014\375=\200\366\350\275\356\215\272\273\004\334\227\275\360\360\303<QFg\275\340\246\212\273W\225,;\214/\333<$\374\261=\3737\246<\021Y\222\275\001\264\202<3a~\274\315M\317\275\024\346\231=\024\317\t\276\353\312&\275\242\255(=\220S\272\274\255$*\275\273\345\t=8\002\"\275\003\2274\276\036\273\353=\214\354\375<\300h\037;K\271\314=\356\361\242<`\226\200<\361\263\032<4\'7;)\334\255<(T$=\364\366\007<\215&\026\275/\325\031=\257T\002=\332T\205\272\374\347\340\273)\023\314<F\255\233\274\3309\360=U\342\022\275\364\244\221\274\320e2<\266\214\020\275?\2256<\033\353\221\274\364\203\237=f\306\244\274\276R\203\274\200\323\025\274\306\222\341\274\376%\214\275\027wZ\275\315\320\334=\254\022K=M\304\313\273\204|\345;\271\322\235<\267\210\025\274GSE<\252\267\364\273\220\371>\275\225\377\007=m@I\275\010\r\344<G|S=Z}\270\274\223\265;\275\272w\376\273=\316\350\275\256\017\211<5\330\260<\036\3546\2754\326\226\274\250b<\275k\314\003\275\364\250`\273#)\"=\264\226\207=\267\260_\274Q\335\341\274\267:c=U\254\222\274Io\244\275!\323\320\273\350\254.=_t\347<,}w\275\216H\366\273i\236R\274$x\256\274E(\244:\246\227\333:\026ms<\273\256\256\274\206\271\004\274O?\340\274\313=\270=\255y\027<\221HU\273\371#\342\270\252t\277\273A\232O:\tc\356\275\376\033a>#\303\241\273\231J\020\274\272\221\022=}\246\016\275Z\366y<\\{[\276.D\223\274\265\324\034\274\010\207\206\274\335\\\277\273\252\275\030\274\342B\356\274a\363\377<\314\022\200\275\213\350\002;T\014\205;\243\030\017\274\242\337\013\274[\022\274\272U\335T\2744@@\275\344G\276=\367\315\006<\242\207\361=9\033\361=/Z\307\274N\003\365\273\\\342|\274V\206\313\273\203D\212\275\2307\220>\370\376j=#\265\255\272=\224:<\300q~\276\014?\221>/O\276>\301b4>\023\021J:\022\321\237<\277\322\006>UO\375;\366\367\235;\026.1>\351)\026=\270\363\245\274\312\001\025:Z\000/\276\211\271\022\274\272\273,\274\030\222\204\273:\240\030;\304M\000=C\273\331\275k\260 \274\215%\324\275@\336\031\276\323\001\343;\231\341\025<\3749\010:8\323\032\274T\276\016\275Q\350&\276\002\231x=<\214\221\2738\024P\274\233\200(\275\007,\256=[qK\275z0;>3;6\275L\342\231\274\205\377\002\275s\206\374\274Z^\344\273V\254\311\275\250\276Z\275\036[U\275R\003e;\253\261\014>\371K\206\274\217\257\312\274\375\322T\273\002S\341\271\0330\013\273\303\305\217\275?\200\034\273\264\247\220\274\241\030\241\274:\270\370\274\341\247*\275\267\03309;\025\313\274!\347\341\274;\233\220\274\'\351\205=\206Px\273\235\335\247\274\037\321\321=\034\346\2658S\200\204;\270\341\365=\354T\212\275\252\263\270\274V\304\203\274\204K\244\274\201\273\021\274!\350\367\274\321U{\2755\345e\275\311i\201<U w\274>\320%\275O\342\321\274\343\033\221\275\225o\030\274\312\033\022<D\246\016\274\347p\231\274\364\204\302\274\331\355\240=<\244\235\2749\273\333:\322\352\267\272\370>\375\274\362\2011\275\360%\376=S\2411=t\224\236\272}Ol\274._.\275PV\254=A\232\213\273\030\276\325=\016\252p\275\336\263\t\274\234\020\323\274\277`\200\275+\252U=\373E<\275\217q\035>\330\332)=F\335\036\273~\264o=\266o\273\274&\305\033\275\240\334\n9\300\337\025\275\301\214\026\275\n\367\262=\251\014\211<@&\013\275\243\225l\275\315\023-=\355\020\267;\204|\200<\243\013\277\274\365+r=\306~D\275\002\366\251=R\312\033=\0255\342<,\032\022>\337\225\363=2\344\276\275BZ\213=\275<\355\275(\232f\275\213\336\023>.\270M\275\367\"Z\274`\003\265=\265\211D\274\205\232\270<\264b\320;\252\246\275=&P\363\274\352\264D\275\265\250\371\272\311\262A\274oC\207>\365\220\237\275n\314\324\274\350L\340\273\366\253\360\274\377\332C\274\246\343\210\271\270\270\004:\270Q\035\275\030\021\246\275r\026\326\275rY\223\2767\002\263:\317G\312\274\221/\347\275$M\345<+\346\247\274(\344\002;i\270\217\275\352\374k\274{\316\303=[j3\275:;K=3`R\275Y\217\025>\021f@=\275\003\311\273u\017\202>:9\351\274F{\203\275]$,\272]E$\275\347Y\374;\254\255\242\274\t3=\275\331T7\2757U\210\275\254\2667\273m`\234\275\t\265%\273>_@<i\241T\275\020\205\360\274\253s9\275\252\234\215\2721]\337\274\301P\333\275\004\335*=\232*\353\274\252\356\220<\374Z\001\276\303\313\215\273\367\221`\275|hf\275\003xv=\020\321O\274\022\'\177\274\036\321C=\306\241\3059\352\212\231<as-\273~n\375\275rW\r\275\307\215\260<K\363\210\274\364\354\r\275\351\224\010;\3630\310\274D\310\225\275\033U\255\274\324O\304\272\211E};I\232\254\273\311\226\366;\240D*=\373\217\231\275{\225\362;\014\252\016;\034-T=n?.=\361p\210\274\250\223\352<\004\"\002=\224ON<\206\004.\274\3115\325<\213\223R=\n#\265\274C\217\357\275b\306\276<\217\354*;^\\l\275tu\204;\2063\373:m=\n;2Q\314\274&\340\010\276\352\202\311=\203\210\253\273\332\360\225:\375a\203\274\024\323N=$M\334:\224\236\000\274\004\263=\271\021\273\352=\273\267/>\226\321\026\276\210\263?\274\177\021\003\273\2239\344\275\207a\233<\262\t^\274g5A\275\356V\036\275\202x\325;\024\032\344\275.\023\346\275.<\016=\240\360\n\274\266\263\002\274\264\247\027=\230\016\233\273e\231\207\273\303\204\'<\203S\034;\327\365k;\243\236\331<m\271\336\274\305\005\355<\272u\222;\264!\272:\322\321\004>\321\005\321\274\356\245\351\272\216{\221;\247\262\226\273\302j\014=v\342\035=\231 \024\274<$\033<\305\264\220;\212\372\211=\357`\312\275\001\201m=M^8\275i\374o=\3763\220<\322\364\014=\250\0218=uW&=\322K\261=i\306\200=_\216\356<\336\226Y;\226Z\234\275!j\000<\331\327k<\253\272\213;\034c\234=\276\354%=\222\214\017\274|=\200<\244\234\263:\240!}\274\270\t\332<\372\007@=\013\367R;\"\215#=t\240h<\3341(=\'Yi\275\337\346\004<\265\235;=pc\027<\372\233\342\274\002\337\"\274\235\234\222<\276d\216=\213\013\253<\2263\023<\207\022\353<;\247^=`\364w;\377\240R\272\222\367\275<\373_Q=\262qu\274\352\004\023<m\276B=\230\363\352<\333\256\213:\252\212<\274\2163\226;B\200?\271x~o<\032EK=\320\305\2137$\272$;\332+\033\272R\265\001;\242\334\363\272e\344\034=\322`\263;\351\323\254:\261\300\363:l\341V<\246\026\304\274\272\243Y\273\322+\007=T\220\022\272\177N\242:Z\352h<\255\010\375;\016 \317\273\322\014\264\273\264WU\274\234\326\201\274$X\316:S\345\211\273\323\366\347:Q\2563;\t`\216:\260\250!\274\203G\224=\276\254\261\2744\003\230\273\255\3270=\017\352\363\275\376 \036\274%\034\276\273\032f\3367\007\206};cRC\275\363iN=\'\021{\275\233\333\245:\266Qn\273GIM\275R\033E\275\037RD:\237\331U<\224h\230\275e\327W\273p=\022\275R@}\273q\302\253;N\223G\275\313\005\332=\232hT\270\253e\200\273\324\225\025=wg\213;\376\330\274;Y\237\217;\307\224\375:\341\277[\274\036\002b:\3011g;\036\001\224<C\024\025=M\265\307:\217\227\235;\324\372\022\272itN;\365\222S\2733\r\347;#\363\006\274s\226\271:8\261n;\002\310\003<\213\365V<\307\246\323<\227\277H<Z\305\234\273\\\037\005;\n\330\244\274\354\240,<\036\300\217\273\300\032\036<RE\001\273t7Q\274Y\re;\355\200\272<\207{l; !\226;^\211I;\241>\374;[8\371;\0365\177;\244S\206;\362\260\215<\360\350W<W\210\352\272m7\241;\307\321\035\272\230\256\212\273\344f\317\273y\032\211<\344iE\271 \273\242:Yv\256;V\020\321:\0022\032<z\304\020<B\246\2679\023\225\007<B\004\216;o0H<\221\351\002<j\304\336\2736\240\032;\366\254\302;.\0018\274\373\022 <\370\005\017<@\000%9\237\335\361;i\036\340;o\247\206\274\236\333\217<j\270\244=[\276\362\273\036e\257<\304#\023>Nm\003=\246\330\013\274TSQ\273\261wB<zB&<\005\344\017\276\n\263_\275\320\024S\274\010\312\221\270\01447\275\"\366p=dT\201<<G\001\276HW\261\2732\262#\274`\330\233\274h\270\321\274w}-\275K\031\374<\232\341C>\257G\254<\257\204M\273\206\026\214=\025\017\r\274^\314\236\272\231\243\304\272\017\362\024<\342\036);\240\276\260<\224\266\021<\306\232\323\274\370\344\340\275O\257z\275;S\357;/\225\373;\033\315\021<\t\325(\275S\200\006\276\344N9>\220\362\016:\362eR\273-o\000>1\3475>\370\372\013\274\020\316\277=\331\233\014\274?\327A\274Pk\355<\0350\253=x\020\370\274\t\n3\276\277\374\240\275\366Z\016<G\323\331;\177o\353<\326\363o\274\270\335\235;\234\325E\271\314\231\267\274\330Q\302<s\340Z<\200\025$\274T\nc\275\367\246\241\275\340\307\t=\035\024Q\274\004\3265\273n\265G<a\261\361\274\216T\027\275*\346G\275\344\362`\274D\024\332\270\014\003]\274s\352\214=!\356\304\275\306\001\335<\317\260A\2753Q\217\274T\322\001\275K\215<\2750\006\"\275\205\202\000\276\307\037\242\274\016\036\214:\340-\335\273:\212W=\340\327\201\274\265\330P\274K8\275\272\007\353K\275\276\004\205\275\301\340\037=d\226\325<\332\202b\274w[\241<JD)\2756\371i\275K\343C\273G\rR\275\326\352=\272\3150\203\275\312\353\207<\037\333^\274\367\337+\275\206Q@\275 \rT<\'\230\316\274\231{\227\274\312j\367\274#\340\323\274\240\370\370\274\302]\021\275\033\304A\275L\302\336\274\021f\302<\362\0331\274&x$\275\362(&=:f\273\273\214{\203\275\213@q;l`\224;\264\222\263<w\264\265;\"\317&:\233q\255\274)`\247=\274\034\177\271\363\302.:\226\211\225\272\262v\360\273\244\247\230\273\014\300C\275B\305\020=\'\200\215;\267D\343\271>P\245<\334\333\247\275D=\231\273z\\\320=\025b)\275i\222\200;\352Q\257\272\270\215\376;\000U7<\014\225\004\275Q\373\236=29\313\274=\024\';\003\237-=\353\371\337\272\354\233\211\273P\242N\272&c+\274\306|\213\274:\237w\274\002\214\014\273\245\331\266=\010\367\222\275\233\275\251<\257(9\273F\332\245;5r_\273\203\273\270<\276\331\034\276\234\276\327=\2444\374\273\371M\235;fl\260\274\320!\025=\002\354\302=\251\342\327<Uu\327\274\221\373k\274\276\025\347\274\200Y\314\274\r\322\265;Z\033\243<Rf\315=\323\237\216\274\003_\266\273\220\322\024\274f\276\303\272*gp\273.\351\243:\340\023\251;\356]\206\275\204\362/\274\254\326\022\273\266\205\202\274k\227\267\274q\372\223\273\323\234V;  \251\272\274<\"\274\326\375\260\273,\241;\275\000\360\020=\220,\252;\311\037v\272\334*\223=~\265\221=\304.\237<\325\0007; \342\324\274\256%\215;\333]\034=\251K\354;7\321\341;\241\367%\275\016+\326\274\260$\243\274\270_\326;\305\365\306=\031\203h\273\033\257\002\274V\030\205\272l\275A<\310\005\325\272\260,k\274H-\212<L;\032\275\337!,\274\256\013G<Q\241\277<\346\351w\272\350\353\223;WF\215\272LI\2529E\220%={Q\203;\262s\245\274$\272\000=\204\367r=\237\232\274<h;\203;\010\301\'\275\320Q\354;mO\377\274\013\204w;n\230-<\343\246\014\274\307\010\227\274R[\211\274p \344\272\254\037\207<\007+\300\273\036\360N;\0168D<\251\325\351\2729\360/\273%)/=\245\304\215\271\342\370\345<\002\256\017=\357\371\352:\033\237\236\272a\024.\271=\204-\273N\247\212<\037\221\305<\037P\033\274\202\224\005\273@t\r;\260\230\265\273Q\024\010\275\302,\234;\260R\202\2743\365\343<}@\177;\201h-<\324\314\223\274\240\026\027\273\344\001\226<R\236\340\270}\210\253<l8\2039\301I\300\273\030/\357\270\353c\265<Aoe\271\361\231-9jD\031\274O\"H\275r\303\330\271\262\262\303\274j+\037\275\276@\201\273\320$C\271\201=D;F\235\036<<x\300\274\"\356i=\302\005\026=\345\244c<\307V8:\271{4=I\352\336\274\t\232`=\274\017\331<\002\301\331<\254\234I<\033\214?\275\036\346\235=\342+\r\275\246\027\362;\364>+<\325\273\351<\334\033F\272N^s\274A\273\201\267\331\211\335<\t\240):\221\321-\273D\372+=\343\2414=~\336\3108\246\2235=\032\021\305<\334\222\244;\241b(;\006\303\277\267\303\307\232;\3315\316<\373\203T\274\027\002\331\274\344\014\326\272\025\264\254;\231e8\274\357fU\274&S\n=\274\212\255\274!\2302<\214\255Y;\205\364Z\275~o\247\274\224\226r\271K\373\'=e\206\013<\273$\236<i\3317:\372\316\326\274\270\'Z9\t\272\010=\260\021H:\224\277R\274\240\262/\273\243A\016=\250\177~<\371\327\'=\233?\022=Lw\303\274\022h\333\274b\317~\271\251\2479<u\0342<P\007S<\261W=\273u;\t\273\264\324C=\006\243\\\273Q`\375\274\256p\276<Z\0167\2745\231\005=\212\361\277;\200\273\004=*\246>\274\270\270A\273\217\224\233;\351\223\021<\223\253\243<8\366\353\273\346\301u\273\375,\237<\200T\034= !\317\274\367X\324\273\363\215\037<\236hX<7\246\321;y\371\020=\203=\274=@)\310<~\327P:\013Z\376\273\273Zk<\223k\026=\322M~\275{2\004>\210\225P\274\\\037\007;*\303E\272\237Lr<*\352\201;\3539\315\275sX]<\304D\336\273\267p\037=\000\021\303\2736\221W\275\211\367\t;w\332*=F\013\310\274hY\034;\305\304\354<=c\224;\037\343j\274\t\272\236\271\244o\024\273\211j\r\276\301\035\307=]FS\273\264\244\347\273\332r\345<y\002E\275s=)9\335\205R\274b\000\202<\021\3717\276\267\342\375=\215\215\005\276\355}\373\274\006\242\317\273\t\375\177=\205\3660<a\0132> \223\211<\356\372*\276Lm\216=\3756\331=\300?\225\275\nW1\272\036m\026>\034\357\373=\333\037\010\275\227\220\304\273I_h=4O\313;\363,