node {
  name: "input"
  op: "Placeholder"
  attr {
    key: "dtype"
    value {
      type: DT_FLOAT
    }
  }
}
node {
  name: "transpose/perm"
  op: "Const"
  attr {
    key: "dtype"
    value {
      type: DT_INT32
    }
  }
  attr {
    key: "value"
    value {
      tensor {
        dtype: DT_INT32
        tensor_shape {
          dim {
            size: 3
          }
        }
        tensor_content: "\001\000\000\000\000\000\000\000\002\000\000\000"
      }
    }
  }
}
node {
  name: "transpose"
  op: "Transpose"
  input: "input"
  input: "transpose/perm"
  attr {
    key: "T"
    value {
      type: DT_FLOAT
    }
  }
  attr {
    key: "Tperm"
    value {
      type: DT_INT32
    }
  }
}
node {
  name: "reshape/shape"
  op: "Const"
  attr {
    key: "dtype"
    value {
      type: DT_INT32
    }
  }
  attr {
    key: "value"
    value {
      tensor {
        dtype: DT_INT32
        tensor_shape {
          dim {
            size: 2
          }
        }
        tensor_content: "\377\377\377\377\t\000\000\000"
      }
    }
  }
}
node {
  name: "reshape"
  op: "Reshape"
  input: "transpose"
  input: "reshape/shape"
  attr {
    key: "T"
    value {
      type: DT_FLOAT
    }
  }
  attr {
    key: "Tshape"
    value {
      type: DT_INT32
    }
  }
}
node {
  name: "w_in"
  op: "Const"
  attr {
    key: "dtype"
    value {
      type: DT_FLOAT
    }
  }
  attr {
    key: "value"
    value {
      tensor {
        dtype: DT_FLOAT
        tensor_shape {
          dim {
            size: 9
          }
          dim {
            size: 32
          }
        }
        tensor_content: "\262t\246\276\356\216\232\277\205\025\000=\267\247\203<A\036\'\277\303\255.?\177MG>\2262\030@\332\2032?\226{z?\301\013\334>N\212\242?a\372\252>B\226|?\177\355\244=\227S\361?{J\375>f\227\004?\025\n\245?X\326\310>+\217f?/~\254?#b\327>\255\032\265?V\360\223;\177KV\277\033+\323<\371WF\275\264\'\320\2770\223\310\277\221<i\276%P\261?\222X\027\277\377\321\224\277\334`9\277\357\263%\277 \274<?\310\371S\276Xi\213?A\203\215?O\376 @\005\373\330\274\365\364l\277\320\212g\276Z< ?\374\213,\277\343Z+?\227vC\277\366wd\276H\354G\276\003\316\372\276\3410\333\277J\322\315\277\226\230\206\277\372\376\260\276\323\014\030>~pz\277\307\245\033?7r\001?\037\207\t\277\375\021\312\277\340\234\035\276q\315\204?\243\225{\277\022\035\210?\344\343\273>\0328\202\276\355\343\245\276\306?\235\277\021\025\245\277\205\333E?\255\277\014\275e\366\356?\000=O\277\233-*\277\346\'\032\277\237\'>\276>\375\377?\330.\310\276\232\366\237>\014\240d?>\034\263\273\217\372\035\275\"K\230\277]\367\024?\202E.?T\033\250?Au%\276\326?(?2x\262\277\276\024\313?\274o\332?\201\332\237\277v\336\025?\325\347<@\223\213\205\277>\345.\277\200f\264\277\227S#>\267\207\036\277R\303J\277+\262I>\365S\305=\256wx?\177\312\305>\333\361\021\2771q\036\300\227-\262?\260\355\223>\200\2775\277\250\301Q?bT-?\207(Z?\373\337\276\2770/\327\276\236\367\006\277\334\305N\277\324%\272>Z\231!?\370\205\225\277\007T\257\276\037z\316=\363dD\277\247\203\250\275\324\332\330=N\271\223?\216u/?\247%\t\276r\325\363>.\326{\2775\016\303>\210\255\221?\372\025\323?\311\375\316\277g6\t\2775\337I@\264.\272\277\003/\031?\257\003\264\276G\340\n\277\220\037\367\2774\351\357\277hG\016\277\250+\013?\231\350`??f\320>\317{\260?=\010\220\277\264\360\022@L\220\226\277\306\373\200\275\231\320D\273\352Q\253\277\017\313-@H\226\336\2763\217\207>l9\373=\027\344\034\277,\245B\277j\205\333\276\034\215m\277\017\223\272\276\002\364\373\277i\226\213?qbj\276\374\236\217\2775\242\272?\211T\331?7\177\207\276I\364\r\300Q\024\020@\'\\\035\277\2725\224>6\357\205\277\325\003\344\277-~\025?\n\021/\277\364&\r>-\227\305>E\3015\275\206\221\366\276\344\204+\300\274\254\031\276\3232\201?\203P\201?\326\220\335=\367\212\207\277\3133U?\272\340X?\016\257\343\277\337\002:\277KJJ\277\323\003\016\275\341Q\177?WwQ?\272>1\277\351\247g\275\213\356v\277\2665\324?S\262\241?\256\213}>\024\006\231\277N\312n\277\353%\223?:3\010\300V\242\246\277\2527\177\275\3078\006@0\307\377\276\262\025a\277\014\364\026?\323|\372\276\274\016\032?\305,\016?$\223??E\3121?\361E0>\007p\301=\006lL?g\\\322\277X\3603?\nE\206?\226&\347\275+7\256?#\220\240\276\375TW?0\354\266?wr\356\2766d\274\277\273L1\275\263s\306\275uK\357\276\361\225\233\277\334g\"\277r\303U\277\2505\022\300\030\313\034?\302\352\257?\356\215\237\277O\371\207?`\306z\275\270}\013@\031\372S\277\001\027\245?k`\021@uq:\277;\226\"\277\033\306W=\333\036\200\277w\311j?Y\343\350>\024\340\000\277MV\256\276\373\372\240\277\'\276\342\277\270\010\256?AMD?[\265\303\276\353\222\"?\n\324\321=\352E\001\277\364\320\330?\033\354\343\277jn]?\337\033\026\277\2520\355\277f\363\"?]\350\216?k\010\277\276\302\245\006\277a\177\242?D\365\227\275\206\037v\277Y\236\304?s\273\340\276\362V\262\277(ie>\037q\212>\351\374\360\276\342\177\254\277Lar\277Q}\232?\024:1\274(\233S?\320k\003>\243\275h\277\027\211\255>{\245\252>"
      }
    }
  }
}
node {
  name: "b_in"
  op: "Const"
  attr {
    key: "dtype"
    value {
      type: DT_FLOAT
    }
  }
  attr {
    key: "value"
    value {
      tensor {
        dtype: DT_FLOAT
        tensor_shape {
          dim {
            size: 32
          }
        }
        tensor_content: "\231\275\017?{\212\021\276\340\255\031?m%\251\277\3659\252=\222\001\323?T\224\036@\320\235z@Q\317f?\304W3@\215\032\252>\t\210!?>\220n?\000=\213?x\371\337>\254\274\024@\250\246\311\277B\353\305\277\352\022\177>\003\370x??ab\277\222:\320?\003.\231?\023\255\022?\313\032\302?\372\210\361>\031\324D?\035\235\t@\211\214@?\031_k?\334.\243?4pZ?"
      }
    }
  }
}
node {
  name: "MatMul"
  op: "MatMul"
  input: "reshape"
  input: "w_in"
  attr {
    key: "T"
    value {
      type: DT_FLOAT
    }
  }
  attr {
    key: "transpose_a"
    value {
      b: false
    }
  }
  attr {
    key: "transpose_b"
    value {
      b: false
    }
  }
}
node {
  name: "add"
  op: "Add"
  input: "MatMul"
  input: "b_in"
  attr {
    key: "T"
    value {
      type: DT_FLOAT
    }
  }
}
node {
  name: "relu"
  op: "Relu"
  input: "add"
  attr {
    key: "T"
    value {
      type: DT_FLOAT
    }
  }
}
node {
  name: "split/split_dim"
  op: "Const"
  attr {
    key: "dtype"
    value {
      type: DT_INT32
    }
  }
  attr {
    key: "value"
    value {
      tensor {
        dtype: DT_INT32
        tensor_shape {
        }
        int_val: 0
      }
    }
  }
}
node {
  name: "split"
  op: "Split"
  input: "split/split_dim"
  input: "relu"
  attr {
    key: "T"
    value {
      type: DT_FLOAT
    }
  }
  attr {
    key: "num_split"
    value {
      i: 128
    }
  }
}
node {
  name: "rnn/Shape"
  op: "Shape"
  input: "split"
  attr {
    key: "T"
    value {
      type: DT_FLOAT
    }
  }
  attr {
    key: "out_type"
    value {
      type: DT_INT32
    }
  }
}
node {
  name: "rnn/strided_slice/stack"
  op: "Const"
  attr {
    key: "dtype"
    value {
      type: DT_INT32
    }
  }
  attr {
    key: "value"
    value {
      tensor {
        dtype: DT_INT32
        tensor_shape {
          dim {
            size: 1
          }
        }
        int_val: 0
      }
    }
  }
}
node {
  name: "rnn/strided_slice/stack_1"
  op: "Const"
  attr {
    key: "dtype"
    value {
      type: DT_INT32
    }
  }
  attr {
    key: "value"
    value {
      tensor {
        dtype: DT_INT32
        tensor_shape {
          dim {
            size: 1
          }
        }
        int_val: 1
      }
    }
  }
}
node {
  name: "rnn/strided_slice/stack_2"
  op: "Const"
  attr {
    key: "dtype"
    value {
      type: DT_INT32
    }
  }
  attr {
    key: "value"
    value {
      tensor {
        dtype: DT_INT32
        tensor_shape {
          dim {
            size: 1
          }
        }
        int_val: 1
      }
    }
  }
}
node {
  name: "rnn/strided_slice"
  op: "StridedSlice"
  input: "rnn/Shape"
  input: "rnn/strided_slice/stack"
  input: "rnn/strided_slice/stack_1"
  input: "rnn/strided_slice/stack_2"
  attr {
    key: "Index"
    value {
      type: DT_INT32
    }
  }
  attr {
    key: "T"
    value {
      type: DT_INT32
    }
  }
  attr {
    key: "begin_mask"
    value {
      i: 0
    }
  }
  attr {
    key: "ellipsis_mask"
    value {
      i: 0
    }
  }
  attr {
    key: "end_mask"
    value {
      i: 0
    }
  }
  attr {
    key: "new_axis_mask"
    value {
      i: 0
    }
  }
  attr {
    key: "shrink_axis_mask"
    value {
      i: 1
    }
  }
}
node {
  name: "rnn/MultiRNNCellZeroState/BasicLSTMCellZeroState/ExpandDims/dim"
  op: "Const"
  attr {
    key: "dtype"
    value {
      type: DT_INT32
    }
  }
  attr {
    key: "value"
    value {
      tensor {
        dtype: DT_INT32
        tensor_shape {
        }
        int_val: 0
      }
    }
  }
}
node {
  name: "rnn/MultiRNNCellZeroState/BasicLSTMCellZeroState/ExpandDims"
  op: "ExpandDims"
  input: "rnn/strided_slice"
  input: "rnn/MultiRNNCellZeroState/BasicLSTMCellZeroState/ExpandDims/dim"
  attr {
    key: "T"
    value {
      type: DT_INT32
    }
  }
  attr {
    key: "Tdim"
    value {
      type: DT_INT32
    }
  }
}
node {
  name: "rnn/MultiRNNCellZeroState/BasicLSTMCellZeroState/Const"
  op: "Const"
  attr {
    key: "dtype"
    value {
      type: DT_INT32
    }
  }
  attr {
    key: "value"
    value {
      tensor {
        dtype: DT_INT32
        tensor_shape {
          dim {
            size: 1
          }
        }
        int_val: 32
      }
    }
  }
}
node {
  name: "rnn/MultiRNNCellZeroState/BasicLSTMCellZeroState/concat/axis"
  op: "Const"
  attr {
    key: "dtype"
    value {
      type: DT_INT32
    }
  }
  attr {
    key: "value"
    value {
      tensor {
        dtype: DT_INT32
        tensor_shape {
        }
        int_val: 0
      }
    }
  }
}
node {
  name: "rnn/MultiRNNCellZeroState/BasicLSTMCellZeroState/concat"
  op: "ConcatV2"
  input: "rnn/MultiRNNCellZeroState/BasicLSTMCellZeroState/ExpandDims"
  input: "rnn/MultiRNNCellZeroState/BasicLSTMCellZeroState/Const"
  input: "rnn/MultiRNNCellZeroState/BasicLSTMCellZeroState/concat/axis"
  attr {
    key: "N"
    value {
      i: 2
    }
  }
  attr {
    key: "T"
    value {
      type: DT_INT32
    }
  }
  attr {
    key: "Tidx"
    value {
      type: DT_INT32
    }
  }
}
node {
  name: "rnn/MultiRNNCellZeroState/BasicLSTMCellZeroState/zeros/Const"
  op: "Const"
  attr {
    key: "dtype"
    value {
      type: DT_FLOAT
    }
  }
  attr {
    key: "value"
    value {
      tensor {
        dtype: DT_FLOAT
        tensor_shape {
        }
        float_val: 0.0
      }
    }
  }
}
node {
  name: "rnn/MultiRNNCellZeroState/BasicLSTMCellZeroState/zeros"
  op: "Fill"
  input: "rnn/MultiRNNCellZeroState/BasicLSTMCellZeroState/concat"
  input: "rnn/MultiRNNCellZeroState/BasicLSTMCellZeroState/zeros/Const"
  attr {
    key: "T"
    value {
      type: DT_FLOAT
    }
  }
  attr {
    key: "index_type"
    value {
      type: DT_INT32
    }
  }
}
node {
  name: "rnn/MultiRNNCellZeroState/BasicLSTMCellZeroState/ExpandDims_2/dim"
  op: "Const"
  attr {
    key: "dtype"
    value {
      type: DT_INT32
    }
  }
  attr {
    key: "value"
    value {
      tensor {
        dtype: DT_INT32
        tensor_shape {
        }
        int_val: 0
      }
    }
  }
}
node {
  name: "rnn/MultiRNNCellZeroState/BasicLSTMCellZeroState/ExpandDims_2"
  op: "ExpandDims"
  input: "rnn/strided_slice"
  input: "rnn/MultiRNNCellZeroState/BasicLSTMCellZeroState/ExpandDims_2/dim"
  attr {
    key: "T"
    value {
      type: DT_INT32
    }
  }
  attr {
    key: "Tdim"
    value {
      type: DT_INT32
    }
  }
}
node {
  name: "rnn/MultiRNNCellZeroState/BasicLSTMCellZeroState/Const_2"
  op: "Const"
  attr {
    key: "dtype"
    value {
      type: DT_INT32
    }
  }
  attr {
    key: "value"
    value {
      tensor {
        dtype: DT_INT32
        tensor_shape {
          dim {
            size: 1
          }
        }
        int_val: 32
      }
    }
  }
}
node {
  name: "rnn/MultiRNNCellZeroState/BasicLSTMCellZeroState/concat_1/axis"
  op: "Const"
  attr {
    key: "dtype"
    value {
      type: DT_INT32
    }
  }
  attr {
    key: "value"
    value {
      tensor {
        dtype: DT_INT32
        tensor_shape {
        }
        int_val: 0
      }
    }
  }
}
node {
  name: "rnn/MultiRNNCellZeroState/BasicLSTMCellZeroState/concat_1"
  op: "ConcatV2"
  input: "rnn/MultiRNNCellZeroState/BasicLSTMCellZeroState/ExpandDims_2"
  input: "rnn/MultiRNNCellZeroState/BasicLSTMCellZeroState/Const_2"
  input: "rnn/MultiRNNCellZeroState/BasicLSTMCellZeroState/concat_1/axis"
  attr {
    key: "N"
    value {
      i: 2
    }
  }
  attr {
    key: "T"
    value {
      type: DT_INT32
    }
  }
  attr {
    key: "Tidx"
    value {
      type: DT_INT32
    }
  }
}
node {
  name: "rnn/MultiRNNCellZeroState/BasicLSTMCellZeroState/zeros_1/Const"
  op: "Const"
  attr {
    key: "dtype"
    value {
      type: DT_FLOAT
    }
  }
  attr {
    key: "value"
    value {
      tensor {
        dtype: DT_FLOAT
        tensor_shape {
        }
        float_val: 0.0
      }
    }
  }
}
node {
  name: "rnn/MultiRNNCellZeroState/BasicLSTMCellZeroState/zeros_1"
  op: "Fill"
  input: "rnn/MultiRNNCellZeroState/BasicLSTMCellZeroState/concat_1"
  input: "rnn/MultiRNNCellZeroState/BasicLSTMCellZeroState/zeros_1/Const"
  attr {
    key: "T"
    value {
      type: DT_FLOAT
    }
  }
  attr {
    key: "index_type"
    value {
      type: DT_INT32
    }
  }
}
node {
  name: "rnn/MultiRNNCellZeroState/BasicLSTMCellZeroState_1/ExpandDims/dim"
  op: "Const"
  attr {
    key: "dtype"
    value {
      type: DT_INT32
    }
  }
  attr {
    key: "value"
    value {
      tensor {
        dtype: DT_INT32
        tensor_shape {
        }
        int_val: 0
      }
    }
  }
}
node {
  name: "rnn/MultiRNNCellZeroState/BasicLSTMCellZeroState_1/ExpandDims"
  op: "ExpandDims"
  input: "rnn/strided_slice"
  input: "rnn/MultiRNNCellZeroState/BasicLSTMCellZeroState_1/ExpandDims/dim"
  attr {
    key: "T"
    value {
      type: DT_INT32
    }
  }
  attr {
    key: "Tdim"
    value {
      type: DT_INT32
    }
  }
}
node {
  name: "rnn/MultiRNNCellZeroState/BasicLSTMCellZeroState_1/Const"
  op: "Const"
  attr {
    key: "dtype"
    value {
      type: DT_INT32
    }
  }
  attr {
    key: "value"
    value {
      tensor {
        dtype: DT_INT32
        tensor_shape {
          dim {
            size: 1
          }
        }
        int_val: 32
      }
    }
  }
}
node {
  name: "rnn/MultiRNNCellZeroState/BasicLSTMCellZeroState_1/concat/axis"
  op: "Const"
  attr {
    key: "dtype"
    value {
      type: DT_INT32
    }
  }
  attr {
    key: "value"
    value {
      tensor {
        dtype: DT_INT32
        tensor_shape {
        }
        int_val: 0
      }
    }
  }
}
node {
  name: "rnn/MultiRNNCellZeroState/BasicLSTMCellZeroState_1/concat"
  op: "ConcatV2"
  input: "rnn/MultiRNNCellZeroState/BasicLSTMCellZeroState_1/ExpandDims"
  input: "rnn/MultiRNNCellZeroState/BasicLSTMCellZeroState_1/Const"
  input: "rnn/MultiRNNCellZeroState/BasicLSTMCellZeroState_1/concat/axis"
  attr {
    key: "N"
    value {
      i: 2
    }
  }
  attr {
    key: "T"
    value {
      type: DT_INT32
    }
  }
  attr {
    key: "Tidx"
    value {
      type: DT_INT32
    }
  }
}
node {
  name: "rnn/MultiRNNCellZeroState/BasicLSTMCellZeroState_1/zeros/Const"
  op: "Const"
  attr {
    key: "dtype"
    value {
      type: DT_FLOAT
    }
  }
  attr {
    key: "value"
    value {
      tensor {
        dtype: DT_FLOAT
        tensor_shape {
        }
        float_val: 0.0
      }
    }
  }
}
node {
  name: "rnn/MultiRNNCellZeroState/BasicLSTMCellZeroState_1/zeros"
  op: "Fill"
  input: "rnn/MultiRNNCellZeroState/BasicLSTMCellZeroState_1/concat"
  input: "rnn/MultiRNNCellZeroState/BasicLSTMCellZeroState_1/zeros/Const"
  attr {
    key: "T"
    value {
      type: DT_FLOAT
    }
  }
  attr {
    key: "index_type"
    value {
      type: DT_INT32
    }
  }
}
node {
  name: "rnn/MultiRNNCellZeroState/BasicLSTMCellZeroState_1/ExpandDims_2/dim"
  op: "Const"
  attr {
    key: "dtype"
    value {
      type: DT_INT32
    }
  }
  attr {
    key: "value"
    value {
      tensor {
        dtype: DT_INT32
        tensor_shape {
        }
        int_val: 0
      }
    }
  }
}
node {
  name: "rnn/MultiRNNCellZeroState/BasicLSTMCellZeroState_1/ExpandDims_2"
  op: "ExpandDims"
  input: "rnn/strided_slice"
  input: "rnn/MultiRNNCellZeroState/BasicLSTMCellZeroState_1/ExpandDims_2/dim"
  attr {
    key: "T"
    value {
      type: DT_INT32
    }
  }
  attr {
    key: "Tdim"
    value {
      type: DT_INT32
    }
  }
}
node {
  name: "rnn/MultiRNNCellZeroState/BasicLSTMCellZeroState_1/Const_2"
  op: "Const"
  attr {
    key: "dtype"
    value {
      type: DT_INT32
    }
  }
  attr {
    key: "value"
    value {
      tensor {
        dtype: DT_INT32
        tensor_shape {
          dim {
            size: 1
          }
        }
        int_val: 32
      }
    }
  }
}
node {
  name: "rnn/MultiRNNCellZeroState/BasicLSTMCellZeroState_1/concat_1/axis"
  op: "Const"
  attr {
    key: "dtype"
    value {
      type: DT_INT32
    }
  }
  attr {
    key: "value"
    value {
      tensor {
        dtype: DT_INT32
        tensor_shape {
        }
        int_val: 0
      }
    }
  }
}
node {
  name: "rnn/MultiRNNCellZeroState/BasicLSTMCellZeroState_1/concat_1"
  op: "ConcatV2"
  input: "rnn/MultiRNNCellZeroState/BasicLSTMCellZeroState_1/ExpandDims_2"
  input: "rnn/MultiRNNCellZeroState/BasicLSTMCellZeroState_1/Const_2"
  input: "rnn/MultiRNNCellZeroState/BasicLSTMCellZeroState_1/concat_1/axis"
  attr {
    key: "N"
    value {
      i: 2
    }
  }
  attr {
    key: "T"
    value {
      type: DT_INT32
    }
  }
  attr {
    key: "Tidx"
    value {
      type: DT_INT32
    }
  }
}
node {
  name: "rnn/MultiRNNCellZeroState/BasicLSTMCellZeroState_1/zeros_1/Const"
  op: "Const"
  attr {
    key: "dtype"
    value {
      type: DT_FLOAT
    }
  }
  attr {
    key: "value"
    value {
      tensor {
        dtype: DT_FLOAT
        tensor_shape {
        }
        float_val: 0.0
      }
    }
  }
}
node {
  name: "rnn/MultiRNNCellZeroState/BasicLSTMCellZeroState_1/zeros_1"
  op: "Fill"
  input: "rnn/MultiRNNCellZeroState/BasicLSTMCellZeroState_1/concat_1"
  input: "rnn/MultiRNNCellZeroState/BasicLSTMCellZeroState_1/zeros_1/Const"
  attr {
    key: "T"
    value {
      type: DT_FLOAT
    }
  }
  attr {
    key: "index_type"
    value {
      type: DT_INT32
    }
  }
}
node {
  name: "rnn/multi_rnn_cell/cell_0/basic_lstm_cell/kernel"
  op: "Const"
  attr {
    key: "dtype"
    value {
      type: DT_FLOAT
    }
  }
  attr {
    key: "value"
    value {
      tensor {
        dtype: DT_FLOAT
        tensor_shape {
          dim {
            size: 64
          }
          dim {
            size: 128
          }
        }
        tensor_content: "\332d&\276\211[\004\276b\233,\276\263#\000\275\344\241_\275\253@\266=->/\275\202x\365=\n\342;\276\367\307\326<<#1=\301\177\255=\324\344H\2754\354\r\275\305\360\250\275\301s\237;\233\355\377=\267\345\343=T\313 >=\352\271<\025\230\351==\n\t\276\307\325l=\000mQ<\335\243\361\273\256\247\316\2746\200@\275\007\304(>\327\363\343=Vc\234=\251Sg=@\226,>\004\337\302=\210\022\036>F\016g\275\3504\342\273y3\021\276\035\3553=\340x%\274prU\275\277\252\267=/\257\205<\377\2543<#\234\263\275\230\327\223\275\003\360\254=?|\336\275b\331\363=\"6\007>R\212\301=\014\300\272\275\007\204\206=\256\356!\276\034\030\210=*%\267;\213v%\276a\237\333\275\3153\027>\344\375\020\276e \315\275)\267\200\275A2\264\275\214!\000\2766\207\232=o\242\256=\337\"\355\275\326:\001>\323\027\272=\344\353\350=G\252e\275L\340|=v\357f\2748\263\036\276z`\372=#\213\021>D ;\275\312+\205=!7a=\334\232\224=\234\032\017>\371K<= TT=\032\230\t\276\250\376\354=\360@\265=C\273\345\275\007]\374=\376\t4=#?\027\275\373\271\311=t\273\'\276z\014\236\274\026}\240=\267\352\201\275~\321r\275\264b\230=\203\336-\273b!\007\275A{A\274\316\351\277=\210\025\235=\030\273\031\274\343\342\032>j\262\264\275\307Z_\274Wm\323;%\260\322=\3731\'>\231\n\031\275*N1>#%Y\275\340\242\001=w\300\211\275\214\320\240=?S\231\275\362\272\372\275AH\247=\360\302\021\276\n\245:\276\314Y\265=E\231\304\275\017B,\276\026)\353;F_(=}\311\207\275J\350\"\276\310*\n\275\353\356;\276\367x.>\240\256\026=\231\325\334=R\"\211=e\223\232=\331V\030\276\201\235\251\275\200\240\246\275{\354\252\275\201r\303=V~\006\275\247\257\330\274\246\245E\275h\250\335<\317B\243=\353\247\327\275{\237 >\264\202\307\275U\243\362\275\321\306K=\243\037\331\275\271\257\376;\227\367\004\276\002\305\373=\374\323\333\275\202\203\005>\324=@\275\275\245\002\276\362\275\347\274\2720\342=\324L\026=\257\330\353\274\256\243E\275g\327T\275\033\263\213\275\343\\.\276\352\307\014\276;\354\341\275\265\237\243\275\001//=$\276K=t\324\244\275\324\006v\275h]\211=i\317\010>v\027\030\275FP*\276{a\374\275;D\263=)\345\252=\232u\031\276\336\204\252\275\r\355\336\275!\307\340\275k?7>\rx\027>\322\232\034>)\007[\273\354\005\377:\'8\212\274l\374\216\274\304\330\214\275I\357\230=l;\003\2761^\220\275\270\253,\275Tx\311=\001P\214\275\\\334\324=\272m\220<\353=K=\"<\221=\246~.\275\222\212\023>\023\014C\275\246\327\274=\251\016\274\275g\370\016=45\002\274\"\244\3309\177\373\317\274\363+\261\274\030$\010\276\333\363\372\273q\0062>?\222\023>\260.\016\276\311Rl=_\310\321\275\250\242\327\275\343;\255=G\227\021>\317\034\205=\243y\236\274o\232!\276\203\316\241=\014p2=lI\326=*E\n\273\246\002\003=\215\247\017=\353#\357<\227\243\257=\356\336&>\222\n\261\275\203\246\013\276\n\277D=\214^$=:M\320\274\353q(\276\203g\242\275r\264\311\275y\200\342=\352A(>\255V\356=>d\371\275C`\341\275l\014&\274\354\307#>\351\343\001\276\340q\312=\330\006{<8\212\356=\374\321\276\275$q\205=/\202\323\275h\3029\276\254\247\200=\307S\033\275\277\245i\274\243\0244=<\342\'>&\231j<\210Vt=yv\250=2\341\257\274D0\001>i\351,\275\376\257l=\027\325\235\275\274\023\020=\266\302\026>\336\032\034>l\r\010=w\361\360<W\330\302\274\332wM\275L\307p=\240N\273=\275\002\357=\320\276\351<Fz\003>\266\236\366\275&\207!\276\351\242\320=\nB\365<Dy\342\275Mu\256\274\216\374\371=\013`\025\2752\260\031>$\252\t\275 \037\010\276\275|0\276a\010\332\274\363\320\346=\265Z7\275;\204\014\276\312\250\n>\214\335\346=|\302\023\276\263\301\220=v\270\347=\013\202\n>b\347\016\276\026oz=\347\243\030\274\361\323/\274\363\2301\276w[\021\276\303\204#\274\315\3243\276\337l\333=\n]\206\275\314\212\360<5c\314=<\354\357<\3662\347=\303\276(>`\320\037\276\ry\037\276[h\t\275\346a\356=#\2313>\030\365\204=\300\302\234\275\266\223\225\275d<\022>Fo\225=O-\2359\267\t\004\276\273.\344=\021%8>ag\343\275i\316\355=\242\301i=A\354\335<Y(\331<\262\033Q\275\312\240\034>K\374\330<6\002\021\276\344\002g=\227@]=\310U\r=\235\2327=\36142>\222:\020\276,\026o=\310)\234\275\361w\272=x\006\341\273N\346\021\276\027\235\216\275{S0>\343\266\362=\336X\021>\271V`<=k!>\211\244a<\224\316\241\274\004\202\027>\027\315\217=\361\016\307\274\257:\220=\274|\027\2747\0263\276\234\265\016\276\332S\257=\223.\377=\224\231,>\1771\021=XSg=\302\225\316=\262U\010>\242x\017<\335\237\032<\013\036\020>\201\221\253\275\320Je\274\234\025(=\230\305\264<\203\032\006>\2166\"\276\337\314Z\275\312(\265\274\372\205\020\276+\327\201=J\341\n\276\230\\\252;\362\316\321\274\023\371\311\275|\220\202;=I\365\275\010\360\217=O@\375\2751\'\205<\332\222%\276;c\304\274K\014\307\275{\315\007=\312\236\370=)\"\353\275\327\2048\275\205\271\361=T\265\231\274\260\017~<q-\246\275\262<u\275\3560\'\276=%\340=c\201\020>\3007*>\002\362\375\275\2615\036=\264\366\235\275\245g\330\274\206*\332\275:\"\213=\003\022\340\275\352\027\347=\376\246c=\003p\324==\363\330=\261\256\314\275x\006\266=.\227\206=\247\0016>\006^\262\273\004Z\006<~\301\243=\350\366\340=\324\331\010\276\377\230w\275;J\205\275\273<\236=%\023\017\276\033\264*;m\"\221\275W\202g\275P\241L\271\313\030\266\275\222\216\033>i\020\220\274\004\016\353\275\005^\330=T\265\004\274\240\037\303\275\033\344\227\275\303\224\352<\320X\312;\220\366\034\275\310\206\034>\277\272\335\275\030g\307\275\245w\210<0K\325=\206\334\325\275\254\363\343=\314$\310=hW%\276ZE\272=\372\360l=>\255\223\275km\245\275j\362\014>\246K\235\275\347\022\010>\035\241\312=\025\355!\276\345\245\234\275Y\177\357\275\025\310\270=\236x.\274\234<y<X\372!\276\300\307\362=\221\257\'\276\302`\212=oW4<p\261\024>\315\316\"=\362|\230\275NNb\275\022c\365\275\013wj<@\003)\2767\030?\274L\257\323=\303\337T\275\020\021\261\275n?\315=\306\202\005>E\357\351=8\323O<\272z\010>f\205\225\275)P*>C\344\226\275\274)\375\275\206\037\215\2757\331\205\274\321p.>Y \004>Yv\307=\245\233\342=\356%\005\275Eb\253\275\177h\230=\251\351\364\275\001s\372=Y~\303\275\014\264#>\014/\213=j\206\022\275\201\004\026\276\271\370\n\276\302\000\020\275O2(>\202\313\347=\371%\026\276\314\241\353=D\232v\275\245\3435>n3\234\274\260w\211=\304\233\2209\016 \332\274Lx\235\275u#\030\275~]\207=\365\020\t\276tT\354=I\014\341=\227\207\237=\211\376\'\276\312O\010>d\2255<\"W\254=\276\003\224\275\376\211r\275l\007\243\275\224\3335\276\305\026\034>\240`\372=\3650#>^\366\234=\231\275\001\276\377\203\030\275/\356D;\316\034\313\275\'+\013>\316\346*\276)\343\344<\244\261\323\273\202\0277>\365HY=L\241\207=\325\250\014=\314\306\n>7\205\232;\364\036\006>z\304j=\226\2538\275X\327\272\275\246\250\343\2758?\215\275\205\177\t\276\200\252R=\213N\007\275\207\235\351;3N\007\276\325(\"\276\305\2010\275?I*\276\300\362\200=\223l\240<\325\030\020>|\306i\275\027\350C;\352\265f=0\020\327\275\000\375\212\274\343\r+\275\345\221\256=\304\273\343\275\3348\242=\207\327{\275B\372p\275\342\235\267=f\364Y\275d:V=\325\370\007\276\017\027\321=1\375\373=\233\252t\275e\347\361;\354\311\330\275\367\030\332\275\3124\014\276;\304\223\275\222\010&\276\250\356\270\275\006\224E=\256\313\310\275\251H0>\354\271\251\275\006\243\220=B\360\027\276\tt\342=\204\254\002=\177&\001\275_\307<\276\037^\202;~U\257\275\243\370\032\276\007\247\314\275 \244\226=\013\325 >4\346\235<\021\353\257\275i\326\214<\230`\'>\361\330\205\275\211\301\025=_/.>\005\"\236=\306\264W=\275\330\203\275\325B\025=D\374\333\275C9\026\276\234rF=\325\312\036\276\004\033\004\275ro\006>\306\035\020\276\034r\024=\217\017\021\276\216\010\234\275\310\r\004>\017\210\005\276\245z\211\274\314r\247\275\210\304\270\275v\364\017\275\367Oc=\330+\323\272$6;\276H\277\n>Z+W\274 \275n\275\216M\034\274+\006\033<\320\300\272\275\035GB\274\202\322\273:0\327\365:|E\347<\360\266W=\336\203y=6\366:\276\017 \345=8\246\242=\245.\266\275\3449\241=\341\036\325=\250\027\035\276\364`\272\275!%\220=iP$\276\017-\304=*1\363\275\243D\200\274\2214\\\274e\273\315;\2352\313=u\306\211=B\270^\274\300\310\n\275Xk\000\276$\324\013\276E\020\004>`x\334=Q[\233=\206Z\022\276\332\324\201\275\371\370\242\275\217\006G<F\325\000>X*\341\275a\027\352\275[\0262>\274\272\246\275J\231\010\276b*\365=\t\347 \276\256\036\\=\241c\223\2758\301\305\275VG \276\236m\343=G&\034>\003\013y=\005\234\255\275\262%\027\276\223&v=\026\357\006\276\331\350\321=\253[\224\275\310\307\'>\304\376\277\275s\257\035\275q\362\322\275S\\\321=\371X:=a| \275\216\207\237=\303\265(\276\221\214\020>\301\311\036>2\320\027\276\251I\027\276f_\211\275X\374\334<\021v\262=\036\374\021\275\315\310]\275\336\313.\276\014\237\314;\211\340\025\276\\\341 \276\342y+>j\255\007>\311#\373=\n\232\032\275U\352\241=_\213\023>H\213\215\2723\002\340=@\373\340\273\357\036\276<yW->\036\177&\276\272\365\224\275\300V\241=\2132\215=\274x\344=\200\020\010\276zO\005>L<\325\275d\304\314=\246\253\014>2\273!>\017\216\027=\037\323>\274Fo\271\275\003\355&\276\254\3712\275N\221\363=D\206\006\276\345\301\255=\240+\234\275-i\266=\346\232\340\275\240G\034>E\024\005\276A-\300=\215\"\013=\254e\334\274\264+N<[\222\026>\260.9\276\334\245\362\275\303h\343\273o\213\327\275)B\220\275\217a\273=\226\366 >\345\0370>B\035\304\275\021d\201\275\\V\273;\037\366\007=\375D\265\275+\320\227=pY\021\276\\u\004>IY\225=\230\316\013\276\017\010#\275Ox\326<\213e\231\275\353\024\034=\316\244%\276~\374 >\006\032\033>\3177$>k\323[\274!\202\333=\301\037\"\275\363\357\243=\027T\261=%\224\365=\032\343\227\275\341\217\177<\021\305\310=\214\364\217\275n>\223;\351p\263=\250\006)>\374:K\273\016\244\251=\003\340\r\276\244t\037\2748\377\001\276\344\0107=GN1=)kL\274\376\332\024=\334\027\371\274\25335\276\314d!\276\224\251\013>\326E\245\275\260\355&>\241\261H\275K\025o\275 \213\230=\"\023\354=\027~\016\276H\2027>uc8>t\"\301\274Q/\336=9\306\235\2758\301\320=\376\316\253\273\232\233\025\275k\317\t\276g\271\r>\264\035\024\276\027\347\311=b\277\323=\246s\211\275\256[Y=\370\005\235\275\230\273\350\275K\360\220<\360[\212\275\332\233\000>\261\271\023\276,\270{\271\377\310\026\276Ub\237= u@<.]\300=g\"\367\275\273\023,=\017\320\212=J\326\213=\207\370\270<\360T\231\275;\020\230\275\340\343\321\275\225B\316\274\241M\214=\277\004\031>a\315\225<\242\251\014\276\377\323\031\276\177\3129>\352\212\277\272\377\332\214<\341\000\006\276>\214\203\275lf\272=\373\253\017>e\020f;\322G\377\275\364D\253<\016\177\315\275\243m\026\276_\351\315\275/\030\343=m9\370\275\261?\254=\323*\033\276\322I\236\274\232dR\274<\203(>\323,\005\275\310(\274\275v\373\347\274\25591\276%@\027\276\036vh\275\231\316\213=d\363\362\275\002\251\325\275\377S\217=&\372p=\020\366\022\276\214\273\"\276\017\233\266\275:.\253=\223\006\022\276\315\021\n>f\2366>{\345r<\241\266\320<\354\376\357\275\004\340\376\275G-\317\274?\014\005\276/\320;\276sU\337\274\244U\273\275\266\346\370\275\261J\304\275\334w\333\275\31051\276\014\347-\275\226\370\246=\312\256\362\274\234\t\257<<\373\007;+\2733\276\345<>=\246\250\331\275\017g\334\275\366\350\000\274\371\315\337<\264\307\003>\017-\003>$\2621=\370\177\356\274\203\376\351\275>\204\212=\261\246.=\317\267\022=\254\337\206=\312\314!\275\365\342\014\276\032).\276Zr\364\275\326bg=+_\036>\252\010\000>\317g\331=\360\260n\274u\237\016>\311\375\325<Rt(\276\256\002\207\275\2506h\274\256X\014>\250\307\234\275\376\265$>A\352\t\276~\245\347\275\276\014\263\2752r\275=d\362\001>\232\245\234\274=\253\332\274\000\317\r>x\014\002\272\255\3518\276\244}!\2765\246$\276\236\0300\276<\315\202=\367v\332\275\n\225\204=O\\\362=\021\374\013>\212/\216<\3706\327\274\274\370\">Yy\222<K\235.\276h\021&>\327\254?=\305\2651=8\t\204\275\2274\370=N\347\016\276%\361\031\2754\334\327\275\335J\267;\263\213!=!\215\311\275\006[\030\276\342\367,>\313\363\031>\316\3210\276\255\212\346\274\2230\r>\273<\347=\301\014\252\275:5\000\275\\\3654>~?\320=^\264\226\275X\341\034\275\224\036\273=\001\274\204=\222j|\275\226\366\021\274\250\373b=\"C\315=C\250\031>\253\372\207\275=\223#\276\256qc<\016\214\234=M\3758>\010\206\033>\020Y\'=b3-\275f\337\204\275g?1>Q;\234=\032\301\227\274\341r[=\\nP\274\347\232\276\275\230\t\"=\036\"\t>\275\212(>\325\177\234\275%\374\036>\367\351&\276nQ\024>\004\0330\276\274q\032>\026\262\026=\211@\t\275X;\367=\tZ\014\276\3262\327\275\315b\216=2\325\270\274\002w=<\360L\237\275\216\246\345\274W\354\032\276ez\'\276\233.\324\275Q>\025>\033\212\t\273\226\314t=\364\355->\342\035)\276s\366\023>\320+\013\276\225v~\275\323Vi=Mu\232\275\312\2731<rb\336\275L\311(\276\032\375e\274\263X\253\274.%\326\275\014\335\273=\355\344\014\276\007\033P\275L\323s=E\002=\275k\334\246=\303\226\352=\305a\226=l\263\325\275\251\232\026>\220F\251\275q\221\r>\0304\277=G5\356=\275\005\036<\207I\033\2751\013\222=\036*\361=S\276\304<Q2\006\276\014&\341\275M\200\016>\362f+>p\\\350\275\224O\363<C\214\334:\307\337A\275\361\225\010\275\253\323\254\275\000\266&>\372\'\366\275\340?\004\276\322xi;5<\275;L<\325\275\236\326\373=U\003)>*^\310=p!,\275+It\275pb\177\275\036.!\276\017\244\207\275(~~=\226\213\243=0\004\332=B1\333\275y\362\204\275\001\343\205<\034%\226\275\336\021\037\275\211n >\370wp\275\005\340\326<u\311\225\275k^0\276gD\361=\234H\363\275\016\340\n\276]\027\256\275^\271&=\343#\204=o\037\231\274D\354\356\275\023*,>\340X\316=\014\232\335=8\234\271\275\002\344\000>\025_\355=\366j\201=\315H\001>h4\244\275\226\340\026>\032\277\304<I\331-\274\302\206r\275\264\332,\275\365}\213=@\222/>\376e\305\275\204\210\307=\301\360\233\275\2247\020<\206\313\346=\216m\221\275\350\r\022>\277\250\r>\331k\303\274t\202\031>\034fa=\250\341J=\316\3026\276\243\243\265\275Ly\206=\030\365\310\275i\363\330\275\365\022\036\276%F\277=Vy\002\276\2100.>\003\263\003>G6\'>:\023\304\275\335V\352<\307\237/\276\240B\027>\226\257\322\274$=7>\330%-\276*:\204=\222\314\222\275\240\215\t=x\242\212;k\336\215\275\001n\243=\330\312\245\274d\350;\2765\010,\276\262\216\004\276\"\364\347\275\2134(\276\006\2766\276Y\325\177=#\316&\276\2179\242=_\211}<\356\024z\274\017\231\013\275\251\032\351==C\013>\306\221\307\275\303\001\003>;\202)\276\030J:\276\326\314\300\275\260\344\317=\340\027\260\274v\317\345<Yx&=!\264\362=n\2055\276n\365\034\276\325\276 \275\326\263\256\275\033\231!\276hX\344=\311\300\036>\370?\025\274?\237R\275\026\201\003\276eX\272=\252N\036>\221\365\276\275\206K,>_c\031>vc\000>{\320\200\275\252\024@\275\306[v=Z\235g\275\001\354\235\274\346\027\352=>t{\275\303\370\250\275\031\314\314\275\252\360\037\276g3\212=\013\332\346;\251q\340=\261z\351<\234\347\'\276\325B:>@\2607\276\2226\323=\231s\220=\277\370\'\2766\347\351<\242\237)\276\\E\377=\270M\242=\017\367\236=\177\204\000\276\tXo<PT\266\275b\323\345\275\226\243\360\272\266\205[\275\270\005\306\274\2446<>\035\023\230=\352\327\274=\236[\231=\007V#>:\232\023>\247\316\261=\334\211\306\275c\005\n>\253R,\276\2466J\275\212Q\221=\\\023\036\276\353=6=)\224\255<v\203\240\274\253\205\303=\037P\211=>\035\362\275`\256\207\275v\324\203\275\006\251\"\275\244{\006=\3565\312\275&`\017\276X&\035>\257\373\031\2769)\010\276\370\345 >>\267\032\274\020\031\347=\035\021\020>\010\333*=\237)\224=y^\032<\036,\321=Rb\001\276\374a\007\276\2132\032\276\336\177\367\273\335\231$=\374\366\332=\203\273(>\262\250\006\276\275\030s\274\r\312\007\276T\272\345\275\026\033\241\275[\033\315<p\030\370\275IC\317\275b\320\267\275\321\301x\275\314\037s=\371X\271\275\347Y\373\274\000\005\035\276\201\222\336\275\346\354\025\275\223\314\202=r\364\311=P\375)\276p\305\362=\016\335.>\236\334\004\276\245.\313=@e\335\273Zq\037>!\264\373=\300\322\210=<\2670>\226\356L=,\363\332\2758\330\037\273\205\223\002\275(\306\256\275~\261\330\275fL@=\224\223\254\275\236-\240\275\364\241\333<\312\205\030\275\237\266K={z\031>&\324\372=u\252U=\211\237\237\272*\351x\275I1\317\274\327\030\361=\010\250\321<\r\346%\276(87=\262\375\230=\371\243\263=D\323\027=\334\260\036>AS\363\274\243\361\026\276;\317\335\275\345\325\322<<X\034\273\373\373!\276\311~\035>\304\334~\275\214\362\346;\377\244\275;u\370\036<-\"\037>\006\240\241\274\255\313\374\273\216@\326\275\234@|=\341\373\260=\230\001\004>\035\001\316\275\"*\263=\370\331\310=nM\005\276\365t\013\276\377[\205=V\307c\275\301\'\306<\324\017*>\232\201[\275\223\334\244<1\277\337\275\262\332A=\307\237\221\275B@\321\275\332GO\275\251\316\002=\326\3420>bb\300\275\031\'&=\216&\363\274\360\271)\276S7\206=0\034#=s\332\'>\322\037 \275:\226\246\275 \001\247\275\350\246V=Sb\035=v}\'\275\352\303\310\275\3400y=\341~\032=M\3505\276\tMa=\036\326\313\274\330\243\022>\216\243\301\273\2152\277=\300\037\334=\3768\245=\211\010\027>\314\033\363\274\323\311\253\275\177\006\375=\332\\\273\275K@\364\274\304\252\304=\353\201\207\275\326\032\022>\266\324p\275\023\307+\276l\'\266;\013\256\217\275,\304\020\276m\205\235\275xS5\276\034M\026>\023^\032\276\333\341\253=c\371\"\276\237h\213\275{\036$\276\t\013\033<\375\352\016=\024\"k\275\351i\260<v\234\345=\n7\262\275\227\347\230<\315\007\340=X\314F=\224Z\337\275\263=\036\276\034\242\027\276+t\001\276\301G\371\2752\342?\273\307\303\270\275\275\216\345=\216\342\264=\2404\217=&s\027\276dL\023\275i5\025\276\222l\322\275&\020\365=\234\021\026\276\257E\004\276\254\002\223=`C\262=\273Q4\275V\262\232\275w\376\025>\024\007\355\275\2374\372\2757s7\276=X\343;-\312\331\275\272\371\212\274\334\222+\276q\016F\275\260\374 \275\2061\232<\262\214\363\275^\203\335\275V\324\001\275\200i\245\275\305}\020\276\367\003\321\275\276c\254=\303\333\311=\021\364\202\275\241mF=\001\345\216\274\264\r\"\274\312\226{=\337\215\251=u\2254=$\242`=\204(\001>\203a`<\3243\230=\377\304\372\275\235\245c=\224T\332;\347\035\020\276\376\' >\337\000\377=\013\232\007\276Kj\332=t\260!\276\337\352}\274\304\004\326\275&y\003=\246f\004\276)W\\=>W\357=y\337P=\367\003\363=\367\337\341\275:H\014\276\252\024\317\275Z\036Y;h\2766\275\371u\034\275\340\300\212\274\263\274\023>\357)\272\275\231S\002\276\360\006-\276\345t\254=\3514\331=\342\201\031\275K\246\032\276\211\205\316=\245\357\243\274\325\324\257=7\371$\275V8\271=\023Z3>V\002\307=\357\000:\275\331K\345<\270\267o\275\343U\377=\235\244\016>\302\364\330=\"t\337=\234\266\025<\254\260\223\275\024Q9\275\303\030(=A\301\273\274\231\271\010>2B\r\276\326g\276=o\313\n\276\026[Z=\224 0\274\310\243\"\276\301\327<=\315u\355=\237\0034\276=\023\322;\212\217!\276\343\013#\276\222h%=\327\235\314<\251\336\007<9\347\364\275\032\035\r=\000-\027\275\312\227\"<\352B\311\27559k\274\034\3337<\244\377\007>!\020\274\2745@6>\177:\">B\343\017>ie\024>\253\001\255\275\250\301\017\276\212\335\">u\310W\275\024\364\025\276^=]<i7->\0271\231\275\255\n\033\276\203\022\003>\315>\367\275_\357\315\275@\266\361=\320\231\372;\325\223\r\276\205\260\033=<\230\327\275\233|\335=\254\017\004\276\n\370\222=\211\214\300\275U\201\361\275\030{\020\276\257%\304\275\r\215\313\275\026\0030\276a\001\321\275|\326\213\275\020\246#=\203\322\302\275\234\3430\275\372;\000\275\037\340\272\275B\263\010>\320Nz\274\017\347\027>\375^\214=\260{\337\274\321a\252=\235\302\324\275\336a\311=i\265\032\276Ug(>|uY\273L\"w=$_\025>\363\355\017>\274|\261\275\376\006\241\274\t\362k\273D%\005\274^\000==?X\000>\036h\005<g^\016\276X\023\210\275\223\007\365=\177v\022\276\323:\001=\213\277\026=n\t\002\274ey#>c.\345\272}\252\331\274S\357\006>s\3518\275\206&\225<\264V\307<+\262W\275MM\261=yN\r>VA_\275\214\221\007>g\005\003\276\234\3621>g\323\317=\206\033\355</@\311<\264\031\003\275\365\223\250=\332\316\'\275+\370\">\3373\361\275\032uU\275\004\247\303<0\332\001=\3070:>@\203\022\276u\022&>\217\203\353\275\345A\202=N|I\275\037\022U\275g\000\342\275u\354\310\274+\351\222<B\005\000\276G\247\237\275\331\007\210=\337|[\274u\2041\276x\311\345\275\027)\000>\2360#>4\013\031>\332+\301\273Hh\016>B@\367\275\231\323\004=\316\314\274\275e&\300\275\"\346\005\276\037\353\374<\240\267\017\276\336\366\202<ok#\276\006{\352\275\363-\320\273?<N<H^\033\276g0\207\274\010\216\211=Q\320\321=t\334\024\276\363p2>TQ\325\275\320\'\337\275\340\315 \274L?\204=\337\013\244=Uf\211\275B\367\207\274\241w\243;\343%\022>\245{\204=K\016\315\275\263\301==\377\313_\275\240\342\227<\263\331I\275\275A\t>\203\313\307\275\206a\035\275g\334\213<\204S\356=\265\234\035>\025p\372=\313\250-=\362\2150\276\"o\345\275\263\221\016>\331z\215<\324\251\376\275\340\360N\275\217\327\227\275\322\375\363=Ow\360\274\035\271\274\275Dg0\276)/\321\275\345\205\234=>FG\2737\230\212\275\231\n >\311\027\374=(\n\t\275\330!&\276\264\234H\275\240m\302\275\353^Z\274fx\037\276G\037\203=\014\347V\275\320\006\222\275\320M\210=:\256.\276\210\315}=On5>7\032\030\276\35393>&\356\342\275\311\303O=\376\357\303=:\207\226\272\nP\233\275(\205\363=\321\023\204=\253\302\032\276\243?\352=O\245\004>\335{Q=\322\017y=-\214\224;\372s0>s$\364\275\203\021\034\276\273\263\035>\235\254\322\275\013;#\276\320g\272\275\210l\271\275\255@ \276\037\230/>HL\261=56\006\276D\313\022\276\310\221\215=G\220\267=h\021\355\275\275\327\277\275RRR<\336\207\334=&Y)\275\275c=>\204\366\307\275i\363\375\275\206YU=uj\007>4\354I\275\251A\330=\200eg\275\004\010\376<`\027\241\275>\322\\<%z\316=\245\203\n\276K\306\201\275\374\356\331=;G\022>{\350z=\204\023\331\275\376\351\001\275\275{s\275\353?\021=\006V\367=\322Y\006\276\327\242\336\275 \031w\275\211\022\030\276\307\220\352\275\023,\252<?P\036\276)\231\252\2747\242\370=U\023\360=\231^m=8\263\376\273\320\366\203=\332a\260=\232\271\366=;\'b\275\237\274\223<\343F!\276o\n\"\274\034\024\316=\342\020\204=&kk<\3455\212\2754Y\016\276\254N\000>\374\202\356=\323\254\340\2757\212:\275g\014\276\275\273\2042>\310\371\354\275\320\260^\275X\207\335<\275\330)\276}.\340\275\036\227X=*P\205\275\250\355\227=\177:\375<6\021\345=\374\303\206=\200E\014>\334\320\264=CN\202=vm\331=\271\325\023>O\273\374\275yt\324\275\340\024@<W\340\207\275\262\315\310=\261V\312\273\002\331?;P\246\024\276\231\010\264\275kf\342;I\301#>\244\327\362=&\335\t\276\304\224->\224J =u\036\230\274\246S\213\275\321\255\345=\320\324\003\276\361\212F\274\333\2621\276\033\231$\276 $><\017\272\333\275g\305\364=\363\202\021\276Yr\210=0n\254\275\233>\330\275^\326\210=tv\204\274\310_\332\274\276|\325\2753\225i\275\204\n\004>\357g\033\276\024\033_\275\017P\211=\267\270\004>\351Q\026>v\021_=\267\"-= }\371=t\374=:\322\264\327\275\262Q\303\275T\246\234\275\311\277\007>\352\207\207=\010\245\246\275@`\031>{W]\274\223q\272\274\310r\017\275Cc\001>\204\256I\275\271kr\275\224\340T\275\354\005\331\274\301C\355<\323\203\034=\212\235\354=?5\305=\276WM\2752u\300\274L\"\276=\226\344\327\275\3675\324\275\323F$\275%\035S=1).<\322\304\265\275\376\305 ;9\010 >\203\337r=\274\301<\276@\010\224\275K}!\275\326e\301=\333\035|\275]W\253=B\013\227\275\376)\302\274lO\036>\376\253\353;\003\267b=\2721\325\275\000J#=H\022\353=\317&)>\320\267\311<e\221\003\274V\322\360\274 8!>\354\035t=\223>t\275\335\257\304\275\026\331\273\275\020\343\215=\360\243\234<\355\270\t<M\334\200=\017\335\222\275\242\037\\\275<\035\035\272\r9\350=\002)J\275\336\266\007;\371U9\275$\351\366=\270\346,>\314U\030\276`\374\027>\273\031\030=S\351g\275\024\325Y:\035mo\275}\002\023\276\331<\004>\233!\354\275n\211\016\275\224Z\220=o,#\275\370t@\275\226L1\273.C\276=\222Gj=3`\013>\203J\244\275\306S\325\274\352=<=\305\373\266\274=\303\312\275\177\')>Lx<=\035_\034=\256\206\304\274|~\030:\320>\342=\036\037g\275i4\315\275\207\001\234\275\022\226\036\276%3\353=\212\275\021>\326\204\231\275\031\177\234\275\307\270\254=\227\375$>\234l3>\305\200f\275n\020\206=\306\241\221=\270\230:=c\234\250\274Uu\013>\361\201\310=$\336\356=\021\250M\274\033+\025>BS\346\275\304\215:=\347\232\311\275\337\265\t>=\"\362\275\301\\0\275y\363\204=\370\026\343\275\017[O<\267\320\253\275R\177\302\271V\202\017\275\270\307\245<\305\220+>\212\317\010\276i \024>p_\031\275d\330\364\275\002j\335\275\233\362\027\275\313%\352\275\235n\031>\375@\311\275l<\216\275\275\341\256\275\205\353\332\275l\215\036>\3256\372=\224\201\035>\352\\\036\276\333:]<\320\231\021>\031\373\265=\256\035V=\374\223\333=\372d|; \275\240\274\337\321&\276\251\"\026>\265A=\275I|\r\276\031\337\363=\274\343\246\275\317\313\352;\244\023\264=\270\341\362=+9*>P\353\264<\021\210\005\276\3766\215=v\313\330\273a\303\024>i\373\310=} 4\275\274\210\330=\207\303\020>V\031\205=\214\313(\276/~,\275v\026B\275x\"\352\275\276w\303\275\010\034\365\275@0$\276\336\332\274=\\w*>\371=\006\276)\320\'\276\276\354\006=\3628\213=3qg=\035\214\267\275\235\355\203=-U\237=\027\2350\276\272#\316=\350\356\007\275\373f\340\274\203\001\244=V;\345=\010\330!\274h\340\202=\200\266\014\276\366\010\341\275x\3544=)\313&\276\302g\333\275\"[%>\030\372\335\275G\\\250\275\360\332\204\274\240\323\213\273\253)\312=\010\353\364\275\341\300\231\274\376\275\004\276F\367\355\275G\371\364;J\030\021\276\337\263\036<\301D \276\361-\006=\217\013\313=o\354:<\021\374\026=\256L\361=\241c\217\275\330\n\277=\237\263\364=)F\032>\331\306\023\276\221\233\236=`\344\031\275\024\220\027\276\020\233\351=\215\237\307\275Ug\312=\357\2611\275y\013\027:}z\010>\325z\013>\357a\263\275\307z\253<\363;\025>E:\227\274\216P\301=4\034\037>\322\274\267;<\205!>Z\225-=:\n,\275\354\375\364=\233\356\036=2\020s\275H?\006>#\251|\274\034;\017:\265/@=\\\255\271=\333}\000\276(\356%>\323]\354= G\214\275L\3677\275_\230\016>\254\354\265\275\363\020\347\275\272\324\326\275E\367-\276Uo\021\276\337\205\326=4\034\004>\276)|=\001*\265\2748\225%\275\236\243%\275\303~\240=\264\'\355=W\361\024\276\201\220\025\276\302\211Q=a\327\344=\352\224(\276\242\221\273=A\005\023\275\006\354\036>5~\322=n\306\221\274 \243q\275\334w<\276t\253\276=h[\037\274\3778\000\276%\t\371=\201\355\321\275\331\230\346\275k\0275=\252\245\323<\247\307\031\276\002\335e=\353\034A\275\340\033)\271\251\315\017\275\346\242G\273a\340\233=\2305\016>\"$\030>\364\325:\276\273\374.=\252\373\220\273/\367\"\2762\204\213=.\323S\275M%\363=]9\204<EB\374=\004\2505\2764\023\355\275\264y\272\274;}\362=\346\007\272<\2507\267=\277\3672=h\034\037\276H\004\273\275\036\353\231\275M2\327\275\277\200\021\276\351X%>l\341e\274\215F\027>S4%\276\221\005\210=@\251e=\214q.\276\221\342\361=\251\277\361=\202\2522\275\323\262\332\275\006\343\000\2764\233X\275\364\251`=\225E\245\275dF\013>/\001\211\274Z\376\237\275\322\256\274\275a\343\213<We\211=\204\277\242=\330\230\237=\016\207\021\276fH\005>\260\025\343\275\350\324\017>\303\207b\275\346\363e=d\016\367\275c\222\206\275\321\0146\275`\2462>o\345\">q^\213=\300\321\373\275\255B\036\276:]\215\275\346y\036><&\037\273\233\307-=\227\002\201\275\0176\026\276g\025\t\273\345\020+>+\2062\275\363S\262=^\252\370=\300G\375<\032\315\364<\332\373\001>\004H\307=\202F\227\275\203\217\370\275\376/\327=Z\2113>\272\r\324=\355\323\207\274\212\213\320=\244B\372\275\212_d\273\230;\007\276\220\357/=\344\235\226\275\201\250\223\275\n\014!>#WD\275\r`-\274T,\003\276\016\202\003\274\003b)\275\314!r\275oEy\275\212\300\356\275\365]\260=\250\353\035>$}\004>\304Q\207\274\006\037\036\275\365\314\212\275\026s\017>\205\330\223\275\324\007\034\275\3541\037>\307p(>rO\326\275\017y\332<\334o\r>\207z\020\275\020\356\312\275\227\223\024>}\232\373\2740\312\030>\\\272\214=\345\370H=\254Ha<m=\177\275\266\261\335<\360\'\031\276\262\200\262=2\323\007>\017L\252\275\3539\241\274s^\324=\367P\200\275\361]\004>\370\311\n=\354\243\'\276,l3;\335*\307=\374b\017>\r~\010>\274\036\032\274\230\356\346=\t\340\007=\367+ \276n\000\376\275\206\370\246\275i\331(>:U\036>tv\356\275\032/1>\346#\024=\312\340\017><r\021>\307P\"\2760\222\357=lb\272=\222r\014\276$%v=\363\257\231\275\357\370\032=\305\'\'>\\e\241\273\275\241\017\276\025\322,>\206\340\003>5\270*>\n8\017=w\224$>&\252\322=\\T\025\276Y\341\010>\033 \240\273\341\255\234\275\236t4=/m\201\275c\244\025\276\331\365\243=z\315\300\274uc\003\276i\341\006>\301\200s=\324%)>j\n\215=\221\355\313=\302}\303\275\214h(\276ox\341=\022\"\302\275\337\212\355=\310~\022>\365\340\225=\321\210\325=\262\3265\274\311q\245\275\340Ee\275\242\314\234\275\370\022\266\274\345\002\324=2\243\031>\223\316\230\275|\304{;\267l`\275\255\215\036\276\016\325\344\275\2271\272=\202\301\321\272\350\276\231;C\333R=\3445\224=\327g\201=\242\370\346;!\263\313\275\21780>\355\371\344\275\365\352\363=\312\226\021\276\227\265\204=\37352=\346u\003>\3668M\275]\324\247=B\265\266\2744\370\276<\013\245\373=\347\242\035=s\361\363\275\240\250b\275\376@#>\374\026\205\275\241\026\014\275\006p\323\275\2053\013\276\033\'j\275\0065\211\275\367\215\217=X\364\275=e\374\323<\007\030%>\202\371O\275\215\377Y\275\r\352k=\224V\037=\037O\230=M\257.>\270M9=\366\346\310\273\327RH\275v\035\357\275\371|b=\021\350$>T4(=A4,>\303[\375\275\253\365\177=\227\252\023\276\332P\321=X4,\275\300&O\275p\312\314\275\010\233\235\275\361Sx;<\177\244=S\007\246<\325Lm=\361\027\">~_\321=P\336\205\275sI\317\275_;\335=r\367\025\276\222\3031\276\316\221\027\276\3717\372\275\351\035\031>bFJ\274\007\304\340=\027R \276:\223y\275\274\034\251\275\360\335\274\274\221\000o<\347(\006>~\266\340\275\235\375\001=\204a\r>\235\034\016\2768k\t\276\302w\253<\346K\332=-\3471>i!\014>\310\2537\275\313n\256=w\017\037\276]H\214\275\273I\023\276/\243\376=\006M\001\276\363;:>\322\006\277=\214>D\275\225\330f\275\203\262\001\276\232M\331\275\324]\215=\375\265\253=\202\345\242=B}\277\275\3763\007\276W[\361\275\220\3513>k\330\266=%\351\251\275\332\030q\275:\2229\275\027\322a=\014\210\232<\215\024\035\276M\304\022\276\226TI\275\370I0=\327l\342=\252\301\205=\343#i<`85\275[C\010=n\361j\275p\202\337=\361\222!\275\034\261\001\276,\344\260\275\271\246\332\275\334\367\010\276\304a\306\275\241\245\017\274u\276 \276F\033(=N\255\031\275\231\225\"=\230\242\242=\032\264\315=\276g\034>.\327\217\274\332\"\260\275\3764\021>^\244\324\275:\246\025>\222\235\264\274J52\276Y\243\345\275fd\315;\341\252\222=\261\215\243=\305>\206<u\331#\2767u\243=\212\2362\276w\364\031\276o\247\017\276\'[\221\275#(\024\276\316\310\361\275\347\363\334\275\206\311\340\275=\237%>\031\004\003=\035{\347\275\020j\016\276\244\262V\275\271\337\330\275R\247*\275S\027\303=U\202\327\274a\002\032=\321i*\275ga\017\276\325y5=c\223\252=L\354?\274\356\243\206<\234\306\030>]\314\366=\302)\002\276\226\207\226=5\352\244=vW$\276\322\233\036\276h\013\205\274s\364\306=\021\255\010>\276\\<>\037\315+\275\374\'\004>\367\037\312=\223\035y=\333.g\275\330\310j<\241B-\276\027Q\025>\233q,>FY\350\275G\321\274=*\371\r\275R\021\237\275V\212\024>\035b\">\217\243\325=\304\357\231=\372,!\276^\247A<\226\213\005\276\205\r&\276\314\326$>\037\350\014>\253\265\001>\321G0>\246\354\276\275\032\324\342\273\003y\241\274s\233\277\274\265O\302\275\226\215\246=\351\017+\2767i\024\276s\203\036\276\315hT\275\312\372\006\276z\372\377\275\233\216\345=\001\206\266=\023\010\212\275\t\304K\275\371-2\276\323-\216\273\377xX=^\007_=N\225\031\276!\3078\2750C\004=}\245\317=\034\246#>X\365\311<\357O\033\276\021\325\213\275\224\255l=\026K(>s`\335\275\211\3126\276\231\247\002<\020\034\005>1q~=\357\013\335=%\010\245\275\342Z\206=`\014\367=\' \216=bb\032>\220#\036\276\247\367\306=!Z\340==G\216\274,\320y=p\224\234=\260\201p\275\315u\203=//\005>\354\344\310;R\303\026>X\023\034\275\315\232\256\274\352\005\004\274\272\355+>N\n\366\273e+*\276\253\242\250=2n~\273eg\377<\352`\213\275\354\357B=?\352\222=\022=\270\275\370\306\336=o\363\204\275\353\337\301<\t\356\026>\022{\225\275\212N\365\2745VZ\274\t2\r>1>2>\254e,>\267\205:=~<\037>L\205\002\276\211\021\033>\371F\204=\335\335\006\276\000L%=\267:Z:\333Z)\276\277\272\273\275\247\342\032\276\n+\301\275\202\355\252=\234s\251\274\367?\000>\250zB=\200\347T<\277\305\350=\213=\221\274\013\023\230\275I\352\300\275\364\3776\276\243\023\034>\032\241\336\275\217\n!\276\257n\031>\322\235\340\275\260t\024>\\\333\204=\363s(>@\037\254\275\242mP\275\"=\313\275\330:\001>\307]g\275\010p\304=p\035\305<\212\267\371\275\352\033)>\232\243\004>z\357M<\241I\351\275U[7\275%k\203=a\261/\276\023Q@=\232\372\323\275\343_\231\275\025\306M\275\036\037\227\275\327\223\352<\201%\261=\033\364\225\275\301\231\364\273\273h\036\275\317\207\233<\264\311\240<\307\210b<\326k\027>\3344/\276\200\035\252\275GA\314=3Z\231\275\312\331\034\276\332\3055=\345\353,>0\036.\276\334\r\214\275\342\005\000\276\227\035\347\275\003\365\224\275\261\243\010>t\013\321\275t\310\233=\371\312\223=\376\346\r<\320\230\273=y\216\235=\001,8<\344\315\313\272\331&\023\276\003\225\331\274\367\007\225\275\263\244\310\274#\333#=\252Y\336\274\264\332\301\275\331\320\364\273\202=\200=\251\013\211\274\262}\007\276\315\336\373\275D\370\234=I\235\312<\355C\000\276v\000T\274\357\201(>\347\365`\275\235\266\320\274\367m+\276\371\023\\=\316\227\220=\200\364\004\274\004L$\2762\017\'\275\276\223\020>\\J-=\355\321\023\276\024l\320\275b#\017\276u\005\212<u\342<\276\364\211\020\276\304\237\273=ui\023>\235\303p=<sQ=jd\357\274\252\252\001\276.y-\274\202v\277\273C\314\270\274\177\262\370\2753\264\001\276j\324\234=\242$\361\275\305\r%=I\325\363\272\"\357P\275\246\364\320\275\205\221\002\276b\371\031\276\212} \2761]\001\276\222-\376\275\333\016(=!\364\337\275\273\275\003\275#\237\013=w0[<\360\361v<\204\254\r\276\362nF=.\014\347\275gX\036\274A}\257\275\"e\033>\023\337\353=\030],>9\017\014>o\324\024>\007^\233\275\262\346\366\275\300\034\270\275\246u\275=N\254*=u$\234\275\035R\335\275\203\020\326\275\201\371\023\276\350[\305=\376-\207<\326.\210\274cB\313;^?\277=\221A:=\006X\321\275x\317\005=o\036\332<\371:&=Q\321\204\275\267\231\211=\274\220\016\275_xt=v!\202=\330\331\363:M\311k\275\375\373\025\276\344_\034=ga\276\275i@?<\035\"\276\275\217\274\265=\254\231\202=T\207\365=\322\276\013>\370\257\014>-\256o\275\264T\345\275\374]m=9\375\013\276I2\037\276O\275\204\274\357\224\016\276\215\244^=\301x\235\275\260K$96\231\242:\223$\022\276\244]\266=\303\266#>m\214:<\303\302\027>\030\304\027=\231:\031>\273\001\023>m\030\374\275\200H\271\275\211S >i\312\213<\240\'3\276\251\354q\275\217S\n>@\021\235=\243\361\220=(\364\004>(3\030\276\350\013_<\"m^<\1771\305=\302\322\000\275\225\022\357=\327\265%>\245N%>\246$\252\275\324\242|\275o\376\032\276\204\226\314=\356e\006>\007\315\317=\312\007,=Z \216=\362\367\010\275\006?\001\2763\237\016\276\211\226\344\275)5\213\275\212\022\n\276\332\325+\275\351Z\023>\377\211\020\2743\311\007\276\"=;;A\213>\275$!\266=Q\312\021\276\344\263\252=\371\205$\276\322\226\027\276WB\342=\260[\274=\264s\237=\307\233\360\275\206\334\204=\334{\313\274\233J\233\275\356\221/\276\360?O=\177\257\022\276\013\323\310=]@\360=\370\243$>\022\355\001>*\207$>\233\013\007>\305#\370<_U6=\232\211\004>o\316\'\2766}\007>\256f\023\2761f/\276\322\357\212=\305\323\323\275&+\236\275\301X\301=\307\250\021>u\326m\2755Q0> \266u\274\r:\347\273\372\354;<\007*\000\275\364\237 \274q\353\'>m\345G<BT!>\333\250\300\275\031\343.\276\204\025M=f,5\276_\224\362\275P\r\025\275r\3123\274~\232\325\275z\310\307<:\266A\275\245+\313=\202W\377\275\222\347\302=\177\216\206<}\235\017\276\317[z\275\230<\265=\326T\270\274~\270\312;\306\'s;}!<=\202k\216\274\177\250\261\274z\273\253\275\233\216\261=.*\271=\210\354\016\274\345\t?>\177b\025>d\344\013<\363\224\230\275\222\200\331\275\"\256\010\275Y\341\037\276PxT=\265\342\013>\356Pt= \030\336\275\002M\'\276\354@\270\275\215\0271\276`\247p\274\233\032\030\276R&s=\246\342f=\374\353\362<\306\'\342=GS#>X\354\">\313\215\226=\326\350\210=\335A\\=\020\345W\275\224k\002>\204\277\374=\024w\330\275\255K\330\275\355U\342\275\310\337\361=@\257\372\2733\341\344\275\241\272+\275\364\274\'>\363G\231=\265z*\276\366\243.=kk&>k\356\354\274p\370\006=\370.o\274\300\r\355=Qq\374\275,O\013\276\',-\276\032\365\">\222\327\223\274\240\352\007\275O\300\276<\003S`=\335)\275\275\212\341\215=\254n\020\276\2508 >\375\006G=\007\263\347=\210&w=\001\203\313=\227($>\233\350\331=\206o\022\276\323\003\352\275w\310\037\276\032\213\231=\235 i\275\352\022\002\276\213\230\201<GL\256\275g\235\'<\211\336\362;#J\307\275j\225(\276\022\2650\275\'\322\n\276\277\305\345=_C\316<\t\317[\275|\245\224\274\376\370\270\275\357Q\230\275\025\352k\275\"\321\327=\330[u\2737\301\027\2764,\362\275n_V\274\240\002\361\275L~\302\275O<E\274\000\334\261\275\317\313V=:2\202\2748\020\004\276U\231\322=\020I\'\276n\216\036=\314W\232=\363\204\240\275\304\007q\275\236\302\223=\250\370%\276\240j\377\275\222\"]\274\263\202\r\276\033\244\272\273\350\323\204\275F/\327\275\272\315\017>wg\006>Ok\365\275\202\023\217=\366\270\'\274&/\374\275\362OS\275\362\006\035\276\3457*\276\200\345\331\274\243\266\276=\004Pg\274\211\245\004>6\2676=\177\375\364=\304\235\276\275\314\037\034>\376\017\213:\221\273U\275\326\352\265=q*\357\275\266\275\t=\306i\330\275\304\301\240\275p\r\333\275\250\226\030=#W\354=*H$<\220T\271=\224P2\276;\361\021>\220\260J\273\313\251\016=l\036e\275\237I$\2760\010\306=\014\367\374\275\266\216)>n\375\355=-\342&\276P|}\274,\350\002\275\002S-\275l\355\003>O\322\025=\227\006\256=\3070\260\275&\257\030\276H*\233\275sJA\275%\005g=e\225\360= \242\035\276\267s\304\274\227F/>\006\372\222\275\'\322\006\276\206\331,>\263m\237=]\003j= \203\\<\376\274\357=\223\226\n>p\"<\276\030xa=\2707p=\\\254\213=\336\377\020>\005\355\201=b\212\360\275\277\r\021\2768\355~\274\276?\366\275\351\205\333=\255s\260\275\335\300v\275\211-\271<h\t\367=\266\354\306\274#\t|=\226\227\001<\351\226i\274%\tX=\354\356\344=\002\273\351<V\356\014=L}\365=x\374_\274\233\222.=\"h#\276Yd\324\275e\211\301\275\203v\226\273\376z\216=VD\304\275\327\005\037>\235X\333=\333\303\250=\336\237\305\274\217\3144\276\314\264\351\2753\302s\273\344p\244\275\035\331\261\275\370P\006>\367\371^\275\327\242\375\274\310\213o=\372\365\315\275;\327D\274\"\020\004\275\307\002$\276\311.\353\275\245\212\362\275^\215\261=\331\214\035>\003\350\260\275\324\004J\275\365l\025\276\377G\001\276a\217W=YS\232=\036\245q\275z\262}\275-\253\217< \217\002\276\215A\267\275\342\376\374; \314#\273\275\030c\275\351\254\337\275\303\365\373<RM\003>\256\215\263\275\304\357\030\275\000!;>\024\225\013=.\326\237\275\274\031\302\275\016!\264\275\230\3762\276N\340\311\274\252\363\206\272\006fD\274\214h\025>\2211\276\275\355\233\231=\243@\035;\325<i\275\327\243\317=\014V$\276\\\273\020>\235\0259=z\363\242=\347\330\241\274iO^\275\236\365\023>\376\342\361=\315\036\357=\215\325\263\275y?\021\276Y\'\316\275\210\253\027\276\311#\224=-\203\255\275\250\257\2379\221\310\375\275\351||=\261\360&>w\003%>{\306E\274l\312L\275L5\251\272\356.\027\276-\336\211\275\206\371D<\314!\376\275\304\326\034\276)\021\230=\010\227\010>\354e\262=)\211r=^\003\350\275iV\336=\037J\275\274\035ev=/U\261=%\2738\276\246{\316\275\236\2101\275\204\010\377\274I*`\274\312\\\003=\221\003\021=b\313\260\274\274\322v=Z\324\360:L\026\203\275\312N\331=\341\341\203=\315\256\220\275(\217\253\275\272\271\235\274\272M\361=\227V\205=_\006\010>\300\354&\275\035%\302<oG\021\276\001*M=/\230\274<\276~)\276\033a!>\322\016)>\332\2622\2730\233a<\200\257\334<v\270g\275\235\022}\275g\201+<q\212\n>\211\320,\276;\253\243=\335B2=\211\203\361\272\353/\272=#\246K<\337\271\023>q\001\211\274\201\376F\275\3325\301\275\334\275\211\275p\252\016\276\374{\373<\313\227\210\275\354\005\240\274_\203\004>A?\272<s\027\232\275\347+\236=\264\010\032\276\334\254\375=\313\202\312<\270-\320=Hi2>i\346\330=\223\020\314\274\360\256\217\274\235\337\207\275j\177\337=g\366\367<\261y1\275\365_)\276=\362\017;c(\325\274s<\343<-\0258\275\322\030\240\275\224\347\255\275\371\252\004\276G\037\215<(\352\373=.\246&=\274\226\035>\314\025\213=\037P\273\2754J\037\276S:\036>,\002\341=[\034\377\274\214\032\035=\277\345\323;\006\001\360\275\200^D=\346t\026\272\274\223\017<\335Z\216=\261<6\276\360\335l\274G\0043>G\304:=S\231\233\274\004\370\247<\362\266\311\275b@J\275\312\272\215=\311\360(>\006\217\354=\340MB\275C\350\323=\2532\221=G\007\023>\341\221\220\275\246\021\261\275\277`(>\226g\311\274,\2631\276+\242\376=\010n\341\275\344<3=n\2103=\331\332\034\275\033\317\037\275>\031\246<\033{\356\275\372\025\351\275y\304.\276?\341#>\0353N\274\021G\375\273m\264\322\274\215\024\275\274\036\n\022\276\233?\003\2742J\363\275H\0233\276>\346\330\275\360\340%>\221\353\332=k\315\267=R\n\275=l&\016\2765\302\032>\035\241\357\274z\334\271\275a+#<N\354\250=\001;\200=?\210\022=\323\237p=,\032\017\276\332\n\337;\366\370\300=\341\005\375<9zq=]Q\"\276{\004\264=po\310\275p\374\252<c\222\010\276^R@\274,\206\273<\34768\274c[*\276\220+\263\275\261E\035\276-\270\005\274\021T\037\276\302\261\244\275^\223\022\276\374\210a\274Nt\307\275v\345<\275W\020=\275\356\373\231=\221\266\310\275h\005!>\000\344\007=\\N\303=\026\325\366=\n\376\262=\013\344\261\275\305\370\304\275\207\222\327=\\\224\336\275-\361\244\275\212\257\271=\277\276\375=\024p\320=g\376\340=QQ\225\275\314\376\005\276\177K\251;\214\027\002>bj\205=3 V\275\216\301\236\275\344\331\303\275\314\010\215\275\340Z\205=}\314\373=\366l\024>\341\037\376=\022\353\334\275=J)<\022\376\005=*L(=B?a=*\004\010\275.[M=\277\310\036>4z\357=\246\316\272\275\357\226\350\275\302\036\032\274\021U\033\276\223\360\030=Y\tC\275@\276\275=\236u\336=M\355j=}\367l\274(\267Y=\216\255\303=\350\3556\276\030\031\002>\240f\251\274\334\266O<\333\372\366\275\030\271\364<t\371\207=\312%\035\275\317\222#>~\322->\357\005\204\275\204\337M\275f\006\334\275`9\352=\005\330\301<m\277\002>\177y\312\275\365\345\207=&\010o\275\356\373\270<\223\353\017\276\262(\031<\314\023\377\275\214\016$\275\344\263\262=>5\320\274\202\305\027=\343\377\016>\355\273\320\275\'\241$>{e;\2730\245\332\275\364y\222<8\231\362=\364w9=\217%\274\2752\376\336=\204\344\246\273\374\372#;@\263\036>\262\351\033\275\331\020\013\276X6\356=\217\247\020=>\330\314\275{\344)\274\352\217\006\276:4\206=>\265\030>\302v\377:\362\202\267\275\226Pi\275\t\361\344=\337J&\275(\016\260=\277\240\250=\343u\322\275}\332\">\0016\033>\266\203\367\275}V\227=HF\313=\317\266\330\2753M%\275\351\304\030\276\025\222\023>mI\026\276\205g\020\276\006_\244=0A\246\274\342\364;=\371X\246\275C\037\267\275\305\335\300\274\233\222\021\274\354\202\240=\214R\203=]6$>_\277w=\016s\000>\250\030\217<\266\366*\275\017u3>\256\233\n>\r\202\223\275\361\216\254\273}\351\253\274\316\365F=\021z\032>\025\274\004\276H\rd\274\205\266\357=\276\r\234\275\226n\226= h\365=\362t\334=S.\240\275EO\237=A\214\202=\362E\032\276Y4\"\276a \035>(\215\367<\027\370\213\275\014~J=oF\254=F\350%>#\213\022\274\266\'\325=\306)\022\273a\313\372\275d\366\206\275\367\367\313\275M\205]\275\310K\013>\256T\023\276n5\010\276\320\277\246\273\034f\276=/X\024=\010\344\024\276[f\347<\204|\201\271G\241,\275Q\345;\275i\332\314\275\006\205$>\225\301\004>\277^E\275\001\351\032>\220:9\275)]\033>\364j\013>{C\344\275q\205\242=\370\370\"\274\010\231\016>\n\302\263\274H?\301:\357~q\275i\360\226<\334\226+>\367\342\032>\361\372\020\276\0232)\276P\313\373:v\251*\276*Hd<\306\272\236\275\276F\315;\223\007\253\274P\321\010=\213\372\241=Z\334\212<\204\360\213=oU\030>\001\264\324\274\022\234\036=\360I\n\2760}\006\276\005\263\017>^n\362;\364\204\305=l\373\213=\241\252\322\275\177;\023>~\364\377=\354\025\002>\254\362\031=\355=\231\275\315\312[=\274\013\325\275\233\240 \276\306\235\'\276\312k\025>8\351V\275N;_\274\002h\003\276\026\237\"\276\346\035+<\277k\001>n\323!>|a^\275\360\005\207;\307\336\361\275f\262>=vg\031>\324\370\323\275\255t\320<r\306\233<E5-\276l\371b<7\214\010>X=\007\276R{5;\020v\020>\376\264\006\276\327\010\302\275\216\207\240=\214|\005>;r\314\275M\021\365\275\2317\'>8,\343=Y\330\372\275\342\264\305;\2741$\275)\302\224\275t\030W\274\372\215\034>\302)\005=$\016\310\275\002\275[\275*\322\321\275\321k\227\272FO\021\276\204G\314\275\377\270\357=Z\200\000\276\221z\225=]\347\205\275=j\225=\016\342\240\273\221\025\316;\030\376#\274P\3560>,S\371<\342\300\337=\305\253\327=/\353\177=\000\001\266=&2\225\275#q\361\275k\033\214=\025\233M\275zOY\275\361Ns=\364p_\275[\333\236\275\214\272\245=\222\250\363\275\031\317\270=#\250.>i\232\360\274\344\021\376=\271\305k\275n\003x<\021\242\245=\234\034\014=\333\\$\276\253\n\030\275\030\247\356<\327\316+>y\n\037\276d`\203=\302\247\034>\350\'\021>\223g\007\276\260\267\321\275O\'\354=\342\251\371\275\033\252\352\274\235*\273;\214t\347\275Zz\364<Oz?=\262\354P\275J\325\354\275z\003\017\276\367\221\007>\253\3110>\003\375y\274\1776\262=\305\342\353\274\033C\307;\250\357\247\274&\372\224\274\3335\031\276:\3140\276B\364\303=9t\005>\277\005\346\275\264&\215=\205H\027\275\027\314\363\275\235\373N=\250Z\033\274\343\216\371<\235E\023>\223\226\263\275\006S\005=!\330,=\025C-\275\001u\035\274T\212\211\275F\024p=\025\307\350\275/E\343=\005\317\267<\306\270\005\276\034\2407=\017*\273=->\321\275\005\360\302<\016\240\311;\256\212\r\274?\337\013\275\243)\323\274\220\201\004>v\020\021\276\t$,\276\225\337\377\275+\373\006\276|a\000<\310\375\265=6+\265\273\340[\205\274:FH\274\216>\004\276!.\327=\004\234.>*\014\345\275\371\306$>lh\010>8\322\026\276\277\336\023\2751w\273\275\214\314\031\276\342~\274\275S\245\360\275\000\300\246\275\237\r\317\274\265\265\262=X\220\261=\231\230\032\276\354\242\250\275js\036>\321=\212=\244\365\'\274`\356+\275G\300\346=\360\260$\276\355\256%>\"\372\030\276f-\026\276\240\0309\276tJz\275M\212\020\276@#\r\276\274\253&\276zM\370=\237\252\235\274\\]&;\025o3=a\357\036\276d\307\026>\005\261,<\217P\024\275$\361\t>}\352\364\275GP0=*]\232\275\211[ \275\306t\245\275#\377\304=%\020\275\275\243\203\004\273\344=\034>T\372*\276\242\005/\276vE\323\275\310o\014\276\244K\311\275\257\225\007\276:s\311\272\252\t\301=3k\022\276&\317\006\275\252\252\310\273\263\331i<L\020\350\275\234\300\330\275\342Qj=$(\'\276\274\034&\276\377\312\350=@!\227=$\361\257=\016\\9\274\340\\*>\217\353\035>\231&\203=\316\002!>\316Z\247\274\246\202\274\275\316*U=\377\252\016>\031y >\'(\025\275\242\n\210=\225Qy;\330u#>\230\3434<\356\252\211\274$\303\031>\222\260\257\275P\303s\275O\241}\274\024L\353=\2008(=\023\365\022>\200&\030\276u\233\332\275\213\374\222=b\371\022\276:\371H\275#)\330\274\212\000\003>\207\357\002>\037\020\003=\362?\324\274\270b.\276\001C\241=\345\203\247\275\200\337\346=\332\031L=\233\314\177\274\010T\256\275\365H\230\275\363\tL\275\002\341\000>\344A{<\375I(>\034\311\024>\304Y[=\37712\274\005h\375=\326P\216<\330\034\313\271\343~\313=7\303\023\276.\032\322=2\322\017\276\355\231l\275\354\001\006\275\n\0073\274\273\025\222\275Eq\022\276\3725`=\024\023\224;\355\326+>\037T\372=&\317\240=\375h!\276\300T\367=d\313$\276\220{\244=>\317l\275F\000\251\275\354\345\027\276+\023\\\275D~\022=\024\'\360;\323p\254<E\330+\276\001\003&\276\272NM;\246\330\031>\010H\364\273\r\014\252=\221\305\n\276\0210\334\274\215_\034>434\276H\306\211\273\270\343\203\274\355\314S=\344\034\021>\273\366\254\274 (\010>BLP;85\000\276Pb\306=\222\342\356=\265\010\252=\330\010\220=\242&\377=\014;.<%P\347\275!\266\022\276\031C\243\274\010\307(<,\311\022>\205M\013=\021@\260\275\253\031 \276\2658\242\275\372U\305\275b\'\204<$-\247\275\312\313\236;?\227\356\275N\2766\276C\2202\276\236T\272\275\004\214\237\275m\357\267=\307\010\245\275\270\312\003=\331RP=\013 \017\276\216\261\006\276N\270\031>\3505\250=<w?\274\253\272$\275\350v\016=\t\024/=/!\254=l\025\327=\366\271\364\275\257$\347<\214\271\372\275%\320\365=\232H\230\273S\204|=\235(/=1B\262\275\000\346\271=6\256\225<(\315\371\275.V\036=@\030\350=^-\370=\023\200\030=\323\340\032\275\034\t;=Q\337\036>\245R\030\276\003\364\335=\254\247A\2754\366\223\275\265\2124\275\361t\310=O\354W\273o\377\224;\036\356\033\275\203A\005\276`\346\034>|\343;\274\305\350\025;\034z\340=\354$\253<\360\364\023>\252U\240\275 ;n<\356\337 \276\366g\033>\020\200\315=\344\222\365=\256\034\303\275\211e#>\302\016v\275\220\272Q\275\246E\375<\321Z\307=\313n.\276\256\321\301=\214m\004\275\271\361\261\274qMC\275\206-q\275\322\260(>\356L\342\2754\204\005>\030\257\271\274\214\206\030\275\035\306w=\027\334@\274\0342\001\276~*\337\275\264n\231\275\017\r\217=G\035j\275\334W\373\275\307-\300=\007u\372\275j\304\321=4Nj=\024\362\021\276\314zi\275TUA=\"\257\323<\",\217=d\360\037\276#f\345\273\215\306\021\276Qn\036>\257\232\230\275\005\247+\275b@\014\276\310$,>\2460-\276Z\256\'\276YF\351=i\220\003>\0243\247=\220\347\027=\375\003\004\276\266\256%\275\324\250\">\317\323c=tg\300=\247-\230\275d{\346\275\252x\367\2757\301+\276\242\251\375\275\252\220\242\275\263-)>\277\006Y\272\021A\021>\265\251\037\276c\261\344\275\222\244\025\275K+\313\273kOR=\023\237F\275\355\230\331=sx\236=3K\027>\221S\211=51\347\274\242{@\275?S\032\2769\312\017\275\310U\002>\034\220\031>\333\364.\275\332\016\000\276g@\372\275/h\"\276\244b!=]\271\360=\226\263]=\336\253\245\275\037W\272\275\312\377x<\234\347\315=*U\205;\321\316\331=\247h\310<\010\"\310\273w\313X=\203\371\301\275\236\205\256<\323\244\237\275o\362\034=M\017\007>\374\313\317=\346a\321=\211\254\256\274\242\'\201\275V\212\016>h\276\245<\220\207\013\276\017\322\023>\312>\321=E\313\330=\232\316\022\275\212\231\023>\246\256\312=!\247%\275\365\r\211<\353\375 >\232$+>\225-:=~\311\024>\334=\312\274G\317\336<\311\177\300\272\341\350_\274\337\335\345\275\030\252\325\275]\351\014\276\224\0249=\222m\313=\276\213\220=\270\367(\275\353\241\352==\336\273=3\242$\274\346\010\327\275}+\031\276\335\212\203\275\306\245\227\273$\330|\275p\262\210=\377\237,\276\023\007\033\276\221\362\000\276P\340\275\275\017\325\032>L@\363\275.\354\227=\265\207\000\276\207\032 <\275\263T=b\255\263=a\016\004\276\035\317i\275\251\300 \276\365M\n\275n!<=i\3140>\327\016\350\2750L\212\273\310{x=._\003>v7\010>.6\342=\2309P=\3322\026\276|\207\303=\307\353\037\276\004A\321\274\265\2470\274*w\277\274\313\334\302\275W\\#\276\236\233I=c\2252\276\256\320\341=A\217\371\275\341\225\333=\332T\342\274[\344\020\276\016\216\014>\002O\243=\353\372 \276\304\312\352<:zS=\377\372<\274\265\333+\276}YA\273\350\314*>\361\216\001=\177a\276\274\305l\017\276\362p=\275\361\375T=\203\346\204\275\335\231I=-\r\342\274HY\256<}/\311\275=\256\241=\320\246\314=\327P=>|\326\215\275\333\004i\275\202\014\236\275,J\001>\240\316\201\275|G\300=[\257\001\276\031\273\r>(\361\t>\223\232!<T\334\020=(\014\352=\021\007\232\275n\354\352\275\\\233\361\275`\314r\275\254a\334\275\356\317\220=K\252\013=E.\223=G\341\n=\236\257\007>)Z\317\275c\2131\276\245\016\014\276e5\240=\254h\n=\267\333#>\004R\002\276\351\332\224\274\022\202\370\275\316\244\215\274b2\340=\"\306\276\275\032J\232<\232\375\366=\365\313k=\357P\024\274\026{\033<\320\022\220=6p\344<\022\342\031\275\316\204w\275\326\323\225\273\256\343\323<\017\355\356\275n\005\350\275+\007\315\275\237\221\013\276M-\204=\240\215\3159\177\236\265\275\227\341/>\377\3750> \246d\274\244\2721=\265R9=\207\377\030\275\303\247\021>\336\317\350=U\265\010>\371\222\026\276\363\214\177<\345\325\035\276X\211,>\362\342\034>_\361_\275n\033\322=\007F\310=m\270\327=oj!\276\340\024\217\275\000\024\250=\213\320\330=\345g\233=\217\337\177<\2024\203:\314\244\354\275\220f\t=\273\336\003\276@\331\277\275j\023\037>\221]\247\275\025\202\274\275\0321S\275~\370\345=[\014\305=\264\351\326=\206\273\242=\204\264\n\275`\032\007\276\375\246\206\275\0203\342\275\263p\031\276?\267\353=\346\337\323\275\226\335\256<H\256\366=\037\223\256\275\262`\005\276\3438\033\276\317M\326\275\326(\323<q\356\010=\001\316m\275_\262$\276\344\213\240\274|4\223=\305\\Q;\220\324\346\271\353b\330<\031R\205\274\0141\313=e]\334<V\303\010=\223\031\251<t,C=I\031\340\2757\345\220=\255\220\211\275\361\376\320\275\0006\016>\356\210,\276v \302=9\351\204\274\236\'\006\276)\211\244\2758\020#\276\234\332\227=\376\010.\276]\374\364=\374\014)\275\352m\300\275\r\323\320\275\322\034\376\274\246\333\342\274\363\232\310<z\202\234=\374\020S=\260jN=\352X\262\275\357\221\352=\274S\026\276\014\336\221\2750\2062\276\207\377\303=\206\t\n>xq\266=\357\350\034\275|\222\266\275\264N\030\275\310\225\360\275\"6\201=\207\313\231;\371\341\023\276\270i\026>\216!(\276;\245\025;\367\001\026\276\r\307\001\276\335\227.>A\225\275=<\002\035\275\261\310,=k\374\266\275\n|\032>9\245\346\275F\036.>\325\220\343<\274\013\205=\201\256\351=\217\341\333\274i\010\324\274\235\266\236<\376\3036>\345\023\001>W\317\367=o\366\323\275\004\005\322=\245\242\230\275X&O\275\260\250\332\275\364N\202\275\275\024\316=pp\t\276c]\014>\367%\010\276F5\312\275\2731-\276\224I\346:\270kD<\316\207\020\275\t\356I\275\311\354!\274I\364!\275\306\202Q=\373\376(\276\354S\206\275\017\223\203\275\324\202[=\321\206 >\262~w=^1\267<Y\370s=\031q\274\275;\366\274\2752\275%>\"3\216\275J\331\030>\231\2339\275\316f:>\216\336\003;\265|\306<3f\017\276\277\005#>O\262\030\276fG,\2744\n@=qf\'\276\"\177\004>\204\243\201;o\215\347\274\373\361\210=E\361\032>\200\250\254\275R}\355<\241\255\255\275`^R\275[\212\337=\330l\212\275\311h\343=\221\207\003\275\375`\337\273\360m\022\2743\242R\274\177\317S\275\250\371d<\017\0139>\362\221\357=\256d0\276\333\234\210\275\216\352\n\276l\325\212=\3461\217\275~\013\276\275\257\271\024\276\320\363\004\276l\311\003:1P*>\366\213\364\275\301V\366=\204\225\216\275\361\213\034>a\230\320\274\022\241+\276\034\1773;\212zY=\t\375,\276\242R\373=\351<\206\275s\274*\276sq\247\2752s0\275\230\375\324=b\000\357\275\003\350+\276\375\377\326\275<\272\020\274X\020\373<\271}<>\027U\224<TY;=J\236\336=w\266\030\276X\337\020\276\357\277\231=\322t\356\275\322-.\276:\017#\276\313y\n\275\360t\207=\2200#>\254\214\032=\226\373\234<Q\373\010\275l=\256\275.o;={\265\030>D\250m\275\217E\245=F\251~=\311\330\246=f\324\002\276#\\\033\276!\327w\275\240\277 >Lj\252\274!\325)>\312o\217=j\3006>\333\n\025=qH\232=\206\026\222\275\275}\302\275f\212\r>\343Q\241\2743xu=\247\221\247<\016u\'>\261F\376\273\307\217\357=\200\373M=\237%\371\275_\032\232=\\\221L<\240\301k\275.\024&\276\242`\375=\033\226[<\236\361\037>gP\277\275\302:\343\275\324\224\356\274\324\314\352\273\227\200(\276\214\247\262\275\342&\020\273u_\310\274\306@0\275\351f=>\357k\235<e\263\330;\254#\027\276\023\3248=\336\275\347\273\274\034\265=\214>\002\276\242\017\376\275\270\372\346\275\244x!\275(\202\321=\206\316\026\2758\201\355\275uG\020\275\037\313\206=Lw2=\322\352%\276\243F8\276@\207\355=\006G>\274S1\355=CI <\336\347\005>y\266\005\276\2107\246;U^\000\275X#\025\275\021w\006=*\321\010>nm\307=\016\201\"\276\021!\034>\001}\327\272\205\371\227\2753\330\021>\020z*>\007\222\024=\276\347\">\022_\017\276C\300\260\275\231\005\263=\252\3156\276\306\332\016\276_\330\016>\204\321/\276\370\035O=\177\314U=\340$\300\275%\006\037=\005%=\275o\264\371=\304\270J\275\253\326+=n\353p=\333\037\233<{\0220\275|F\360=\307\027w\274\306\266\335=9\303,\276\274\033\314=[G\014=\326\354\006\275\307\253\200\275\326\364(\275\213J\033>TQ\014\275Rq\201\274\315\364\211=\250~H=\251\013\334\275\031A\226=`\030\302\275jc\013\276\304{\035\276Q\250J<_\rv=\244\'\037>\230\343\320= \0213\276\256\005\014<\204o\323\275\000<9\276\334&\005>\275_\311=Q\215\006>\325\277\034\2767\216\023=R\344\">\372\251\231=0\036\205\275b+\014=\325V[\275\232\215\220\275a\377\022\276\270\024\233\275\337\310\032>\332\273\r>\272g\231=x@I\274J\024\261=${1=\007l\026\2761j\235\275\201\243\247<5\037\317\275\210\352\202<\252K\337\275\302z\363\275r\006\370\274@K\203\275\210\004\354=\177\277&\276\326\315\217=0(>\275\362\264.\276/Fm=\216\263K\275p\013L\273A\257\341\273\007\020\n\276\333\236\032\275$\002\367=3\222\343=;\363V=\377\367\230\275T)\364\272\364/\005\275\013\210\n<\r\274\312\275C\320\342=\313\006$>\007\313\000\276Pe\243=\034\227\366\275\231\277\'\276\014P1\276\005\025\027>\017\260\373=\322k\343=\025\204\010>\241\003f<\2158\256\275\267y\203\275wK\233<G\240,>\224\204\025\276&\000\000><\201\336\275B\376g=X\326N=\326)\202=\272*\204\275\006\232(\276\373\216$<\274\333Z\274H\362\354\273\025%\330\275\245\265\014>\321?\246<\252l\n\276\031<\232<=v\262\275\2664\007>+\266H=\356\276I<Rs\017\276\367y\374=h\351\301\275:|\027>\037\t\351=\214\000\365\275\0179$>_<\014>\336\2331<\304\017\330\275\026\224D\275\377 (>pZ\226=Y\341\271\275=\365\021>\245!\265\275n\216,\275([\240=~\301\304\2745\246-\2752\014O=c\231\214\275\201\204\017>\331P\312\275\0032\026>\tc\260\274c\205\375=K\022!\276HT\030=\017\331\240\275\326\262O<<\225\021>:H\273<\241\373\246=\266`O\275\013\2041\276\2529\261\275\025Q\322<\353O\014=\267\"\271\274F\037\210\275;\304\244\275\"\006>=\300\204t=\304\234\227=i\364\003>\347\200\226=zZ\020>\325\363\021>\016\255\352\275$\025\263=j\335\215\275R=\300=\252\330X\2759\241\014\274\274\367\244\275\237\266T\273ac\343\275\t>\252<\001\262\336\275m5\313\275\214)\024>|b{=\317/,\276(#\216;\t\200\325=\350\314\245=\303M\207\275\325)\256=\245\\\266\275\354\004\367\275YH\031>*\333\336\274l9t\275\216\021\266=\035\266->_P\222\275}\271G\274\227\035\005\276\312Y\306<@\375\023>O\321\211\275\255\365\243\275\002\324\246=8:\310\275\037\277\360<\037\254\276\275P\260\021\275\235\356\323\275\347\027v;\242/J=\307\005\215=f\353)\276\250\"\022\276\r6\210=Kn\230=\"Ty=\243&/>\3505\336\275\263!\220=?\224\204=\204\026\344<J_\234\274\377\2054\276\372\036\332\2753C\004\276\030I\203\275\257\276\201=\006B\020>Kd\257\275Df\001\275\256\230\244=BY\304\274\226\224l\274\327e\014\276\202\275\253\2755\3272\276\2621%>\305s\r\276\257\r\235\275,\250\356=R\341\007\274]BR\275\300\264\212\274\001\307U=I\240Y=\253J\000>`\362\036>\233\001\270=o\017\303\274\002\342\010>\320\206\354=3|7>D9\373=V8\016>\037\353q=\361\177\332\273\244C\274=/\347|\275&\005\233\274\357\254m=);\232=W\232+\276\020\212\245\273\016Y#\276q\002\373\275?\207\026>>b\340=\230\203=\274]\0053>?\302\361=*\244\006\276\037c\367=\225P\016=\356d!>\010q\314=J\274\312\275\036\3732\276\223S\221\275\315\337\004<\030\036\004\276,=3\276$;\256=\366O\017>j\n\302\275\002\322\377<\216\r}<P\026\367;\243o\271<\211j\013>lu\305=\314\306\262\275X\355\346<\334!@= \224\302\275\005\272:\275}\266\210\275\350\227\327<s3\262=\254\325\373\275\250\024\020>\226\034\016\276\335}\274\275\372Vb\275>\036Z\275O4\275<0\177\346<\332\215\r\276\344*\327<,\3317=\205\200\213=`\333u=\330\205\254\275>\340\001\276\234G\331\275\034\221\t\275\'\"\003\276o\230\022>(k\016\276\325\2703=\024\2124>\347\030\025<\243\262\233\275\370\334%\276\021\277\360;\326\263\266\275j\026\016\275\234 \203=\231G\016>|X\303\275\301\001\t\276#\006o=:\014 \275p\253\253=\214\032\030=\350\303\206\275\232y\254=\207\200C<\331\222\241=#h\030>$\004p=I\035\352=\222\377\016\274\265+\223=!\364Y\275\361EK\274\322\375\344=\246.@<c\016-\275\005d&\276\001\322\022\276\274 \033>0\023\026>\351<2\276\311\177\230=\253\214\307=A?\213=f\363\250=\215:1>\336\225\013>\241\025\204=\300.\324=t\343?=8i\222\272-\022\316\275\222\266\022<\354\022\264\271\354U\030=\372\237\312\275\330\'\021\276\024\364\304\275\246sp=t.\'\276\330\337\353\275\265CQ=\263\305)>/X\363\275\262\n\003>\260D\003\276K\333\202=\250]\035\276\343\210\205\275D\017#>-\215\307\275kU\227\275\034\244\220=lQ\251\275\271\014\224\275E4\341= @1\275\2378\r>Q6#\276\267I3>\206`\r>\030?\260\275\344\213\222=_\202\377\275M+\r\276\223\220\266=}\3513<\364\343\305\274$\304}=c`\t>>b\251\275\331)\205\275\227y\366=g\036E=+\330\364=z\221\000>\321\'\376\275\277\025`=B\221\241\275p\263\r\276\005\313_\275\031\261$>&m\003\275\307\013\336=\265\354\212<\030\003\220=\210Z\237=\260\014\021>\221\355\246\274\357\250\205\274$M\215=\255\372\217=\\q\311;]\347\034>X\217\376=v\252\027\2761|Y\275p#\205\275\300\235\034>R&\334=\211?\301<#\023N\275\\\375\371=!X\356<\000H\335\274\035-\004=\344\241\260\274l/\021\275\230\275\013=P\355\\\275\010\351\206\275+Y >\200\376\307\275\223\007\224=F.\245=\257\224\243<;+\211=\025\202.>\003\215\226\275\302_\274\275\017:6>\254\370\">\016m\326=Nq\262=\331Q\005=\244\230\212\275\262\274\223\275Cy\024>j0%>\374\016\026=M\276\005\275\207^\264<-\347\245<&\312\247=\023\034\007\2758n\026\276I\214L\275\242H\035\276@5\330\275\304\026\247\275\270%p\275\340\271w\274\252\371\221=o\273\260\274\217o\263\275>$\273\275\r>\331=\n49\275\303\237\323\275\002D\216=\266\027\241=4&\342\274\244sY=M/\367;.r\237=(;\035\276Q\375h\275^\343\350<M\3305<\217\253\000\276\317s\342<7\256\252;\342\006\257=\036R\306\275T( \276\035\331\025>\234c/>!*\303=\r\250\342=\026\001\037\276\346\217\237;\225\276\213<5\252\272\275\260w\240=z\t\242\275\001\277a=\367\000\354\275P\005\017>Fk\255\275K6\377\275\2322\033>r\341)\276u}&\276\354\1779\2754\252\006>\314\216{\275p\223\016\276C~\330=\341\3734\276)y\314=h\033\216<\020\033:<\202q\353\275\223.\367=\234&0\276\263\245\252=\000\351\222=8\252d\275\345\303\262\273\266o\021\276\024\356\243\274\325\243\312=\371\325\020>\221>7=\307>t=\027R\371\274\002\006\233=\034\260\002\276{\341\336\274f\314\206\274\230^\364<2o\342\275O\327\342=\014\321u\275\310\3009\274\036\224\036\276Z\241\222\275\0108\376\275\224%\314\275,3\340=\211d\001\276\325\221\261=\335\222o\275\337\3529\275\231\235\242\275\005W=\275\204\203\336\274\330\264W\271\232\256\325<\227Q\022\276\222\235+>\307=\324\275\246\017\027\276\267{\271<\276\227g\275\257\211\351=\274\220\231\275\210\235\026\27630X=\213Ed=o\306\311= \215\230=\316+\323=\003\362\343=2\356\310\273\231\240\360=?\324\032\276\275}\227\275x5\310\275\337\333}\275\320T\213\274t}\024\276\303\261\000>x\222\227\275\263\231\206\274\225\275J<0\221\306\275\353\026\333\275\256\007\274=\351\235|;\251u\200\275\260$0\276KD\006>\343<)\276\223m\265=\026J\246\275\3411b\275y\365\336\275[\021\366;w\333\254=\322\366\023>\032D\241=q9\341\275R\242\022>\344\004\030>l\270\337\275\341\255\\=#\371\332=A\203\036\276H|\360<\033\230\361=*\2622>\264\256?\2752\312\344\27544\036>\004E\261\275\234/\321\275\326\364+>\025\273\000>\303\304\307=\014\361\027>_6\230\273C\374\007=xN\245\2743w=\275\'\356$\276\240\3007>M-\000\274O9\337\274\255!\246=2\252s\275\273\353\232=0a->\335\025\034\276\257\354\344\275\302\035!=v~e\275W\304\027\276\265\213\343=\203\274\245\275W\271\245\275\310m\274\275\343\254\005\275e\327\035>\320\237\204:FT\020\276x\224\356=\304\331\247=\267\021\206\275j8\204<~\267\243\275\243\324\036\275O$[=\t\234\006>\341\010\263\274\362\325\320=\204A\r>6L\363\275\265\307v\275\033\271\010\276\016A4>\207\241\316\275\302\350\001>\0350\020>8\005\342\275\365\3104\276\244# >j,@\275\215v\360=\325\376\236\275\025\203\366\275e\203\030\276\202\365\310\274\213\235-\275\234m\266\275\325c\302<\220\233f;\004\301\245\274\"K\243;9\303\t>4L\351\275B\351\327<\034\202}<W\311\365=\307\"\014\276^po=H[\266\275^\034\022\2757\0105=\232\027\373\274\275\326*>M\274\370<\202\226\242<\261\\\260\274a\230\250\275\211l\006=3a(\275\266N8\276\315r$\276\220<\022>\024\262\r>\373\220\034\276\316\0263>\010N\206<\361o\264=d\202,\275\375\035\001=j|\207=\346o\'=Uz\034\276\316\234\365;\251\377\t\2763\230\222\2746y\217\27553\344\275r\\\023\276\035\257\034\276\0351\204=\211A\003>M!.>.\336M\275\244\232\014\276\331\030#\275\016\237:\275h\326m=fC\t>\351\300\022>\271\360\364\275\006?\302=\244u^\275\376]\000>\344v\341\275\3011\327\272p\n\300=7\335\207<\035\tc\275\3502\006\276\315\333\016=\316-\017\276\214\367\036\276\220\230\330\275\333W\013\275>:\320\275\200\211-\276\326\322\037\276U\256\304\274s\217>=\177>\315\2756\214\205=[v\277<K6\363=4\340F\275\225V\367<\031t8=+N\327=\025\216)\276\344,L<\th\023\276\205\204\033\276\030*&>\215\025\310\275\341\205\013>\035\306}=\345\375\006=\257\3158\276\254,\036=\213a\325=\006\260/\276\250\260\014\276$\302\037\276A\345\344<\035\305,>\264\213a=\026#g\275\304\222\263<\315\317D=\376\033\254\275\244\001\243=O\354&\275\300\263e\275\222&&>X\325\007<Ny&>)29<Q\364\377=N\222\346=\266o\327=tT\343=\303MI\275\332\200\007>\252\020D=\300~\217=@\357\034\275\000P\">\203,g=\222\220h\275\341[\330=}%\252=,u\033;\021W[\275\374j0>\2220X=\355\341\374\275Bt\343=p\321*>\207\0250\276\021\235T\275\253\025\'\276j\322n=\022z\356\272$\277\257=\361\204A=Ro\270\275\360e\235\275\231\t\003>@\334F=\273\031\n\276\255\002\020>\'H5>\036:\207<nD\025>\\\227(>\377f\203\275*\3616;\031\"2\275\t\372+<\340\264\254=\340\213\255=@\354\004\276\361\266\247=\255C\037\276\300s\276=\327\220\252\275g\2329\275_8\343<y\367\"\276)\354\312<v\355\243=\347\204\312\275\216\200\346\275J\027\271\2752\251H\273\243\372\362\274+\303E\275\372UO\275U\027\035=\374\2378>\\\344\274\274\\S\005>\344!\231\275\323\013\030=\372b\035>\324\200\332=0\241\272\271C\003*\275k\250(\276\345\367\013\276\362F\273=\350(\221=q\213\335=w#\366<\360C\206=\022\342b\275\n\n\023\276s\353\363=p\270\004\276\256;\034>N\205\222;\337\367|\275\3614\023>e\262\205\274_\301\001\276\030\2026>\333\313\026>\023\227T\275\210\302\n\276\244\262\352\275n\241\312;\317pm<\320o;\275U3\326;\226\211\357=\244p6\276i/%>\252\247\\\275[Z\004\276Xq\375\275.\263=\275d\212\023<\314\2053><z\032\2763\254\t=B\365z\275 \0177\276\316e\225\275\0349\214=\302Zt=]G\323;\202G\256=\354c9=Sv\256=P\337\026=ET\021>\317\3371\276\255&\246=\374\264#\276\005\005~\275R+\276\275\216\245\201;\246d\316\275e\006\035\276S\345\325\275\305\216\243\274\371\326\240=\2045\251;\2726\t>\214L+\275x\355\361=9\023\033>i\3551\276\006\267-\275\356\357\277\275f=\"> \3203\276\260u\315=\212\003\374=\031\017+\276h\303R\275\013\0215\276\235\3365=\226/\000<\035\271\322\275d\233\340;N\337\263=BD\326\275\327N\306\275\001\230,;\2628]\274\256\t)>\350\364\212=\376\314\244=\222\320\262<\355\330\034>\334\3339<\232\215E\275\331\325\224=\223\321<\275\022\014\021>\267v\001>\"\266\005\275\215ZQ\275X\314\371=c\026\241\275&\365\377=\200\343\361\275?G\367\275\036\302\242=a\377\335\274\235\304\n\276\016\030!=\266r\016\276\302\026\371\274\013I\205=\220\212\204=d.\205\274\250<M=\231n\306\275\372\233\000\276TrG<\337\n\246\275\211b,=N\020#\276~\373\211\274#\r\234=$\350\321=]2\235<2\006<\275\240\202\262\275?\t\347\275|da\275\313b+\276\264\226(\276B\'\354=\207V\244;\370\304\236\275\204(\273\275\036wR\275\355F\345=\216\242\245=\361\345\223<\353V\307\275\033\022\345<G)\003\276O+\205<u\277\375<\036\316\240\275g\345\023\276t\224\320=\333g\311=\306\270\363\275P\337\374\274-\240\336\275!\374\303=\252\247\007\276\017\343\334=\273\204\276\275\367\024\250=c\032\247\2752a;\276\305a\022\276\344\034\372\275\370Z\020\276sQ$=4\226\230\275\006\311\026>\360\002\017>2\020\201\271A;\204=Vg\007>\006\324\324=\353\240\006>O\014\361\275-t\r>\'\360=\275d\206\331;\277\205)\276\333\344 >d\211\020\275\244\037\t\275\013$\202\275\013JP\2734\005\201\273Xl\003=\'\223\235=\036\342x=\'\322\002>\002\207\240\275r\r7\276\211T\255=B\377\311\275\2424\270:\254a\334\275\312\342\327\274!\242\021>\260\007/\276\253\232\030\275y/\014>\306\377\017<\023\256v\275C1\335\274l\241b=`\031\032=y\357\'\275\377\205\320\275\313H\024=2\201\317\273:\365\356\275\217\211\232;\227\016!>\324\3760\276\210\3574\276\024H\023>\321\272\r>\262e\264=\252]\005\276\224\010 >8\300\225;\307\037.\276\365\360\230=\202\261\t>(l&\275\213\261\364\275+\001\036\275v\005t\275N{\013\276!\362\002>\'\331\260;r\274\202<\324\213\312\275\370\223\252=\030\"*>\357F\274\274\n\202\r\276\245\273\207\275|,=\276\353\314\333<~\002\034>\214\313\026>j\344\033\274\364\372O=#\266\021\276$\343\262\275&T\236=\220\337\2708i5\232\274F\005\365\275-\344\033>\357\342\340\275\221\245\251=\302\327\232\275\342p\360=\202VM\274+\332\363\275\242\314\217\2752\342*>\337tK=,Q$>5\253^=L\324\221=Y\204\037>\340\317\321\275\010\305\251=\275\360\321<\\\013\004\276Z\356\263\274\'\363\370=>x\366\275u\014\031\275\350\375\364\274\221\324\241\275\203\354\204<\017\220\002>x$Y\274\334%\226=*\370*=z\312\210=\315A\365\2748\320\204\274\026\267e\275\303DY<\023g\210\275\0375z=\315o,\275\362x\020>\320\242\215\275\226\207\320<\310Q\024> P\361=^8\021>\000\355@=W\316\033\276\016s\306\275\243\312J=\361\326\027\275B\005\320<b\2357\274\300\245\340\274_\224\202\275;b9>\237\257@\275\030\0333=\033\t.=\304&\260\275\340\234\021\273\271\311\241;\016L\000>\036\311\271\274\217F\350\274k}(\276\205|\227<\332\337\247=d\260\022\274|1\307\2757\021\257\275\010\252\001\276\311\344\315=O\250K\275s\216\360=\260\266\370=5:\013=\356\210\255\272vJ$>og\261=m\321\033>{\330\356\274:W\000=\217{0\276v\036\336=`D\326\273b[\006\275\212\242\020>\013\275\375=\246\237\021=|\231\304\275\335!\372\275\315\240\020\276k\311?<,\333\241=Mr\205\273\353\022\003\276\237\007\357\275q\221\376<\307\035\223=\303\272B\274\362u\265=\244\312\001>\004C\036\276\256\216f=\350H\323=3\025\"\276\225\026\374\272\306\004\267\274\212d\200\275\020Z\352\275\363\301B<\032\027\201;\325~\336\274\276.\014>g/\035>X\2139>>-\032\276I\230\352\275\007Y\245\275\\\213\004=\331\251\315\275\303D\330=R#\275<;w\016=\226T$=/\375\250=\010\205\356;\312\253\025>\254\003\305<\326\347N\275|Mn=@a=9\006il=>\010\016< =.\276\236\353^=B\366\007=B\211\312\275Ru)>\214\252$\276\355\025_=\353n\207\275\320\257c=\277\270&\275\346\322\270=\220\023\372\274\354.\034\276\327P\033>&\325\273=\361\321\027><\3765\276\276\275\245=\r,\022>M\344\320=i2<<\317\232\240\275+\026\004\276EJ\210=\270=i=5+\036\276\312\306F<\242=o=\277\323\375=%\301\016>\367\3510>\020\210 >3\3216=\256\3639\275+\345)<\264\243P;\3627\007\276Nm(=\253[\357=\335\354\031\276\261\027\362\275\3707\335=\2208#>}\363\001\276\300].>\3352\005\276L\231\336=S\n\007\276\001\350\034>\\\235\014=\027~V=\346\006\205<\274\007->g\312\272\274\272!\274<\002\026\024>u\352\036=\343\254\355\275\226\243\022\275rs\333=\205\034\024>|\020J\272\'\016\346=\251\"\251\274\204\370a\275\006\231\n\275\256q\024>w?\255=\244M\261=\221\351\000>\333\251\364\275\276\353Y=H\217\204\275d\020\014\276m\3533=Z\216\177\275\250c >\002t\373\2740\220\324=\217\032\302=\177\274\273\274\212\371\217\275\266U&>\017\203\223=\375\354&\276O2\237\275G\330\036\276t\226\t\276\014S\001\276\344\362\257\275\345\247\243=#_6>\000\344K8\233\271+>\333\007\244<M(\200\275\2609\376=\306\266\312\275;\330\227\275\312\240!>]\277\227\274\031\256\340=\031\332\235=6z(\276\327Y\020\275\021\3367>\255\254\t=\241()>\317\034\202\274H7\242=7t+=\361j\001\276\351\256\230<\032\367\301=\342M\003\276\271\260!>t\250\375=\251\300Z\275\016\020\010>B\301p<7V\351\275\347\014k\275\306$\302\275\010\256\324\275\313\366\251\275\243~\000\276\227\220z\275\365\2474>\330J\373=:\251\036=\014\231\232=B\254-\276\322\224\372=\177\363\n=u\263\235\275\3425$\274\300\303v<\246\331%<\t\377\020\276%\220g\275\001\305\323\275\346\216)>nm\247<\244\206^\274\362\327\252=\310\035\377\275\234Nh\275V\3352>\361H\230<\257\245\301<h\253\000>\002j,\276z\262\372\275\200B\207\2753\316\230\274\r\004\017>\024~t\274z\357\">\324}J;\204\356\013\275K\331\233<[\356\226<\324\310Y\275Qoi\275=\266U\274(y5\274\007\005B=\035\212\t>y\245\007\276\304 \351=\376\021\013\276\217w\214\275\347\003\214<\025\315\310=\342\003\027\276\307,5<\343\030\262<\260\224]:\006[O\275W\030==\351\010#>r)\006\276g\271e\275\251\025\302=\030\310\004>7\001\026\274o\352\215=\003\240\023\276\315\212\373;\024\377\327\275c\262\261\275\025p\020>v\006\364\275\245\265+\275\312\255\031>\377v0>\000>\t>\243\216l\275\330\2529=\2046P=\241}\006\276\336\321)<h\000>\276\200\321\214=?\2447\274x\217\026\276\226\263\034\276\255\250\026<\360\020\017\276\240=\367\275\014\307\005\276g\3319\275ZD\352\275t[&>\nQ+\276\307\271\322=\0171\233\275{9_=\366d\025>\202N\031=\302~\335\275\266\353&>\316\254\014>I\357\256=i\341\035\275+\314i\275n*.\276\327\373\360=\216\356\350\274W\3729<S\356\023\276J\301/\275\330Bt\275\234\376:>\277\330:\275\365\2437\276\303\341\020>\0140\304=\373\262\312\275\200i\214\275\02361=\002\274\\<\202\326T\275\360\230\037\275\200R\261\275\025\224\277=\006\273(\276u\231|=u\302,>\004\273\010\276\323\214\350<\364-j\274\236`\317=\203\334\020\275\274\3536=\202\230\001\276r/\321=Gk\373\275\317_\216\275\276\264\261<\243\034\223<\3601\201<G\234{\274\333A\372\275\033\210b=\312\002\376\275C>]=\237\311\037>\037\2241>\023\361\'>\341%\262\275\006\365)\275\265\214\002>8I\230=\312\027\373\274\346k,=\341\005\026\273\021Gi\275\210&3>\255I\341\275lM\"=3Dc=\263j\030>M\001\210=\313\247\005\276\007B\305=/\341\033\275\3716/\275\372\031\336\275\240(\022\276.FE;\'\334;=\304S\201\2752\034A=[\305\203=\014\237\024>^-\327\274\354V\325\274\237\t*\276\347-\335=\214\210\332=\230\2161>\303\342\364=\"\202\013>y\243\270\275q \312\274R\362\257\275\3300#>\3205\334=i\265\326=?\335 >\2202\343\275\356\251\255=\354\003\301\275\222\034\334\274\346\302\263\274O\344\362=>\205)>\202\343\253\275\323n\273\274\265\002$>\330\020\022\275\033\026\021=\231^\024\275\275\010.>\346\367%=\000\345\366=y?\212=C\274y\275\000w\276=rr\331:\"\200\363<\t\326o\275\344R\t\275\2670\013>\262\377\370\275\005\361\254=\030\227\357=\005\371y=\307\235\030\276\201\231`\275\206\214,\275@^\004\276\325\312\343\275sX3\275\207X{<L\335\024>5W\004>\013Z\316;\353\232\254\275i\001\n\276KR\365\275\347\324\236=\330N\366=\223\315->\246&1\275\334D(>v\326\376\275kb\030;\237\266\225<}\360\262=\211\003\241=\3312k=B\312\205=\203\200\000=\322\321\000>\371\014\202\274(\310E\275\354J\277\275tQ\213=\033#\020>\376\251\233=\023\024n=U\'\345\274\355\227\320=\271p\236=\310\261\334=_i,>8/\003>\251hn=F%\256=\266\t\307=\357\370\335\275\313\213*\276\016\364\256\275+\262\245\275\230\tN;?\361%>\231$\320\275\201\266!\276\266L5=\'-\311\275|{\341<\364\025:=\nM\376=\205g\232\274#\334\n\276~C\006\276i\236\342\273\332!!>DQ\271=9\364\014>\034:\237\275\276\2730=\024`\276\275\032\270\212<\352\013\317<\306\207\003\276`d\"\276\004\354b\275\267\273\214=\260\370\006>\032\226n\275\355\257\321=!(\013>a\206I=\335\262\366\275\245\355\362<\332\376E=I0\377\274qD\003\276\320\344\260\275;\241\'>\307s\030>D\236\356\275\344S\255=\341\223\257\275\362w\370=X\024\014\276\257>\'\276\234\333\200\275\321\022\000=zq\031>\212\363\207\274\\bE\275}\r\r>x\037u\2748\017\017>a\207\"\276yX\027\276&\370\260=\2242\r>@\203 >!\303\333\274d@\346\275\272\260\276=\226f\266=\305\\\236=l\210\222\274\n\207\r\275\3577,>\375\226\274<\336X\010=\331\223\274=\364d5\276\334\354\005\2766E\022\275\017+Y\275\374\360\r\276j\347i;\301\233\006\276\213\356{\275\326\267\031\275\235R\254\275o\307\251\275F\014\016>\035\255\004>\232\303\365\275\257\306%\276\246\212\270=\007\341i\275\005\307\004>\332\262\351;w\013\025>\336\001\367\275\010g\200=O2u\275\203\002.>\276\240\210<2\272\320\275\277\236\270=[\244\274<\231\335-=\244b\357\275\312\211\034>O\314\026\276\201%\023>\016H\343=\337`e\275F/\215\274.~\242\275\252\243,\275\2406\205\275\264\205\031\275\210\350\021>\312\0109\276\263\336\236=\242\221.=r\023%>\365\206\t>(h\372=\223.\003\276\rr?\275A\326\036\276\213\272\370\274\374G\177=I\027\322=\r-\024\275\237\314\363\275U\346H\275\347-\201\275R\332\311;\354\267,>P\213\r\276\360\247)\275\220\375\n\276?\215m=\354\340\361\275)\027n\275E\334<=\236\200\030>G\375\275=\317\222\270=\322\213\037\276D\024K\274\273\256)>\204\327\t\275y\231\260\274\203\320/\275\226\022\347=\301\335\\\275\327\'\243\275\252W#>R,\332\274S\027/=N\237w<\223J\207\275E\362]=7\005\037\275\205gt\274\364u\206\274\264\311\r\276\013\352\351=b\250\212=\006\255\223=\032G;<\327\t\311=\334z\220\275\211t\202=\310\232\276\2754\277c=Tb\006\276\030\333\363=\253\353\221\275\264\r\370;\004\227\260=Kn7\276\243_\234=\256\013\356\275\321\036~\274%\262#>\217\003\357\275B\277\004>\240\003\004>\204\3219\274#\212\344\275]\374\256\275\363p\257\274\354\034\275<\341=\253=\361\245\355\275\344k\"\276-E\264\275Mc\210\272[j\364=\037\n\353\275\374\3641>\rI/>{\375\222\2754Bg\275\2333C=\240h\353\275(\224\317=\277? ;?\367\246=!\247\\\275\037\000\210\275@\312\212\274\312KC\274\236\235\212\275\"y\036>\320\263x=c^\211\275\362\200\016>\351\017\024=\320M\274=\304\206\367\275J\371\330=~\347\n>\263\214\203\274\036\227\031>S\324\'\276Q\246\373=\344\305\320\272wY\344\275\225\224\002>\031\334\316=\213\r\234\273\315=;=\375\001\355\275L!\241=\007>8\276kv\216\275\002\322\207\274\251m\014\276\006D\357=\227\367\352\274\333\232\037>\252\'\247\275\346\316&>\034\332\034=\373\337\241=\365\364\034>W\200<>\032hu=\017n\013>\375\214r\275<p\034\276\364\220\270\275]|\021\276\3216\212=D\346B=\010.\312=\226\2304>\'\354V<\007\277K=\204\265\205\275f\363#\276\210O\237\275nu*\276\177\255\265\275\356\367:<\274\313\274\275)W\333\275\202\216\262<\220\372:=EC\302=5>\217=\343!\376\275\261\312\225=\232X\270;8Ob=\276wz\275\030M\022>\034\\\221=\202\031_\275\344|\'\276\373\'m;Z\026>=\252\237\353=|\336\022=\231\204\221\275\273\263\313\275\'_\335=\301<\030>s\277\337=\334\245\'\276\365\227\320;\221\r\t>\026\022\345\275#_\332\274\315\345!\275\314d\036=t\023\320\2753\357|\275R\2376\275\2108\260=(,H:\001\351\317\275or\002\276\276\004\345=\006[\375=oO^=\267\243\200=\343H\'\275\361\365\332\275\345\202\341\275\013\355\022\276\301\0319=\207J\356=\215-\002>\202\004\027=b\325\210=\246\2445=\001W\311\275\307(\030\276\010}y=^\240\362\275\375\304*=\223_\337=\017\335\215=\207\264\027>^\211\017>\334\265\002\276\033\205\205<\256\210\"\276(\366/\273Rm\202\275\354dd\273\2418\n\275\302[\242=vN\336\275c\250\030>8\321\312\275\3469x\275\306\004/>\345\271 \276K\274\327\275\335\255\315\275\360\302\207\275\305:\311\275\320&\r>\355\004\035>\340\026\265\271\034p\350\275q\255\210=)\t\327=g\303\330\275\252\220\225=\242\301\017\276=\343\335=7\300v=d\335\030>]\301\372\273\363\320\n\275\304u&\272N\3136:Z\241\013\276 $\006>\306J\347\275m\037\330=\232\3323\275=K1\275\313a\212\275\220[\353<\315\247\001\276a1\361\275nO\025>JS(\276JX\245\275y8^=[1\247=\r\216\037\275\363\227\337\275\n8\005\276\005\363\016\276\272\274\324=\200\033\260\275>\010\260=H\2067\276\020Z\030\276W$\344\275\213\347\276\274\317\030\311=\2562\363\275\250h\261=#P\013>A\312%>\263X\334=\236@\230\275\301\360\010>^\271\000\2765Eq<\3041^=h\203g:\367y\001\276\317\334|<\272\246\311\273`\256\254;\324\341\272\2759\216\266\275\022\000\001\276\277u\333\275\002w\241\275\226jM<\367\311g\275\240E\007<\337\304\363\275\250\026\r>\362s\356\275\021c\320\275\236\214&\276kc\372\275\313\246\236=\311on=\261\337\035>\326\2223>\204\314\310\275(\225\335<Ko\340=\371\272\303\275\334\306\245\275&\370\344:rRQ=\256\237\270=\260\332\034\271\212\013\374=\365P#\276[\325\211\275L\250\014\276\024\225\t\276\304@b\274d\330\257<\357Y\206</\235)\275\276I >\320\204\245=\t\352\000\275\237\2756>Z.\346=\324;&=\340u\022\276\253\360\261=\n\2340\276UL\305\275\267\351\254\275\352\022\022\276\226]\240\274*i\325\275\214\275r<$\253\230\275\265m\367\275\006\212\037\276\016\3348\276\276\267)>\001Y\277\274a\231\267\275\223b\254;\354\376\013\276\2171\033>\301\261\302=\022\265$\276\332\335\r\274\253\3600\276V\223\364\275\273X\264=\254\336\220=\225\336\002<\356\013\266\2759V@\273\213(\021\276<\030+\276\310\327\364\275D\340b=|\016\004>\214\322\315=\304I\007>f\332\263<=\370\006<\354\014#\275H\375\027>.`\334\2730\264\267=\266\353,=\316\212\333<L\031\377=G\016\013=I\242K<6j&>\204\023\036>\022\360K<\327o\026>]y\261\275\362E\305=\240\310\004=dO)\276\"\232\030>\2310\251\273\355\241\315=\244\274:>5;\200;\226\354\303\2759\334\231=\344k|=q\'\202<\341=5<\234l\213\275~\304\352\275\324\017\346;Z\273\352=\230\312\020>\1779+\276R8)\274\277\235\345=4@\000\276\315i\006\276\201\312\213\274\263`B=L\345\003=\016\237\033\276>\252\236\275\333L\351=\204\306~=B\340\031=/+%>N\271\036>\257C|\274\215L5>\243\253\224\275-\350;=\rK\203\2759\315z=|\005&\276q<#>\0358\244\275\336\253\221<\252\200\201=\027\2653>\215F\">\226\220B=\354\026\365\273~\030\325=iG\364\275<_!>\301\325\344\274\020Z\275\2752\375\201\274\010\344\364=\253\346\342\275\351P\032>\000\013M\274\231\021J\275\226\362\036\2760,\202=\267\253\365\275\225\270\363\275\216\013\233=d\351\374\275\267\200\207=p\005\207=@\376f\274\323\243\031\276\322\233\020\275\220\216\313=h\237C<\333\207\307\274K\310\206=x\230\201\275\206\260\372\275\3376\264;`\316\311\275t\265&\276\037b\231=\212\r\227=\246\010\025=p\025\241\275pZ\215=\351J\000>\365C/\276\031\010?\275\0261_<\215\3302=\234\245,\276\304\231\005<\314\250)>dS\303\273\364@1<\3062\351\275&}\322\275`s\\<\377\032(=\320M\037=\r\253\373\275~\016\021\276\200\300\256\275\2665s\275\335}\377\273\020\321\244<K\034C\274\202)#\275\211\235\215\275Rm\017\275R\204\013\275\262-\376<YO\'>\001h\034>V\311\004=\317\374_=\277v\260=O5\242\275\r\3511\274\377\377\377=\033\347\032\276\373\005&=\354\031\260=\271)*>\306\213\254\275\302}\006\276\020w\'>\332\313\341\274\236\"\322;\234\313\200\273\242\273+\276\246\'0>\303o\273=\030\304\366=[\355\020>\243\362\006\275\231\203\266\275\256\324\016\276W\212\'\274\025\001\301\275\267*\242=\212\261\335\274\222\\\343=\020}\037>~\026\306\275w\000P\275D@\">\363\202\215=\254\000\026\275\303\005\n>\027\013\232\275\340\246P=d\315\272\275\247\322\250\275@\315\270=j\271\225\275m*\244\2752\270s;\224\273,\275[\330\207=r\276\344;\200UR=\241\307\'\2747\357\035>\202\001\026=\376\311\252=\244\333\"\276\206\007\211\275\363\267A=\320U*\274\327B\224\275\341\2230>f\224c=%\2470>\356\200\033>\224\312\301=\232\2044\275\336l\203\274\365\2222\276\320\322d\275G\271B=b\t4=\337\302\252\275&\251W\2754\363\242\274\212w\353\275\221\032\271\275\366P\276\2732\3230\276#\205\340=\004{\206=\010MY<\233\005\"\276\201\216\177=\377\tU\275\356Q\340;J\034\314=\000}\354\275\277\271\363<\276\276z\274\206\353^=`\353\205\275\010\306g=\"\2733>~\266\"\274\332>\376\274\244\224+\276\254\222\202\275\327~\376\274\352\354\372=7z\001\276Y\220\034>f\202L\275#\211!\276\2426%>\035\245H=\260\262(=\026\247\377=\237v\372\275\265\375p=\200\213f\275a\021\235<0\242\357=k\000\001>\010\204\372=\007\222w=)7\236=r=\025\276\0344\307=\327O\270=}\337\263\275\330\364\223=$D\325\275\345\'\332\275]/!\2768\344\215=\3204\273\275\374\001\016\2761\035\257\275\005\317\342\275+S\233\274\272v-\274\356\320\226;\253\201{=^\247\205<\252\232\214=\224\323\321=\230;*>\311\361\332\275M\263\261<\372U\010>\226\r\025>\366\257:\274\262\006U\275\243`\n\276\034Ua=2\002\261\2751(&\276#\337\217=\330\027%>\225m\236\275i\013\246=o\334\333\275v\304\022\2759P\203\275\347\005i=\005\343\240=\036\357\037\276]\253\304<\305\\@\2753\\\343=\005}\002>\350\224\215=\t\227\020>\032\375/\276\323sM:\226:y\275\244\377\013\2748o9<\223\371\010\276\2279\'>|\352|\274\256=\363\275\003e \275r\221#\275\215\213\367\274Z\361\271<~\256\333\275\2674 >\227L)\276\330$\202=\257\377\033\276\346>\003\276\310n\035=\234Y+\272\273!\017>\036\224\005\276\326R\031<:\240\244\275\265(m\275\257<\245=\202\020%>\256o\033\276\027M!\276\177\245\036=+\236\035>^\203<\276\244\242\316:\023\340\341\275`\2609\276\002\306\311\275\317.\025\276\236\n)\276OP\223\274\203\366\371\275\274\230\024\276\333h\032\276\355\261.\275&\003\213\275C\371w=&1I\275\341_\375=\361\257 