node {
  name: "input"
  op: "Placeholder"
  attr {
    key: "dtype"
    value {
      type: DT_FLOAT
    }
  }
}
node {
  name: "transpose/perm"
  op: "Const"
  attr {
    key: "dtype"
    value {
      type: DT_INT32
    }
  }
  attr {
    key: "value"
    value {
      tensor {
        dtype: DT_INT32
        tensor_shape {
          dim {
            size: 3
          }
        }
        tensor_content: "\001\000\000\000\000\000\000\000\002\000\000\000"
      }
    }
  }
}
node {
  name: "transpose"
  op: "Transpose"
  input: "input"
  input: "transpose/perm"
  attr {
    key: "T"
    value {
      type: DT_FLOAT
    }
  }
  attr {
    key: "Tperm"
    value {
      type: DT_INT32
    }
  }
}
node {
  name: "reshape/shape"
  op: "Const"
  attr {
    key: "dtype"
    value {
      type: DT_INT32
    }
  }
  attr {
    key: "value"
    value {
      tensor {
        dtype: DT_INT32
        tensor_shape {
          dim {
            size: 2
          }
        }
        tensor_content: "\377\377\377\377\t\000\000\000"
      }
    }
  }
}
node {
  name: "reshape"
  op: "Reshape"
  input: "transpose"
  input: "reshape/shape"
  attr {
    key: "T"
    value {
      type: DT_FLOAT
    }
  }
  attr {
    key: "Tshape"
    value {
      type: DT_INT32
    }
  }
}
node {
  name: "w_in"
  op: "Const"
  attr {
    key: "dtype"
    value {
      type: DT_FLOAT
    }
  }
  attr {
    key: "value"
    value {
      tensor {
        dtype: DT_FLOAT
        tensor_shape {
          dim {
            size: 9
          }
          dim {
            size: 32
          }
        }
        tensor_content: "\361\216F\276\212\312\030\276\215\000+\300\005P\346>dl\313\276\002\017\363\277-\256\276\277\242-\275>\321\226\303>\347\270\326?\205\263\301\276\306[\303?\200\005C?\376Hr\277\326\347\356?\274P\342=g;\036\277\245\310s@M\025Q\274\306\356\345?\023\263S\274\247q\366>\376np\274\216\333\356?\337\332a\277r\250\246\277\2333\221\276:s\333\277Ty\263?\021\262-?&\324??\305\356e;\305\322\004@\275\311\237>l\353\014\300\327\255\227?d\021\004?\361\n(\276\257\027\006=\226 \361>\304U\003>\253\333\327\276a\231\330\276\234\233\030\276(\377\017?\024\352n\277\243b\320\277[{U?~L~>j\272:?\362)9\277fP:?n\354p\277\345QC?\213f\312\2774\0042?>\313\316\277s\344\024>\255\251\232\277\241|\326?\236\003\314?\002\362\212?\234\206;\277*M\t@~\276}\2773\374O?\007\223\007\300Azr?\205\004\234?\020\021\032?+\344g?\245\0264?\223a\341\2768\356\265\276\'\354\223\277\013\235\352\276\253W~?\357Q\365\276\'\007\230\277I\367\013\2774\240u\277b\377\246\276\r. \277\006\014\341\276\310\255\337\277\270g*?\007F\257?>rj\277Q^\330\277\234[{>V\323\026=\217\325\223>\275r\367\275\2038\226>\007\020l\276h\251o=\020\356\217>\030\244I\275\330\370\213\277\365\266\025?\371C\277\275\200\267\255?\311\"\205\277x\260R\277\377\272\341\276]\216!\277\271[m\276\010\222\034>/\233\345>\021k\003?\336D\007\300L\343\204?4\235\001?\321\366_>n\304\227\276\256\2409\277\376SR?\253\000\212>Z!\020@<\313\355>1U\030?C\023\253>\266;(\277\343}\030?\205\016\316\277,z\347>\010^\221?\371\277s\277\037~\"?]\250\320\276\354\\S\277Q\036\t?\255\n\033\276\334\002\341\277\362\355*?\246E\254\277r\323\205?/G\256?T\376\310\273\030]\252?\354|\264\277\003\224\310?i\263\216\276AK\364\276V,.;\013h\252>\330\211/\276\3504\333\277t\374\233?\334\375\026\275~r\214>\236\310\212>\257\323\206?\236\006\236>\007{\315\277\017\315p\277I@\333\276\334Nb?K\375\023@\232\300\247>\310\263\306\276\236\372\215?\325\016\214\277\333\0345\276\241\330T?\335\013\304?=M\031\277\272}H\276\3747\031\300<\031\002\277\220)\374\276\356n\004\277\360\210\200?\001\313\361>\323d\364>\037.N\277;N5? \np?C\273?<9\024C\277\003\232z>\337\371\345>\033h8\277\202\325\362\274\352\255\255?\277\310\311\277\201\2768\276\223}\263\277\366\3646\277\234\021\323\275f\340\260\276(7\216>w\367u\276\322H\273\276\211\201\205\277&\347\237\277<N\211?\006\363\351?f3\202\277\324\376Q?S\223\277\276\366,\241>\321\332Z\277\337\006i?k\347\357\277A\230\344\277G4\005?\t\343L\274\365\013\303\275\024\341\000\276\270\216\010\275\323\365|?].\331>\022\307\004@\231\2028?R\332\326\277\367j\303\275UO5\277\257\334\006\277!\347\274\276Mxs>i&\351\277\260\313\033\300k\200k?\212\"I\277\336\366\237\277\315\312\355\276\034\300g?\311\202\373\276Ci\002@\212@W\277-O\021?\0256\\\275\325r\372\276\010?(\276z[:?\016\276\361\276\322\2251?.\222\003\277\225P\346\277B\265\341>\302\274\217?\336\232\233\273\027AU\277\252X<\277\223\034 ?\265\235\002\300\222\313\026?\211\346\313\277x\345\n\275\336\260\324\277\333\'\020>\256\236t\277\347L\303?\303D\254?\365\003\360>m%\316>\230\352\256>\377\177\037?L;\243>\245\205t\277\243\033\250?\002\201\n?\002%\357\274_\277\264\276w\377\\\277\010m\247\273\216h$\300\312\305\273=\226i\031\277\314\267\246\277\230!Z\276\246y\362>y1\017?\223\301\221?iW\200?s\002\253\277`c+\300L\\\350?\235]F?\220\001&\277m\351\001?V\tw>\334\323\367?}@\221\276\240\006J>X\016\237\275h\352\355?"
      }
    }
  }
}
node {
  name: "b_in"
  op: "Const"
  attr {
    key: "dtype"
    value {
      type: DT_FLOAT
    }
  }
  attr {
    key: "value"
    value {
      tensor {
        dtype: DT_FLOAT
        tensor_shape {
          dim {
            size: 32
          }
        }
        tensor_content: "5>\214?\372\361~?\177\3156??R\246?a\354l@b\272\231?\364\017\300?}\214\022@\326\"\350?\211\275\220\276\001\256-?\276!-\276D\326\244\271}4\021>#@\032\277\025\313\026?\211\000\216\277.\270\374>f\035\231?\213\211p?\342\'S@2\226\016?\351\347\006@\354\355\024@\377\032{\276\004&\257?`\200\242?\021\354\235>\273j\205?\224Y\204?\033\037\252?\212o\216?"
      }
    }
  }
}
node {
  name: "MatMul"
  op: "MatMul"
  input: "reshape"
  input: "w_in"
  attr {
    key: "T"
    value {
      type: DT_FLOAT
    }
  }
  attr {
    key: "transpose_a"
    value {
      b: false
    }
  }
  attr {
    key: "transpose_b"
    value {
      b: false
    }
  }
}
node {
  name: "add"
  op: "Add"
  input: "MatMul"
  input: "b_in"
  attr {
    key: "T"
    value {
      type: DT_FLOAT
    }
  }
}
node {
  name: "relu"
  op: "Relu"
  input: "add"
  attr {
    key: "T"
    value {
      type: DT_FLOAT
    }
  }
}
node {
  name: "split/split_dim"
  op: "Const"
  attr {
    key: "dtype"
    value {
      type: DT_INT32
    }
  }
  attr {
    key: "value"
    value {
      tensor {
        dtype: DT_INT32
        tensor_shape {
        }
        int_val: 0
      }
    }
  }
}
node {
  name: "split"
  op: "Split"
  input: "split/split_dim"
  input: "relu"
  attr {
    key: "T"
    value {
      type: DT_FLOAT
    }
  }
  attr {
    key: "num_split"
    value {
      i: 128
    }
  }
}
node {
  name: "rnn/Shape"
  op: "Shape"
  input: "split"
  attr {
    key: "T"
    value {
      type: DT_FLOAT
    }
  }
  attr {
    key: "out_type"
    value {
      type: DT_INT32
    }
  }
}
node {
  name: "rnn/strided_slice/stack"
  op: "Const"
  attr {
    key: "dtype"
    value {
      type: DT_INT32
    }
  }
  attr {
    key: "value"
    value {
      tensor {
        dtype: DT_INT32
        tensor_shape {
          dim {
            size: 1
          }
        }
        int_val: 0
      }
    }
  }
}
node {
  name: "rnn/strided_slice/stack_1"
  op: "Const"
  attr {
    key: "dtype"
    value {
      type: DT_INT32
    }
  }
  attr {
    key: "value"
    value {
      tensor {
        dtype: DT_INT32
        tensor_shape {
          dim {
            size: 1
          }
        }
        int_val: 1
      }
    }
  }
}
node {
  name: "rnn/strided_slice/stack_2"
  op: "Const"
  attr {
    key: "dtype"
    value {
      type: DT_INT32
    }
  }
  attr {
    key: "value"
    value {
      tensor {
        dtype: DT_INT32
        tensor_shape {
          dim {
            size: 1
          }
        }
        int_val: 1
      }
    }
  }
}
node {
  name: "rnn/strided_slice"
  op: "StridedSlice"
  input: "rnn/Shape"
  input: "rnn/strided_slice/stack"
  input: "rnn/strided_slice/stack_1"
  input: "rnn/strided_slice/stack_2"
  attr {
    key: "Index"
    value {
      type: DT_INT32
    }
  }
  attr {
    key: "T"
    value {
      type: DT_INT32
    }
  }
  attr {
    key: "begin_mask"
    value {
      i: 0
    }
  }
  attr {
    key: "ellipsis_mask"
    value {
      i: 0
    }
  }
  attr {
    key: "end_mask"
    value {
      i: 0
    }
  }
  attr {
    key: "new_axis_mask"
    value {
      i: 0
    }
  }
  attr {
    key: "shrink_axis_mask"
    value {
      i: 1
    }
  }
}
node {
  name: "rnn/MultiRNNCellZeroState/BasicLSTMCellZeroState/ExpandDims/dim"
  op: "Const"
  attr {
    key: "dtype"
    value {
      type: DT_INT32
    }
  }
  attr {
    key: "value"
    value {
      tensor {
        dtype: DT_INT32
        tensor_shape {
        }
        int_val: 0
      }
    }
  }
}
node {
  name: "rnn/MultiRNNCellZeroState/BasicLSTMCellZeroState/ExpandDims"
  op: "ExpandDims"
  input: "rnn/strided_slice"
  input: "rnn/MultiRNNCellZeroState/BasicLSTMCellZeroState/ExpandDims/dim"
  attr {
    key: "T"
    value {
      type: DT_INT32
    }
  }
  attr {
    key: "Tdim"
    value {
      type: DT_INT32
    }
  }
}
node {
  name: "rnn/MultiRNNCellZeroState/BasicLSTMCellZeroState/Const"
  op: "Const"
  attr {
    key: "dtype"
    value {
      type: DT_INT32
    }
  }
  attr {
    key: "value"
    value {
      tensor {
        dtype: DT_INT32
        tensor_shape {
          dim {
            size: 1
          }
        }
        int_val: 32
      }
    }
  }
}
node {
  name: "rnn/MultiRNNCellZeroState/BasicLSTMCellZeroState/concat/axis"
  op: "Const"
  attr {
    key: "dtype"
    value {
      type: DT_INT32
    }
  }
  attr {
    key: "value"
    value {
      tensor {
        dtype: DT_INT32
        tensor_shape {
        }
        int_val: 0
      }
    }
  }
}
node {
  name: "rnn/MultiRNNCellZeroState/BasicLSTMCellZeroState/concat"
  op: "ConcatV2"
  input: "rnn/MultiRNNCellZeroState/BasicLSTMCellZeroState/ExpandDims"
  input: "rnn/MultiRNNCellZeroState/BasicLSTMCellZeroState/Const"
  input: "rnn/MultiRNNCellZeroState/BasicLSTMCellZeroState/concat/axis"
  attr {
    key: "N"
    value {
      i: 2
    }
  }
  attr {
    key: "T"
    value {
      type: DT_INT32
    }
  }
  attr {
    key: "Tidx"
    value {
      type: DT_INT32
    }
  }
}
node {
  name: "rnn/MultiRNNCellZeroState/BasicLSTMCellZeroState/zeros/Const"
  op: "Const"
  attr {
    key: "dtype"
    value {
      type: DT_FLOAT
    }
  }
  attr {
    key: "value"
    value {
      tensor {
        dtype: DT_FLOAT
        tensor_shape {
        }
        float_val: 0.0
      }
    }
  }
}
node {
  name: "rnn/MultiRNNCellZeroState/BasicLSTMCellZeroState/zeros"
  op: "Fill"
  input: "rnn/MultiRNNCellZeroState/BasicLSTMCellZeroState/concat"
  input: "rnn/MultiRNNCellZeroState/BasicLSTMCellZeroState/zeros/Const"
  attr {
    key: "T"
    value {
      type: DT_FLOAT
    }
  }
  attr {
    key: "index_type"
    value {
      type: DT_INT32
    }
  }
}
node {
  name: "rnn/MultiRNNCellZeroState/BasicLSTMCellZeroState/ExpandDims_2/dim"
  op: "Const"
  attr {
    key: "dtype"
    value {
      type: DT_INT32
    }
  }
  attr {
    key: "value"
    value {
      tensor {
        dtype: DT_INT32
        tensor_shape {
        }
        int_val: 0
      }
    }
  }
}
node {
  name: "rnn/MultiRNNCellZeroState/BasicLSTMCellZeroState/ExpandDims_2"
  op: "ExpandDims"
  input: "rnn/strided_slice"
  input: "rnn/MultiRNNCellZeroState/BasicLSTMCellZeroState/ExpandDims_2/dim"
  attr {
    key: "T"
    value {
      type: DT_INT32
    }
  }
  attr {
    key: "Tdim"
    value {
      type: DT_INT32
    }
  }
}
node {
  name: "rnn/MultiRNNCellZeroState/BasicLSTMCellZeroState/Const_2"
  op: "Const"
  attr {
    key: "dtype"
    value {
      type: DT_INT32
    }
  }
  attr {
    key: "value"
    value {
      tensor {
        dtype: DT_INT32
        tensor_shape {
          dim {
            size: 1
          }
        }
        int_val: 32
      }
    }
  }
}
node {
  name: "rnn/MultiRNNCellZeroState/BasicLSTMCellZeroState/concat_1/axis"
  op: "Const"
  attr {
    key: "dtype"
    value {
      type: DT_INT32
    }
  }
  attr {
    key: "value"
    value {
      tensor {
        dtype: DT_INT32
        tensor_shape {
        }
        int_val: 0
      }
    }
  }
}
node {
  name: "rnn/MultiRNNCellZeroState/BasicLSTMCellZeroState/concat_1"
  op: "ConcatV2"
  input: "rnn/MultiRNNCellZeroState/BasicLSTMCellZeroState/ExpandDims_2"
  input: "rnn/MultiRNNCellZeroState/BasicLSTMCellZeroState/Const_2"
  input: "rnn/MultiRNNCellZeroState/BasicLSTMCellZeroState/concat_1/axis"
  attr {
    key: "N"
    value {
      i: 2
    }
  }
  attr {
    key: "T"
    value {
      type: DT_INT32
    }
  }
  attr {
    key: "Tidx"
    value {
      type: DT_INT32
    }
  }
}
node {
  name: "rnn/MultiRNNCellZeroState/BasicLSTMCellZeroState/zeros_1/Const"
  op: "Const"
  attr {
    key: "dtype"
    value {
      type: DT_FLOAT
    }
  }
  attr {
    key: "value"
    value {
      tensor {
        dtype: DT_FLOAT
        tensor_shape {
        }
        float_val: 0.0
      }
    }
  }
}
node {
  name: "rnn/MultiRNNCellZeroState/BasicLSTMCellZeroState/zeros_1"
  op: "Fill"
  input: "rnn/MultiRNNCellZeroState/BasicLSTMCellZeroState/concat_1"
  input: "rnn/MultiRNNCellZeroState/BasicLSTMCellZeroState/zeros_1/Const"
  attr {
    key: "T"
    value {
      type: DT_FLOAT
    }
  }
  attr {
    key: "index_type"
    value {
      type: DT_INT32
    }
  }
}
node {
  name: "rnn/MultiRNNCellZeroState/BasicLSTMCellZeroState_1/ExpandDims/dim"
  op: "Const"
  attr {
    key: "dtype"
    value {
      type: DT_INT32
    }
  }
  attr {
    key: "value"
    value {
      tensor {
        dtype: DT_INT32
        tensor_shape {
        }
        int_val: 0
      }
    }
  }
}
node {
  name: "rnn/MultiRNNCellZeroState/BasicLSTMCellZeroState_1/ExpandDims"
  op: "ExpandDims"
  input: "rnn/strided_slice"
  input: "rnn/MultiRNNCellZeroState/BasicLSTMCellZeroState_1/ExpandDims/dim"
  attr {
    key: "T"
    value {
      type: DT_INT32
    }
  }
  attr {
    key: "Tdim"
    value {
      type: DT_INT32
    }
  }
}
node {
  name: "rnn/MultiRNNCellZeroState/BasicLSTMCellZeroState_1/Const"
  op: "Const"
  attr {
    key: "dtype"
    value {
      type: DT_INT32
    }
  }
  attr {
    key: "value"
    value {
      tensor {
        dtype: DT_INT32
        tensor_shape {
          dim {
            size: 1
          }
        }
        int_val: 32
      }
    }
  }
}
node {
  name: "rnn/MultiRNNCellZeroState/BasicLSTMCellZeroState_1/concat/axis"
  op: "Const"
  attr {
    key: "dtype"
    value {
      type: DT_INT32
    }
  }
  attr {
    key: "value"
    value {
      tensor {
        dtype: DT_INT32
        tensor_shape {
        }
        int_val: 0
      }
    }
  }
}
node {
  name: "rnn/MultiRNNCellZeroState/BasicLSTMCellZeroState_1/concat"
  op: "ConcatV2"
  input: "rnn/MultiRNNCellZeroState/BasicLSTMCellZeroState_1/ExpandDims"
  input: "rnn/MultiRNNCellZeroState/BasicLSTMCellZeroState_1/Const"
  input: "rnn/MultiRNNCellZeroState/BasicLSTMCellZeroState_1/concat/axis"
  attr {
    key: "N"
    value {
      i: 2
    }
  }
  attr {
    key: "T"
    value {
      type: DT_INT32
    }
  }
  attr {
    key: "Tidx"
    value {
      type: DT_INT32
    }
  }
}
node {
  name: "rnn/MultiRNNCellZeroState/BasicLSTMCellZeroState_1/zeros/Const"
  op: "Const"
  attr {
    key: "dtype"
    value {
      type: DT_FLOAT
    }
  }
  attr {
    key: "value"
    value {
      tensor {
        dtype: DT_FLOAT
        tensor_shape {
        }
        float_val: 0.0
      }
    }
  }
}
node {
  name: "rnn/MultiRNNCellZeroState/BasicLSTMCellZeroState_1/zeros"
  op: "Fill"
  input: "rnn/MultiRNNCellZeroState/BasicLSTMCellZeroState_1/concat"
  input: "rnn/MultiRNNCellZeroState/BasicLSTMCellZeroState_1/zeros/Const"
  attr {
    key: "T"
    value {
      type: DT_FLOAT
    }
  }
  attr {
    key: "index_type"
    value {
      type: DT_INT32
    }
  }
}
node {
  name: "rnn/MultiRNNCellZeroState/BasicLSTMCellZeroState_1/ExpandDims_2/dim"
  op: "Const"
  attr {
    key: "dtype"
    value {
      type: DT_INT32
    }
  }
  attr {
    key: "value"
    value {
      tensor {
        dtype: DT_INT32
        tensor_shape {
        }
        int_val: 0
      }
    }
  }
}
node {
  name: "rnn/MultiRNNCellZeroState/BasicLSTMCellZeroState_1/ExpandDims_2"
  op: "ExpandDims"
  input: "rnn/strided_slice"
  input: "rnn/MultiRNNCellZeroState/BasicLSTMCellZeroState_1/ExpandDims_2/dim"
  attr {
    key: "T"
    value {
      type: DT_INT32
    }
  }
  attr {
    key: "Tdim"
    value {
      type: DT_INT32
    }
  }
}
node {
  name: "rnn/MultiRNNCellZeroState/BasicLSTMCellZeroState_1/Const_2"
  op: "Const"
  attr {
    key: "dtype"
    value {
      type: DT_INT32
    }
  }
  attr {
    key: "value"
    value {
      tensor {
        dtype: DT_INT32
        tensor_shape {
          dim {
            size: 1
          }
        }
        int_val: 32
      }
    }
  }
}
node {
  name: "rnn/MultiRNNCellZeroState/BasicLSTMCellZeroState_1/concat_1/axis"
  op: "Const"
  attr {
    key: "dtype"
    value {
      type: DT_INT32
    }
  }
  attr {
    key: "value"
    value {
      tensor {
        dtype: DT_INT32
        tensor_shape {
        }
        int_val: 0
      }
    }
  }
}
node {
  name: "rnn/MultiRNNCellZeroState/BasicLSTMCellZeroState_1/concat_1"
  op: "ConcatV2"
  input: "rnn/MultiRNNCellZeroState/BasicLSTMCellZeroState_1/ExpandDims_2"
  input: "rnn/MultiRNNCellZeroState/BasicLSTMCellZeroState_1/Const_2"
  input: "rnn/MultiRNNCellZeroState/BasicLSTMCellZeroState_1/concat_1/axis"
  attr {
    key: "N"
    value {
      i: 2
    }
  }
  attr {
    key: "T"
    value {
      type: DT_INT32
    }
  }
  attr {
    key: "Tidx"
    value {
      type: DT_INT32
    }
  }
}
node {
  name: "rnn/MultiRNNCellZeroState/BasicLSTMCellZeroState_1/zeros_1/Const"
  op: "Const"
  attr {
    key: "dtype"
    value {
      type: DT_FLOAT
    }
  }
  attr {
    key: "value"
    value {
      tensor {
        dtype: DT_FLOAT
        tensor_shape {
        }
        float_val: 0.0
      }
    }
  }
}
node {
  name: "rnn/MultiRNNCellZeroState/BasicLSTMCellZeroState_1/zeros_1"
  op: "Fill"
  input: "rnn/MultiRNNCellZeroState/BasicLSTMCellZeroState_1/concat_1"
  input: "rnn/MultiRNNCellZeroState/BasicLSTMCellZeroState_1/zeros_1/Const"
  attr {
    key: "T"
    value {
      type: DT_FLOAT
    }
  }
  attr {
    key: "index_type"
    value {
      type: DT_INT32
    }
  }
}
node {
  name: "rnn/multi_rnn_cell/cell_0/basic_lstm_cell/kernel"
  op: "Const"
  attr {
    key: "dtype"
    value {
      type: DT_FLOAT
    }
  }
  attr {
    key: "value"
    value {
      tensor {
        dtype: DT_FLOAT
        tensor_shape {
          dim {
            size: 64
          }
          dim {
            size: 128
          }
        }
        tensor_content: "6\001\224=\262\010\320=\017\256\332=\362x\344=J\205\372<\213fT=\2738\013>=s\031>\220\323\026>\026p\'\276\037\307\010\276\317\014\333=\254\202\364<\n\226\025\276\326T\r\274\356\276\253=B9\014=\001\224\343=>z?\275\246\373H\275\321\367\000\276O\036\024\276\253V\020>\202\023\327=\357\222\363\274J\013\241\275\236\366\233\274`\252\202<\354\310\337\275\356r\345=\301\027\364<\314\034,\274\353\321\212=\215\354\024><\326\271;\320M+>N)\342:\215R\232<.\200\317=\261D\037>\224\371\020>\217\315\201\275S\034\226= \004}=\322{\034>u`\003\276\215\212\226\273\343p\223=<VE=\025~\034\2760\346\304=3&\n>IKO= \213\037>\313\021\362\275\341\246\242\275\342\231\024\274wmr\275y\303x\275\'6\315\275\252f\236;\203\366\234\275\035\205\255=\366y\027\275j1+=N\231\333\275\034\232\022=H\254\024>\016m\217\275\222\221\022\275\336j\r>\371@\027>\220W\202\275\377J\242\275\330\312\020>\345\3334\276\370\370\236;N\341\021>9\340\225=ZK\027=\252\206\021\275i\033%\276\303\n\204<\247\0314\275\332\003\220\275,b\346<\206\335\324=\365\270\227\275_1\311=\005iA\274\311\023\255<\215\217R=\273\363,>\336\211\"\276\2208I=\2409\204=\377m\227\275\301\017w\275\361\262\310\275\322A\262=\235\301\014>E\247\376=\336\222\320\275<\344\235\275\243\214\347\275g\373X=\277\216\225=\275,0>S\202-\276\365\276\006\276^\2136\276?\322{\275~\262\032\276&v#\276\333\224\300\275\010\205\000\275\3651\033>\311|H\275\300\031\374\275\2657\243\275\260\305\366<\234\026\032\276Q\375\275\275\377\204\373\275!\261H=f\273\200\275_%\243=\225.\017>\306\334\315;\274\035\375=~\260\223\275\275\225\002\276\372\001w=\227_=\275\350\311\020>\276%\216\275i\2053>h\224w=\004\005L=\215W\274\275\332_\206\274\200\'g\275^!R\275\210\372\347\275SK\375=\2341,\276#\006\264<\014\272\317\273b%\001\276\024\336\013\276\230\266\n=\244\346\024\276ga\203\274\335\220!>\335\321/>\324\317\214\274\262a\\<\332\251\240;\261\240\246=d\221\221\275\252\"\257<%\260\033\276\312\352\n>,\330/=4\254\000>Pi/>a#\014>\3450\016\276\372v\354<\203\037\347\275\264\005\352\275Li\350=\211\215!\276\001a\014>Q\273\006>\307\035\000>nZ\n\276\016(\244=\314\330\005>\320e\005>B>\246\274t\200E={\324\340\275\257\236\354=>\013\322=\275\n\342\274\236\230\347\275\035<$\276[\025T=LK\002\275{\010\375\275\267e\301=\324\343\034\276\363\003\r\276\362\022%\276\006F\000>\000:\r7\016h~;\262\014\014>\350\246\327=\"\211\331=\350\010\252\274o\345\032>\322\223\265<\322\325\031>\355S\241=o\017\r\276\2765\313<\206`\004>\005X\243\275(k\014\276\307E\016\276W\017\034\276\265\235\\\275\226\356\001>\222\237,\276DQ >*/\310\275\321\215H;c\007\333\275y\336R<\307\014\303\275\303t\007>\323\302\226=\026\346\003\274\233T\207=<\311\341<T\253\026>\271|\022=#m\326\275\333k\317\275\000\367\335\275\323\303\'=\241\037\006\276K\003\347\2746\212\035>-\r\374\275\0043,>\244\017q\275\334\352\331;]i\351\275\217\371,\273&\030\027=\007\262\200=\234\031\313\274\376\021\327\275\022/\n\274xE)>%\377\032>K\366\313=\214k$\276\225|\305=\020M\224\275\031F,\276\362!\230\275*|\004>\007=\036\276\267\364\367\275\3336\322\275\364A\377\275\005\3715\276=y,>W+\031\275\206\226\315\275\241\372\335\275\001\r.=\005i\004\276\217\250\202\275D`\221\274\362\334\031>V\326.>\362`\273=\314\226\027\276\223\351\002\276\017b,<1\253\003>\376\211\033\276\311)\312;\332\271O=b+\377\275+C\273\275\215\rl\274G\227\027\276\037\221U=\370\266\031<\370E\247\275o\327\246\274\377\356\241\275\362N\036\276\272\312\r>\300T >\360=\224\275\335\330\010>\036\244t=[\026\211=\2012\375=\324$\004>4(\030>\205\342\205\275\201W\340=\034ka\275\356E\004\276`\354\275\274\371C\372\275V\246+\275\334C\006\274<c\007>tc\333\275\234\310)>\374\2454\275*C\267=_\242\036\276\206(\357\275\3277\275\2746\023->\275q\210=\024w\354\275\222\267K=\n\311\002\276\277,\355=\200\310t=h\353&>U^#\276\247C\311\2752X\237\275\034\257T=\367E$\276\244\302Q\275\335\007\220\275\275\030\013>\343\347\024\276N^7\276\314\332\200=7@%>\272|4>V\277\310\275\255\254\205<\360vm=\303\271\274=\356\355+\276\032\346\240\275\215\242\325=%\031\355<\026\325\262\272T\372A=\352>\312\274\270g5\275\271\014\027=\326s\355\274/\261n\275T 3\276\244,\001>3\371\224=M\232\352\275\243\247\324=\036\274\r<l\033&>\004\355\005>\353\210\333\275\254\204\332\274X\357\343=\257\\\241\275;\263#\276\230^\323<\337?3\275@5\310;\314\316\'>\222@$>\227\220\021=)h\023\276\362\323g<H\014:>\356\257\203=\256\315\t=\326\242\254=\231\'\335\275\327*\020\275\nf\215\275\275s\026=\032b3>d}\346\275\246\237\260\275\343\311\316=\336\267\021>\237 \356\275\237\003B=\274w\346=aW\026\276\265U\'\275\377\275\034>\256\264.>\320\343\030==\225H\275\241\315\006>C\225:\274\271\224\014\276\035dY\275\214\027\"\274\330\\\024\276z-\263\273f\256+=\352?\000>\224\361\235<]\004[=<\345\330\273T\232\002\276I0\r\275\"\375\372=\320V\007=`rh\275\276\237\312\275\325t\r\276dlB\272\366\254\347\274\243\310\023\276\330\205_\274.H\301=\026\301\277\275\325\362d\275(\020\267=\233\333(>\222C\021>\242\021\002\275\372\310/\275[6\240\275\245\276\305<-7\373\275p\222\005\275\270\255\014\274\204\371\257<N\362\351=\022\321\364\275$H)\276\025t\007=\330!\032\275\364\327\003>\021\321\210\275N\230\026=\322_\030>L\0369>\323T9\276\r\307+>2\3642>\375\010\324\275\203\200\207=\371?\235\275A\324+=\212y\036\2756\335!\276g\372\020>\306\227\374=\021\320\212=\361\257\342\275\274e1==\231s=\303M\226=K@\347=\t\016\241\275g\253\300=\374V\014;\342\313\033>X\000 <KB\324=\261k\316=\016f\353=\211\021\217=\016\302\341\275\3470\357\275\314#\335=1\241\302<:\315\241=$eJ\275\222UY\275\312\334\030\276\305\375\020>\3607\275\275\234\245\005\275\264\"U\275\236Q\253=\034z\324=z\300\213\275\247\362\205<\225\255?=\324\205\036>\364\302\020>E3i=\204\206\354\275\352\333\000\276_\013I=+\376\323=\226d\303=\370\213\246=#\000\313\275\263\316m\274\235V;\275\262E\'>\334\317\247\275\334\3078\275\230U$\276v7|\274\237G\234=\260-@=:\244\205\275>#\362\275\332d\215=\3578*\276\334&\242=\316\022T\275\241\202\365<tZ\347\273\025k\035\276\347\277\037\276\210q\227=\212\371\002\276\242\243\376\275\016\330\227:\343\t\353<\237\365)>\331\270\325\275\374\016\216\275\225d\027>\344e\016>\031\206R=\363_m=_\311\217\275\331\031\013\276}\245\233\275,do\275z\372\232\275\024\'\336:b\355\014\275)%\326=\r\007\374\274JD->\006\323r\275k\333\311\275\005\217.>ua\311\275\373\231\">\016\3411>t3\255\275\234\340\227=\220\260)\276\207\020\'\275\367U >I\216\257\275J\256\025\276\365\3642\276NG\000=\244~T=lv\267\275!\365\246\275\3143\363=\346\254\370=\250\254*\276tV\035>6!Z\275\2620(=\307\267<<Nk#=S\325\036\276hT\366=\376p2\276\336/\037\276\022\223\007\276\222\272\242<!Ac\273\002\010\322=\332\\\037\276\225\031\373\275\"\002\213\274\207H\336\275\210\356G:\363L\017\276\234\270\233=\237]f\274\215\267\264\275I\374\037\276\264k\251\275\0060\265\275\033tM;\360\307\356=.\317%>\300\005\301\274\026w\345=\363\241w\275\273\344\035>\366\007\323<\356n\341\273\362k\226;6\222#\275\271c\245<k\241\n\275\241\303f\273\237\316\002\276]\213\240\275K\272\246\275\223\357^=\200p\241=\225f+\276\033\225*=\202\207\022\274\300\367\251\274\251+W\275\202\307\003\274g2<=;\216\032=E\2465>\272G\375\275\312NH=\3417\335=\322\212s<`\032+\276\321\r\017\276\0272.>\001\350\377\275\227B\r>79p\275i\000\320=\340\336c=X\355*<\035aZ\275W\305\334=K\035\202\274\201(=\275\222h\241\275e\243\300\274\217$8\276\244rs=r+\314\275I\234\245=gg\230<`\300\247\275\301L\340\273\353\030)\275~^\337\275+x\222=l\227\324\275\3214E=\2432\237=a\335\246\274\204\250\236\274\254\331\004<\030\337\201\275\364\251\317\275\017\026\231\275%\037\023>G\334\r\275\342\374\374\275q\216)=\326\231\214\275\334[\r\276\214\231\'\275\037@\306<\211S\212\275r\r\r\276_\323\013\275\377\007\022>G\325\335\275\021\236h<\251\t&\275:S\023>\253\226\213=\205+\031>\224\022\327\275\350\013\030>\316e\315=\177\"A\275\261\234`\275Eq\204=\334\353\265=\233\315\r=-^E\275\376\304\007>\263\204\270\274\023\377\235\275\231\233s=3n\220\274\373\261\317=\306S\"\275\251\024\324<\006\n\254=\372z\275\275*\224\207\274\007\026\316=?\343\200\274@/\010>&\201\014=N\246+\276}\317\272;\244\210\312\274\332\247#>\257\002\210=\222B*>\301\0059\276\236\213x=\337T\362\274\020\276\224=u\032)>~\351\335\275\034\327\215\273d\316+>\231\307\035>`\203\032>\231:\304=\367\351\217\275\330_\006>\020KL=\r\326\004>fO.\2762<\016>0\232\010\274\306\313\316<_C\">\234J\"\276P\325V\274\241\365\347=\337*\004>\263\027\003\276g\331\253\274sQ\366=k\245*\275K\010%\276[\341\321=o\347\031>\035V\365\274\302\331\316\275\317\236\034\276\010rF\274\212\037\001\275\312v\223=\340\214l<<R\354\275\350\005=;qX\237\275\226\"\033\275\010sE\275g\356\310<\263A)>\224\227.\276\337\031\226\274\034\227\033\276\335\337L;\323\247\"\275\020H\254=\332\251}<\030a\020=\343\341\367=\000\002\\\274i\275\364=\376\3079\276\266\310\037=\317\2016\276\177A\253=\206\231\344<\256RR\275\004\324\024>\324\003_\272\310\033X\274\310?\210\274\302\327\371\275\006\260\007\275(\346\273\271\337\356\350;\200\025\263=-\247\306\275\267\371,>H\204T=\t\200\334=DN\257\2721\020\330\275Sz\271\275EMY=\205\361\r>s\243u=\233\351%\276-\313\025;\306\362P\275:n%\276\004p\214\275\350\336\320\275\305\260\356<\270\211\362\275\362\037.\275C\221+\276\333r\036>stO\274\\\212\267<\247\177!>\036\260\242\274;a\010\276z\034\026\276A\276m\2753\230\345\275+[\031>\323e\346=\310+~\274\n\352\326=\311\024l\275\266KV\274\265\343\310\2751p\005\276&p\223\275\n\301*>s\234\251\275\345\267\233=\2169`\274\330\362\014\276\232\232\t>6\231\032>\021\036G\274y\"\032=\306\346\002\276\232\014\250\275\006\371d=J\035\260\275K\205\364=\241N\037>Tv\016\2755\311)\2760\031\273\275\020\025\215<\001\343a\274`\010\006>\203o\035\276\243_\337= \034\347=\261\t)>\216\363\225=5\002\034>\010G\034\276\204\347\032\276af\025\2767\232\235=\371\325\027\276\317\317\221=\216\305d= F6>\245\260\017=\366\366\017\276A\233#\276\270E\314;9\350\320\275fvT=/~\300=\237\022\025>\3417\023\276v$\317\275\206\263\222=K\265\332=\342.\202=\"\344\221\275e\223\313\275\"\366\337\275b\233V\275\312?\021>\244\0211>\276gw\273\2754j=x\006\232=A\263\240=\272\251\301\275\270\215\020\273\\E+\276>\261\223=p\363\267\275\233\225\">\341)y=\252MW\273\244\033\224=GL\000>g\031\235=\371\203\036>\234#\340\275\344\013d;VY\214\275 \320\277=K\023\320=\374\3546\276\355X\254\274U\276\271=\305A,=\344}+\2769@\366\274\262\231)=;4\305\274\2033\320\275\227]x\275\024j.;\306\325\302<s_\251=\231\007\3159\323\337v;\300d\240\275)E+>g<*>\270\317\005>\202y\304=\033\274\321=h\327\214\2759\355\223=\215\224\265\275\027\036\'\275\\\252X<=@\201=U\230\244\275S\031\365\273\300h\017\275\350O\005\276`\347\0249\360(Y<\004\240\257\273z\260\213=\030\364\021\275\364l\247;\216\271\t\276\326s\037\276\354\273\215\275\036\266\261<\233;\030<3\260\033\274\323\236\344=a\315!\275\313\301y\275\210:\311<\270M\200=\334\263\022\276\017l\203\275_\241+\276\241-\227\273Or$\276<\360\023=\233\'.\276\272\322\007>$\3360>2r\031>|\324\311\2754\003%\275\255%\007\276\rZ\317=\256A\316<\203t\301=\275\307\004\275\036\010\265\275\\\275\326<4\235\000>p\350\327=\225\270/\276\014\201 >\034\251\023=Cm\002\275\324\002\370=M{S=\332IY\274\263z\350\274\n\217\230;\255R\270<\205W\020\276:,\242\275.\253\237=\265\224\311\275\030\250+\276\3235\000>ZO\234\275\260ua=\344\027\234\275\213\236\027\276\320\363!\276\377\371/>\324tF=\320\247S\274\313\340\321\275Yv\212=tNT\2759n\217\2740Z$\275]s\260\275\213\200\033\274\026S\342\275\344\346\377=M\335b=\022\207\223\274\341\325\027\276\305\235\014\273v\361C<tq\r\274\322\024\024>\355\265\345\275\264\035\030\276\230&\317\275\2461\254\275\302[\351\275\341\216\326<\326\244\215\274+\301\377<\345\304.\276P6\220=\302@\t\276\343\301\263=\306\303\031=\353}\230\275 \364\006>?\275\027\276v\320\334=^\253y\275\226\314\204\275\264l\020\276\342\0031\276\243W\261=\273N\r\276\263\t\r\276,p9\276i\263\335\275\330@\215<w\026\203=\272\312\024<\372g\016\2764\355\001>\016\257v\275\367f\032=\371U \276\230\345\276<\257\003\"\276\2606\303\274F\0219\276\306\343\361=`\247\323\274N8\342=\272\242\270\275\371\337*\276\223\333@\275\340\241\023\276`]\021;\360?Y\273\020%\214=X}\323\274\205\\\'=T\223\362=P\325\004\276\360mf<\256R\016\276|\311e\275\324Q%\276\220\331\033\276NZ\341\274\227\332\006>6,\340=\203k\251\275\214\203\340\275\230\217\324\275kN\020\276A\364o=\356\377!>\2204\374\275\337\307\347\275!\242\277\2751\207\304\275\023\022\255\275\320$\033>\277\2216=\231\021\307\275\346\r`\275\306i\344\275l\211h\275\314\255\t\276J\203\227=3\374\301=\200\330\032\276 \002\r>\022^\332=\244<\305\275\306\311\257\275\374\207\360;\206\203\271\275hi\003\275\232oj\275$\343$\2764\325\021\276\325\224\311=\377\337\322=k\367\203=\014\266\000\275\3459\240\275\3718\024>\245\177`=\026\277\306\275\276\020P=U\252\271\273\301\200\253=\232\371\024>\273\325\245=\024\310.>\257\315\205\275\353\345\273=D\325Q<\027s\362=\202\230)\276\3704\367=\350\267\276\274\335}\226=O\006\300=#x&>$s8\276-\266\233=\257\312\357=\006\351\326<gF\036>\306\305\320\275\213\277\001>:\373X\275\224\305n\273@T\014\276\274\242\016=h.\221=c\362 =\216\341\236:hQ\005\276\333\354\362\275E\2478\274\227\316\022\276\013\247\275=\360\021-\275z#\004\276\347\362\303\275L\234!\276\016~Z=\265,%>\253\240\300\275?-\337<@\340o\275Y\000\246<\272\014\315\274\371\006\356=\307\277!>\316\024\247=\"t\003\276\211<\203=p\252\366<\177\237\354\275CH\251\2756?\266\274\253\3667>\222\032\002\276\266?\357\275\323\221\332\274e\255\376\275y\341\202=f\'2>\371\010\361=\241\211\275\275\363\026\267<\214\340 \276\004\233\245=\025\202\253=\353{\267<\345\211c<J\304\023>\216\243\374=\034#\317\275\224\257\305=\251q\221\275\320\200\030>\330\321\036\276\305\311\304\275\267e,>\273.\267=&\034\005> \365>\273\366\361\205\275\356\244\305\274\316%\323\275\254\343#\276\246T\242=i\226\324<\260\234\361=z\343\033<\346\233\006>\276\321\255\275\371\365&> \343*<\262\210\352=\304\323\224=0\331\034\276jb9>H\244\034>\345\315\341<\205%\247=0\257\227\275\304\302\264=\230\261\023=\034\321\032\276`\'\325\275#\2350\276{\232\031\276\356m\213=Cu\357\275\365\306\321\275\235J\346<\372\212\033=\177\212$>\372G\013\276\007N!>\324{\000>;\035\330\275\n(\026=S\351\321<\316\333\217\275:\034\371\274\2334\250\275o\225\233=h\2222>\353\226\332<\264Y\272\275|c\220\275\213\253\005>\266\371e\274\333+!\276\221E\274=\236\005->\320_6\276\357\276\034\276\235j\035\2769\220\230=\022\371\">\313]\020\276\354t\271<\222(\213\275N\007\232=,_u\275\0206\305=\230~X\275\357A\371\275W\247\021\276\001P\021\276\270\010\320=y\016\315=\367\204\205\275\202\327)\276\034\017\215\275^g!\276xn\216\275\377:\027\276H,\241\274S<n=\017M\354=(i\313=~|\237\275\225\'\023\275d\350%>\371\314\'>K\247\377\275\334\313\'>\275\354%>\001\366#\276J\203\t>\257^\036\276\277\370\201:\331\027T\275\021\004\361\275\275@\264;p\203c=zy\204\275`p\035<\223G\t=/\217\033\276\322h\037>.Q\242=7\266\013\276\335\324\002\276B\302\262=Q6-<\221!\025\276\207\002\375=\345\225Y=g\327\'\276\243\022\030>\263\022\016>uJ\201=*\312\275=<\020\002\276MV\035\276xq\355<\376\376J\275\223\206\265\275\034\262\025\275\344u\205\275\035\334%>I\241\030=2\000\025\2764\306\201=\347\325\372=\273\254\311\275V\177\322\273\261\344\177=S?\030<Hp\330=P&\013\275\231%\001\2750\177\342=\213\377\211=\270\306\006\276%==<\266\250I=\360\3209>C\263;=\347P+\276\017.+\276j\367,>\202\332\334\272\213o\321<\353\256\034\276\231\376\006\276\356\266\016>3~\"\276\216\017|\275\236\256]\275\264\362\021>\247v\005\276\253\264\253\275\3169\374= \024\331\275H\326=\275 D*\276(\263\247\274\027\326\005>\307$$\276<W\036\276F\343\271=\215\245\n>\205\224\351=\361\014!>\"\245\267;\213B\033\275\345\353\327\275\251+\r>\014\\\016><\321\246\275k\343!>D0\227=\237\222\034\276Y\210\010\276\317\333\207=\254\007V\274\235\2112\276\314i\213=:\223\236=\303\030\253=u\327\033\276\032\000\337\274\234\030\330\275U\212\257\274\034\247z\275@\2223=\276\354\270\275\325)n\275\206:\257=~\242\031>N\0001\276\315\331\205=\315,\226=r\357t\274\240I\224=\034\035->\215:\345\275\264\'\035\276\201\371\342=\263\010&\276\313\233\376\275M\001\033\2750{\373<\363F\324=P\337b=\337\360\334\275\303\017\344=\265I\t>\213\362\031\276t\205U\275\360x\023\275\006F\336=\246\277\321=\341\224\272\275a^\307=x\300\006>\364\227T=\036\250\000\276a\316\017>\275\362r=\346/\216=\351\005\312=@\3570>\201q\222\274X=\017=\3046\010\276\353\266:=S\352!>rc\326\272\001\205\305=\277\005\372\2753\035\275\275\201\317/\2767\206\007\276\347\237\010>ZQ\r\276\317\343\237=-=\034\276\370G\356\275\347\033F=T\204\250\275]\255\003>{c\303\274\356\3354\275\350\330\304;\266\367\020\275]U\256=\314\035\206=\010y\013>\266F\267\275\206\236\202\275#?\302=~]\262=P\207u=\370R\300\275ZT\330<)\201\026>\003\340\001\276]\211&\276s\215\260\275CG\355\275J\231\313=\220q\000\276\244\351\374<N\020\024>\002w\276\275Q\351.>\032\343Y;\224\246\234=\276\317\002\275\310\270\023\275\001\375\"\2760\366\t<\3027\256\275_!\317=o\330\260\275\255gu\275~`\261=\032\013\336\275\263\251d\275\034 \024<S\005\300=\235\320\374\274,\353\215=\\.\362\275\321\007\237=T\221\331=T\r\030<\205!4>\343$&>\230~Y\274\305m_\275\256\240\255<\215+,=,=\233\275\365n\010\275\032$\374=w\253\035>\325\2164>\322\216\013\276\203\253\367=\322sE\275Q\311\257=\010+\007>\036\313\202\274;0\363=\364\370\020\275\2744\\\275\311Lk\275T\214\273=\032\020\'=\3331\001>%g\033\276\353\366\016>]O[;\014\350\332=\333\3542>\305\242\231=m\177\325\275\253\373\225=,\264j\275\253\307(\275\2737\254\275\362\316[\275\300\226\003>G\350\263\275\323\r\270=\373j6\276\344x%>\324\375\026\276,q\272=wm\314=~F#\276\336\360\347=\260\275\265=\245J =\346y\022=:\346\r\276g\305\026\276\265 !>\035\371a\275\371\017\210\275\034\212\202=\217&\255<rk\342=\350\'/>\324v%>\231>\241=\206\r\274=\232\256*>\311\034\376\275\224\230\361=\301\266\271\275\267\332\341\275\343M\355\275TtV=z\2239\275<\222 \276W\305\014\276\334\324G=N3Y\275_1\202<\215\215\004\275\213T\321\275h2\024>+G_=\370:f\275~\364\217<\344L\023\276\010`\373:X\321\013\275\365S\030\276\277\242\247\275\003\027 <\010\025\304=\235f\t>7v\017>u\327\031\276\235\237\255\274h\231\250=t\025.\276\253v>\275\017\001[\274\007\201\334\275\262<\350=z\253R\274\377\277\345=XN\021\276L\007\312=\366\256\220\275\204*\311\274\344\367\267\275\324\013->7\236\001>\371\247s=\214/\345\275A\024\025>Qf\034<\377P\206\275\254\334O\275\262\267\352=F\363\031\276\025\005{<\027Q\017\275?U\346=b\227\336< 5\264=u\216\250<H\327\004\2766\002\031<\007\354\326\274\331\224\251\2755\302\014>\\\213\215=\247K\350=\030\325\324\273\022\300\034\275\342\322\360=\026\367\344<\204%C=\350cI=\203a\332<U\203\365\275\241J \275\213W\341\273\'\001\376=\251\214N=(\354\017>:l\273=\375\366\245=\353\311\016>3#)>\nd\314=\252Q\321\274\242\346B\273h4\263\2742~0>\271Z\024\276\270J\370\273\350\353\035\276\211\220\004\2754\312\320=~F\031>\200\315\242=\342n;=\220\034\262=\321^\005\276 \204\032=\2622\326\274N\221\263\275,\212\010\276b\205\230<\010\t\n>\264Y\002\276L\353\026=\277.\021>\303\213\246\275?=\001\276\177\257\341=N\000\233=`E\014>\303\376A\275\223\213&=\000\234x\267\026\345\264\275H\'I=^3\251=X+\314<\371\212\240\275\000Z\312<$j\035=\253\340\251<\250\022\017=|\376\344=\357\226d\275\246\032\371\275\277\265\201\275\207\017\023>\275\321\027\276T\210\364<0\033\354\274\325\237=\275\257\376\210\275.2 >(u\273=\017%\000>@\263\216\275rk\007\276I\365\244\275FO\226\2757\247L=\007\251\250\275\022\t\317=\352\343\016>a?\232\275\026=\033\276A .\276%8;=\r\016\022=\275c)\276\235\005\002\274\023\227\355=\366Z\331\275j\034\277\272J\226\344\275\225f\211\2750\203$\276\206u\031>\201^\312\275.\232\321=\036J=<Z6\201\275\204s2\275\256I\003\276\350)\203=\213\3325\275P\'\354\275\236\276\024\275\231Y\020>\341\365\347=\t\333A=\004B\000\276Z\353\230\274\270\267\013\276b\n\007\276^Q\022>$c\204=\347\226w\274\327@\273=1\345\224=\310\2725\276e\306H\275\373\334\265=\323\253\333<d9/>8?\346\275\353\374\003\276J\276|=\001\304\013\276\262x\025\276\367>\255\275\032\240E=&\261\250\275\000t\021\276~^\323\275%\212\025>\315.,\276u\245\333\275\376\030\213\275j \035\276o\007\240\275\003G)\275\213i\016\276\346\326v\275\364\233\304<9\272\013>!\337\215\275\212\314\217\275\036\2471\276\314\241$\276\357\034\260<D\350r=\013\036\224=*\221(\275\t\2454\275\225\024$\276\262\234Q=\370\302\234=\231\210\013>\220!\307\2754\3323>(H \276wY\014>R.\340=\032T\271=\361@q\274\221@ \276\373\242\215\274\324\204\274=\226\031\334=C\347\213=\t\333&>E\307E\273\301\000\345\275,c\312=v\273\n>\245 \236\275\032\024s=!\337\215=-]\360\275\301C\340=\'Bd=\276{9\275n\027n=^+\326=\3329t\275\312W\r\276\215.\003=|\205\373<Sv\241<\277\014\211\274\306\020`\275FT,\274\026\270\237=\336\320(\275u/\265\275\026*\007\274@\0021>\367\335\330<\273\202\"\276f5\'\275\013\225\334=\206\231)<<\341[=si\027\276\344%\356=\014w\023\276\260\032*\276\353\014\324=\305\334\340=\204\305\212\2756q\200\275\261\230\007\276\022_\302\275\360\350\377\274l7\271:\367+\234=\245\302\314\275\236\007\035\276l(\004\275\202\260.\276\337r\007=N$\'\276\232\203\013=\017\261\027\275\225U\017>K\217>=R\023\006=\234\017\001>\014\022]=\361I\024\276*\027k=rx\212;\036\336\n\275\306\022&>\020\372\250;\361\016\305<-1\003>\227\252\364=^\026\273<\242\013\311\273{B\014\276f1\024>fYg=1\n\035\276\265\356\356<\324\003\207\275\367\327\322=\302\370\006\276o$\034>-d\034=l\325f\275C\263\346\275\004\307\335=2\243a<\355\363r<\261\306\212\275\201\270\225\275\363\320\237=\203/\364<D4\224\275\234\306\014>X}1>\326\'\267\275\252\236\261\273\021\331\217=zq1>\212\272*>\260\274\347<\363\302\t\276\372c&\276M\377\215=\350\367\206=\031>*\276\326\300\001\275f\277/\276Xa\026\276\371\377\312\275L\0256>\360\272\357\275wt\234\275\023\3725\274\315?\361<\333c\331\275\034#\013>1\0068<\371\240\004>5\332\210=6?+>\374\200\247\275DG\264\273\364\2702=\003\342\030\276\333\220\210\273\026E\343\275\325F\022>\343\222\245\275\264\'\317\275\252\343\010\276\021\314\024>\010R\210\275k\227\010\275o)W\274\036u,>4\233\017\276$s\367=\203\234D\274\024s{=\220\253\010\276jQ\232=j\357L\274\2761\365;b\361\241=\230\210\014>eX5\276\277\226\002\276\372\'U\274Z\'\213=\030\347M=\2317\220\275-\036\263=\037\371#\276\231\323\275\275\303\226v;\272g\013=\347\337\367<\031\007;\275\205\225\027\275\247\365\003>\327\255\203\275Z\241\006\276\312\237\372\274\306y\272;\"\375J\274.\014\314\274p1\275\275Ld\322=\267M\031>\246\345\266\275\227\225\034>\251\206\313=\206\033\010>\337\263&\276\3137\251\274\201\205$\276\204\256$\276\260U\021\276NJ\304=\247\027F\275\354\223\n\276!\345\037\276\201U\320=\327\240\265\275\366,F:\3422\312<\030\365\251=>.\221\274\024\220\006>\005\017\356<O\006\335\275|\226\326\275s\010\336\275\264\336.\276\034\314\214=\312\267\244=\241A\264\275\206\013W\275\333\234T=\311i\202=U\3141\276\306\273\361\274fau\275\373\274\033>\364\270h=\322\033\225\275\212\333\233\275_=\030\274\366P\021=\2742\272\275\t\333\032>  \0328Y\"\350\273Cf.>\331\217\023=m\022\327<\347#l\275#\251\336=Y\007\350\274\035\201\343\274,\355\372=\016$\232;\312a\357=B\372\241\275&\312D\275BbQ\275\326@\361=W%\r=/\251\266=e\255\r\276QS\367=\303\252\343=\273\221\013>?\t\017\276_\365\216=\334\336a=K\246\251=h\373\024=\210L\020>\272/*=\245u\365=\311\254\367\274\014\227|\275)\222\244\274\365\375n\275^\313\021\276]F8\276\247\236j\275x\255\013>\347\373$\276\354\247\274=4B\004=\237\364\254=\362\361\023\2753\021\'\276^\226\364=5\360\262<\314x\263=\206\301\021>\366\017\353<\345c\035\276Cvd=d\264\247=HC5\276\177\t\004\276v7\025=\346\025\001>>\200\251\275\301=\022>!\357\310=>D\234< k\333<\214\352\353\275\266\0056>\004\214O\275\233\327A=F&\211=|\266\263\275\0051F\275\310\025\326=\240\377$>\340\304\006\273\361W\311=\307\241\021\275?\0054\276\034\261\224\275\211\373\'\276\022\227\266\275g\205\352\275\256\316\234=\341I0>\244J\320\274c\336\212=\320\021\001<\'\344\'\276\302\367\'\276\n\254\317=1(\240\274\374\224\276=\202t\016>K\344\216\275\312\355\250\275\r\020\231\274\271\227\350\275o\366\036>O\263z=\322@\234\275T\\\200\275\314p\235\275\321\036(\276\277<\005\275U\201\200\275\345Q\017\276b\362\315\275}J\372<:\257\377=\344\200\314\275g1\007>\271\336\025>\002\372\313\275{Y\230\274\273\021\302<h\347\267\275\310\377.\276\032]\366\275S\377\017\276\002\235\024=\374#\274\275\003\026\006>\307s\343\275\013\020\346\275\356S&\276\265P\363\274\037\237\324\275\374\334\364\275\310\244\367=\311\r\020>N\327\017\276\305q^\275\'\rM=4\215\206=\372\177\">e\351%>(\237\203\275;C>\275\231\363\267\275\010Z\351\273\333\3058\274}\260:\275\211\005\353=\246\255\021>\365\365\270=\347\243\274\275\307C1=\332t\301\273\002\253\270\275\233-\003>\232}\006\276,\025\365\275PS\'>\367[\034>X; =\026\005\005>\324C*<\014v\304\275\215\036(>DD\203=\205\232\327\275u\356\t>\305\177\021\273\006x\247\275,\356\321=\254\2347=\214\r/\276:\370\371\275G\240,\275\242\301\262=\307l\365\275\276\306\322\271N;\331<C\326\373\275p\327\005\2766\330\031>\262\240\322\275C;\027<\023\240\306\275h\001\177=\275\254\017>\250\030\021\276Y\212\245=t\2161:\340\217\361\275]6\325\274\377W\251\275\033\273*\276\373\264%>8\005O<,A\021<\230\355\366=\345\261\035>\267\007.>\3571\304\275/\321\330=0\313d9\233\374\017\275\030S\3229\365M\002>\313\002\230\2750\220\037\276\366\310\034\276\332\254\247;u:y\274\320\337J=\360q\300\275J\334\257\275\357:p\274\034d\"\276\322\217\263=\340\026\024\274\277\221\244\273\206\325\231\275$\n\031>\230\201\000>`\034\344\275\333\r\357\275\023\017\330=\247\346\341\275\022\221\r=\314B\260\274\245\030\247=\275\221&=8\200e=\240\005>=\204\235z\275H\321\376=fj+>\346\005{\275\2577\277\275\256\2760\276\251\317\337=}\352\021>t\266\350\275c\342\254=\305\324E<\214\343X;\n\261!>h+\252\2755\245\262\275m\216\274\275\316\216\232\275\253E\240=2\205\021\276\242\005,>\210\357\003\276&\373\033\276\255>/>B\242\274;Z\217.>\034\212\014\276~`t=\251\230\225\275\257\352\021\276.\002\035=U\352\367\274\032\260I\275\200R`=\017\252\220=Z\317%=\241\332\330=\021\241\300\275\361\245\214\275\305A\037>H\263L\274\224\"*\276\375\r\371\275_\336M<\300\321U=uX\355\275\267\372\375\275\247\210.>\'\373\001\276\356\242\212=\034J\322=\266\242\010\275\000\372\222\275Ab\n\276\005K\036>\242\314\000>\027\037W=\234\307\371\274\324Q\025\276:a\204\275\357\316\034>\327m-\276{o\365\275\355W\343=\323\024\312\275M\352$\276c\355\377\274eX\n\276\335P\345\274S\335\273=\360\250\235\274\010l&\276\354\006\320\275\222n\250=\004\006\035<l\225\236<\265vW\275=,\024\276\311^f\274\267\023C\275\231\\\004\274\230\304I=S\346\206\275\315\321\004>\221\252\201=\322\310E=\373\"9\275\355\265\273=o\213\006>\240\300)>\360w\242\275\"\365=\274.\010.\274\353\247\231\275^b\003\276\0331\306=/P)>\227`\214\275.\031#\276\266)\325<\224m\355\275CP\300\275\013>\026>H\\\033\276-\367\216=\023\221\021>w\034\356\2750|\017\275&2\037\276\273d\227=zI(>\027N,=\205\324\007\275\027\023,\276\367\2433\276\255?L\275T|\">Y\221\002\275`\377->T\341\316=\304\302$>\321\362\364<s\336\376<=\005.\276\013\230$\275\255\371\322<\223\214B=}v\364=\370\310\r>$\223->`\335];\220V\023\276\357\374\272\274/\2132<Y\274\000\276rK\311\275~\3462\275\307\237\331=\022\377\231=\240\344\354\275@\253\201;zU\021\276H\213\022=_\334\327=zk\225<\275(1>\351^p=\306pG\275\370y\003>i&\272\275ne\372=\321\035\200=\272Q\361=9X\005>w\230\372<\205R\257=\240\204\250\275\213K \276\023\375\273\275\367\215\001\275To\243\2750\252\323\273}\271\266\275 b\370;.c\343\272\031\017#\275 \223\026\274R\251S\275#A\027\276?\030\351\275p\021y\275L\027==\362B2\274\251\374\213=i\305\217\274\222\177\013\276\346\321e=\022\365\034\276\273x\'=\257\350s\275\272:\014>RC\250=\331J\325=\336D}=\261\205\250<L_*>H\341%=2\010\241\2731\315\376<\220T\014>\325\245)\275D4\377\274\001]\006\274\313 )>\301\177\323\275;\r\333\274\023\035\354=7Q\300=A\336\230;\367\231\340=\365\323\014\276\237\221\006\276\322\026\365\274ZkV=\246M\303\275\211\367\002>G\001\'>\331\350\n>\021\300U\275\273X\344\275+k\315\275[z+\276\223K\003=,=\000>\031`\245=\336\335\367=\321\n#>D\r\353=\335\212\330\275*e\216=\270\317\027=mX\370\274 \220\004\276\217\244$>\033\205\013\276\230A+>\372\210\312=\337!\307=^\216!\2766+(>\313q\035>\010\205\344=1\354\252\275O\242!>\'\201\000>\211\215\003>\022\034\226;Z\263\023\276\334z\256=|<\033>\211E\010>b\037\016>\007,[\274+\2128>\027\304(\275\243\222\376=~\350\026\276\370\205\331=8\377\004\276\tN\203<(4\337=\021k\234\275h\336\355=\320\313\273=$\3144\276\372a\357=0\0229<A\307/\276\263\352\300\2748}\264=9-\250=\273\224.>\275\245\021>\243\214&>\230\210U<\253\0135\275\275\212\261=L;\375\274\232\323\033>\350\216\027>O\016\025\276\277\364\301\2742x\016\276\'\335\317=\262\365\004\275I\235\271;\316\305\004>\303K\272=\023\230\330=+:\024\276\016\2463\275\374\007\263=\377Ku\275N\030\377\275\273\245\'>z\3751>\2032\373\274FyI=gw%>_\271\250=\234\215H\275`/\356=\010!\023\275\3755\340\2746J(>6\354\242=dV\'>\266\272\367=\221\256\026>\2531\246\275p\331\032\276\245\323\337=0!\005>o\027\304\275\307\205\274\275\240\305,>Ac\006>\235\031\330\274f\227\234\275\025\351\230\275\026\r\036\276\345\"\274\275c\037/\276\321^\r\275q\357^\274b]\277=\224\212/>\322R\326:\232\275\016>\321\377\007>\364@\007=\244\313\027\276:\'%=:\232\004\276\201\030.>\354\316\211\275\036:\232=PJ\n>Vuz<\031\254\335\275\034W\276<\363\006\271=\330\376\357\274\317/\035=\336%\346=\221\003\021>\016\305[:\261\014\035\2762V)\276\305\0208\275\205A\315\275z\030H<\274X\020\276\257\315\252\275\361\3117>A\272\325=V+\361\274\272\300.>\360Cb=\231\006\000>\016\027s=$\233\010>VqM\275\375\016\333<\"f\014\275\2152\224\274\351\373g\275~=1\274D3?=5$\036>n\377\007\276\322_\027=mD\223=\206v\336\275\017\260\363\275\352\202J=\\\3303>\356\374\361=z\247\026;:\216\345<\342ge\275b\0372>\303\326\341\275\210\352,=\275\366\035\276\'\225\317\275\341\276\256=\325\201f\275\020\237\031\276\263\016\005\276\303l\234=\210\t\203;\001\014\242\275\376Z\305\2742\372\227=\254\004\206\273{\r\021\276|\332\027>\177u\236<\2747\t=J\036-\276O\3552>\300-\031>\311\361\354=\200\212v:\337\034^<\320\t\361=\273\323\037><8,>z\320\304=\310\367\r\276Oc\240\275\236\231\222=\036i#>!F\230\275\214\026&\276\350\262\034=x?\351\274R\021\002\276\030\352\303=#V\302=R\250\217=\014\244!\2750\220\323=2\355\302\274\217e >\323\305\025\276\342\245\232=\276\237\331;P\353$>\344\036\345\275\217\276\016\275~\241\203\275\205V\026\275\242)~\274/\352\026>*\237+>ei\237<\232f*>^\374H\275\352\037\366\275\225B)\276\274\211\376=H\020\001>\207\316\r\276\030\343 \276\220D\031\2766\\)\276{g\307=?\301\014>\310\241\246=-\'\n\276\2446X;s\\\261=X\203\023>~#!\276[\2007\276\335W\r>\0137\227=\211\353\374<;\'#>A\271\262=\n\336\016\276L\323#\276\002\017\000\276\354\331F=\024\334j\274I\001\033>e\023\266=$3\264<tP\322<\\\"\001=\210\326K=\346\"\210\2752\363\022\275\273\346 >i\tV=P\363\025<\304~\206=\312Z1\274\270\326\200=\264\262\236\275,\344D=z\267\341\275e\004\373\275\222\317\013\275\275\207\244=\000\202\366\275Y\017\240\275\373H\275=\022\246!>\3200\344\275\217\351\320=\240gE\275\021\033\335\274\227%\205=1\277\263=\350J\204=\260\267g<\247\215\341\273\212\331(\276(\322\335\274\325$\364=k\365\016\276\332\336\255=p\3649\275*\3060=\217\343>\275\340\272\352=>\303\256\275\300\215\330=\375\314\t\275\237\250\217<\251j#=\000\253\035\276\337B/=\225\336\001>3\333\241\275[\220\374<\311\306\250=\377B\023\275V\247\210\275\227\222\276;?U\275\274^1\236=\365\232\214=\351:4>)\275\202=\257h\030>uI\243\274\025=\365\275\2433/>\376t\267=s\3424\276|\377T=\017tF\275`\340\016>\036\317\026=\ri\016\276AH\r>\370\006\026\276Q\'*\276c5\310=>%\t>\371c\364\275\025\3501<\207\373_=v\366\022\2747;\342=\352\350\017>\320\000\244<c\004\024\276:j\022\276\305\\\247\275?:\361<\007\'\261\2746\234\265=e !\276\224\347\333\275\375\021\227=G\016\320\275N\320\216\275\214E\223\274\320\025\035\276\221`\035\275\361m\037>]9\t\275A\020\246=\3257\226=\215Gg<\363\030\262=\341\034\325\274>\210->)\260->2\366C\274*\001\007\276\311E\036\274V\367\013>\3644\266<\220\352&>\203\2745>\204\204\276\275)\260\200\275\312Q\342=n\300\237;\262\000\024=\022\2765=\315\370\001>B\337\213\275\204=\217=\375\321\025\276\242\264\223=QF\353\275RH\220=\255\246\233<\320\224\306\275\251ln\275\271\276\r<b\351\334\275\3323\023> \002\021\276\260\363\212\275\204\225\327=\tC\006>\257\266$\276\351E%\276\256\007\021=\304\273\337=\366\226,>\213\214\t\276M\003\022>\314<0<\3104\355=a\341\031\275o\314h=\254\360\005=WL\023>?\004\010=X\t\206\275\246b\014\273\304\267\306\275\275\240P<<i\312\273\277\235\324\275j\270,\276\366g\000=\232\350\231\274\207p\361<rJ\345\275&\205\031=\t*\322=\020Z\250=\202\201\210=\200\030\030>\251\251\032\275\325\270P=\\8\002\276\016\363\227\275\324\023\222\275\340\211\340=e\210\001>\262c\332=\221\3633\274j.\217<\204\317\360<\021\376\307\274\r*\r\276\353R-\276\275\2131<\333E\256\2740\270z\272\217)^\275\365L\376<[\310\213=\010x(\276\251&#\276\003\377\000>\177Z3\274{\0210\276V\311\210\275\212\003\033\276\336\317\030>\344~\005>\243S\205=\202/\375=q\370q=!\247\005\276\314\027q\275\310Tc\274;\264\306\274\207\026\220\275\330o\252\275\221\250\346\275\222\371\236\275\201\313\024>\227\231\370<\376\0366=H\257\033\276\254\204\334=V\237\031>j\024\032>\317P\206=\210B\246\274\004\201\305\275u5==Y\300\217\275\342\374g=vB\260=\247\301\036\276\351\313\354=\022\351\030\276\300\251\363\275\213V\217=\333\230\274<\374\0163=n\363\374=-\242\017\276\266\344>=\361\244\243=n\347\034>pR\353;\322\345\336<\326\315\337\275\035\336\005>\3545\244\275\311\340!=\336I\036>D{G\2753S\366\275\200\262\212\275s\337:<\245#U\274v\215\216\275\3116\271=\3648\233\272\352e$>G\202\330\275`\344\301\275),\034\276\333/\031>3\350\002\2762k\026\276\361\225\030\276\205\244\223\275\301\021\262=\014\221v\275\212B\020\276\002\014%=\251;\020\275d=\013>\312=-\276\376\366B\275\021?\274=7\267\334=\320/L\275\370]\352=\362\n9\276\243\013s\273\273\303\024>*\344\002\276\221C\347=\233\002\235=\261\331\252\273\356\347\n\276W\3467\276\177\371,>18v=\370\227\014>\214\231\205<\305\001\346\275\177/o\275^\2247\276V\024\346=\350\371\024>\214X\343<\227$\036\276V\253\021>\331R\\<7\355\021\276=4\"=v\372\260=\360z\237\275F\306\335<H\305 >\340%\022>\361FY\275\233\215\035>\3008.>\221 \256=\262\275\340\273\266i\244\273\220Q\374\275\205H*>J\261.\275\302\243\253=\316M\222=\321\025\207\275sw\316\275\211\361\313\275\215\204I=^a\355=Si\014\275\\\204\035=C\232\257<\330qY=\264[\356=\352]\304\275l\202+>N\346*\275j\026\323\274\007\212\327\275\242\326\255\275\274\372A=1L\275=\023\264\023>\304\316\330\274\013\030\257;\337\323\265\275\363=\304=\252\334\034>\013\230\034\276\333\216\254<\2765\214=\336\232\031\276\272\000\006=\223\337\326\275\3776S\275\272\321\032\2765\376\225=0\352o\275I\375\370<\255\373(=>\235\211<\223\001\346=\010\233\304\274\343\241J<\333\352\006>\\\237\300\275>\302\024>j[Z=*\"\021\276\037\021\315<.\203\013\276aK8>\371K$<\346\253\036\275?\267\237=U\024\302\273\226\203\023=\325+#\276\3436\003\276y\004,\276\262\035\200<\277>\252;\244\r\027\276*s+\275\305\356.\276|\310_\275\271wf\275\355\3114\276\222\017\r>*\317\342\274B\241\273=\"\241W\275)\206)>\307\020\375\274\302\001\301\275ZT\360\275\201\261\343\275m\000\020=*\254\034\276\266\350\315\275\311\210\264\275\267\313\230\275\326\006:\274d\005Q\275\251\373r\275\342v\026\276\231\005\205\275F\277\024\274pm\377\273\314\205u\275wy\354=&h\t\276\017L\352<X\357\200\275`\363\3639\361\367\237=hv\332<\321\376\030\275\032D(>8_$\275\013\037\022>\215\315\271=\332\3627\276bT\317\275\277+\036\276\347x\025=\274C\227=\217\205\303=Cm8=,\276\225=\001\"\347\274$\021\320=?k%>*\264R<V\322\037=L$\277=\004\316\203=\364\2150>cA\234<5\007\n>\3379\020>\000k\001\276\200\307\214\2754\367\370=8c\230\275\245\223\325=We\002\276\366U\035\275\354\n\334=1c\025=6\303\004>d\r\027\276O\270\"<\370\003\337\275_\347\r\275\314O\330\274b\025\354=\303\264-\276$\207\001\274\006\020\376=\204\3364=\273\n\347<R\357%>\355`\023>\0160\330=\334\3134\274\355\014h<yd\013\276|\003\014\275}S\021\276.S\262\275\274O\246;\0021\231\275\222Z!\276\177\t\254=\277:M=\371\241z\275s7\360\275\227*\231=I\325\213<=.\035\275z\335\336=\177\357#=\222Z>\275\211\'*>K\003=\273\223\223\256\274\232\3109\276\361=\t>\031\217\374\275^r\001\276\202L\316<S\255\317=\200\021\272=\237\313\361\275\351\273\226<\324\270\361=m\177><\206\321\310\274\244A\016>\035\217.\2760\361~=\243s\246=\266\t\360\275i\200\221<\306\207\210<\345\270\325=\2064\t\276J\262\206\274N\214K\275\25732=D\030\000\276\236\371\343\275\3158\347;\221\232\024\276\357B\003\276b8\020\274\300@\307=\306e\365=\371\313\336=u\236\r\276#\271\000>\372\205\266\275><\005\276\325$\217\275\237\330\016=$\256v\275\035\364\">)\206(\276\200\370\035\275\032\263<=T6\t\276,v\014\276Wj\337=`\017\t>\246\243.\276\352]\277\275\326\003\021>\203\217)=k\344\343=#>\000\276}\311g\275\232\304\221\274|]\006>\242\023\330\274\005\203\257\275o\370\001\276X\306\024>(a\006>P\271`=\314\224\300\275\251\374\010>\346\354\'=m\226\020>\316\3524>)\024\250\275\002\354\030\275#\203\334\275\035D3\276g\321\211\275)\010\375\275h\355#>P\215!\275D\250\314=Z\333\314=\313\035\264;\3614\013>\274m.\274\n\371B\275|r9=\247\034:=\036\344\002\276\333r\035\276\366B->\211\3242<\321\n\037\2761\023}\275\367\014r\275\367+ =\272\024\023>f\232\223\275\221Z#\276\037\212\210<\206\275\t\276\201\207\226<\2607\331\275\020\032\233=q}[=\363}\002>\340n\253\275\354\355\331<H\340*\275_\345\'\276\347\374n=\306\324\334\275\357\346\026\275\360\343\t>V\365\025>\275\2637\276\036\006)>\333\003\020\276\370\314\204=\003\017\312\275\320\220\335=\355\356,\276>{\001\276#\023\013=\037\026\263\2756\016\243\275\3448\\:h[\020\276\242\027\320\274\352\220\303=\266\364\372\275\031\230\020>\234:u\275T\n\355\275EV\036>\313b(=\230\254|=`k\350\275-}\017>\013\222H=T\373\360=\257\r\000\276\312\263\244\275w\350(>~\301\r>\270y\004>\265\002S\275\310K\021\275\271\264\241=\302\247\034>\226K\221\275\360ij={W5>\245\0200>\016\014\005\276\370\273!\276\300R\002>q\252\267<\236`\263<B\353\016\276I\316!\276\252\360\022\276\310V\t\275B\036\347=<\361\302:\276\246\345\273\304\363\'\276\357\331\361=\\|\201=\"^\035>\234K\254;\247/\323\275K\035\325\275\023-/>U\211\'=\244\304\260=\'\270\020>p\265\035\276 \201%\275\311p1\275\205\320\035>\017`\214\273\310G\335=\224\241D\275\3348R;\031\361\r>\2466\007\276\323Z\243=<\211\313\274\316\263\326\273\230X\020>\\u%>Y\324#>\372\310\013>\232\"\010>v\016\030\276f\261\023\276Fr\006>1\000\363\275\307\"\201<;\230\203\2752\324\314\275\313n\310=\377<\212\275\262U\346\274 d\334\275\354\207\024\276\27577\275\351\241\326=\212\367\017>\302\374\023\276\377b\022\276\031\354\022\2760\004\376=\371?\004\276S\371\350=\032\376.\274;\364\026>B\202\205\275\362\206\253\274\356M\340<\211\362Q\275\033\217\376=\251\270k=\263S\220\275\3506+\276@\224\263<l\240\022>\365<\313\275J\324\017>\322\321.>&\240\301=\016C\\;\020\346\210\275(\r\346=\\\234\352=sU\t>\316\301\225<0\007\375\275\n$\037\275\027u\230=\031\013\036>qn\001;\3248\260=EU\213\274\212c\264;\322\220\217\275\345\232`\275\354\350\215\275\266\206\031\276\t\343^\275\204\254\033\274\224p\003\275\275\320\006\276\'\002\200\275|-\213=\035\306\334\275\235\3008>\277&\201=\216\027\371=\316\332\252\275\210\330\320=k\002->\254\r\004\276\036J$\276\363\037\016=\036\360\325\273\257RS=\346\231\254\275Z\303\014>\316\207\375=\313\377\016=\210\t/>\276\001\025\276\345p\330<\340\366r\275m\254\263\275\367\226Y=\233f\271\275,\r\010\276\332\213\345=`\365a=b\346!>\3342!\276\"}\370=\213\267\027\276\255\371\327=\312W*>\310\001\\=\036\212\036\276e:\273\274<\366\211=o\336\236\274\027\375\014<\244\r\r\276\021q\361=\253\367\254\275\212\201\303\275\337\375\263\275\227\264\263\275\331\352\340=Kz\231\2750\322\365\275/|\006\276\232\217g<\021\202\177=D\032\023\276\344\344\"\272\360\200\245\275\361+\204=m\217\246\275\3700 \275\025\271z\275\225\261\331=IR\014\273M\271\032=\376i\017>\325\337_\274P\336y<\341\341\203\274f\275\303=i<\326\275\014\2545\276\002\364\272\274\200\264\327\2751N\013\275\2637\273\274\202\373\r>jp\n\276\345\216\023\275\2162\377=\213\342\212\275\225\307N=\376\006,>\277\356.>P\016\002>{d\350\275\263\001\226\275A\312\330\275O\257\261=\017S*\275\024\3446>;\346z=voi\275\350\242#=J\241\314\275\321u\356=\324\027\023>\360s\035\276\360\031 ;o\267\r\276n\t\257<Gp\322<l \010\275\001\007#>\256\025\021>\342\262\010=\361R\n\276A\2606>H\367/\275\210\217+\276\006\005Y\275E\234\033>\334\266\276\275\232\275\260<\363\326\005\275#\205\202=\034\320G<\203.\333<\210X\262\274\000\323\261\275H \"\275\367\020\003\276\370\361\032\276l\371\022:\265k\022\276\311\313\216<D>%>@*\t\275-|+\276S\267\027>\206\nE\274\211\303\031\276bIg\275[\002\026\276\005\3643>`\232M\275\334\316\355\274\277z*>\314\264\035\276\364\0065=\336w\030\275\230\300\315=%\371G=\200R\320\275\027Sf=}\020\017\2742\200\216=p\231+>S\241#>\232\014\251=\207\244\346=\374\006\027>\327\265*=6\341\255=\277u\305=\242T7\276&i\004>\016\3728>9\361\200\275\006\027&>]J/>\225\215\013\275\345x\210\275\261(\372\275\216;7>\233\232\317=I\331\272\275\026\2303\276L\330\346=\273\215\364\275M\234\360\275\333\337\302\275$O\275=\324C\360\275\265\\\207=\362\325&\275\231\"\206=\002l\221= \263\t\276\210zM=\000\310\346<\365*\025>|3\304\274\227\322\010\276\356M\234=5S8>\022\325\000\275v \322=\251\267.=\224&\230<(\212\004\276\272q\243\275\263\253\313\275\314\212\314\275d\002\025=\027q\210\275\320f\t\275\334\252\324<y\233\">\350\267\354\275\321\334+>;\202\220=\361.3\276\237\357N\275\322px=T\237\034\275\214\266;;\tj*\276\365\240\267\275=\234\001\276\270\r\256\275\243\265\202=9\273\222\275\311\207\245\275\336\213\035\276\317\370\262=7I\241=\254s\010>\313%F=\331\377!>p\034\334=4\002\036\274f|5>\361\271\006>$%(\274\343\270%\276\214\262\253\275\340\'|=L\221\224\275TT*\276t\334\257\274\251D+\276j$\375=\003U\365\275-a\354\275\371i\033>\236\277\006\275\003\251\325<\246H\032\276\301\234\370\275\334i\341=\362\035\263\275\205\305z=\032\340\007\276l\203\216\275\357\211/=`\022o=\016c\362=\300\345\265\274\315P*>0g*\276\306\301\345<\237O7\276\202pG\275\324Y4<\016!\033\275~\273\240=\224\232$\273\327$.\276^h\335\275\3662\'>=\337->\224\370%>\315\033\275\275\256\027\035<\255\007\010>z\303\316\273?\\\t\275\233\3720>\034\316O=%^\357=\247N\264=\n\302(\276=w\"\274\240@\034=Vt\'<J\265\013\2763\263+>\255\277\\=]=.\276n\314\307=&\006\'>b\327\260\275\312\343\342<\366^\021>2\217k=B\3321\275\314r\'>!h\021>?\026\244=uL\325=\355\3452\275\217\2153\276\025(\032\275\223]\256\275?\007\313\275E\214\322\274\251\216\">|A\226<\224\010\231\275\323\227\375;\325g\240:Y[\341\275\360\'\333\275LH&=\331\201\253\275N\244\320=V\3632<o\310\024;\226\227&\275W.\203=\202\373&>q\204\334\274\032\377\235<A\316\n>g\200\224\2754\263\002>\251\255L\275\307y\037>1\247)>R=\301\273J\317L=\253\317\240=t\373\235=w3\364<\346\251\225\275\371\\\363=\237\262\r\275C/\023\275cF\010\275\026V\347\275\231Y\265\275\352\3425>o\232\016\276q\020\034=\354\0311\276a\231\377<\246G\330=\"\307\367=\367\267\263=7f\025\276\350c\367\275\201$\377\275<M\337\273\017\205\373\275w\362\321=nO\301\275C\006\375\275A\331\223<kS\222=\217\031\314\274uH\256\275\267y\267\275\214\206I=H(\306=\265\027\003>\372D\003>g\324\240\274T\336q\275o\275\030\275\362\302.\2757\333\262=\022\275)>\255\312\247\275\2125\301\275L\203\200\274\"\276S=\316k\274\275{Y\334=\016\376\257\275W\224\221;5\004+>KQ\020\274\310$\323\275m@\262=\310\250\234=)(\244=\220a\347=\210\3421\276\255\352\013\276;\376W=\343\207\300\274Tf\315\274\320-]\274\232\251\004>\277i <\336\037\366=\252\211\265;\256\232\337=5\033\002>\n!E=\3559#\276\217k(\276/\350\020>\246\230\323\275\314\013\022>\247K\t\276\020T\245=\247\223\035\275\013 \022\276\342\316\227\275,Q\356\275\3101\004;\215\244\240\275\264a%=\320\333\262=\240\036\235\275\313\033\221\275\303\362\020>\210.\022\276J.\177\275\200_\275=\326l\';\031\023\210=\026\247%\276\347\252\005=\034\235\017>#\\\212\275TGe\275\247\343\014>)\0364>\274E\033\276\325R\302=~\300\210\273\272\021]\274td\027\276n\204p=\022\340\217=IW\202=\202\220\034\276n\345`\275\374\032\307\275*\354!>\013\365\227=\'\343H\275(\233\253=\273\217\347=P\237/\275\356v$>\342q\221\275\030\321#>r\370\023=D3\315\275\311\037\326\275\375X\005\276Ir\343\275\322\337\261=\362\206\017>_\r\322\275\302\302\020\276\0044Q\274A\374m\275\347U\025>\301\006\010=OZ\252\274\241x\030\275\rA\211\275U\206\026>\233\262\214=\316d\370=\005\232\020\276\"\340\235<\320\365\346<\007O\351=\377\343(>BM\002>\340$\214=8\377o\275\350\301\312\274\342\203\221\275\204\230\026>j\253(\276\300S\240\275\210\230\354\273\016k1=\240\321\034\276\022\225v=\354\2417\273\321\036\202=\264\025\211\275\004\001/\272\300Vn\274\331\017\256\275\213\271\032\276\314\373D=5\222\r>-\374\020\275b7(\276\200\333l=\021\375r\275d\221\035>y*\031>(\264\312\274\3011\001>\252YV\275\000\222\032>rV\316\275\321\213\000>\360\'9\275\250\007\341\275\237\013\216=\036-X\275+\357\031=8oq\275y\314\267=%\253\225=\017!G=4\350\241<\025\377\227=Uy5=\270\320\201=I%/>J\242\206\275\nT\021>\373\264g=>?\244\275`y\313<\320V\267\274\213\315%>\2576\334\275C\376U=u\2724\276\246U/\276\027S\205\275\032\250\304=\022q*\275\356\331*\276\006f\313=\324\2153=Ge\n\276\236?\374\273\025\364,\275\237\310\010>.\375\334\275<\014.>_\000%=\004\351\366=\2201\016>)\014K\275\213\225\033\276F\021\313\275J\230\225\275\222\256\342\274\016\030\363\275\355+\034>\004\233\251\275\000\206\201=h\237\350\274\264\223\035>\337ZA\275\264o\r>N\2251\276\232E+>\223|\266=\202W\001>L\177\273\275\374\371W\275apN=\246&\000\276TB\312<\333ao\275\256c\233<\307W\212\275\372\026\322\273\003\206\206\275\320\005\255=\333/\313=\177\336\035\276U\221\247\275R,\343=GL?=\372\270\240\275\276}\310\275\237z\352\275\025\372\327=\214\304\350\275J\310\004\276\362\360\274=(\262 >\324y\222=\256\3252>\255\031\355\275\017\376G;B\360\347\275\031\371\353=\231\363\377\275\020J\260\275:\246\007\276yE\325=\217\021\263\275\\\3651\276\301V\276\275\311H/>\257\243\036\275\022\201\261=\225\020\244=\253\022\335=\325\304\305\273\303\014\223=\016Y\345=S\246\010;o\373\035\276\2544w=\277\222\233\275\2551!>\336\364\321\275nD2\275\302 \264<Q\234\007=\250\265\000>\223]\007\276\t)}\275\336\312\004=\364\020\222<\346\001\302;\025\370 \276\021\240\207=\017\025\360=\233`8\275r\343!<\312,\271= \'\233\274*\254\252\273\212\024\303=`\305n\2718,\226<\300\333\006\271N\334\036<8\032\346<\267s\253<\035\345\275\275f\355 =\205\367\261<qd\023>\237)s\274o\246\207\275\333&\037\276\022w\217;\311\213\274\275\035z%>r-\312=I\243\236\275\005U\310\275\243\300\027\2766\274o\275\211}\270\275^\343\001\276\354#\204=\021\256\353=\202\n >\272P(>\205\363\331\275:r\033\276\027\201\341\275\251\315u\274d\374\324\275\021\007\300=\366g\'>1\205\033>\230\356{=\213?\016>G(J=\233\205\034\275?r\020>=\275\021\276\264\n\333<\003E,<C\232\372=P(\r>\341\237(\276\203\365n\275\310\211 >\351\277\r>\246\007A\275&\032\370=BK\216=\230\\\t=v\224\030>\343\207\026\276\004\356\020>}J/>\203t\"\275\2609\014\276\321\244_<f\265\252\275\357Q\250\274G7H=\374\267\265=X\005\362\275\214\214\'>\034\321+\276\274\257|\275]\013\235=&\230\221=t\372+\276\312Q\003\276\323\345\006>5~I\275\346\027=\275\000\025\347\275(!\260<P\036*>\274n\262\2754\315\233\274\224\326(\276\244\237\232\274\336Q\224=\230\r\273\275M\275D=\320\232|\275\203\316q\274\336\n\235\275\336$p;DZ\031>\315\001\226<\311\361\007\275\323\340\013=\203\331\343\275,\331#>\241:\317=\323\252\242\274A\234\312=\335\252\311=\035\005\340\275\224i\227<t\344X<\003\363Z=Q}\365=5\267\224=\266H\241<\214\232\377\275\004\007\260=\320\355\036>Om&=\002W\036\273\321\377\332\275D\326\020>\346S\013>\t\r!\276\354\013\014\276e\247\221=\365\206^=\317\\C=\226w\341\273\266\220\247=)\267\235=\363y%\276\320v\256\274-\203\007\276\275\010\027>z\225t\275\214\373\003\276\372m%\276:\212\222\275\272E\336\2740\304\210\275\270`_\274\215\261\345=\032\331\342\275\017m\332=\352\375)>\357T\007\276\264\331)>\212\377)>U\226\222\2740\300d\275{\337\213\275#|q\274\271\325\275<\302\335\r>C \251=?\r)\276,1\201;\325\022\317<\025\364\367\274Aq\025\276@\030\304\275\020\343.>\361\244i\275\251\340\025\276\025-&\276;g\363\2757hY\274\267\351\332=2D\017\276\243m{\275\317v%\276\261@\013\276\350~\324=\357\364\351\274\346\240:\275\006\224\210\275N\302\270\275\233|\370\275w\255\304<y\265M=R\225\232=\307\302(>\261\303\016\276\206\332\233=\221\010\305=\010\257P<\246e\265\2756\2328\276\362\361\314\275\224G\252=\030\240\251=x\371\202\275; %\276\2530j\275\3376\237=\360~\216<]p\267;\252_\003>W+.\276\374N\020\275#\262\004\274\\\210\272\274\024\322\362\275\016\315\203\274\334\213$>DS\233={\'\005=\tI\354=\010\177\256=*\267r=\\\221R\274-f\010\276\351\314\375\275?\262\260\275\224\370n=\225\375\256\274p\330\360\274\000\332\255\274\\\305\353=\322b\232\274\363\033+>\332\367\t\276\257\177J<A\243\220\275\0327\222=Md\345\275@{$>w~\257\275\336\025\324=s\330\362=\000\013\030>\273&1=\362d\027\276L\240\027\275;\233\006>)6\035\276\033H\000>\212\3754>\023A\253\275\236\333\370\275\270:\213<\240\034)\276qs\023=\353\350\334=:O\263=\026\310\247=6\314\375;\235\302\216\274%\026\360=\275I\223\274\243\242v=\242b\177\274\236\n\322\274\245%#>k\277L=\302\017\310=\266\265\221\274\0325\340\275%+\366=J\251\266=\"\226 >\025\216\254\274|\n\032\276\346\2115\276L\232\260\274\032\314\374=\336\'/>\267\252\350\275Sg\246\274}E!>x\350\311\275s%Y=\232\370\210:]o\317\274\276\220\035\274\250Ba<\355\227\340\275\021\321\037\276\021B\253\275;\250\321\275s\352\017>}\277\003><\333F<+, \276\321\321\221\275\2135 >j\'\034\276\304\2167=Y}m;%\033\366<\335q\327\274K\245.\276n\014t\275G\240[\275\265U\324=5=\024>\315\3340\276\014\302.\276\032\203\313\275+g.\276\254:R\275\241\371\216=\023\207\321<I\342\236\275\033E\204\274\2464\251=\354f\200=\351\220\242\275\270\262)>\246\277)\275|\267 \276\014\224\022>NT\361=\363*\254=\300\374b=M\247\355<F\322\214=\316\321&=\353\r\016\276q\222\020>\214\2707= B\007\276\253\036\351\275\301<\255\275g\312\367\274\223\013\371\275x\324\260\273\032\373\227\275X\177\211\275\0073\004>\306\016\337=\013.\212\275\364\217\010\274\363\261\255<\227\001\332\274\374--\276r\035\r\276K&\331\274\232\200i=1\310\347\275\314\340\241\275\177\036!\276\243\211\313=\225\216\241\274n\"\r\276}h\005>Py\035\276\343W\035\275F\360\256=\374\361\346=\342\325\027>F\216\360=\373\214V=\206\317\211\273\2329#\273)\035\030\2764\023\372=A\306|<\237t\204=\371\301\261\275\246\016\"\276+\341\013\276\021\242\340\275\204h\035>\035\030/>t\002\360\274\201w\017>\037\351\030\276\330\215\336\275\370~\027\275X\227\t=\016^\345\275\260x+>\247\031w<\270\312\021\276d\002\313<U\273\017>\265\342\026>\236\252\363=\216]\013\274\346\201\n\275\367\342\204\2758%\325\274rz\227<2+\014>xu\005\276exu\274\341w\263=D\016\373;Jp`\274\300S\245\275:\213\236\275<\360\003\275\206@\016\275\356\362\345\275\002<\t\276\330\3707\275\202\320\213=\037\357\363=\216\324\231\274\211R\005>\202EZ\275\203\206\266\2750\211\262=\354\253\353=\233s\005>\336nL\2754\243/\276\207\263}=$z\013\275,\210\202=\340\376^94\204\235<2\254\010\276\000\343\r=\333\336\366\274(a\321\275\177F/\276\2109\014\275\205\255,\276\221B\026\275\2545\303<\314+\357=/P\354\273_t\266\275\336o\030>\\\216\315=\323\266=\275\321\320#\276.<\302=A\337/=\273\251\'>B\207\022\276\353H\250<\355\337\211\275/\334\330=\227\242\017\275\034}>=\326S\274=PV\022>\010\262\271\275\231F\271=\005=\030\276\273W\014\276z\256\004=6}\210=[C\007\276\032b\337\275\321^\233=%*$\276\034S%>\361;\226\275\016\363E=\177\2778\275\264\306\320\274\\\371~=n\014F\273\354\353\306=\232\005\014>\233K|=\263\016\242\275\337|~\275\003\370&\276\307\005\367\275x\201@=\254\362\024\274ox\361\275\232?\316=\227\003\013\276\275\233\r\276^v\347=f+\353\275\241\276\352=\2238t\274!\215\206\275\200t\377\274\033\247\364=\016j\373\275a\t$=5]\250\2755`%;\002\2277\276\240\220r\275\212\022\031>\000)#\275\305\353);\320\211\261=\031\313\256=\223\267\032>\2411\300=\260/\212=\021\252\351=\221\203R\275\007oK\275/\330\027>/\020E=\310G\317<z\213\022=\r\366\004\2762\213\027\276\350\306Y\275Qm\376\2759 \323\275d\\\201=\353\324\'>\237G\030>L#\n=\315q\274=\2171\271=\343\324\355=\262\257\023\276\264\312p\275k\262-=\013\372\023\275\344\233\000\276\351?\202\275J\362\367\275\224\223|=\344\333\225=\225\367\231\274~\221M\273\204\302\241=^\313\004>\316\025\340<\262]C\275\305\356\204=\363\321\n>\0315\017=>?3=\357o\212\275X\205\000\276\n\211\317<\277n\306;\205{\356=J\325\223=%\036Y=\017;\007=\363\300\345=6\203\354\275\260\034\233=\323\352f=\346F\300=T\030\211\275}*H\275W\244\311<1\321\262<]\264\343;\260\223(>>\256\317=\207\335*\276\316/\r\276Ac\222\274\252\340\371=\024EV<\300\257\024\274\234\034.>\241\277\224=\300\235/\276_\264\007\276W\177)\276mC\014=\025\033\"\276r\373>=\020\316\307\274a\303c=\200\306\032\276\215E,>t,\010\275\277\320\323=$\220\265=%O\263=z\225\n\275?\266\014\275:<%\275D\226\035\276\014\227\363=\246\273\000;\311\030\033>\0172\022\276\374\333\246\275\242\036\275=\0305\313=W\330\223\273\t@\362\274h+\364\275*\344\264\275S\210\034=\234\013\003\275\020i\303<\225\003\325=\201\030*\275\333=7\274B\005\233=\275\257>\275\323\005\322<\024\024\021=\374~\013\276\030}\000>\263\255\000\275\'?\023\2764\367\003\276\345F\335\275\266\265>\275\033.3\274\274$\n>\024\371\266<U)O=\r\\%\276\n#\036\275n\302\226\273\224{\210\275/*\026\275)4->\027\276\010>\356\"\036>vr\350=\254qt=\'\203_\274L\036\275=\341>\307\275\010\275\240=\034#\226\275\037b\027>\200\312\206\274:\356\264\275fc*>\254\340\256<d\\\026\276N\"\223\275\213\254\350<\351\232\255\275w\204T\274\333@\354<I\2242>eQ\000\276\320c[\275\250w\265=\304\335\200\275\030:\303\275 \217t=8r\227\275\374\337\347\274\001<j\275\331\372\363\275l\004\000>\227\326\030>7>,>`^#>\235/,=\036\343A\275y\345\235=\322\0024\276\013\362(<&\013\264\274\273+\265=?\'\"\276\334\360\017>\325~!\276C\227,\276\035\267r=\207\232Z<\004/\346\274\035\263\230\275\220\002)\276\013b\270\275\000\270\347=>\031\371\275\247\315\311=\333\367\001>\374O\356\274o\244{=\022\337#\276CLT=o\341,>\304\376\020\276<\3475>\036F\001>\307\2700\275z\202\226=+L\316\275\030\3516\276\021\200\350=y\025\">\006\n8<\212\373%\275\264h\340=\010w2\276\016q\r\276\243\261\026>\265\210\350<\033m\r>\3220\t\275[\177\304\274t\226\227=\3778_\273?F\262=\206\030\330=\230\312#>z\264w\275hY\342=\213K\371\275\032\\O<@\2031=[>\350=\244\001\346<\006\267\221;\370u\276<\0022\370\275\311\302\340\275\366T\021>\n\0225>b\332\375=\313\333\243\274\244x \276QD\t>\331%\366\275\207\337*=\313\210K<\034\277&\276R\200\326=a<\026=l#\026>h\345a\275!ns=(\244\036>\334\351\304\275\330]7=E\003\356\275\275\310\020>\357\027$\276\'\307\000\275\370\203\233\275\320\3468\27699X\275\036\241\205;E\217\237\275\261\342\315=\361v\332=)\235+\276\241\013\021>0\020\340=\002\341)\275\357l,>\344\\\375\275\257]\205<A\'\363\274u\270J\274vL5\276K\343\007>\230\301\366=\316s\001>g\017\215<\343.\276\275\376V\005>\306t$\275\3729\306\274\347m_=\0301\204=\226\241o=\253\225\005>\242\374R=F\016#\2769\004.=\177g\361\275\254\301_\275\177\014o\275\373\346,=dNC\275\352~[=Zx\372=(3%\276x\224\002>\353_\362\275\261_#\274\263\302+>\276\317\004\2768\227`=\365E-=RO\005>\014\177!\276m\213\250;>+\233\274\212h\373=.g\025>\036\3516\275\272\000K=\232\353Z=\330\033\320\274\274a\377=x\207\"\275\345\273\213=!\177\002>Z\\]\275\372\013K=?7\355=m\371\'>3\3731=N\231\217\275\320\365\260=<\025y=\263L\254=\344\006\206<\322\2111>\216\031\263\275\240\224\t>\203\215\341=\300\224L\273\205\364K\275\037|\375=z\n\233\274Y\322\271\275\355\000\006>X?\246\274\270\323\253\275\037\370\331=\356\271\346=\345\306\271=A2#=i\303\347\275\336\341#>l\210H:N\360:=\326\334G=\370\223\">)\2760\275`\362\031\276\330P!\274\213e\"\276\367\317#\274\216\370\347=RD\264=\037\2547=\300I\016<\373\351\365\275H\024+\2765TS\274\240\005\032>a\334\250\275\366\242\305=\370\234\314=\264O\227\274\014&\330=\006\2350\276\241H\302\272\337r\263\275\214\245\352\274\341?\024\274\274(&>\254\033\205<\203\266\352=\031\266\354\2754\236\005>\337\343-\276~T\312=\350\325\260=;P\006\276\337\352\";L\001R=\325|\n>VQ\347\274\360\375\006>\213\364b=\335\373\017>\207\303\020>\343>\374\275\246\2123>Wk\266;\035_\031\276\"\262\003>\345\213->%t\331=L\263\344=o\\\231=\316\232\032\276I\r;=wp\227=\234\036\211<\227\217\303\275]{\026\276\336\2124;\346\233\n\276\211\300\271<\201\017\013\2752\022&\275\374\364\020>\367\016\022\275><\333\275\211\360\353=\016[x\274!\027c=]|\355\275\006\351\003>)\035\034\276\342\332\017>\250\364\004>9\256\017\276,\345\253\275J\260\'>\033\332+>\022\025\351\275f\206\r>\365\267\257:\240\033\002>\363j!>\235\303\020>\361\234\247\275\024io;\030\255\246\275<\242\354;\212/,>\255\374Z\275\265Ta=\305\334\236\274k\307\345=\202\023C\274<Ts\275\324S\300=\323=,>\371\260\225\274\0375\375=\374\031\023\276\270\313\252\275\036\036\345\275\034\013m=F&1\275\"?\025>%B\r>a\037\305=\273Y(\276/\240\027=\306\023\211\274\206\225P=\037\226&\276\203\211U=-\030\023\276\320(\244=\334\334\035>\330\r\251=\377\254\006=\333G0>\037\201\353=\201o\372=\010\376$\276\001?\304\275\355d\214\275U\277k\275\007:(>\2764\322\275\361\275\225<\362\214(>\216+\313\275)\273\324=\327\300\241\275\362\021.>\274\273\367=P\034x\275o_\355\275s\324\002\274E\240\330=\340,\\=ou\203=\207\237\223\275)\320 =9\356\233\275\247\033\246=1H\004\276\241Q\362\274\342\024\221<\005\270\003>\004\315\"\276\372\203<<\3708\257=\214C\342\274\014\231\265=7\376\226=\312\345Q\274\252\237e\275\267\242\005>\005~\017>\300=$\276\340h\235\275\342\272\014\276\030k\365\275>V\336\273\223\327\267\275\323s\223=2\227\177=\023\030\210\274\306P\003\275\354h5\276\245\033\203=(\014\306\273dc\000>F\272l=\262\354\322=\200\337r\275\240X\023\276\010Q)>\363<\266=u\235\337=e\030\236=7\204\005>\210\324/\276\177\360\370=h=\201=(V\013=\350\377\'>\260x\031\275\260\226\341\275\"\366\203=\334\251\267\273\321X\370=\004h\243=pI\307\274\361tt=\004\242\242\274Q\277)\276`\342\177\275\322\256\236=\014D\023>\016\250I\275\315\'\242\275)\263\320<\225\306\332=\326\010j<\336\303\341=g\346\335=\036\001\033\276\344n\225\274\331o\310\275\302\265m=\332\355*\275I`\004>\377\233\004>|\204\013\276\337\322\303=7\007\032>+\3240=&\376\241\275\001h#=\322\2439=\314\240\326=o\375(\276\337+\021>\370c\306\274dFw=\204e\341=v\315\221\275\237o\004\275W\303\036>\357\221\266\275m\326\367=J\263`=\367\257\037\2762\323O=\0256\322= \217%\275\337\227}\274\233\272\250\275m\331\007>*\372\305=r\020#\274\200\262%\276\247\371\250;1\032\023\276\006C\023\276W\307\210\274\365\r\206\275gms=\347\355\236\275\253\352k=SM\236\275V\3425\275[\324\004>j\351\022>tE\010>\004\177\344\275X\274\242\275d\371\216<\033\347\352\275\332\006\000>\335\221B;\336S:\275f\331\351\275\232\010\233<Bp0\2767\002\214=rI\364=\374e\016>\316\006\306=D0\003\275\243\353\374\275nd\"\2761v\013>\2220\207=\300\301\277\275%\254\322\273\027E0=\213z\t\276\316\364\266\275\013\025\364\274^\215\340\275%\266\023\275\240\304\226\275vX3>\016\334\021>\231\256\260\274\243\235\311<\350\313\331\275\253x\346=\206?C\274A/\002>V\346\262=\365\235->\322Z\202=R8\314\275\'\256\272=\354V_=>n\001\276S\333\243=,\363\230\275\026\370_\275\334\236\t<\231\266$>49\223\275\212\023j\275_Q\332=\345Y\222;\337x\256<\032\326\215\275g\000\014>\3258\353\274\217R\340<\327\244\307=\331R?\275&\315\326\274`\001\346\275\004\022 \275>\350\275\275 \247[=,\021\356\274\350VW\275\261\315\341;\026\003\n\276\221\336.>\243\272\374=$\343)\276\251\033\033\276\355\020\016\276\217f\033\275=g\330\274{#5>rl\004\276k\312x=oC]<\206\204\332<\200\373\207\275\216\312\222<us\004\276\250\353\243\275\303>\037\276{\202H=U?\027>c !\276zR)>\2750\356=\274\324<\275\007\313\206\275\221\361\364=I^\355=\267X\010\276p\3040\275\302\226\316\274\235\026\005=\336\240\210\273=\020\t>rH\362\275\324\310\356:\3744\303\2736\301\251\275\246#\201\274\264\025\222=gv8=\007k\237<\242\0314\276\031\030\013\276)\331\r\276\214\036\354\275\021\211\277\275\217\201\325\275\177M\244\2753\255&\276\360\300\357\274y\213\253=\323\344\004=\325\273\221<r\303 \276n,\311\275\233\333\261=X^\242\275C(L<Vi\264=\230\350\300:\323\260->X\216\267\275\3407\326\275\251-\212=\003WF=:\317\010\276\255S\214\275\027\240\261\275\242\035b<\000R\202\275\016-\363\272\232\307\205<\013k\332=n\005\234=\t\271\331\275\346\301\371\275\361L$>-\253[\275\256/S=A\376\351<+ES\274\341\205\037=]\344\265\275\027\363\242=9H8\276\021j\005>\210\323\001\276\275\025d=\n\221\344\274z%\027>PrN\274\037\246S<Ap\335<b\216\250\275\007\332\256\275\014\355\027>\377\211\253\275\207\365\214\275\352\220\236\272\263\201\023\276\234\213H=V\274.>\207z+\276`\020\270:\212\226\360=\204\355Z\275s\207\323<\355E\264<\351\177%>`\222/=D\354\307\275\027\305q\274\341\316\033\276k]\020>j\220\211;Lb~\272\214\345\342=\224&\r\276\306t\233<\224\271\025\275\034\232\261\275\200P8>\267p\"\276\336\\#\276\316\274\243\275\001WD;\357)!\276V\021\226=\241\276\217\275\342\030K=\367\265\311\2751\033\253<\312\272t\275\242\372\334<\204\373\222\275\030\315\225<\277f\255=]\214\243=!D\013\276\037\270\356\275e\034\306\275\215\215\024\276\242\371\215\273\275\266\265<7\200#\276\337\276\213\2751\226\235<Mm\002=\270L\n\275\016} \276\234\220\245=\021\217\033>\307\233\303\273J\230\036>\345\232\256\275S\356\002>Ln\035\276\277\2472\276\264\203\005>EE\036\276h8\227\275*\331)>J\215\036\276[\026#\275\201\3266\276Q\371\371\2752\245\t\276\r\314\"\276G g=\273\214\370=\302\350\022>\2047\313\273q\216\323<\276D\306\274\221\342D\275,7\215=\271\t\254=\334\\:\275\356\202\024\273\243\317\263\275\036\233\007\276\361GI\275\225x\025=\330p)=\274\315\222=:\243\010\276|2*>\350\231\340\275[\342y=\375\356\344\275t\213\034\276e<2\276\025.)>\26140>\345\034\363\274*e\333\275`X\r\276IXz=\236u\360\275\236v+\276l\262r=Nb\026\276\257L\020>\010\274\206\275J\001a\275P)\213\275\220}\t>\021\223\003>\352V\026>\016\320\017\276Y\327\203\275m\250\272\275\303\327\315\275\213\005\026>\324\361*>\000)6\267=\316\363\275O}\263=\376{\322=H\251\023=\177d\301=\002\212\363<\005!\372=\317)\344=\216\2373>\354o\223=\026Q,\276h\251&>\024Jh=\335\323\006\276\277C\333\275y\0077\276\000\014$\276\220\202\020<\343H\026>1\275\312=\277j7\275\227-\361=\320u&=`\376\255=\3267\014\276\243\262%>\365\260#<\034\260\235=4\303\242=\000M\306\275\252\207\031\275\023\204N<\227j\022\276\300j%\275\200\013\275\274*#\212\275\375\340\376<\261\217\324\275\313>8=\375oF<\377\0232>qf\276=[\371\032>\333\210)\276mt\346\275\n\036\212=S\346&\275\354\325I=\302\245h\275F\262\034\276q\017\036\276q\302I\275\033\366+\276P\213\334\275\366.e\275N\261%\276&I\252=\016\215\213\275*\314\233\275\224y\250=\016!\321\2751\216\212\275r\277\354\275\177\346\321\275t\347)>\340\307\234\275\224A\001>\236S\021\276\343\3739=XG\023<\274\300&>\273Q\001>\343\300\204\274\314u\252\2758\231V=\021\344\313<\310\\`=\362\010w\275\331V\301=P\330\n>0Y\313=\244\036\003=(\313\377;\370\200u;\364~*>v!\342\275g\374\025>\2539\347;\241@-<7a\014\276\352e\025\276Bs\216\274\321\227\003>\335\027\347\275B\341/=\322\027m=\360\177\217\275\203B\356<8\315$\275\366Q0\276\326}\347\275\366\313\217\275vh\324\275\244\345\341\271\261\007\371\275:\365\201;1\2307=&\250\032=N=p=\336Z#\276\025\235#;\372\302+\276\t\351\033>\344\215\210\275\272F\313<L8\005\275\017\364%>\334H\006\272@N\270;\312\023\t\276\3147\211=)\257v=\275\273\230;H\304.\276\0055\002\276\330\025\325<\000a\3658\243\371\005\275E$\313\275\003\244\312\274\326\320\272=3\356r=5\n\037>\227x\001\276\342\266\004\276\373\2442>B\002}=<\014\n>\253}\034\275\276\n\217\274O\243\245=|\201\004\275Q\327\004\276\246\002\232=X\352\312=b\300\010\275\036<1=\306\276\">\275F/>\232Cp\275\221j\252=y<\267\275\314\332\024>V\205\024>^\010\331=rI\035>j\325\021=*\341\342=Ep\r\275\234\251\321=y\311\000>\304)\002\276\226\020(\276\005\0365\274\036\340\013\274\230]\305\2754u\204:o\030V\275\270A\"=\264\332\374=\332L\370=\246*\345<]\227&>>)+\276d\300\235<U\t\003>a\213\036\276e\344\236\2758\3202>\333s\010>l\273B\275xj\025>~\312u=f%\026\276]y\371=\220\274,>=\327\2369\372o^\275\237\257\004>\\\372^\275\2346-\276\\\355O=\021}\225\275\002\241\363\275_\253Q=\326\277\214=o\245\027>\312\355\002\276.\252+\276t9\3579\272C2>\014\375+\2762\273\257=\'\360A=\260J\024>_-\247\275\202\327\245\274\007\336\026\276;\026\302<\314\234y\274%\340\016>Z\367\247=X\033\005\275YB\370\275\323x\312\275\266\273\007\276\027\336\010\276\003\027\n>\342\266\266\275\347\202\314=gb\317=\240\336><\314B\330\275-\317->F\251\330\273\207(\020>\317\247\213\273~\207\350=\371\257\350=M\226&\276:\016\266<\352\027\316;\262\006\377\275\213\274\003\276\2373\275=\323y\337={\352*\275\273\353\244\275\363\207\037>\337\273W=\177\350\356<[\220\340\273D\250/=\037v?\275\367\0239\275#\017\265\274\315E\230\275\211\211\226\275\255l\300=O\037\351=\352\361\024<\261\314?=x\254#>H(\242\275\363\300\030\276\273\n3>\221\020\357\275\177\250/\276Ry\354\275\035\305(\276\355\343$>K\276\253=\255\234\000>\273\225\022=$\267u\275\017*\014>\302$\033\276P\253\272=(\272\013>\034E\207\275\010\257\345\275;\342\343\275\360\010#\276OK\032>\320U\356=O\026\343=\376\212\334\273\301V\266=\277\235\025>\353\244\200\275M\210\301=\325\2436=4>\006>\361*\021\276}\241\262<E\2778=\271\202t=RS\244\275\032\220\225=9|\310\275\324y\273={v\305=\223\224\256\275f\004\003>\223S\214\275\317b\016>l\3320>\001\226\374;{K^=\345\275\360\274\253\026\026\276%y\270\275m\320l=@\2119\276\247\340\270=\226\031\016\276\\\210\251\275\316\255==\351U\007>\244,\017<\003\347\255<s\007\244<q\346\001\276\354L%\275\354\214\374\275z\213\311\275\345\260g\275_\371\r\275H\302\241=T0\333=\213\013\277\275pqP=\325\262+>`B\274\275\210\265\242\275%A\275\275\322A\226\275c\351F\275\r\324n=\264 \302\275\270#\000\276\247\356\307\275y\013,\276AU\037\276\220;\322\275U!\027\276H\0305\276\215\300\232\275^\240h\274\237\010\315=\377y\r>\314\235\212=\310\360\'\276\205\321u\275<\267)\276\031\273\002>-\003#>\202\240f\275l\210\031\276\226\361\"=UI\233\275Ku\276=\234\233\330\275\013\206\266\275m\\\301\274\234Q\315<f~\250=\206\354$>\036\310\032\274\207\007U=\271D)>R\210\'\276\260u\353\275\222\263\324\275@o\026>\016D\231\275vs\302\275\317\335z\275\255\177\374\275\214\252#>\233\224\265;W\023\257\275\222%\246\273(\330\344\275\311X\r\275\3669\335\273\205\357*\276\235\021J\275HS\230=\245\020\201\275!\264;\273\201\243\301\275\267\273\221=\277\\\006>\204\0210\276\347X\006\276\224\223\377\275\206=\371=\255v\371\275?W\023\275Y\340\347\274J\346\355\273\225je\274\324A\036=\004$5>7=\005\276H\2542\275\236M\355=Uy\030>\305W\371\275\004|\265\275ot\240=\204\013\257\274\227l\224=\031.\265\275y\001(\275\214\275&>\206\241\030\276K\221\007>\326\337\277\275v[\324\2756- \276Z7\014>[\247!=\215\370 =\276\230\260=\242\260D=\350\335\306<6\034\036>\343\3467\275\375\216\"\275uM9\276\003\241*=\010?\035>\035\022\026\276\3617\233\275G\240\261\275?q5>:\322#<\2531\222=P\242\226\274\224\376\271\275<}#>\226,\346<\310\313,>*\204\244=B\202\370\275L\272\365;\022\3136\275U\347$\276m\324\355\275\366@\217<\312\357\321\274\243\225?\275]z(>\224\021\341:L\362@\275=\226\301\275u\250\004\276\357\357\343=\346\315\223<\277\000\335\275\346\227\016>\205\313\002\276e\177\261=s\273#>\340\305\013\275\312\001i\275\352O\n\274\020B\357<\232\024\234=&\265\235=~\246\026\276S\014\021>\274\230z\2757\2250\276Ae\034>!\344\227\274\223\335\035\275a\3352>\016q+=L\001\342\273\024pW\274\037}\017=5\337\214=;S\253=2-\322\273\322\330\214\275\275\017\321\275\016\263\374=\220\006\306\275\251Z\274\274\254\211\034>2N\317\275\237 S=\215\216\347\275\034O\341=\254\033\326\275\237\'\203\275\310r)\275l\360\000\275\023\346\334\274](\205=\020\002\321\274\275kw\275\256\236\027>\346qr\275Z\007\312=\361_\003>i\271\361\275\010\246\003\276S\302\300<=?\032\275\350\263\027\276\276\346\302=\345Q\021\276\253\246\245\275\330\312-\2760o\361;;y#\276f\243?=\237)%=\334\201\315\275\316h\031>p\271\n\276\257\246\321=\311C2=\257\332\002>\031\262\365=.q\235;s\330\225<\275\273\301\275\367\363%\276C+\031\276\301\031\312\275l\204I\275]\"\275\275u[\032\276C@E\275\376)\027>\215\'H\275\321a\031;(r\034\276\275\377\321\274rT\376\275Zxc=gu\311<7,\216\275U\374\270\275\214\222\000>\366\332\027\276\335\316\217\275f\005\n\276\010k\267\275M\356\365=\207fc\2759`)>m\273\241=\374Z+\275\244\317\231=\342*6>}\272\333\275L+\357=\245\304\362=F\302&=\032 \002\274\010\221\\\275\271\252\023\276\243\177\237\275T\342\022>\230\032\010>\374#\201=.\330\000=\033\t\001\276\357\355Q\275\005 \024>\014G\000\276T\252\036=hF\021\276\266O\201=\273=\322=-L\017>|\320\271\272\261\301\264\275_\016\221\275\264\023/>\207\277\024=\032\006\211\275\020\323\000974\013>\275\353\177\275\225\0053\276d\032\237=t\265\036>r\242\033>\344>(>\271_\013>\372\335\373<2\221\266\275{x?=!\335W<\031\244\272<\375z\244=E\355\351=b\316\032\276\'O\n\2767\240\327;\200\214\374<\255\230N=Nc\024\275$\031><\314q\035>\205w\004\276Q\276*<\3619\021>\352\"@<\340y\266\275Po\301<\331\335\007>\256\243\020>\356WJ;y\276\226=\320\367O\275\357X\005\276\365\255\031>\2538\363\274\263\300$>P\314\224\274iB\354<S\336\325\275\261\253\353\275\236\177\022<\022a\324\275\000[)\276\307\177{=\252\232\t\276\001\357!\276N\340\210\275\'\221\301\275Y\271\316=m\246\024\2765\201#\275\352a\020>@\362:=\334\366\245=\315\261U=\200K\024\276\2437\021\276\002-\005\275@K\210\274\373\350\362\274\246\247Z\2754\326#\276\306#*>\266\235\266=\314\007*\276)\237\t=V\217\207=?\235,\276\232\314\330\275\037M\r=\213-|\273_\370\360=\261\2524>q\360\271\275\311\210o\275\'\363\036\276\263}\351\275\02238>\211\036\322\275d\374\025>\226\347\277\275\246\313+=\035=\036>\037\303\\=Ge\n\275(\373r\275{\361 =v\253`\275VK:\2748\"\023\276\305\321\316\274\270\357\033=\3108\342\273Q~\177<\361<\034\2762T&\276]\\\005\276\203\366\245=\371\251\355<\004\336L=0\345j\274%\352\315\275\017?\035>\232\222t\275\370\010\365\275X\352\260<$\241\004>x\005\264<x\264)>\014f\037\276\221\r:\276\2775\\=5\242};\232XC<\026b\331\275e6\231\275\316p#>ST\361=!7\223\275\247^\351=`8K<4;->\316\234\377=\326\300\027<r\305!\275\304r\001\276\257L\214=\342S\241=,\251B=P\207\276\274mU\030>^\3379\274\3629$\276\245\001\304=I\276/>\232\306\337\275*E\314\275\375\240\263=\213q\356<\010d+\276DG\031>\3107\021\276\332Lc=D\377m=\010\263,>\367\241\222\275\225\210\252=\1778\005>\"7v\275AR+=-\000!>\313i5\276\3275\262\275v\016\207=tC\374\275\341n\016>\301\261\014>2U\004>)\374\376=\n;\260\275\372M}\273\036*/<\264ut\275\312\304\"\276\241\336\213\275i]\001\276\253\006!\276lo\217\274\344\216\314=$G\315<\007 \357\274\233x\003>\022\237\230<`\014\345\274\310:\306:\027\250u=\371\353\307\275C{\351\275\260\315&>\334\314\361<\026\2371\275^\021\031\276<\350\023\276\013.\360<l\002\020\276\333)^<\004\\\346=\203\235$\276-\272&>\255\000E\274\357\267\t\276\342\377\005\276A\341%>\315\200\316\274\034\030\000=:\177\021>\213p\323=\206C\244\275\342\001\036>\301\213\034\276\360\204F\274\240l\021>3\242\341=\242a+>\332z,;\234\242\353<\323\233J\275\3337\250\274xx\377\275T\314\360\274\325\004\325\275\r\020\334\273\233\320E\273\020(\304=1\226\215=\334\'\250\274O^\340=\231\222\226\275\206\225\010\276\245\276\343=j\315s\274\013\262\244\275\255\254\020>k\247\325\274\356|.=(\246\316\275g\201\325=Tm\362\275\000+\023\276\215 /=D\360\314<\370\372%>;\325\022\276\223(\t>k?\">/\002!\276T\264->\217\376\277\275\343\364\270=\270\314\310<\301>\245\275\360\211\024>\243\361\006\275\321\220\220\275\250=m=\354L\300\273\313\331\035>Ts\350=\327\007\313=-1\364=7\001\242\275\010\365\247=\211\005\265<\024y\375\275\345\017\024>\374N\036\273\371\370\000<\035y\202=%\2723<P_\201\275\216q\212<>sv\275\345\036<\275?\236\037\276\275}C<j\203#\276\344Ue\274\002\311,>\244e\267<\372\362\262=t\216\346\275\345\355\032\275\200pS=\021-\357\275{\364#\276\026\005\020\276\277j\024\276-\322\016\276\322\002 \276`t \275\215\320?=\216\027\022>\354\\<\275D\177\005\276\337\263\334\274\315\332\205=;\216>=\305\234\307\275\2771\005>\312\267\022\275+\361\316\275y\036*>\2542\326=I\372\000>\027R\017>J\330\000\276\263*\340=l\3523\275\222\212\031=S\245\233\275dF/\276B\310\305=E\nZ\275\026\301\235\275\272u\022\276\237j\232=\226c\306\274N\235\014>\226\203\032=.\254S=mJ\337=\314N\237\275n\202\030>\257TZ\275\2314m\275\215&.\276j\003\035\276\342\217\021>\014\260,=d|,\272)g\316=\311n\260<\265Y \276j$\024\276\347\270\242<>j\275=\033\244\204=@{\221\275\022\212w\275\020\250\007\276\321,2=v\250\t\276\356E->\314N\216=\302p\t\276^\251\217\274\231|\030\276\242u\374\275\214\300\256:b\007W=\024\261\274:\256\334\335\275\312\020\010>s;\262=~\327\357=\007S\315=\303\313\222\275\364\320i;(25>\201\321/>W_{\273\213r\364=6\345\346=\021\327#\2768\230\340<\366@\327\274\353\036\240=K\363!=z9(\275\362L@\275\243\342\205\274o\254\342=\333\332\025>\030\017\343=\014\206\215=Hc\000<\376\200\225=\2213\">\346\261\374=x\026\351<\310r\360<O\225\001\275\007\212\315=z\273\017\275\360}\341=\025\204\223\275wU\025>G\025\266\275X\332\353\275\240h\242=\313\212\324\275\020\031\321<\000\302\236=\277S\231<\340\3743>\220\225o\274}\335}\275\301V\272\275d\231\276<\024Y#\275\326A\r\276\272\333\025<\301\213\t\275yU\220=\230\037-\276\376\370\301\275\023Zu=y\275\245\275p\371.\276\314\020.>\374\304\030\276\261\317\003\276\330d/<\374\020\361\275\257-\022\276\245\367\007>\303,\000>\304\247\007\275L\\->\020\0056>k\251e\275\367\023\027>\364\207\237\275\333\231R=\027w~\275\016$\324\275b\000\002\276\322\320\204\275\030\302\237=\236J\244=Y\241\005\276\3319\010\2768G\210\275\\c\237<#\310\301\275J\307^=\033\261\026=\371\330)\276\354\000\217\274\302c\007>\373:2=\230t\203=\205\332\037>\033X&\276\360\351\035\276\006i->\017q\006>\374\027\246\275\242!\247=\224\341)=\013\252\020\276\313\370\007\276\246\214\244\272\364\344\265=\364\013V:\251\334\211\275@\230-\276]^\007=V\371\210\275\356\227\035\276\266\360)>\322\016\212=\245\262\377=\2070\">\n&\240\275\366\303\246=Bs\247\275\353\270\201=\227\347\036>x\222?\275\237\300\035=\320\371\206\274\3770\354\2751K\332\275\256Y\376\275\252U\307\274\342\362\371\275\233\310\322=\t\357\247<\t5&=2\330K\275d/\037>g\306\227\275\324D\324=9\307\364=\365+\036>\262\222\227\2759\345#\276\335\221\002>\rC\300</\332\322\275\177w\224<4\032\r>\311\315-\274\321g\233\2758\274&>\205l,>\0075\327\275\032\2054=RY\037>\330@#\276\265\360\354\275\336\222\'\276\2109\375=\002\030\306=\030\266\241\275\241i\000>\031@\366\275\235J/>\275E\026\276\n!\252<\021v\371\275\002\027\036=Mrg\274\274\354\372\274\314\272t<\307a\363\275r\204\002\275\354\366}=\331Q\006\276\201_\226\275\212x\372\275\302\007\010=\361[\315=\200d\000=\353\377\330\274\347q\013\276D!2>\232\t\320=\256}\"\276A\255;=\025H\324\275d9\271\275\r\2313\276\307W\335\275\023\222\212=;\227\272\275\350\343\232<\307R\251\275+\303\'=G\030\265<0e\343\275\3146f\2753\027\221=9=\350=\347\305)\274\247\001\272=\214\\\212;\023&\210=f\237\340\273G\2633\276f3R=G\010\005>\333\276\013\275\267\r\363\274\343\032\">\020i\271<\375j\005\276\342U\"\276[(\366\275\'J\006\276^\017\355\275\002\355\033\276\221\266b=>d\204=\r[\347=\254\264\267\275MN\276\2757\314\216\2755\366)<r\232\214\275vF\240=*A\265<\327F\017>u\353\205=\323\203X=F\267\035=\322h\207=\262c\036\275U\275B\275\235,+=\353\332\224\275@\244f=\255\326\305=E\270\204=\000\036^8N@\262<9V\231\275\254\177-\275\023O\037\276\367\264\236==\231\336\275 \036n\274\337W\206=\367\032\225\27504\017=\224\001+\276ZE\242=\321\372\023\275\270\263\226\275\031E&>!\240V\274\274\017\014>\002>&\276\274,q=JIj=%\333\374\275$r\013\276\327\222\264\275T{\024\276v\304*=\326\302\024\276\270\2418\276\007*\366=d(\247\275\354\202\244=\276o\031\275\017d\031\276\026\330\n\275\202c/\276\356\312\260<C\304\020\276\251\005T=8\2522>\326R\r\274\232\302\362\275*\354\332\275\257\206!>\362\026\035>O\037!\276\020\335\265=\037\377(\276%\306\227\275\306\366\304\274&\371\004\276R6\256=\364\215\n\2767\344\023\276\001\213\322=\2009#\276\375\347\327\275\337\362\'>\264d\304=\3521\030\273\222\316\212=tH#=\305\202\263=\370\262&>\211\342`<}\310k\275\373x\252=\000\375\260<\377\254\350\275\0079\024>\347\355\023\276x\317\277=\342\264\n\276\360B#>\373i\315=\343\035\216<Li\263<o~\t>\206\322\270=\377\306\216=\334\274/\276\261\177q\275\272\022\027\276\006di\275w\021\000>f\232 >\204\225\365\275H\3654\276\260b#=n\311\"=\202!\305\275\321\240\216\275\025e\'\276>\362\343=\365\315\373\275\311\323!>\215;\326\2758\302\372\275yt\013=\032\004\236=\337\256\270=\304{\373=b\246\370\275\272F\331=\334\254J<|;)\276\270\332\236\275<\242\340=\002\343;\275\256\302\021\276\306\314*\276\377\357\032>I8\030\276\211=V\274\021\257M\275\234w=\275>\277\241\275f\233\014\2763Q\224\275\334\010\202\275t\333\257=\352{\220=\2068\016\276Y\324\033\276\236\213 >\360\301R=\177\224\251=ia\344\2755(\017>0c\'\276\232\331\206\273\267\207\352=!\333\366<Nd\021\276ut,\275\236\363\325\275\261\274\354\275\221\237f\273\360\024\373\273\253\241\033\275(\213\r\276\326\260\230=DV\004\276@\245\221=\027\200\003>\340@\237;FK/\276\214\354%\275\336\230\036>J\240\302\275\354e\351\273u\231\274\275M\324+;\013\004\274\275\357\376+\276 V\305=\375\274\002>\332\005\017>\260\266\204\2751\273\034\276\016\255g\275W\246\266=<\212\n\276\252\222\267\274\n\021\342<\242\217>=\373\323\265=\254\030\350\274d\275S=\236\243\037>\343\316\005\276\t]^=\227\331\236\275\216\036\212=k\377\310\275\277\273\235\275\336\334\177=~\240\330=\275\004*>\363C0\276\347\203\007\275\3345/>\3430%\276\313\013\007\276\240\247\374\275\265Y\r>\006\310\274=\001\270 >\003%\374\275\001\333)=\211\314!>\005\017e\275\244]\374\275\370\331P\274\241g\245<\310\3673=\240\322,=\301z\233=\246H\206:L[\241\275x\260/\276\307\225$>\245\354\017>\016\233\332\275\237H\370\275w\316\347\275IY\226\275C\214<=H\245\331\275\237^\302\275y,\250\275V\362\265=2u\254\275mV\270=\220\317\030\276/\002\222\275\201\207\301\275\010\224\211=\374\274\326=F\375\243=\345F\203\275u5!\275\254\r\033>\347*\361\275\237\350 \276\214\\+=\326\206\317=4/\010: \t\026>A\210\367=nI\010>\302\353\'>\213\031K\275\336.\237=v\370\302:\352\030\"\275\262\214\t\276\366\374\344=<\211\030\274\020.\\\275\266U\002>\335\032\255\275J\240\177\275y^\">\3253#>\330L\n\276\300\231T\275^\002(\275\316\306\t>\247I;\275\200t\373\273\303\207\352\274\242%\021>^\3139=t}e=\272\373\027>\222\250\350=\3428\315;c\214-\276\303r\014\276\0277%>(+\'=s\206\263\274\243\346Y\275\317\312\365<\324\276\002\276\374\326\253=\021\231\320\274\016\336\352=*\000\017\275PM\320\274\325\251\001\276\333\355\331=(\375\257\275\2102\014>\021\220\022\276^\350\235\275\310\211\205\274\251\r\346\275\017\276#\275\242\237\357\275\37682>\370\227\n\275r\2004<\305\\@\274xn\304\275\314\352\026\276\370\351\236\275Hi\355\274(>\327\274\367\334D=\203\373~;\\\350\231=1\210\347\275\004\210\375=M\265\265\275Md\225\275c\320\243\273\370\352\257=\202c\233=VY\232\274\214*J=\222\316\330=\340r\324\275\304\207\025>\335\206\'>\261\021\376=\024\231!>\333f\037<\262\237!>\253s\022\276X\341\326=A\357\265\275\367\222\375=\310!#>\254\210\005>\034\363\001\276Y\241L=|[q<\270\356E\275\311 `\275\nT\000\275jL\232=\327\330\306\275l$\275\275(\254\021>\t\007\211=\207e\343=\376\347,>\010\3328\276#\017+\276w\2771>4\177\022\275\255]\347=\251t\225\275\265\264\037\276N\343,>\021$\362=\033\265\221=? \324=\231\266?\275\332\306\336=\\h\366=\364\222\232=\035\314]\274s\262\034=\217\304\352=\006\253\247\275\256\210\301=}\322\346\274\036\304\r\2757\303\364\275\022\230*>\031\0275\275\264a\001\275!*\035>W\014\347\275\355\241\364=\373\307`\275\224N\317\275\237\257%\276\030 !\2760\206\t\276\'\323_\275&\277)\276\">\311=P+\023>@\031\233=$\010\237\273\347S3\276C\342\021\276#^\"\273h!\215\275\205<\'>_\207\217=.89>IQ1\276\370\036\301:\003\246\224\275\033\217\037>\r\246\360\275$\307\006\275X\r\275=\232\370\230\275\216\177v<\346\002\235=\371V.\276\253{\313\275-\323\033\276\0142\242=e\250\006=@\337\310=c\007\r>\224T#>\236\374\335\275\304\033\014\276\237\213\362\275\354Z\020\276\202\021e<\260\303\216<\213\r >\315\350\225\275k\002\233=\374\220/>Lc\216\274&0J=\257\0062>SL\373\275\203\3578\276\232K\010=\354$%\276\035\017\014\276\321\350\017\276m\321\037\275G\t\033\276\313\345\267;\263\260\362<\006)\t>Y0\006>\320i;\275PW\374\274\217\031\036\276\220_\365\272|\177\320=\206\t\006\275\253\233\335=\254\2659\275\336\372\006>\240\273\030>\t\005\240=\221\r[=*\210\255=yR\001\276\332K|\275\212s\274\275y\004)\275\327-\023\2767\374\020>\321?-=4\373\351\275\246+\254\275\307\314\277\274;v\310\275 \303n\275\336\351\371\275<\216\347\275v\376\017\276\302\000\007>6\241\210=[\253\272;\341[\276\275z\264\021>\326o\217=\021\235\257\273\330\350\304=\252\335\307={\375v\273\264q!> t\246\275\353\272\016\276\334|~=\217?\t<\344J\302\275Jj\013\275\252\352\270=\245\276\323=3\214D\275\302B\020\275y\360\303\275c!\236\275\341\000\221\275\236\274\022>\265f\301\274\362&\236\275T\321C={\023\217\275\351\245\026\276\226\245\'\276\227\023\356=1\266\270\273\255\2351;\201\303\307=\010D$\276\366\233\010\2762\026\327\275\023\022\021>>\006\302=%\006\223\273s\376e=.\353\010>x\335\301<\314D)>\254\007j<\t\260\374=\"\314\222\275\210\266\010>Zr&\276-\373\016>>\306\237<\364\307\322\275q\264\302;K\035\331=\266\265(\276\251\332!\276\377A\225<\254\311\337\275j\221\036\276\003\301\371=[\374\306=Nl\003\276\300\366\327\275\340f\003>\345q\013>\224\031/:\351A\333=\360l\253=\236\022\022>\233k\322\275\220\332\023=\243\212!\275G\207z\275\215\240\'\275\363\274\020>\342j\356=\230\007\317\275\372|\216\275\345\t\262=\037\017\241\2751\342+\276\212g\244\275\021\234\022>\350\203\261=\335\212D\275\363Z\004\275.\210\202<\265\367\016>\316\251\034>\2248^<\324\365\020\276W\261*>ff\301=\334\264\037\275\325\036\356\275\267\006\376=\266\233\322\275<\207\356\272l4\227\275\311\206\376=\232\217\004>\335\335\331\275F\006\003>\0143\216=\270?1\276\253\220\'\276\264%\331\275\344>p\275\250\371\244\275N\271\023=%\305\211=H<\005<6\371\024=p\354\332=M\356\241=\341\303\373\274\323\371\276=YU\242\274\204p\020\2766\361\332\274\371\303\212\275\271z\275=\036D\201\275>\304\010\276&\305%>\373\231\000>\020\372\351\275\r;\r\276e\372\352\274`\230\032>\227\225\233=\272\032\253=\312\034\036\275P\005\036>\374h\005\276\244K\257=|.\225=[\2151=\314\204\002\276\303\321\370=\023\2764<\216\177\245=\002\0061\2765MM\275Q\345\355=\034\307\034\276{\324\037>S\024\314\274(U\027\276\315\354\034>\352\003\252\274I\002\036\273W\222\324\275\033\023\032\276]:\023\276\220\007\241\275\252\350\266=_v\301\275\373T@=W\203\026>\261+\317=n9><\315=\253<:\312&\276\235R.>*Hu=\002a\206=\023\361)>i\357\202=\301\271c=\007G&=F\207\366\274\320W\030>\260\373~\275\317\036#\276f:\345=\312w/\275\377\262\373<\3319\272\274J\306\347=Oq\270<\207\320\226\2759\351\333\275-\317\001>\344\220O\274\327{\036>XL{<\372\225&=\312\201?\275DN\">7+\323\275\331ZB=V\010!=n{ \276\311g\346=\205\305\346<\241.\214\275\220\033P\275\330\221[\275\371f\003=\3310\266\275 