node {
  name: "input"
  op: "Placeholder"
  attr {
    key: "dtype"
    value {
      type: DT_FLOAT
    }
  }
}
node {
  name: "transpose/perm"
  op: "Const"
  attr {
    key: "dtype"
    value {
      type: DT_INT32
    }
  }
  attr {
    key: "value"
    value {
      tensor {
        dtype: DT_INT32
        tensor_shape {
          dim {
            size: 3
          }
        }
        tensor_content: "\001\000\000\000\000\000\000\000\002\000\000\000"
      }
    }
  }
}
node {
  name: "transpose"
  op: "Transpose"
  input: "input"
  input: "transpose/perm"
  attr {
    key: "T"
    value {
      type: DT_FLOAT
    }
  }
  attr {
    key: "Tperm"
    value {
      type: DT_INT32
    }
  }
}
node {
  name: "reshape/shape"
  op: "Const"
  attr {
    key: "dtype"
    value {
      type: DT_INT32
    }
  }
  attr {
    key: "value"
    value {
      tensor {
        dtype: DT_INT32
        tensor_shape {
          dim {
            size: 2
          }
        }
        tensor_content: "\377\377\377\377\t\000\000\000"
      }
    }
  }
}
node {
  name: "reshape"
  op: "Reshape"
  input: "transpose"
  input: "reshape/shape"
  attr {
    key: "T"
    value {
      type: DT_FLOAT
    }
  }
  attr {
    key: "Tshape"
    value {
      type: DT_INT32
    }
  }
}
node {
  name: "w_in"
  op: "Const"
  attr {
    key: "dtype"
    value {
      type: DT_FLOAT
    }
  }
  attr {
    key: "value"
    value {
      tensor {
        dtype: DT_FLOAT
        tensor_shape {
          dim {
            size: 9
          }
          dim {
            size: 32
          }
        }
        tensor_content: "\271\033\332?%b-\277&jm\277\207\034+\277j\203:\2771)\215?\246q\247>~U\037=Z\247\\?\302\231\357\276\3516J?\177\253\352\273\272h\301?\034\243\223\277\324\027e?\017At\277_M\207\276\302*`\277\274\207\373\276\314C\230>52r\277\244w\246>\'g\200?\265\375\234\277\367#8\276\r\010\257\277t\257\365\273\000\303-\272k\352\244?A\027\\?\246\205Z\275\371\346\330\277\242lN\277\274n\213=\033e\n@\223\327\242\277\005>D\276\231\005\333;\005\025m?{AH?u\014\350\276\2476_\276\002\242\006?\364r\027\277\237\256\203\277f\243*?\273\2105?\375Ao?\370\202S\275\343\004\"\277\356\230f>0\2337=\3407\372\274\373s\260\277\035\254\307>x\331\037?\014\343\330\273\260\363\020\277?\221\224\276\250)N\274\363\300\244\276\005\311E?\211\265d>*\346\232\276\321\004\265\277\264\003H?\377@r\277U\232\361>\353\035 \277\343\350\376=!Z%\276[\207t?xd%?\'*\377\276\363B\214\276\305Si\277\014#c>\337\276V\277\264Y\201?G\275\264\276y*\320\277\206\344&\276\307q\237?\025\234I?\r\250\005>A\312\204?\243\303f?\321%;\277\203nc\276,\245\227\276\305\337\243\273\374p\237\277\265\303\013?\314\230\355=\035n\314<\211\321\017?T\223\350\277~\364:?\301\016\022?\355)S\277\211\204d\277\312c\'\276h\275\\\277\311\314\270\276T,\201>w%\270>C\004\004>6\241z\276\234\216V\277\377{\361>/\371\252?\013\007O\277\363\363\213?W\351\002?W\204!\277\234V\202?\274=\272\276\251W\337\276\034B3\277WlS\276\021\371A?8\271$\276\356\322\350\274\320\0070\275\306\2641=\370\364\351\2769\300\302\273s\270\247=\2468\344>C\273#\277\205\002A\277\337\350/?\376\r\006\277:\024X\277\375\2611?g\022\231\277\267\301\006>S\250\n@\310\252\003?\247^&\275|+\205?\336J\000@\201;\263\277\344N\030?A\244P>a\346*=\234)}\275\275\030\256?8\n\362\276\271<j\277\301d\020\277F:>?(\355Q\277\360{\227\276$&\353>\336\355\2179\025 2\276\300\220\021@\177\276=\275\237[\r\277\002\010\245=v\224\216?IG\030\275f\374\265\277\273l\210\276\362\376\214\275fp\373>\001\352\262?\226\240\254?\373\\\322=\031\006\032?S\331@?\270\032\r?J\346\211\277\300v\263\276~-\372\276A\265\232\276\351\025\266?\214\310\"\277Ne\275\276,\312\202\277.\274\322>B<\227\277\355\245m\277\006\320*\276\3443\003?E\330\202<\036*\215:U\021\227>\315\201B\276\201h\203?\355k,?%\317\277\276{\215\017?\tgS\277\264E\362>\230\024\230?\227\373d\277[P\233\277M\254E\276%\271\363?s\323\254>\362\034|>b\216\375\275C\213\016?U\037Z\276\353\376\r\277TAy\275\277\334\327?\305F\032\274RK\347>\225\027\274\277\347\333\277\2762\337\244\277\207w\202\275\327\252\010\277\002\t\202>\022\227>\2776\325\271\276\r\376\246\277\305\340\211\277\035\312\201\277\3106\337\276|x\366=\330\235\224\276I\312:\277\005\326\023?9\373T\277\273*\031?.\216\327?\010\004p\276Dp\341\276\002\272\227?\353\n\252?\025\360R\277\'n\014\277\022\275\324?q\021&\277\361\235\032?\326\325\007\277\221&\203?\370\202.\27733\343\277\304\030\222>\316tz\277\311\365\006@\237\256a\277PB\206\277FP\262\275\037\360\243?\305\026\237=\265W\244>\200\261\344>\252z-@\266\334O=\307\255\315\2774\330$?\203\347\027?M\004\030?\323\310v\275\2354\204?\325\261\221?\021c\220\276\3704\001>\217\377\205?\273\261\006?\303\316\324\277\022\206\222>\3560\001@\355\357\267>K\257j\276$\233\034=\345\251\014=K\2062\277\037\207\250?KZ\304?\262Jd\275\331\305B?\330\241\305>\253,\336>\355\326\'>.&\201\277EL\\?e}[?\306\005\243?\236$\030?\260\342T8\333^\240>"
      }
    }
  }
}
node {
  name: "b_in"
  op: "Const"
  attr {
    key: "dtype"
    value {
      type: DT_FLOAT
    }
  }
  attr {
    key: "value"
    value {
      tensor {
        dtype: DT_FLOAT
        tensor_shape {
          dim {
            size: 32
          }
        }
        tensor_content: "\364\\\242>Pp3?\005J\271?\374\003\221?Sh\000?\374\031y\277\006\002\234>V\036\024>\003\204\305\275\241\\T?\275\000\r?LG\202?\332\036(?\020!\277?\203RY>\371Z\357?a\3302?5\225\003@\241\233N?0\240\016@\275\257n\276\225p\335?\\HT?8Js?\r\177\201?\032}\202?\242o\335\276\363\234\004?\215\266\222\2751\220U?\247\361\226\276\276\345!@"
      }
    }
  }
}
node {
  name: "MatMul"
  op: "MatMul"
  input: "reshape"
  input: "w_in"
  attr {
    key: "T"
    value {
      type: DT_FLOAT
    }
  }
  attr {
    key: "transpose_a"
    value {
      b: false
    }
  }
  attr {
    key: "transpose_b"
    value {
      b: false
    }
  }
}
node {
  name: "add"
  op: "Add"
  input: "MatMul"
  input: "b_in"
  attr {
    key: "T"
    value {
      type: DT_FLOAT
    }
  }
}
node {
  name: "relu"
  op: "Relu"
  input: "add"
  attr {
    key: "T"
    value {
      type: DT_FLOAT
    }
  }
}
node {
  name: "split/split_dim"
  op: "Const"
  attr {
    key: "dtype"
    value {
      type: DT_INT32
    }
  }
  attr {
    key: "value"
    value {
      tensor {
        dtype: DT_INT32
        tensor_shape {
        }
        int_val: 0
      }
    }
  }
}
node {
  name: "split"
  op: "Split"
  input: "split/split_dim"
  input: "relu"
  attr {
    key: "T"
    value {
      type: DT_FLOAT
    }
  }
  attr {
    key: "num_split"
    value {
      i: 128
    }
  }
}
node {
  name: "bidirectional_rnn/fw/fw/Shape"
  op: "Shape"
  input: "split"
  attr {
    key: "T"
    value {
      type: DT_FLOAT
    }
  }
  attr {
    key: "out_type"
    value {
      type: DT_INT32
    }
  }
}
node {
  name: "bidirectional_rnn/fw/fw/strided_slice/stack"
  op: "Const"
  attr {
    key: "dtype"
    value {
      type: DT_INT32
    }
  }
  attr {
    key: "value"
    value {
      tensor {
        dtype: DT_INT32
        tensor_shape {
          dim {
            size: 1
          }
        }
        int_val: 0
      }
    }
  }
}
node {
  name: "bidirectional_rnn/fw/fw/strided_slice/stack_1"
  op: "Const"
  attr {
    key: "dtype"
    value {
      type: DT_INT32
    }
  }
  attr {
    key: "value"
    value {
      tensor {
        dtype: DT_INT32
        tensor_shape {
          dim {
            size: 1
          }
        }
        int_val: 1
      }
    }
  }
}
node {
  name: "bidirectional_rnn/fw/fw/strided_slice/stack_2"
  op: "Const"
  attr {
    key: "dtype"
    value {
      type: DT_INT32
    }
  }
  attr {
    key: "value"
    value {
      tensor {
        dtype: DT_INT32
        tensor_shape {
          dim {
            size: 1
          }
        }
        int_val: 1
      }
    }
  }
}
node {
  name: "bidirectional_rnn/fw/fw/strided_slice"
  op: "StridedSlice"
  input: "bidirectional_rnn/fw/fw/Shape"
  input: "bidirectional_rnn/fw/fw/strided_slice/stack"
  input: "bidirectional_rnn/fw/fw/strided_slice/stack_1"
  input: "bidirectional_rnn/fw/fw/strided_slice/stack_2"
  attr {
    key: "Index"
    value {
      type: DT_INT32
    }
  }
  attr {
    key: "T"
    value {
      type: DT_INT32
    }
  }
  attr {
    key: "begin_mask"
    value {
      i: 0
    }
  }
  attr {
    key: "ellipsis_mask"
    value {
      i: 0
    }
  }
  attr {
    key: "end_mask"
    value {
      i: 0
    }
  }
  attr {
    key: "new_axis_mask"
    value {
      i: 0
    }
  }
  attr {
    key: "shrink_axis_mask"
    value {
      i: 1
    }
  }
}
node {
  name: "bidirectional_rnn/fw/fw/MultiRNNCellZeroState/BasicLSTMCellZeroState/ExpandDims/dim"
  op: "Const"
  attr {
    key: "dtype"
    value {
      type: DT_INT32
    }
  }
  attr {
    key: "value"
    value {
      tensor {
        dtype: DT_INT32
        tensor_shape {
        }
        int_val: 0
      }
    }
  }
}
node {
  name: "bidirectional_rnn/fw/fw/MultiRNNCellZeroState/BasicLSTMCellZeroState/ExpandDims"
  op: "ExpandDims"
  input: "bidirectional_rnn/fw/fw/strided_slice"
  input: "bidirectional_rnn/fw/fw/MultiRNNCellZeroState/BasicLSTMCellZeroState/ExpandDims/dim"
  attr {
    key: "T"
    value {
      type: DT_INT32
    }
  }
  attr {
    key: "Tdim"
    value {
      type: DT_INT32
    }
  }
}
node {
  name: "bidirectional_rnn/fw/fw/MultiRNNCellZeroState/BasicLSTMCellZeroState/Const"
  op: "Const"
  attr {
    key: "dtype"
    value {
      type: DT_INT32
    }
  }
  attr {
    key: "value"
    value {
      tensor {
        dtype: DT_INT32
        tensor_shape {
          dim {
            size: 1
          }
        }
        int_val: 32
      }
    }
  }
}
node {
  name: "bidirectional_rnn/fw/fw/MultiRNNCellZeroState/BasicLSTMCellZeroState/concat/axis"
  op: "Const"
  attr {
    key: "dtype"
    value {
      type: DT_INT32
    }
  }
  attr {
    key: "value"
    value {
      tensor {
        dtype: DT_INT32
        tensor_shape {
        }
        int_val: 0
      }
    }
  }
}
node {
  name: "bidirectional_rnn/fw/fw/MultiRNNCellZeroState/BasicLSTMCellZeroState/concat"
  op: "ConcatV2"
  input: "bidirectional_rnn/fw/fw/MultiRNNCellZeroState/BasicLSTMCellZeroState/ExpandDims"
  input: "bidirectional_rnn/fw/fw/MultiRNNCellZeroState/BasicLSTMCellZeroState/Const"
  input: "bidirectional_rnn/fw/fw/MultiRNNCellZeroState/BasicLSTMCellZeroState/concat/axis"
  attr {
    key: "N"
    value {
      i: 2
    }
  }
  attr {
    key: "T"
    value {
      type: DT_INT32
    }
  }
  attr {
    key: "Tidx"
    value {
      type: DT_INT32
    }
  }
}
node {
  name: "bidirectional_rnn/fw/fw/MultiRNNCellZeroState/BasicLSTMCellZeroState/zeros/Const"
  op: "Const"
  attr {
    key: "dtype"
    value {
      type: DT_FLOAT
    }
  }
  attr {
    key: "value"
    value {
      tensor {
        dtype: DT_FLOAT
        tensor_shape {
        }
        float_val: 0.0
      }
    }
  }
}
node {
  name: "bidirectional_rnn/fw/fw/MultiRNNCellZeroState/BasicLSTMCellZeroState/zeros"
  op: "Fill"
  input: "bidirectional_rnn/fw/fw/MultiRNNCellZeroState/BasicLSTMCellZeroState/concat"
  input: "bidirectional_rnn/fw/fw/MultiRNNCellZeroState/BasicLSTMCellZeroState/zeros/Const"
  attr {
    key: "T"
    value {
      type: DT_FLOAT
    }
  }
  attr {
    key: "index_type"
    value {
      type: DT_INT32
    }
  }
}
node {
  name: "bidirectional_rnn/fw/fw/MultiRNNCellZeroState/BasicLSTMCellZeroState/ExpandDims_2/dim"
  op: "Const"
  attr {
    key: "dtype"
    value {
      type: DT_INT32
    }
  }
  attr {
    key: "value"
    value {
      tensor {
        dtype: DT_INT32
        tensor_shape {
        }
        int_val: 0
      }
    }
  }
}
node {
  name: "bidirectional_rnn/fw/fw/MultiRNNCellZeroState/BasicLSTMCellZeroState/ExpandDims_2"
  op: "ExpandDims"
  input: "bidirectional_rnn/fw/fw/strided_slice"
  input: "bidirectional_rnn/fw/fw/MultiRNNCellZeroState/BasicLSTMCellZeroState/ExpandDims_2/dim"
  attr {
    key: "T"
    value {
      type: DT_INT32
    }
  }
  attr {
    key: "Tdim"
    value {
      type: DT_INT32
    }
  }
}
node {
  name: "bidirectional_rnn/fw/fw/MultiRNNCellZeroState/BasicLSTMCellZeroState/Const_2"
  op: "Const"
  attr {
    key: "dtype"
    value {
      type: DT_INT32
    }
  }
  attr {
    key: "value"
    value {
      tensor {
        dtype: DT_INT32
        tensor_shape {
          dim {
            size: 1
          }
        }
        int_val: 32
      }
    }
  }
}
node {
  name: "bidirectional_rnn/fw/fw/MultiRNNCellZeroState/BasicLSTMCellZeroState/concat_1/axis"
  op: "Const"
  attr {
    key: "dtype"
    value {
      type: DT_INT32
    }
  }
  attr {
    key: "value"
    value {
      tensor {
        dtype: DT_INT32
        tensor_shape {
        }
        int_val: 0
      }
    }
  }
}
node {
  name: "bidirectional_rnn/fw/fw/MultiRNNCellZeroState/BasicLSTMCellZeroState/concat_1"
  op: "ConcatV2"
  input: "bidirectional_rnn/fw/fw/MultiRNNCellZeroState/BasicLSTMCellZeroState/ExpandDims_2"
  input: "bidirectional_rnn/fw/fw/MultiRNNCellZeroState/BasicLSTMCellZeroState/Const_2"
  input: "bidirectional_rnn/fw/fw/MultiRNNCellZeroState/BasicLSTMCellZeroState/concat_1/axis"
  attr {
    key: "N"
    value {
      i: 2
    }
  }
  attr {
    key: "T"
    value {
      type: DT_INT32
    }
  }
  attr {
    key: "Tidx"
    value {
      type: DT_INT32
    }
  }
}
node {
  name: "bidirectional_rnn/fw/fw/MultiRNNCellZeroState/BasicLSTMCellZeroState/zeros_1/Const"
  op: "Const"
  attr {
    key: "dtype"
    value {
      type: DT_FLOAT
    }
  }
  attr {
    key: "value"
    value {
      tensor {
        dtype: DT_FLOAT
        tensor_shape {
        }
        float_val: 0.0
      }
    }
  }
}
node {
  name: "bidirectional_rnn/fw/fw/MultiRNNCellZeroState/BasicLSTMCellZeroState/zeros_1"
  op: "Fill"
  input: "bidirectional_rnn/fw/fw/MultiRNNCellZeroState/BasicLSTMCellZeroState/concat_1"
  input: "bidirectional_rnn/fw/fw/MultiRNNCellZeroState/BasicLSTMCellZeroState/zeros_1/Const"
  attr {
    key: "T"
    value {
      type: DT_FLOAT
    }
  }
  attr {
    key: "index_type"
    value {
      type: DT_INT32
    }
  }
}
node {
  name: "bidirectional_rnn/fw/fw/MultiRNNCellZeroState/BasicLSTMCellZeroState_1/ExpandDims/dim"
  op: "Const"
  attr {
    key: "dtype"
    value {
      type: DT_INT32
    }
  }
  attr {
    key: "value"
    value {
      tensor {
        dtype: DT_INT32
        tensor_shape {
        }
        int_val: 0
      }
    }
  }
}
node {
  name: "bidirectional_rnn/fw/fw/MultiRNNCellZeroState/BasicLSTMCellZeroState_1/ExpandDims"
  op: "ExpandDims"
  input: "bidirectional_rnn/fw/fw/strided_slice"
  input: "bidirectional_rnn/fw/fw/MultiRNNCellZeroState/BasicLSTMCellZeroState_1/ExpandDims/dim"
  attr {
    key: "T"
    value {
      type: DT_INT32
    }
  }
  attr {
    key: "Tdim"
    value {
      type: DT_INT32
    }
  }
}
node {
  name: "bidirectional_rnn/fw/fw/MultiRNNCellZeroState/BasicLSTMCellZeroState_1/Const"
  op: "Const"
  attr {
    key: "dtype"
    value {
      type: DT_INT32
    }
  }
  attr {
    key: "value"
    value {
      tensor {
        dtype: DT_INT32
        tensor_shape {
          dim {
            size: 1
          }
        }
        int_val: 32
      }
    }
  }
}
node {
  name: "bidirectional_rnn/fw/fw/MultiRNNCellZeroState/BasicLSTMCellZeroState_1/concat/axis"
  op: "Const"
  attr {
    key: "dtype"
    value {
      type: DT_INT32
    }
  }
  attr {
    key: "value"
    value {
      tensor {
        dtype: DT_INT32
        tensor_shape {
        }
        int_val: 0
      }
    }
  }
}
node {
  name: "bidirectional_rnn/fw/fw/MultiRNNCellZeroState/BasicLSTMCellZeroState_1/concat"
  op: "ConcatV2"
  input: "bidirectional_rnn/fw/fw/MultiRNNCellZeroState/BasicLSTMCellZeroState_1/ExpandDims"
  input: "bidirectional_rnn/fw/fw/MultiRNNCellZeroState/BasicLSTMCellZeroState_1/Const"
  input: "bidirectional_rnn/fw/fw/MultiRNNCellZeroState/BasicLSTMCellZeroState_1/concat/axis"
  attr {
    key: "N"
    value {
      i: 2
    }
  }
  attr {
    key: "T"
    value {
      type: DT_INT32
    }
  }
  attr {
    key: "Tidx"
    value {
      type: DT_INT32
    }
  }
}
node {
  name: "bidirectional_rnn/fw/fw/MultiRNNCellZeroState/BasicLSTMCellZeroState_1/zeros/Const"
  op: "Const"
  attr {
    key: "dtype"
    value {
      type: DT_FLOAT
    }
  }
  attr {
    key: "value"
    value {
      tensor {
        dtype: DT_FLOAT
        tensor_shape {
        }
        float_val: 0.0
      }
    }
  }
}
node {
  name: "bidirectional_rnn/fw/fw/MultiRNNCellZeroState/BasicLSTMCellZeroState_1/zeros"
  op: "Fill"
  input: "bidirectional_rnn/fw/fw/MultiRNNCellZeroState/BasicLSTMCellZeroState_1/concat"
  input: "bidirectional_rnn/fw/fw/MultiRNNCellZeroState/BasicLSTMCellZeroState_1/zeros/Const"
  attr {
    key: "T"
    value {
      type: DT_FLOAT
    }
  }
  attr {
    key: "index_type"
    value {
      type: DT_INT32
    }
  }
}
node {
  name: "bidirectional_rnn/fw/fw/MultiRNNCellZeroState/BasicLSTMCellZeroState_1/ExpandDims_2/dim"
  op: "Const"
  attr {
    key: "dtype"
    value {
      type: DT_INT32
    }
  }
  attr {
    key: "value"
    value {
      tensor {
        dtype: DT_INT32
        tensor_shape {
        }
        int_val: 0
      }
    }
  }
}
node {
  name: "bidirectional_rnn/fw/fw/MultiRNNCellZeroState/BasicLSTMCellZeroState_1/ExpandDims_2"
  op: "ExpandDims"
  input: "bidirectional_rnn/fw/fw/strided_slice"
  input: "bidirectional_rnn/fw/fw/MultiRNNCellZeroState/BasicLSTMCellZeroState_1/ExpandDims_2/dim"
  attr {
    key: "T"
    value {
      type: DT_INT32
    }
  }
  attr {
    key: "Tdim"
    value {
      type: DT_INT32
    }
  }
}
node {
  name: "bidirectional_rnn/fw/fw/MultiRNNCellZeroState/BasicLSTMCellZeroState_1/Const_2"
  op: "Const"
  attr {
    key: "dtype"
    value {
      type: DT_INT32
    }
  }
  attr {
    key: "value"
    value {
      tensor {
        dtype: DT_INT32
        tensor_shape {
          dim {
            size: 1
          }
        }
        int_val: 32
      }
    }
  }
}
node {
  name: "bidirectional_rnn/fw/fw/MultiRNNCellZeroState/BasicLSTMCellZeroState_1/concat_1/axis"
  op: "Const"
  attr {
    key: "dtype"
    value {
      type: DT_INT32
    }
  }
  attr {
    key: "value"
    value {
      tensor {
        dtype: DT_INT32
        tensor_shape {
        }
        int_val: 0
      }
    }
  }
}
node {
  name: "bidirectional_rnn/fw/fw/MultiRNNCellZeroState/BasicLSTMCellZeroState_1/concat_1"
  op: "ConcatV2"
  input: "bidirectional_rnn/fw/fw/MultiRNNCellZeroState/BasicLSTMCellZeroState_1/ExpandDims_2"
  input: "bidirectional_rnn/fw/fw/MultiRNNCellZeroState/BasicLSTMCellZeroState_1/Const_2"
  input: "bidirectional_rnn/fw/fw/MultiRNNCellZeroState/BasicLSTMCellZeroState_1/concat_1/axis"
  attr {
    key: "N"
    value {
      i: 2
    }
  }
  attr {
    key: "T"
    value {
      type: DT_INT32
    }
  }
  attr {
    key: "Tidx"
    value {
      type: DT_INT32
    }
  }
}
node {
  name: "bidirectional_rnn/fw/fw/MultiRNNCellZeroState/BasicLSTMCellZeroState_1/zeros_1/Const"
  op: "Const"
  attr {
    key: "dtype"
    value {
      type: DT_FLOAT
    }
  }
  attr {
    key: "value"
    value {
      tensor {
        dtype: DT_FLOAT
        tensor_shape {
        }
        float_val: 0.0
      }
    }
  }
}
node {
  name: "bidirectional_rnn/fw/fw/MultiRNNCellZeroState/BasicLSTMCellZeroState_1/zeros_1"
  op: "Fill"
  input: "bidirectional_rnn/fw/fw/MultiRNNCellZeroState/BasicLSTMCellZeroState_1/concat_1"
  input: "bidirectional_rnn/fw/fw/MultiRNNCellZeroState/BasicLSTMCellZeroState_1/zeros_1/Const"
  attr {
    key: "T"
    value {
      type: DT_FLOAT
    }
  }
  attr {
    key: "index_type"
    value {
      type: DT_INT32
    }
  }
}
node {
  name: "bidirectional_rnn/fw/multi_rnn_cell/cell_0/basic_lstm_cell/kernel"
  op: "Const"
  attr {
    key: "dtype"
    value {
      type: DT_FLOAT
    }
  }
  attr {
    key: "value"
    value {
      tensor {
        dtype: DT_FLOAT
        tensor_shape {
          dim {
            size: 64
          }
          dim {
            size: 128
          }
        }
        tensor_content: "}\271\t;[\274+\275m.I>l\301L\275\205\253\266\275.V>=\275Rw<7I\026<\352PF\274\353T\310\275{\336a>:OO<\224\245\214\2744\013\203\275\0376\235;\252\367h=\257\313\027\276\220\240\242=\327/?=\016\021\002\276\342\266\001;\024\\v\273\303\363\025\276m\313[<\014\2555\273m\374\307\274\305\314f\275\227\273w=\3658\347\275eu*\2760D\371=\341\351\247=\211\240\224=\031m\277\275\274\354\203\276\234\3543\274,\rb\276k\277\363=\225\271\016\275\356-\025\276\025q\017\274LGX\276[N<=\323\021h\275\2434?\275\244\250\200>S\026c>0\334\327<\334\312\226\275\2473\022\276\020\003\3248\3722\n=\300\306\016>\t\"}\276\333\257y:w\275\352<\023<\243<>S\301=\324\312\361\275\246\315\342\275\177\210z\275PX\035\2761-\236\276\270\014x=\213\236\340\275\302\177\323<\000\033\t\276\016\266\365=\327<\241\273\177A\274\274!\223\375\274\317`\004=#\236\257\274DB\007\276\320N\246\274\216\202\016\276\374\361\347\275\177k\270=\267[\356=\370\036\311\275Kw\250<\377_f\273\n\370\000\275q\256\032<\264\234\355\275l\367\305=\347\342\322\275\326\031\325\275\221Y\027\274;G+>\206\365\006\275\220\217t\275\"\306\033\275\323\372\314\275\034.I\276\336\371\226=R\275\035>\362\252\035\274 \315\323\275\334Y\210=P\210\037\276\347\272\321=\3378d>\346{\204\275_\322\030\276\307/9\276[V\001>\017\024\035=]\374\034\276\245\2051\273|\245}=\013\210p\275\254Z;\276\372\"\325=D\327\231;@|\276\275\263\251C=\336F^\276\366T\212\275\003\241{\275\317\271n\276S<\205\274:!\323\275\t6\366\275\342\0255\276\271}\r\276\210\373p\276<\001\221=\021j\371\275\311\035\336\275\251\027R\276J`\311\275\2060\345\273\265\334I\275\310N\337=\237\376J=\226\363\317<\001\317\024\276\002[!\276\3437@\275\243Dr\275(_\026>\036\"\223\275\022\307\020>\323\300\205=sW\035\276\272q\256=\263\020\001\276e\005\024>[\226w=\252\261\335=\214}\333\272\236\n\344<\303\325\206\274?\005\351<\3319\030\276E\374\032>WQA\276\262>u=\244S\363=\331]7<\253h\002>C!\277\2750N\t>UO\"\276\271[\017>\202\n\252=\0226\007>L(\200\275\025\210\336=9k@=*\233\222\275\264\264\010<\031\232\323\275\354\321\027\276\026p\303=\255=\252<\001nC>\221\306\333\275\302\247\207\274\347\005\334=\212\231\225=Y\356\021\276\'\214}=\004\017\276\275\203\034w\275-\304\025>\202\357#\276\231 =\276\314<\377\275yBB\276L\261\263\275\030\324\300\275j\0027\276\230\305\036\273\304\267n\275o\203\312\275b\267\356\275\241\215\310\274\030\031\363\274\300\355\276\275dH7>,\264\273=}\3006\275\267\270W=B7\370=\214\255\336=\323\367P=\030\315\t>g-\023\276\264\233i=d\304\241<u9\362\275\212\006\253\275\321\032#\276\242\210\260\275\237\024\272\274\365\0108\274\306x\231=jR\374=\333$\341=\277\t\307=\225z\273\274!\224\323\275\"=(>}l1\276\356\t\004\276\\S\030\276E/\037\276\001\3166\275\301\257\003\276\r\031T\276[))\276\316\273@=\324\333%\275\311>\251=\027\006\350\275\000\224a\275\2455\025>\000q\000\276{\337!>\001tb\275O\321\003\276\275M\355\275\355\300\257\275\246E\013\276\347\337\'\276\271\213\255\275P\274\216=+\341\307\275\036\t\333\275e,)\276\250=y:w\343F\276\225\n*\275\347S\340=W\233\223=\271$+\275\360q\221\275>\016\266\273\377\367\335\275&\377\016\276u\274\366<\337\361:\276k-\231=\321Y\362=\363\210\233\2744\213\213=\356\367\237\273\032\0209=%#\306=\224k\311\275+d\361\275\'<\010>\337\"\275<{>D>ho\206=T\004\231=y\006\302\275Z\236\366=\320\300)=\363\312y=\256\265]\275S\270\303=\021\360I=W\211\311\275,\277\024\276\375\300\304=X\217 >\002AC=I\344\252\275\2523\256\275yV\r\276\000\303\024=\347\207\230\274xp\036\274;\262\023>+\234\300=\3327\016\275K\220\004>?&W\276t\224\037>;G\246<{5\334=\316t+>>r\026\275f\210\211=VuR>\271\316\377\275\n\273\277=>\023\027\275\3164.\276q1\376\275{M%>\220\255\003=Cm\240=\242\315\206=F\332\310;\374\320+\275\252\317\315=\270)\344\273K\254\313<x\310\227<f\241\311\274!\035\005>,\341\262\274;\324\306\275\233w&\276\302\352\016\275g\352\316=\371\332\254\275\232%\312\274\263\274\306<6I\224\275\322\243\033\276t\232\234=.\016\354=#\002$\275\252\270`=\235\335\343<\233R~\275+`f>0H\031>3\363\365=\r\213\232<\256\353\n>k\372\223\275X\035\000:\322\206N;\032\033\342<_\341\223=$\026\234=VC>\275\212\231?\275\032\017\334<Z\234o=>\243\202\273\204K\212\275?kP=O\227\003\276\232D\330\274\261\346\240:\342\263C\275\306\266;=\004\332\373\275t\206f=\350C\321\274\311,\002=\366.Y\275\344\340\372\275\336\374z:\237\217\274=M\270\022\276$\0354\276\032\371\246\275\375&\300<]\346C\276\005MH\275\201\367\320=\245\007\"\276\305r\363=\307\307\360;\356j\337=\370\304\001>[\335G\273\0209\351\275\322\230\256\275A{\302\275DL\362=\254\006M=\007\031 \273\036\352p=\246D\352<w\314\212>\262\003e=\021}\242=g*\337\275\210ED=\346\341\322\275>\251\326=\373\343(\276\265;\222=\314\020\005>u\006\007\276\300\031\001>\243i\351\275\035\256\t>v\024\304\275\000\226\342\273\264\r5=\263\274\247=r\311\310=\232\345\274\274Gp\366\275\303\201\307\275\300\351%=\25473>t\366F<\022\205*\276\320\345\025\276\204\321\223=\271\370]=\r!q=\317\230\020\275\2345R<\257\2020\276\320\355o\274\256\350\325<\003\3369\274\231\207f\275\014\222\r\276\0276\211=~%\267<R\003\022>W\177\215\275\302\262\001\274D\225M\275\010\340D\274\230&*\275~\022j<Q\323o\275]\021\027\276P\003\374\275J\345\021=\037\206\025=`0\313;\341,\027\276\212i\326\2757\226\235=\257\014\004\276\203\001\225\2757U\352\275\253\305\227\274\006\375\206\275\236\201V>I\031\350\275\343\235\243=\003\367\016>\272\375\321=4\365\254<\233\005\225\275N?A>+\327\314\275\371a\032>\356j/>\256\356\014<{H(=U\027G>q\003#\275\206$ >\247\277\035>\331\004\027<R\231$=\r\253\020=}\'\031\275\320h\021\276\024\350\211\275%\r\261=\317\245->7\352\002>\210\264\317\275i\225\"\275\334\314\356=\244=@=\376\255\344=\365\223\205<\346\247\031>\200!:\276\270\272\325=\362\364\355=IS\351<\217\230{\275\022\232\366=\260\000Y=\024x\2248\207 ?=CB\353\275\231<\026\276)A\250=\355w\035>\344\244\257\274\275\201\007>\240\314\202\275e\305 \276\225E%\273P\225\264<?\017)\275\372b\r=m>\223\275[\301\237\275\326\321\200=T\351\024\276\035\371\251=q\216\253;\231J\256\275\341\037\003\276J\340\025\276\215I\001\276WZ,>\320\317\013\275\335\306\n\275T?)>\tt\226\275\307\354\010\276l\353\220=\201\222\372\275\005> \273\331\245\334\274\235A1\275\031\225$<\363\034\352=\223\254c=\257\3016\275,\336\033>\203y\213=C\243\326\275\024\333>\274\037\3209>v\005\374\275a\356\313=\236=\203\2759\251\222=\3725!>H\260\201\275\354J\025\275\355\030\200\274\265\311\356=\300\'\035\276\346-\355=D\335\330\275\024\353T\273$\237\004<\032\372?>\337,|\275^\3021>\017\247\215=\313K\027=\020\232\336=aq\246\275\364\027\245=\2235p\275+\007\324\275\240E\245\274\362\307d\275\333\201\302\275\263#\001>\260\266$>{\364\257=r\234\235\275\367\001\214\275X\363\013\276ET\023\276\340\350\205=\337\030\203\273=\210\206=G\367\002\27454\020\276\335\247\256\275\020\205F\276\377Y@>\035P\221\274\236i\200\275\263\201\334\275\334}\236\275OpD>s+}>\3673\'\275Pz\014\276/\310\230\275M*0>\t`\003\276\204\324\314=\236\263\364=\2755\223=o\205\032>\221\257\310=Qu\006>\275\240\022>\335q\337=\035\370.=\202\236\004>\335\000\251=\t-\222\275h>_\275\327\252\321=z\213\035\276U\362\331\275\301\240\324=\221\317F=\247\270\252=\325\220\214=\222\022\325=\256\221%\276\3561\304;\005}\310\274\320\217\313\275X\221>>\374x4>\007\260W\275\232\312\223\275[\203\014\2765\362_=\257\2064>\0312\013\276B\323\301=o\370\357;\365:\214\275\202\253l\275t*\177=R\321\237\275\020w\216\275:J\354\275\0228\021\276E~\034>\030z\000\274\313\300\n>.\303?\275\352 \374=t\342\021>n+\335\275R\220W\275sX\217=sG\r\276\371\244\024>*\247\202<\204.\231<;\334\356<O9\210=,A\004\273\323\177\336\275\243\233\340\275}\213\344\275-\235\201;\253>\357=\2339k\275\031\315\274\274k\353\213=\202l\232;%\333\021;\024\266\346\2740\016\030\276\362}\354<\204\356\014>\214_A\275-\271\222\267\240a\245<\240Fr\273\326\211\353<_,\010=\213\023g<\030\020\232<0\214;=;\037\231\275\013\305k=\273g\257\274\337\244\271\275W\202E\274A\337\034\276\317\0054>[\"\306< \022\013=\333:!\276\275[G\274X\230s\274d\345Y\275\352V\005>\211o\331<\355f\310\274\313p\353=\020\033\021\275\303\344W=\213\363\276\273+\251\203\274\3103\371\275\325f\246\275\32682\273\262/\315\272_\374\030=,Zs=\002y$\275\034w\036\2754&1\276\273\303G\276\006\254\220=\233\005|\274\020K\272\275UK\007\276h\266\261=\357<1\275u\322\250<\262\202\032=[\303\220=A\310\321\274\270_L\275\356\226\221\275\256(\025\276\001\025W\274\251c\032=N}\202\275\250r\021>\264\214v\274<\257\330<\t7\230=0\315\'\276a\321\354=\032\230\324\274f\244\340=ygP\275\003\364\252:\r\310\226\275\215\231\270\274\275G\010=\245\245\340\274\3038R\276\255\351\265=v\252\373<Y\315\242=X\312\010\275V\350\323\275\367\306\357\275g\014\022<2\232\225=\034b\010= \374\211\274E\300\332=\233c\336\275\243\014K\276h\32319\023\271\203=\327N\027\275\330\346\232\275W\\$>S\277A\275v/P\275l\346\005>v\225\307=)]0\276\300\010?\276O\003\36199:\006>2.\220\275\371S7>,\211\230<;\375\345\275,\316\274\275\'1\333\275\207\263\023\276\3253;\275\205{@\275\227?\"\275\2209\247\274\225\031\303=5{\260\275\200\246\254=\265\234\005=\256\017\241<4\216q<i1\010\274\013\030\214=\356R\003\276\373Cw\275\035\320Z=u\325O\275*U(\275\353\332\014=\271j\236\274\320_\r=T1\256<\262$\\\275\313\222\037\274\377\002\025\274~\346\'<\261\267\3578z\252\313=G\256\335<F\327\t=y\226(\275[\301\371\275\243\271I<\241\372U<\357&\240\275\334W\311\275\225$<\2768\032C<}\364\020\275\254\250s=:\020\007\276Q=r\275s\316\033\2768\033\211=9\267k\275\220X\202=\262}\021\276\2545X=/\023\364=\337p\350\275\260\2137\276\022Q\213\275R\212k\274\224\313\241=-\'Z=\203\346\270\275\271\t\010\276j\314\017=!\241\367\271m\317\212\275Q\312\016=4E\306=M$v\275n\310\014\275\271\234\204\276\\\226V;\345\312m\275\327\250\315\274\235/U<\252\226?=B#\203\274\264\374\235=\377\2602=Hb\257;\n\302@=\2164\271\275<\215\343=\231\006m\275x\307K\275\326\211\307;\2177\034\274\327x\270<\302\360\253=\310\000\227\274\"\311k=iv\037\276\246=\327\275\002\360\"=\252\276Y=\327\212\265\273\332k\2049\334J\024>\2745\314<Q\'\340<\273\322g\275\303\344\271\275)\276y\275ys\322;\025|\205\275p{\025\275\247\t3=\307R\355=Q\231h\272s\022\247=X\341\271\275~\220\235<\244F\034>\377\221J\274\363\226\252=\007b\n\275_j\254\275\302\315\277=\224D\326\275\342S\020\275\202\356J<Y\236\303\2744\245\000>\363\352\235=^\016\305\275\375qT=\240Z\031\275\271\030\277=!\2602\276b\2471=\315\212\340<\023[\006\275\274\306\233<\250\223\300\275\212\276\'=\033\264\210=\016\251\245\2755\002\210\275y\206G\276\032\241\n\276B\213\346=!\204\236\275\021\271\366=\343H\014\276+X\242\275\010\220\363\275\374s\205>\255\244\320\275\306\364$\276\305\354$\275\203\362o=\tI\355=\312\377\033\276\235\377\336\275\323\013\201=\"\214\250=\227\377\017>\n|\247=gx\020\276\227\376\033>o\264\007:\027b\252\275\311\310\254<\304\205\344\272\321L\016=hGD\276`LP\275\257\356g<g\242\025\275J\245+\274\265\201f\276\252\376\377=2w~\276o;\251\275\250 \310\275\212\033\336\275{\006\356\275\"Y\256\276&Q[=\236\276\003\276\316\375\026\276;$N>!\2634>\207l\021>n\226\232=\303\354\321;\322\026?\2756.\272>\253O`=&T\310\275+\246q=|\370\223\274E\361\3509\251\003:\276\023\331\002\275\251`.>C\337\355\275\250\266\031\276\304|\242\276\277$\336\275\370E\371\2730\025M=\"\277A\276\257\362\242\275\336\313\362\275t4\016\275\333\324 >\374m\322\275=\216\207\274\342!x\276\336\010L>\255\236;\275\332J%\276\2432^=!\304\017\276U\003\342\274i\206\037\276\356};\275\n#\305<\3466u\274*\303\271\275\305\tS\275\177\363\202\275\362|\334;\333J\250\273\253\375\223\274\t.\037;/fX=\235z\325=/qO\276\311\235\253\275\237\244\360<\035\014w=Y\003\265=\272\277\373\275\300\255\004=\312\302\227=\372l\273;\357*\232:\002Q\033\274P\177\342\275\345\331\215\276\306\235<>\356\245w\275\324J\342<hC\006\276$\220\205=\374\205\000>\314\216E\276E\350\313=\242\242m>\001\010\036\276\240\331\331\275\336j\301\275@\220\013\276[\350\240\275\302\224\244\275\247B\034\276q(\265\274\r\216>\276,\037[\275\250\'\373\275u\227/\276>\023\256>\377\333\301=\277\342\002\276\022\276\010=f\010R=\337\244\001\276\2376\373=\265\320\276\275B\374A\276[\0313>8\032\003>\021[\231<\346)i=N_\357\275\364t\374\275K\036\n>K_\326\275*\267\200=\257\0019\274\261\246\031\275\205\177\177\276\370\300>=\272\352 >)\360\033>\265I\010>\356\006\\\275\371+)=_Y\247<y\376\027\275<\2400\276Y;\033>&\365t<\221\362w\275i\215\231=\376\273\337=}\300\313=7\330\305\275.\017\035\275\333\002\226\275\316\371:=8+\214<&aQ=~:\374=C\364#>sH\215=\210g\367\275\326\255\021\276\241\363\357=\364\036-=y-\270;J\235\265<1P\360\275k;\026\276\"\034q\276/\004\332=\335\207\031>\342\233\254\275UT\n>b.\370\275f\224e=\271\373E\276\226@3=\030\244\002>\026\274\241\2744\200\006=\225\351\377=d~\367=\272\010f<\303\370\005\276\311\354\207\272C\006\t\276\273\270\315=\r&\245\275\023!X=0\301\300\274c\222\"=^\241\r=H\005\321=\265Q\004\276\324\371\315\275{\230\346=\311\255 >Q\236\245=\367A\010\276p61\275\342\3337\275\021\255\205\275\316I\016>\025\347\354=d\233\254=\243\323\327\275\372\333\301=\025\352\271\273\030\370[:\3337u\275\2149h\274W\207i\275\200`\217=\263\246\006>\026.F\276\001\246\315\275x.\236=K\'\323=\271\355\256;\022\375\325=,K\201\275!+\256=\2758\"\276H\177\303=\24370\275\225\234\260\2756\222\026\275w\350\013\276\252\005\034>IBW=\256\007\344\275\275\243\304\275v\352Q\275\222\376\310\275\240\035\235\275\336\252\222=TF\243=\266m@\276$P=\276\0230\331=,\376\346;\021\323\325=\344\274->\036\364\r\276\365\3607>:i\205<\342y[\276{F\355\275\254#\344\275y\2535=\323F%=\333\341\257=\371R\224=\2741\014\275\221K\204=[\327\347\275\244\303\215\274\270\261l=e?\350\275^`\003>\034\013\353\271\217~\216=\200\000\025\275\034K\032\275C_\216=}\267)\276\337\210\220=:\257Q=.\373\225=\005\330~\275\220\254\275\2751\217#\276\007\005o<]\313\024=N\354->I\305\265\274\325\271\324;\204\243W<\2532\036\275\351\354\342<\003B\002\276\232a =\r$0>$\271\332\275\311>\377\275\373:\265\275\320\037\'>\2652%>\242\001\260=\020S\024\276\006v\356=\030\334\023=,\224 >\222\037\275\273\037\261\">\305\201\223\275v\352\341=\245\307;>,\001\'\276\303k)=Td\032\276\304\023\264\275\225wV=\200B\323\275\245\374\245\274\315\025&>\366m\026>O\305\320\275Q\324\213=i\201\030\276\035U\267\275\366|\346\275\352\354\000=\316;\373\275\'a >G\377\t=H\215\226\275\250\262\227;+)\022> \241.\276\352c-\275\370>5>^\023\207=\356\302\214\274a\263\'>$)Z\274\303o\021\274\014\030\351\273\355v\032\276iM\374\274\306\266\000>\304\362\343\274\232\007\251\274\270\217\t\275\337\311\354\275Q\247\203=2 \264<\377\260\223=\312t\330\2754\200\302\275\201\220)>\345\367I\276\003\340d\276\004\277\\\2757\353\203=\245\325\233\275\275\004\327=\266*\316\275\231\350\316=\260\374H\273\2329\237=D=\302=24\206\275\222x\207\275\366d\3329<\225\000>\233\264*=\241`\317\275(9U\276j\331\201\274,D\023\274\013\341D;-\026\203=\216\204?\276\313\2164>{2\030\276\230\246\016<\344e1\276\3433[\275d:\013\276\303\261\023>\203\364\205=\212\0161>+\032=\276\210\244\311\275\356\254\254=^&\226\275qI[=\310\225\255=\016?1\276@\346\001\276\n\232d\274\221\206\035\276H\007\333<\210\032A\276JM&\276\236r-\275\312US\275|\365\022\275\005\274\301\275\257\201)=gqe\276\356\201I\276q\226,\276);\307=7B(>\305\037\275=\343\357\354=s\274V\275\236\257t<\365\206\024\275\005\220F\276\225)~\275=<E=\221z?>\010\343\006>\035\2714\276\306C)=\022g.\275T\243\224\275\366\201\347\275\320\2252\275\372l\310\274\302O$\276\215\362\207=$\303,=S\3105=w\251o\275Ha\345=\352\215\225=\3617\307\275\205\260y<\352/\244\274\025\230\r>-\331\351\275Lf\311\274zS\t\276\235\371\330=\001\252\331=\210?,\275Q\364\252\2748\234\317\275\023\237\333=\367\246\241=\213B\017\276z\303\246\275\200\t\344\275\356\303\307=\005\231\247=\327x\313\275:0\351\275\323\356\270=;\\\312\275\262q\225\275\t2p=[\346\006>\252!\275\274\205\270\000>\272\304$\2760M\357\275\014\360\037\276\344\347\'<\255>\306\275j\311\014<\364\276q=r\264;>\220V\243\274a\333\304=n5\007>\217\300\260\273\316\260x<\343\365\345=\335A\217<\321O$=\372_\255\275`\357\320\275\327^|\274!\037\203=\344\007\024\275n\374\007\276O\242S\272rn<\275\261\004\377=\033%\023\276\242\364\027\276/h\027\276\245t\'\276p*\004=\231:\235=!N9=\347`\207\275\200\016}\274\252\253\242\275\262\237\215=\272G\025=\024\337\234\274n\3443=k\3169=K\032\277\275\254\303\022\274\016 \353\275KK:>!e\323\275\270O\352<\265\\\003=\342\036\264<;\003^=[l\331\274\200S\201=l9\210=\303\306\360=\332\344\262=\231\347I\2768g\360\273 \3700>\244_|\275\224\010\014>\343\202\315=\321\006\214\275mm.>\270\230\213\275\374\231\362\275n\321\332\275\036\032\356=\0238K=\303`\212\275Eb\217=\0011\257=]\003|\275\r\323\006=\332o\312\274O\340\'>\007\241\271\275\002\342\322\275W\357\344=\3360\310\275!\305l\275\205U\234\275b\243A\276\373K0\273\213H\005=\"9\375=\2176\037\276\210\020$\276Mo\232=\027\022\032\276\021D\255\273IL\017\276x\316 \276\314\277,=25u\275\247\207\310=\003\361\013<\363\265\313\275\000\223{\272\366\253\364=\033<\356\273zl\366=\2011\007\275\307\336\031>\364\003\315\273\336=\222\275\004hG\276o)\321\275t\036\006\274Z\330J\276\332\245\241=\023\222\344\275\020\243\215:4\260\307\273\202\206\022\276\226Q4\276\030\301Y\275#N\036\276\362\223\371=\315\006\013=\361b\330\275\347\270u\275\312+\250\274.k\260\275j\263\">\336\3538\276\272\024\n=8\266\252\274\037\214\002=\344j\225=\025\220\356=k\270R>x\363\003>dR\352\274iu\312\275f\013M\276XY\334\275\347i9\275F1/\2760\333\216\275\275\214\223=\016$f\275H\346\222\275\275\267\322\275\243\232N<\317>\025=\237\244]=|u\206\275\005\261$=Q\262\372<cu\375=\246\261J=\3226\255=\324\314\n\276\"\"\243=R\302\371\275k\023#\276\264K\335=\030\350\030=\322\244l=\312W\305<\006G\243=\021\017 \275\353\255\201<Kp\026=7*\025\276\242\"\245=\203x\271\275\000j\331=?;\t>\310\266\030\276\352\251,\276\354%\372<\240\n\001\276K\205G\2750\351\034\276\266\036\t=\272g\261\275\207^\373\274`S\230=)$\205=\246\230\013>\320\363\032>k\357)\276\372\020\241=),/>C\036\023>\372\333\361=\306\020\266=\244\331\241=\315a\034>\201\237\265\275\361L\307=\376\251\317<n\266\312=M\324@\276U\024\242\275\344\326h=d\316\243\275\372\261\255=\310+\210\275\355Y\271\2756\0357\275A1\354<\025Z\002\275\224\342\337\275\363:\373\272:N\036\275\024\366\006\276\020*\235<\213\324\206=}\217\274\275r\263F=\277\261\005>\336\240\231\275Q\357\244\273@H\340\274\2668+\276\300*A\274\310\357\211=\322\254\267<e\034\201\275v\004\020\276|\013\300=\004\334\t>gK\266<:*\354\275\'B\345\275\371\374\253\274\223\213\330\275\305\203\310=DX\256=\215\360\272\275\022\362\257\275+J\376=N\240W>\341#\014\276\332\243\356\274\331\r\t=\274\020\223\275*w\274\273]\343\202\275\035g<>*\035\213<\314O\016\276\221\331\200\275\222\371\026=\277-\353\275\3165\211=\363\305\200=\355\005l<\262v\321<\233?\010>\357\307\246=\205O\326<~\337_<s\227\t\276\261(\324\275:\242\335=e\226\252=\235\212\262=\254\004\266<\022Z\326\275Z>\025=Q\262\016\275\371p\001\275\373\221\370;\273\'\221\2731\354\371=\226\021\004>/,\033>U\367\232=\030\246_=\216\250\331=\206`$>\000\350\261=^\205x\275\372S\366=\340\002\001\276\003o+\276^\343\362=\357k\226=\227\262*\276\016\210P=8\264\376\273\366\031\013\276\246\266|<\235?\022>\267\227\020>\226]\251\274\351\212\373\273\270E\023=\214\304=\275z\266\343\273\364\312p>G\350a=\276\tP\276\303\334Y\275\000\305\024>?\230d\274\325\273\033>\032\002\031=\242\257\362<\211\226\023\276\202M\364<H\363\265<\302y\036<\016\354n=Z\3722\275\353\0324\276U\034\242<\004\177\274\274\334\256p=\037@*=\257\003\355<\316TF=m\212\331\275\332\256\344\275\343\2244\276u\361(=\361@\"\276(\315\002\276eY\030\276\366\213\335\275\355\306\222=\226\014\244\275;\356>>\r\337,\276\342\233\343\275-\272\214=IsD<]\370\223=\321\262\000>6\244\254\275\323\353\273=\315\335\224\275#=\215=\275\272\t\275\311\325U\276\036\351T\276\220s\210=W\257\266=\306\306\336=T\222\017=\375\030\210\274\337>\'\276_\361B\275\341\344\301=\027\020\020\276\222\005\202=\254\237A\275q#\032\275v\026\032\275\023\241c\275\315\236\360<Q\300\203;D\250\021\276\032\344\214=\327\204\316\275u\004\233\274\227_\216=v\343;>\230E\014\276KY\037><\207C=\2358\351\275\364O\205\275\250]\026>\0364v=\240Z\310\274\344*\003>\321Y\010>e\250\224=\']\004\274\237\243\304=G\247\247:\331m\300\275T\354\370\275=w\240=?\334\340\275\224g\000=A\211\000<\351\t\311\275c\277\205\275\362_\312\275\313OY<:I_\273<\342W>\005\210\t\276\231q\024\276V\014\022\276\301C1\276\017\300&\272\271<\341\275\245g\221;\300\367\020\274\247>\353\275\026\024\344<\324\270\320\275\276\351\203=\310\202\'\276\177|\354=\"\311\003\275B\215S\276\376K*<n\253X=\226\322\032\275\321]\223\273|\022L\276\"\300\262\274[\000\034>\365.\362=\030\273\232\272\2526H\275\323\206\277=l\325\227\275\335$\227\275[\2202=\263\347\337<\'\233\342\272\270y\242\275d\024\004>z:$>\031\320\352=\361\200?\275\254\245\203<[\032\266\275\375\263\251=|\274\375\275y\253<=V\320\211=\217\253\321\273\317\241\013=\375\333\275=\001G\347\275\247Q\311=\016\002\347\275\316\324G>_\013,\275\376\350\177=\2374\033\276\267\321+\276\222!>\274\027)\365\274\313\274$=\335\275\223\275}\006\320\274\270\361\326\275Wq*>^(\345<\026r\220\275\n\256\360\274\244\341\027\275\026\352w\272\324\226(\275h\3134\274qE\375<\035\002\210\273\034{\r\276a\273>=I0\020>M\216\206=\020|\0269eJ\272=/\253\007<\2737\036=~\324(<\001\030\207\276-\215\233\275\035\362\375;\322\204\250\275#N\026\275\325\272I\276\002\331\252\275\3777\376\275\253\277\\<&hB\275\305F\030\276G\002\215\275^\327\205\275\314\242i=\006\'\217\276\270,T\275T\215D>z\356\310=\313\325\340\274\3169+\276\030\205(\276 \274\244=\010_\277>;CI>\020\t\000\276\203\223t<V\266\250\275\032\367\211:\236\224`>\202\024\003\276F<\024=\265<\307\275+V\215\276\274\246\311\276\361N\375\274/\313_=\367\343\226\275\206\337\306\275\213<\314<\n\365>=\331\000l<\005\220\016>\251\037\034\275\313\326\341\275z\353\017\276\200bY\275RE\"</\203{\275--\000>\020H\242\275\375\270\233\275\266\206L\275E\221\214=\354\023\\=\341U\277=_\021\206<\354\261-=\203\206(>\371\377\237=n\\\215\272\025\2566\274p\321\276;\036\265\302;7\275\003>7\276\340\275u\345\013\276I\300\307<\246\002\310=\254\377\341\275==\314\274o\030\262<\270\001\343\275`\344\265\273\020\264\252=\370\2771\275V\231\241\275 Po\276 $>>y\237*=\313\201\177<\\\253l=r\032 \276\304E\353;\021\241\230\274?\362\014=\007<\234>\224\303\355\275z\336\014\276\263/\252\274T\234f\275z\275H>\351\227s\275\2248\251< ]\224\274z\347(=\253\254\037>\354\330B\276~\251\360\275\275[\355>\371\032\230\275\245\256\007=\251=\373;\364\3710>\222\341\243=\277\r\255\275\276\222\273\275\333\345\365\273\226\241j\275\014\324O=\204N\322\275c+\021\276\t\036f\273H\037P\275\326\210#>\231\027?\276Ovu\275?\233\212\274\346#l=\255\356\206\275]=\r\276y6n\275\264Y\t\274Y\225R=zO\244\275\030rv;2\266\275\275\244\006\226\275\216\2272\274\377\313x=\177D(\275F\304\213\275\367\253\345\275\312\210\357\274&/Z\275o\303G\275\322\326u=\211F,\275\027\036,>\220v\345\275\nQ\024>\363\0372=NU\017>\257\2321\276\322\031\204=\332\330\323\275T \340=\351\010\035\276\325?\377=\343\231\235=\017\364\314\274?\017s>+\"\035\275\211\305\354=\250\362h=\244\032\261<W2B\276\007\307/\274\307y\371\274\355\353#>\014\214\021\276\300\227\327=\006\265\032>|%\344\273]\230\347=e\330\354=B\322\227\275R\307\301=,R\375\275\222H\013\276\\\215\025\274\021\325\021=\202\330U=<\204*\275\312I\232=\226\236\373\275\341\237\215\274C\206\207=g\205z=Z\201\300\275`r6=\023\201D=~)\031=\335\352\237\274\253Ky\275Xj6\275\350z1>\276\n:>v\023&>+\262\032\275\302\275\377\275\350\370\222\274\305wn\275\\\nV\276\366?\273;\026j\027\275PC\201\273\305k\205<\251\257\000>_V\020><<\341=1n\367;lw\231\275\004\263\267:\006\267\207\275\010\243\034>i\300\377<\272\'\237=E\321\340=Q^Q=`L\326=\244\3251;\301qe=\032\2301\274^\214[<\302\0342=-R.\276#bw\275\341t$>M|\000>(\331\370=\021\244\026>\267A(\276)\233\274\274x\375\r\276\354$\256=\351\034W\274\352\366\246<\362\035\311=uv(\276v\221\274\275\r5n<6,\026>\273\370\332\275\262U1>\264\2544\276\314\251\024>\337\337\303\275\263\340\026=4\362\014>V\276\323=\355\366&\276\360j\256\275\216\227\222\274+\204\177\275Vs\375\275X\305\315=\024\277\310\275x\272\210;\'\3460\274\327\332\224=q\033\013\276\347\022%=r#\262=\2758c\275x\223\316=U[\353\275\362X\305=\206O\004\2756\313\022=\213d\020>\325\242\375=,ef=_\203$>yD\007\275\201\305\277\275<\035\243<AwX\275S8\211\275=\337\006>5\357/=^b\000\276\001\240\236\275\3521U=My\364\275\n\260\003>(\"\t>\236^Z=eS,>\343\250\344\275P\220t\276\037<\037>tL?>\371}\022\276\334\343\233;\344\227\026\276U\304\362\275\255\217\320\274\036n[=\316E\n>\370\240\356=\342D\000\276\365V\001\276\013\035}\275\343\367!\276I\365\303=\242\025Z\275\243\347v=\332\224\251\275G\235\362\274\233K\000\276L\364\320\275\317KP\273\002\237\237<\263\234&\276\344h5>\352\334\021>f?\221\274\036i\256=7yR=\334\322\220\275\276!S>\341\002p\273\276Hi=\n\022@>(I\367=\317\006\230\274-\270\306=\367\212\241\275s\377\245=K\333\372=h\327N=\3021\327\275\017Q,=R\3032>k\020\262=\211\203\357;`=\340\275qe\333\275\353\2740:\336\'\203;E\366\255=\371\266\311\275\252n\326\275m\261\260=\345\305p\275,\252\016\276\271\374\221<\353\177\255\275\023\257Z=\377\024\354\275\240\243\314\2755\251\361\275\'z5=-\'\177\275\306\350\305\274|\321\367=\321\261\007\276\372\325\225\271\377\212\336\275\335{8\276\377tr<\327\233\335=\276@\270\275\271.\251\275i\237\243\274\370\216\r>\211\\\321\275\253^s\2752Y\025>e\247\037\276\"W\327\275\234\1775>\356\367\337\275.\013\'\276.\253\256<\323\361\271\275\234\023\006\276\005\250\267<u\274\336\275\333\303\004>[\325\266;\014b\005>\256\027\244=j\245\345=\023s1=\332=\316=\003\330V\2751\022\303=\365/\354=\252\324\362=\032;\020>\366;S=\352\367\310=k\373\203=W\216\257<:\030?>Zn\254=6\373\037=\351\3050\273n/V<\263\252\344=\021\307\035>\341z1\275\362a\314\275%\2678=,\225\006\276\315\324\210=\265\310\372=\240\237\002<\250\307\310=\212\366\017>\221\3620>\313@\343=9\334\221=%,m\274@C >\010\261D\275\334\370+\276\0337\330\275Qp\014=\334+\266=\004*\305\2752\351!:\371\221\304=\272\206\311<\267A\311=^w:=D{\325=\242cN\275lp->E.\177=\243\213s\276\270i\203=?\272\006\276\025\204\271\275\210q\204=\337\273\314<\335c\214\2754\323\330\275\225n\027=\311\3048\276\275\205\303\275\025\251\017>\221e\204\275kE\320=\022\261\275\275\333\267\322<\224\003#>\300V\006>\250m\310\275\265\227\024>\360\035\034>\323\3125>\210\020\026>U\302,\275C}\002\276eY\226=\025}+\276\300\016{={\351\222=A1\016>\023\342\032>B\\1\276\326}g\276\270\307\204\275X.\030=\2517\004\276@c\245=\213m\360\275\"\035\032>\017%\t\276\303\317\024>=Y\037=\250\213\306=\037~9\275\322f\000>~\021\314\275\214\347$>\241\030\030\276\253\"\236<\351\227\214\2759\347\244\2755\021\301\274\262\237\276<[\245\365=)]\002\276PxI=\235\2340\276\330\327)\276\034`\276\273v\020\032:\na\037\276\326\222\220=\321\265\201=oQ[\276\261\342{=\340\226-<\252\270\234=\260H\342\273((\333<\236\005\335\274\013*\004>h\227a\274\253\304\346\275\236\360\225=ikw\2730\275\366=V\036\021>N\376/\276p\374\320\273\007\003\320:\225 \332=\001C\333<\320`\262\274I\352C=T \033\276Xw\026>l\016\013\275\255i|\274\335\336/\274\016U\247=/.\025<\232=\257\275\022\240->\367=\331\275\253}\276=\324\242\224;\027\253h\276\370z\313\275~\302\231\270\213\217\026>\201\324\013\276\036\007\321\275\243\322\300\275\302W\263\275Ha\252=\354\353\003>\300\204\341=\251X >;\2125=e|9\276\206\261\327\275F\320\373<p\000\256=\344\202\002>Z\374\027\274\274_\024\276\373\004\020>Ms\265\275\202\2312\275\225H\311\275\026}\363\275\003\005\212=,A}=,\032\227=\372o\014\272\310\314\033>J\311\017\275o\331*=\263L%\275\323:\266\275p\266\004\275fq\301=\276<\311\275\214\356\233\275\247\021\315\275\254\037\266\274\321kz\275\270\242q\275\337\377\026\274F\274Y\275\273\272\035>\261\2078\276\022m\252=n~\025\276w\027\200\2755=\243=_\240\275\273\345YM\275\030\312\000=\236f\032>\306l\240=\353\017\306={\252\230\275-h\300\273\314\376R\275sp\330<\320\236\245<3\326\243=\340\201\">\244E@\276%\036\362\275\277\311\036\274\006c\311\2755\203\225\275\034V\017\276.\215\035=\323\224-\276\350G\203=\263\010\347=\247,)>\030\2178\276Em\235\272\010\033\223=\244k\261\275;\233\020>\327\356\225\275\221\r\317\273\355\035\006\274\205\300R>g\032#\276\374\211\025>\341\030\326\275\313z\030=P\001 \275X\274S\275\251!\314<\211\326\214=[X\021\275n\333\353\274\337\327\366=\216\343\004\276\254\203\263\2751\3311\276X\375\223\275\233G\037>\007S$\275\222Ji=R0\010\276I:k=\026\274\315<\007\213\204<\3173\017\275\304\314\032=\024\236\033=\330<\310<\211\335\310\275\002^\214\275<\345\306=8\334\375=Y\'\302\2758\034\034\275\247&\346\275\277\000\013\276\223h#>\204\217>\274\326\261$=\231\016\253\275\177n\006>E-\255\274\372\243\"\275+\324\025\275W*\270\275?\372\240\275k\017\013\276\000\331e;\321\313\221\275lX~;\ru\014\276]\024\302=\264\275\325<g\251\022>\237\260\346\274\373\"B\275\216\026\304=\374\251a\276$E0\274\252\324\316<\t\021^\276\rA\223<\203\013\333\275\034\004L=)\353\033=\030.\230=R\343\353=\315\260\320\273aG\'\276\257\312\365\274_\237->|\350\\=\253f\354<\256i\"\275\304\036N\275\002\212\344=[\033\236=V\361\302\275\330!\347=\246\270B=\322r7>[[\367\275\352\027\374=@\240)=\265\001\354\275\177\374)\275@\354\361\275L1\271\275?F\013>\242\250*\274\006S\260=\037\215\'\276\006\340A\275`QB>\347y{\275.9\210\275\3061\236=7\'\037\276\236nD>\335A\026\276Lr#=\007\250\263\275\350\317\240=\3432t=1e+\276\250OM\274\341\270\016\2768\0228\276\321`\314\273+VB\275\233\330\352\275Uy1\276\216\222\311<B\311C>\367\267\241=\213\324->\252\267\314\275\375}\347<\020\376\203\274\0104\370\275]|\230=~em\275:|\271=\007\240\334=\222x\357=\177\353\320=\212\334q=\351!\334\275\212T-\275\250\002\014\276\333\252\017\276_\302s\2754\267\261\275\240\252H;\001\267\241\275L\345\202\275\263\235\356<5\2736\276c\322\245\275;};\276\214\213P>\220Yw<\224\365\267\274c\343\023>\254\031\343\275(;\212\275.\254\225\274\320\353\210=]\373\244\274\212\222)\276P\346\031=\264\303\016=*?\005=U\234\310\274m\010#>3V\244\274\3155\202\274\236\177\354\275\010\243\323<\013\316V<9\032\275=\267\201D\275\246\203\327<a7f<U:\213:h\316\2037\024D\334;\210\314\325<z\031w=\215@\254=\032\346\003\276\'\200\246\275\352VC\273\322Z\216=[\271\201=\226S\325\275\030i\004<\201\tB\276\216S\205\275\211\361 \275\230\211\267;\374C\234\275\311y^\275\302fv<\202@\310\275\230\373\350\275\277\2106\274\027\2405\275\272\230\301\275T\203\013\276\307\221\207\272\325\307\276<\3125=>\354\275\252=\364\033\217\275+\'\307;\264P\021\273\313\305\350\266{\024\346<\231Qg\275kC\000>U\312\232<\232\3319\275\204\254(\276\362\2778\274\277\372D\274\236)\231;s\330\244=\026\177\234\273f\273_\275\214\032\235\274\312-\307=\016\260\367\273\320\276:\276\344;\373<\252X\016=\'\347M=\301\354\256\274\211\346\246;\305\370\354<V\330/\275<\300*\275\270\'\001\274+\204\321<?i\306=r=u\275_\314\345;u\323\373\274\304^\004=\206\004\3367\263-7\275\222\034d<\000\010\332\273\367\266\226=\251B\201\275?\262\\\275\004\332\206;\261fD\275\017\242X\274n\260\370=\226\220\213=Y\231\014\273\0230\222\274\234\037 >\276\267d\274\253\345\004\276bl\363=D\035\227=RY\226=\256\350\342\274\351f\022>\037\332:\275i\376?=\317\324C;\021|\266\271b\034Q>\232\016\267=\366\014\314\275X\330\001\275\271\366:\275J\365j< \215\264\272\343\000(=\320\341\376<G\236 =\027\264\352<*\361\301:\367uR\276\273N\024>\035\220\233<\037k6=<\313\277\275\233\322\311=:\216\227\275\246h~\275\342\024\333=O\013\342\275\227\351#>\2529B;AQ\302\273\362)\033>8]\233<\036\211\373=\332j\262=A\346\000>\263M\316=\210~\303<\213\232\250=\366)\332=]2\363=#{\230=sO\244\275\002\264\357\2756\021\205\2753\343\036=\222\200$\275\010\220\016\276K\307@>\033\255\234=\250\020\253=\367x\357=A\272\022\276_\016\335\275\321\377\022\275)Q;\276\232\030\310\274\243&\024\276\224\305\003=\227\013\007\276\253k\272=\354\014\235\2756\250\366=\366\265P>O\306\213\274P\216&>\325(I\276\263\210\021>\\\3472>\216\242\301\275\013\033\013>\306\201->\244\325\030>\377}\033\275\312\350K\276=\032\311\275\325fq<\365#!\274\344*\340=\273\022\"\276\365\3642>gMC\2767\263==\031\034,\276+\261\215\274\200c\317\275\251p\340\275\274a\365\274\034\325O\274X\013\014<\262)\024>\256j\376<\320H\n>$\201$:\'\300\324\275\365\340\223\275<\354\262=T,,>\233(\270\275\210=\336=\024\317\234=a\026&=\212\242\243\274E\316\257=\035\021\005\275mZl>\356f\230\275\255\317\177\275\367+\311=\003\021\221\275\334\275\023\276\327\034\010\276Q\246.=5\225\307\275\324Hh=\226\207\350\275\207\201F>od/\276z\357L\276s\347\201<\271\313\263\275\2268\225\2756\332V>\332X\347\275B\275\311\275\264\"\356\2752M\252=$F \274\260\331\354=\266\t\343<\304\207q\275\025\002\252=\251\262\345=\031\r\320\275\\u\267=\350L\233\275\177\271)>\013vq=\003\361\027\2755\336\024>\215j\330<\222\237c>O\255\234=H\260\346<\t#\025\2755&\002=\\\357\025=\033\326\262\275C\200\360=\024\260\032=\317\310\033<0\034)>|\252\275\275,z\227=\365\360\212<\310;\342\275\336\\r\275\345\372\230=W:\026\276}W\245:\r\313\275\274\311\342]\275\317\020-\2750\243\376\275u\023 \274\252\252\'\275m\324r=\334o\212\275\025\345\205<\"jD<!\177\353<\312\022\236<\224\351\232<>\330(\275\023\333\255=\364\024\312\275\361\204<=YxA\276\241\276#>4\372\354=\236\227\006>M\220\261=*\024$\276r\341\346=z(\331=\314\253\177<J\351\027\275\023\034e\275\033\220\030>\335\262]\276\303\300\377\275\330\233\265<\234\006\350=\250\257\225=\240\342\017>\3670\314;\265\244w=iP\017\276\277xA=:KP>\337\007\362<\333y\325=\256\312\031\276c4\005\276\327v=<t;\242=T\250\352<\314%\034\2758\202\272\275\341GI\276;\201\304\274\210\243\214\275\316U\354=?\333X=\254S\026\276Tm\301=\361\364\273\275T\271\217=\275\234m<k\254\313\275\224\377/\275\344B\022>\252?O\275_\323\035=\275\037\033\276^\367A>\363\340\351=8\244\350=\363\343x\272\016\265\236\274\265^\026>^\3467>\262H\330\275\350\326(>\214v\261=~~\360\274\205N\004>\010\n$\275\247\350\263\275\004\264\347\275\211\214\276\274\255\001N\276;b\315=\362OI\275\245q-\275\341-\016\275\034M\035>\026u\303=\366O\202=\246\364\231\275\316\375;;\355\264\004>\335\302\007=6\321\337=\236\230\031<\234E\277=\323j+=\362\340\353\275\210\021\021;J\035\223\275\207\330\206\275r\264*\276\322\036(>\315l\375=\245\275\030>\332^&\275V\305l\275K\310\377=\004\002,\276\300\270\245=x\206>=wC\017>\236\026\262\275\345\221\267=\347\262)>\252\242:\274~B\r\276\027\260\026=\352E\214=\356d\017>W\347\366=\362\212h\274\354&\324\275cd\213=Z.\001\276O\033\277=)I\013>\343\300\367\275+|(\2757X\271\275\375\373\302=\352VL\275M\000\360=\371%\035\276\021@\331= Xs=0T\241\275\010\310\276=\327\324\010=dIm=\t{\364<\\5@>p\372\332\275\363\230\027>\204a\223\274\250q&\2761c\325=\302\305\362<\366`\017\275O\033v=e4\246\275\303\226\375\275\250Q,<\347\206\250\275p\"\370\275\2351)>\303\t\311\272\202\376\330<}9)\276\004\225C\275\364\374\356=\334l\014>\325Ql>\3065o\276M\372\000>\364\020\316\274f\"\274=)\024\306=\372\235\330=\"\306m<2\365\000\276C*b<r\205\312\274\272\212\247\274\270\224\236<\210l0=^]\207\275\262\351N=\217s\314=\351\237B<-\356\343;\t\361q\275\224\036`=\324E\002>e\345$=\350\213?=\3525g<\331\030\240\275\035?\024>W\362Y>\212x\320<*\375\273=\274\206\002>\021\332\216\274\325\211\037\276FO\201=\375\250\376<i\017\275\275w\027N\275\030\345h=\263\006#\276\302@%>\266\342\206\275\240\300\253=\3138J<\3319\215=q\177\037=\343$v\274\247\343\025\276\0034\177\276\211M$\276\321cw=\036D\256<\3722\346\273\376\372\016\276\3140C<\346r\270\275\241\021\211<\317I\023>\036N.=n\244\037>\351\274\245\275\252\243\353\275x\202\367\275\326\362q\275\203\013!>\207\247\341=E\0272\276\365\273\004\276qyY\276\314$\021>\224\216\270\275\311\320\242=}h\302\275Tx\026\276tJc=\t\366\010=o\251n<\271\313}\275\035\337\206=\3045a\275\206N|\275\351Rf\275&h\276<\310\227\271\275\310f\210=\262\325\206=\335\220\035\275\001\263\004\275\327K\340\275_\327\263=\374\014\035\276\327L\204\275~\214\263<4\306\'\276\336\034\264=/~\342\275\375Z\017\276\236}\263=\277F\254;\013\243@;C\212\234<\333\343\223\275\016\353\352\275\001r\275=\223\374\214\275\037M\306=\316@\002\276\277\243\307=\207\301\346\275.\254\367\275:q\352=\274\204\001\2760e\320=\323\267\022>\321\344\347=\234\326\365;\0047[\275\336\376\264\275\323\343T=\270\201\003\276K;\223=\353Q\352=k!\271\275\362O\006=y\242\006=\313\213p=\272{\005>_3\322\274\372y\336\275\222\371\357=\220A\220<\211\213\035>Bh\033\276\264\277\000>\351iB=\031h\315=C\274\017\276\235o8=\006\032\232=\206\202\014\276\'\314\244=\216R\r>93\335\2758\3464\276\\\\\177=\267S\025\276\365M(\275\300;\212=\0331I\276`\235\303\273\243\277\227=\257}\">5\233\036\276J\033\243<\030\320\037\276\2642\031>\004\216\205\274\036C\272\275\013\267&\276U\030$\274\266u\306<\301]5\274S\361\026=@\r\335=\301|\003>\377\027\000>\216NO>\016A\332=\351>\265<\035\324\314\274\000\033\210=\276\025\003>\004\202\005>D\340\313\275JT\010\276\340\316!>\255\270O=i\201\274\275\025\261\232=^y\325=\222\207\325\275\321p\265=\331\374\014>\202\261\374<\267\275\365\275\305\252\340\275\234\335P\276j\334\370=r\227->\214L\373=\253\037:<I7w=\266\006\324\2756@\366=\360\037\030>\237a\304\273\240\211\207\273\200\370\025\276\031\363\010\276)Z\370=\202\373\320=\273\365\313=%\267\300=bG\334=)\303Z=@}\335\275\200\376\031\276\270\020\231\273\023\352\021=l\230%=\010\003\t\276J\245\024\276s$\263=\303\376\270\274\023\"\206;\2414,\274\314\037\243=\331^\332=\022\000v=\324p\247=\351m}=\234\3715>\342\366G\275\227\244.\273F\337\027>sFh\275\272\217\230=\037\032\345\274\236g\010\275\201\363\222\274\221k\364=\217\346\357\275\225\n)>\301\263\367=o]B\275D\245\215\273\2575\232\275\226\346\310<\260y\373=v\336\220\273\244\014\351\275/98\276\'\031\"=\376x\374=/\265Y=\210\236\320\2756\203\243\275\320a*\2766wt\275\347\316\262=\031\2631\276\2523\232=B\231\356=\311\313\241\274@\252\304\275#\340\231\274\204\0372>RG3\276\337\202\036>\004-\205\275\031\303\021\276H\241e=w\366~>\247\301\375=\3436=\273\271\202\375\275pR}\274\225\022\212\274{g\362=\021k\000>\023\275\353=\320n2=|\220\213=\327e\205\275LU\000\275\242r\320\275\277\031\t=\210\3716\276\335\321\034>ruR<\357\\\221=\256\374%\273\311*\201=\303\250\234=\322\314\306=\232(\224\275\306\020\372\274\314YL<\224\253\325\275Zlh=s\311<<\255dZ>\036B\352\275\331\305\230=;B\231\275\212-#\275\266\345\036\275\352\245\020>\243\\\010\276\373\326\313\273\013IX>T\t\020\2741\'3<\276\252\317\274\242\374\003<H\276\014\276\216\022|<\365\366\025\276Nr\346=\017\001\003>\025\026\234=\020nF\276A9\216=m\032&>\347\'\230;[v\266\275\213\006]=\262\230\014\275\0275\231=m\315\355\275Y; =\314\307/\275\375~&=.#|>\242\345\200\274\343\'N>(?\024\276\346\023C<\370\265\315\274\303\370\037>X\314f>\004\030\341\275[[\360\274\346\301\211\273b\234\225\275X&\375=\354\033\377=\t\327\\\276\020(\223<\360\222\014=){\034=\250\342\332\275\251\005D\275aTJ=\223\347\377\274P\336\023=\241\322\275<Sf\221<\304JW\275\247\357t<E\3059<\031\036\346\274e\322s=\244\243\326\274\3705\334\275+\'\030\275me\253;\256y\366:,\312\274\274\310\344\345=>\320\032\274V\313\305;2\'\201\274\202J\027\267\022\321\364\274\354\017P\273\030\000\n\271o4\261\274\360&\340\275\0359z\275\324\017.\275\241\277\243\274l\313\230=\353\236\223;>\246\270\275\r\320\r\276\271|:;\330?\213=\245[@;\356\323\317\275\260\325\235\274\315\245\261\273\"\274\321==r\000\274\373\332\333\2750i\006=\223\345+\276\203B\220<\374\376\274<<\352&\275\366\232[\274E\374T>\221c\253\274\204\376\025=)\233\324=\264d/\265L\222(\274)\332\312\274\256\006\177=\312)n\275l\007I=\316\236\036=\372\027\227\275^\306\264\275\203\272\356<\']\256<\033\007\025>b]<=+\357\330<p\220\373\274\267|<<\372s\225:\256[\277\274\337Z?\275\372\2625<d\262\225=\305\301\335=\021\221?\2750\375\373\275v\312\345=*\315\271;\277!\035<\020A\275\274\250\265\010>d\203q\272\030\234\271=\264\016\000\276\377\211\030\267^S\376=\224\177*9\260\203\223;{\332Q\275\301_E\276\036f\016\276\327d\251=\314\272\323\2753\314\203\275\344@\253\275z3\324<\224_\376<!:\035=>\255\321=j\006\374\274\267\001\246\275\023\213\254\275\344f\224\275I\003\242\275\0277\r<\374N\201=i\365\023\276?_\341\275\303^\232<\207#r\274\024[\251\274\2576\007\276[M\262<\361\362\001=&M\n\274Kp\276\275c\277M=\214i\014>v\247N\273$\257[\274\360\335\230\275Kd\254\272\223Z\332<\270\235R>/\350\261<:(\233\275\020\340$\276\311\235\320\275\375T\233=\320H\020=~\211\367\275\334\037\006\275\037\216\323=\212\237\365;zhE\276\032\267\262=\264\312\344<\327\277\267\275pgq\275S\330\273\275s\2400\274\253\276\007\275\223\214l=\216\370\037\276\017\t\001>D\302\261<\377y\246\275\226\271\243\2750T\001\273\256\031\022=&\006\273\273>\215\307=&\350\323\273\342\305_<\261\220\004\274e\262\333<\215~T\276u\347\301=T\301\336\275j\262D=\013\310-\275\301\217\326\275\357t\017\275&\304\037=u\337\350<&\345\005\276\016\263\022\2723\375\352=v\224;\276\346\240{=\001\353\246\275\233T\364\275J\203\034\275y\212`=\355\235\237=3\273\032>n\350\271\274.\tJ=\267\014\252\274\360\001<<\202,\026<\305\326U>\024\263-=q\031\216=\272\332\225\275\346\234\324\275g\304>;h\241\213\275\214\212M\275\336\273\275\275;\350\370\275\310\373\367\275XB\271=\256\357P=\370\246\222;\r\247\234\275\347^\274=(WE<\340\023\243\275^\023\004\275\342\263\022>>c\353\275s9&\275d\336\245\273\266X:>y\036\356<\363\364\350<\005\2660\276\007\001\337\2759\315U=\252ji<V\017\235=$\340\205:,\336\307=\247\346\343;Z\310N:\347\250*<\271\355\303\275\226\035R=\212\356\361<\027\374\033>\311l\344=\000\217\031=\263\212\210\275\254\366\313<\3459\316;v\001\037=Pf\010\275\300]\301<^\354E\275\r\211-\276\303\263v\275\343\252\207<\302\266\325=\211/\013\275\231\"\251=z\275\334\275\213\242\037\276\364\205\273=\221F\303=Un\030=\022\210P=O\\8=)\347\211\275\257\346\247<\2411n>\310\346\n<d\315,<+ \013>R\320H\276\372\201\327\275i)\327=j\3538>?\304\245=\356\213\234\275\343@4=\014\333j=\275\213B\274\023~\272\275\334\007\274=\t\220\260=\033\327\013\276\214I\"=\254\325I=0<\321\274\014\034\210\275\307\376\352\275h\n]=\033\\\335<\310\3451\274r\231I=et\277;#\027.=\310\007\033\275i4\301\275\204(\354\274}\023\2629\332z\314\274\t\305}\275\325Ze=\225\360r=a?\337\274\253\215\345\274\241\035\212\275\215=Q\275\007[\317\275C\307\374\275\0202\207=S\013D\276^\023\361\275P@=>Df(\276\307z\241=*\215!\276%\332\365\274{\322\004\276\345\212C\276\rL\374;\242\225\375<\366\336\325\275\352\271\006=K]\307\273<m\210\275y{c\274\037\010&=\376.\354<\242\260I\276\304\263\302=>V|:r\000&>\025\374\t\274\n\213\242\275V\256\035>\267\225\220\274\234J\020=\321\365\252=\367\314\326\2753\232\032\275\020B\003\276\263J\337\275\033i\240=s\333g=U\254\200\274o\331\n=\333J\312\274r{\214\275}\004^=K\310\023\276+\025)\275\250<\364\275)\235\200<\034\356\345<\025\3037=`_\275<(v\301\273\340\251\210<\334\342\007>\353\004\207\275:!\315<\324\350\372=\374\327\031:#\"\243=\330\\\202\273\252\365\"\275jK\325\2758\313\016\276k;\022\276,>w\275\246\203\017>\241k\307\275\013\366c\275\261\210\374=:c\010\275\016-\213=\244\335}\274\r\223\200\274^f\364=\000+\"=\261\232\233\275q\371\254\275\312S\354\275\n!\337=\005;\n\275w\200\310\275\023[\275<e\265\027\276,\210,>\217\377\330=q/@=\305\231\341\275Q\317O=\245\330\204<uJ\330\275\"\211\306=l\r\270<0\214\227=\244\277\031\275kt\251\275y$5\276\213F[>z\233\213\275\rpG\274w\002{\275\356`S\275$\220\215=\341\327\233\275*\310\303=\254\227h\275\213\252\220\275\325\256\272=\222\346\033>-\007&=\246\315\004>6\307\214\274Am\020\276\023\325\363<\277\335\322\275l\n\350\275S\242&\275f\300i=\347\306g\275\356E\"\276r\034#<-+\036\276%\371\277<tD\027>\032J\026\274\3006\310=>`U;\254\340\037=w\034e\274\224\3162\274\314\246\322=\006\375\347=\202\270B\276\364\203\275\274\332\001U\276\027\005\021>\351=)\275\305\331\253=\\EE=\270\305\004\276`\252\201=\235$,\276\343j\357\275g\316\000>\017\016\306;\323\020Y\275\241\r@\275\003\\\025\275\264Z\273=n/\r>:\240\215<\220\013\r\276\\\313\022>;Z*\276\022.\316\275V\246\327=\264\210\307\275\267\240\037\276\322_\007>\266*\n>\207H?\276\230\234\245\275y\300\017=\344\222\311\275\021\313\231=\273l\022\276\244\030\325=\206\212\357=\331\261.>\342\177\236\274q\001\t\275\031v\272\275\352sG<\303\262X\276){\332\275c\026\350=Q}N<9\".\275\213\221\255=\324\216\003\276\332\275\275=\361\276N\275\013\264D\276[\022\'>\034\217\207\275X\336\014\276\315E~\274\033\224\004\275\025\233\262\275T<\334=\232\334\224\275\340\376S\276t`[=\264\3430\275\257\341t=<\334\031\276\322\217\236=bw;=\244I\020\276\342\200\223<<\373\226>I7\256=uF\325\2756`\225\275\204\253\211<\r\244V\275\213\227`\275,.\314\275\010\257g\275\301\313\030>\201\376\370=\005\235\001\276e\230\242\275\035\\\010>\177]G\276\022\232\001=/zN=\244g\366\273\373\003\224\275\242\306,>M\031\373\275}\247\272\275\271\274\256\275\273\036*\276h\305\222\274\307&\206<\246Q\001;\345\351]:\254\233W\273\224\314\374\273>\235 \273\2678\275\272,\335\001<\264\261\346\271\256\234\267\273\207\r\207\274\277,\237<\247\341\273\273\245)>\274w\207\366<4\257\265:\3218\220;,\345k\274M\004]\272\261\242x9\344\220\036;\373\364\025;\025\331G94\207\032\273\253Q\0145\r2\3535\212M!;H\371\367\271p\370\232;eE\374:h\n\252\273\206\'\363:`\357#\270z\241\224=\340\336L\271\\\201\371\274\001\360I\275\275Y\224\274`\317\372;l\261\223\275B\254[\273(\2709\274\356\373a\275\257l\260:\350(\004=(\032\373\2734\022\014>\270Q\356\271\024\321\255:\"\352q\274\314\345\021\272\256L\303:Q\220\224=3\351%<IH\r\274l\0250\275G\212\2038/\007\'\265\371\215\226\273\"\211\207\271\273\317R=\251\360\023\275\225 8\273\202z\214\275\332\346\3307ly\003:\242B?\271\321\375\220\272dX\351\272\274j\251\273\366\356q\272L\013\374\271\230\250 \271xU\224\272\'\347?\275A\036\237<\264\361O:\322\270U\274\251U\214;\237/\334;*\032\227:\201\030\233\273<%\361\271\224\361y:\265NQ\274\310S\203:\035\3222\272\221\337\272:L\211C7_\21465\223\230N;O\301\260\270\037\345\331\274\002a\225\272t\010\312\273\323\223\037\275\272\007X\267\337\2053<Mv\237\271\350\354\r\273\261\260\263;\254C\362\273\364\tB\272.\315\205<n\306\302\270\344\361}<\250R\211\274\027\345\352;\222\022\202\272\240UQ\274\266G\003<\000\t\177;\262v$\272\201\016J\274\256\353|9\202\016t<\276\213A\274\030[\264\273\266K\255\274\223X\024\274J\032\005;\301#\"\274\\\336\267\273\314WP\272^\017\037\274PA\006\273\303\355)\274\005\247\016\275\0202\364<\202\335(\275\016\262\013\276\243\253\247\2750\276`\275\376\377\210<\300u\324\275B\345\221=+\365u\275\217x\235\274\017\227c\275\007l\300\275\005\313\273=\305D\016\275|$\233=j\301\014>\270k\242=\r}\246\275q\211\321\275\254\246\237\275T\205\330\2758\205\270=\215\237%>\245\372\365<N\355.>\301\221\374\275\370\252\342\274\277\003\364;\230\016\242<!\033\255=~?n\275\352\201=>\364\370\320\275v>\264\273\203o\312\275\310\350\373\273U\376\351\271v\215\367=\335m\270=\036f\367\275\241b\003>\332\255R\273j\020V\275_\022\203\274\252\323\255\275\213\275\325\275\347\007\217=\003\341X<\227]\030\276\213\024\017\276\255U\027\276+\213h\275\354Re=o\000=\275\020\"\277\275\205R >\202\304\004\274\246\250\274\275\361\265\023;\330<\246=\234\372\321=\235D\301\275`\233\351=T\254\334=$\360\313\275j\262\222\275 8 =X\200\276=\236\264\224=\357\226\314<\2300\276\275\226\340o=Y\214\"=\004\306\302\275\362\211\256\275\016>\261=\363\"\326<R#8\276heH\275\027\2045\275\231\236\272\275\251\002D<c\277\213\275\347#\322\275\221\271=\275I\024\347\275b\243\030>\216\212\222\275i\307y=#\0028>\203\210\374\275t\231\000\276\254u\243\274=\337\r\276\005\340\270<\024\364\372=\232\204\030>\205\346\231=\206\272\027=\337\337t=\201\023\212=t6\035\276\235*\261=\236\223\026\276\363|c\275\313A\000\275r\231\034\275\251Z\246=f\331\223=H\233P\271\227\252]=\233\027\244\275\260B/\276R\214\315\275Q\'\327\275\033\254=\276\001O`\275\252\225 >\003k\371\275S\310\">:.m\2753\205\361=\374]\245<\245\032\307\275\240\302\013\275\225\235A\276_\253&\276\333\213\273<\301S\014\276\226\032\313=\207\210X=\256L\225;\374}\030>\"\304\350=\205\306E=\234\331\211\275\272\376B=\262h\260\275\3427\235\274\005m7>\354\344\227\275Zme<\210\177o\275\245\305\335\275\335f\205\275\"\302\243=\370\027\032<\204$\035\275\r7\t\276O\223\002\275\372!\001\276q\347\004=\232\217\326=\224\326\274<\313(\001\276\325\377$=\031\346\352\274jz\207=\340\230\252\2753\250\365=t\\T\275\362\ny=\233\004\033=\030!U\275\214\271\211\273\361.M>\205n\031>\255\2062\276\345\243\027>\026\275\243=\223Y\303\275\017\000p=Y\223M\276\272\366(=!\033\242=tp/\276\253\364\200=z\\\227=\323\251#\275%\256\201\275\272xK>\221\207\202=\333}\201=\353v\272\275v\361\">p\202x=\234L\314=\327\275[=\027\334\315=3\'\343\275\362\312\003\276\357\325\230\275\355\330\255=z\222\325\275\311\321\021<\2375\337=i ;\275\315q\256=\020\227\263\2747\005\325\275\200\277\216\275\325\250\216\275\334\000O>vB\302\270\204v\r\276\207\360b<\3261\260=\"\035+\273\360\363\250=T\3564\276\2057\034\2755\026\t>\324\3127>\360\335\266\275\353\235\214= \006\341\272\375c\254=S\361\324=8\3133\275\357\020\207\273\362\226E\274\267\013\214\274\007\245\022\275\344\207[\274\203\271$\275<\026\354\275\373\324\326=\246\366\224\275mJ)\276\"K\212\273\0313d\275\267\354\321\275\242q\223\275\351c\243=\340`c>\351\036k\275\244\206\010\276\312\227\351=\304\362\203\276k#\353=\303\365C=\355`\036>\3119X\275\301\324\346=\350\037\363\275j7u;?\"\271<u\017p<da\323<\016|v=\221]\010>\216\371\336\274\215\357\221\275\216\241E<\004\264H>\001\212\311=\303\333}\275\246\021\340\272\231\225\235=L\304k\275\370\036\010\275I&\320;\227JA\275\006\366\315=\326\r\257<F\321\315\275\\\005\331\275\3033\221\273\305\366\361\275\007\204\024=H]\363\275\031\006c\275\266\202z=\234+\314=\355Vh=F~i<\354K\312=:\242\365\275\373\317u:\266\036;=!\364\345;\250!\341\267_\275\233\275\202\201}<H\033\026\274b!\315=K3\206\275\243\323f=X\205\306\273\306<\210\275\337\307\356=\332]\362\275\021\032\366\275Q\225\356=Rp\366=Vq\202\275\262\032\025\276\207@\022>\034\313\200\2758\353\253\275\006\272f\275\2600\030;\240\342\023\276= \275\275+\310\233=w_f\275\243\371\316\274\357\014\r>\311\027\314\2750r\354\275j\255\374\275\221\265z\274\2758-=/,\003\274\346]\031>\231\320\234=oH\232;\373>\244\275\\\013#<\307\024\017>v\020\206\2750f\016\276\357\305\227\274>\231+\274;e\005>\263r\340\2753\301\250\2741g\217\275c\275!<\r\224\336\275c\370\276=\313@\033=\312\301 \273k\324\272=\265\310\233\274a\355\306\274-\254\250\275\262\322\375=\363\\\247\274\023\353\331=O\362!=w\351\255\2751\312\225\275\\\261a\275\233\003\350\272\255H{\2728\266\327;\307\n\357:#\270\246;\330\332\014=\303\320\224\275g\300z\274\256\305\332\273\002\201\260\275\331\036\\\275\254\330\034=\372y\325\275\357\"\266=\251\367\347<\261U\336\275K\273\007\275\324\\[\275\021(\301\275\034M\024\275<f\036=\304 \336\274!*\315;\227eq\275\032\006\265=\017{\036\276\273\247\375\275W\n\231=\337\334\215\2742\027\215=\006\037\303\273#b\317\275\337\242\337=8\007\342=\203\037\213\275s\333\207;\361\244\202<\341/\036\276\240\267%\276\234I\003\275\371\204\323\275\230\343\320=Q\241&=wrE\276\020I\253=\016H\022\276\353\301\"=\313\264\317<&\321\260=\305\260 =\342\263\032\274\236S.\275\340r\367\273\256_\216=\230q2\275s\233\254=\362\033P\275N\r\307=z\032\266\275\024\270m\274\342t\375\275\223\033\210=\326\206\006=\320N\354=\3000\025\274x\360\231;p\310\002=u\357B\275\031\313f\274\334\342\323\275G8\226=x15\275\332(D;#F\363\275\276\273\231<\306\3653=\364m\017\276\337o\227\275\354{\264=\261\222\350\275\363\243\022\274\262\010|\275\340.\336<sD\206=U\023k\274\336\375\005>\245OZ\275\'\0324=\350\311X=\233\034\225=\010\252\335\275\351\224\311\275\216\260U\276\356}e\276\313\363\010>\374\305\372\275\223\333\232=d\245:=\037`\037\2745\024\014>\324\3678=\021\017\350\275A\013\n>\303\000\232\275mP\264\275\0018{\275\271a\332\273K\354\317;p\247n<\214\370\244\275\233r]<\204JQ\275\'\274\334<eb\025>\277\205A\275?\374\273\275\246\365\334<\005\354\263=OX\247=\322\371 >\3170\210\274:\357\243=\2103\r\275\353\377j\275f\323\014\276\330\216j=$\007\237=\027\215K<\267\r\010\275\361!;=B\tV<\241\013\000=\006\227\340\275\336k\203=wj\004>B\272\341\275\326\217\013\275/|\300\275\371\t\311\275\216\264f\275\346\373~<\210\035\210\275\234\247\213;\374v\241<\026\245#<\235S=\274]\033\352\275\276J==\353\3573\275\177\001\302\275\204n\010\275C\003\372;\270F\210=U\230\223<\362\036\216=\263A\350\27543\230\275\316\030\355\275\372\342\277\275\372\310\031=\224__\276\231\301O=\3172\t=\306\372\264\275\320\337\233\274\217B\374\275\027a\356=\n\007\306\275\354G\244\273\217\240\007;\316\007*\275\326w\263=\177\347\326\275\262A\030>\\$\325=\351Z\245=\031\204\351=\332\266%\275\365\232=\276\020\213\224\275\t\204\026\276\215\250\362<-\350@\275,\270P=\003*\254\275\241r\273=\000_\204<\'\354\326<\257\3707\276|\336\367=\201G\226<K})\275\352\233\340=\037i\350<\314\320\037\2769\2741=\377\226A=\301\216\340=\374\240v\274\016\267\000\276\273po\274\200\221\277=\177`\256\274\033\253\035>U\317\267\274\307\266\n\2750\377\215=\024\003B\275\330\357\346=\214=\323\275,\231\033\276~}_\275\216\034X=\002\207\336=\032\270\343\275\031Q\305=\253\3416>y>f=\345\224\006>\001*Z\274}?&\275\344\333\347=\370\tX=\036#,>K \371=\203\352g=\375E\240\275\223\217\r=\227\362\327=\020\340\226\274\350\342@=\014\037\026\276=\345\010>\031\353\024\275\344\021\331=. \010;\371\031\032\276\n\327\341\272u\200\323<\347\303\265=(\214\263=\273L3=M4\342\275\363\3411>\303M\264=x\303k=\023\035\273\275\212R`\275\202\356|<5\002P=\346\221\264\275;\362\342=\244\330;=Kn\026\276\301\0072\2760\261\300\275\342%|<\231V\034=\264{#\276\342\200\213=Q\276\022\276\246\205\346=\343\'\204\2738\325\312=\326\277\221\275\362\027\307<]\014\001=\375\037\334=.\302\221\274\"\256\027\276\357\216\202:\304\200\332\273\364E\261\275\200\'\004>\344k\004<@\037\326=\243\221\002>L\232\313=\363M\343=\027e\230=\345\003,>\335>\341\274\222\241\001\276\356\273\350=\300Q\001\276\231\2658\275Z t=H\372\276<\360x\344=\3568\017\275l\305\023=,\240\272<\026|\352\274C\243\211=\375\t\354=\317\212\363\275G\021\371;\271\016`=\360\227\235=\0212\257\275c\007\000=\271\301\247\275=R\262<f9\245=\000W\206=\223S\340\274\002\312T=\006o-\276;\234\366\275T\304\005\275D\302\337<\r\007\260\275\246[\277\275\210\364\027=*$\200=]\177\351<\237\317\022\274\010\224\374\275H\200\021=\n\016\216\275\013\014\272=+YS<\371\256\023>\214\2579=H\315\023\275\007\211.\2757\265\002\276\2070\360=@7\223:\326l\020=A\332\227<v\364p\275m\2046\275<\2451\276\232\331\002\276\231%x={\340\211\275\230j\025>\030\332k=\253\206\334<\251\211\324\275\2612\025\276\265\243\300\275\020u+\276\223\326&>\251\254\034\276R\002\205\274Q\361\364\275&\022\245=\301\206\313=\221\210Y=\nf*\276\255L\236<\264\363\252<\334\024\312<\267\252\373=<EC\275\304\177\232\275q\373\263=?\363\307<\022\013,=\007\323\030>\026\313&=\"\321\250=\371\241\224\274\303P\\<\037E\216<9\030\021\274p\307\217\274E\302s=O\001R>\006\300 \276\276\202\271\275\032\256\"\275B\010\002\275\344\247\003\276d\277\365<\250L\025\276\301~\231<F}\277:t2;=>\233\206\275\324\\>=Fd\004\276?\225O=6\\A<\373n\'<\316z\231<\353~\027>`B3>\003Q\207<\364\212\347\274\222\273\265\273W\333\335<\343\267r\273\311\2649>\230\032\000=\035\257\335\275\322\317F=<4\036=2\365\017<\337\341\245\275\260\251i<\367\364\t\276\253\035|\275\201\333\346\273\365V\347\275\362lC=\375\220=\275\276=X\275\217\377\202\273\340v\376=\346n\236=\310\325\027>\031\353\257\274\275Q\341=*\265\234=^\0168\276\371\250D>7\244\366<\275}\307<x\006\354\275e\257\246\275C\213\026>\362M\320;\330N\030\275\001\265\204<\311\222\226=\201\353\351\274)\227\235=\341\271m\274\3324`<\226\247 <K\275\235\275\035\363\267<\006Hc\275M\r\213\275\325S\025:\225#\001\276\252\253q<\230\321\316;\264\007\r\276\014_\230<@\000\2279\302\375\242\275C\316\240\275&\317\002\274\022E\030\275c\227[=Y(+;\330\246\024\275T|\036\274QoV<\376\2610\274\"w\017\275\312\022\317\272\352\207\312\272\345\321\313\275\\\364:= \350\244\274\306\373*\275\357\313z=\004|\010;(H\234\275\232r\360<\327\010\305=\254\3458\274\314\356O=\035g\232=!\024w\274p\241\245\274.\227\233\275mM\306\274\005Vq\275\002\335\037>\360\203\205=\240M\300=\307\033\221<\034\004\034\275)rp;h`6>\352\357!<\331\367\350\275\375\2221\275\347\005\004=e\251\255\275\375/{<\223we=\213\351o<g\026$=%\3508\275^T?=~B5\273\277\202\205=t\272*\274\202/\037=\272~,\275X\371\370\274\2527\003=\210\3662=\232\327+\275\027\2065=7\2611<U\036\217<J\350\3619\322o\200=6\366\322\273\017\323\323\273\206\255\232\275\301}I=\236\177\022\274k3\265\274\217i\274\274ar\352\272\332\312]<\206zR\273\026$\t\274\251$\205\275\nzM\274\350\001\245\275\241\211c\273w\002\327=\221\370\361\274\361\032<=\222cj<\367\306;=\324\316\257\274TA\245\275Q\233\035\275\t:\314=#,\201\274s\026\314=\324\263\371;=q2\275\177r\002\276\2728\253=^\301\312<\346[\327\275\302\027W\274\360\005e<j\355\230=t\264\246;%\004\327\275\037\242\320\274\327\370c=\020\342=\275\226\217f\275\317\031\022\274\261\"\201\274\323\021\207=\274\217F=c_T\274\037\000R\275R\231C\2753\245w\275\221(\322=\326\372%=\277d\000\276G\013\000=\036\333\017\272]c\013>w\013\020>b\267\363\275`\n\223\275\221\235\344\274\375 \322\271\353\252]=YZ?=8\223\002>\253\352\251=5a\326\274N\261\232\274Q\347\004>\023N\031\275\367\350\256=X\3458=R \367\274Sw\341;\377\335\247<\332J\342;A\036\235\275u\243\021\275\317\310\267<\255\213\253\275\374\331\037<\2040\265\275\217X\274=cK\266=\2127\014\274\023\2622\275M\373\333\275-\0254\275\266\352\252\275\213\274\324\275\213\005,>D*@\275\241\202\217\275K\343\363\275\234\374\221=\257G\021=\304Z\306\275\364l\213=;\275Z\275nD\014\275\235}\025\275K6\021\276Y\022\317=\372\364\033>\210\'\232\274\322:\363\274Y\237\361\273\257\251\304\275!L\325<\023\005\266\275\361\247\221=3\255\373={X\327\275px\301\275y\\\251\275\304\023\030>{l\204<\331\032#>\374?\205<\031$\017>\310Q\300=\244\263\016>\035n\265\275\365\236\252<!\326\204=\2131\376\274U\027#>\231\342\261\275a\316\255=!9\370\275\363\357\346=gE\301\275\275_\232<\321\273\021\276.:\202\275K\347L>V8\232\275\030\317\332\274\307\022\241=\364\357\312<\322y\221\274\3621\007>}p\350=Oo\236\275\334\034\361<\247\\\314\274\363\216\246\275\235E\312\275*\347,\276>\237\017=\342@\245<]\236m\275\030\003\326=\224\004+\274\322Q\217=u\002\324\275D\036\024\276 d:>\255B+\275w\237,=~dI=\314\370i:\0075\301\275\341\363\257\274\222\n2\276\022\243D\276\201\331\001\275uO(=\2476\200\275q\230E>\232N\276\275j\r\216\274\374\2159\275G\200*>\325KR\275;_\343<\373\035\322=\035\215\257\275\313\r\252<\320SG\275\332\241\214=O\305t=\314\351\256\274?\354\350\273\231\336i=c\\\032=\374Om=\315e\262\275\342\261\200\275\021H\205\274\000\251t\274mC\021\275Jm\323\272\274T\357=\267+v\274\315Xe:\322\322\306\274\36042\275\026v\306;\246\254\233<\335%\253=5\027\215\271\210\350?=\304N\034\267\032D\254<K\227\263\274\006\002y;]\2343\275\341\005\365:\0376\261<CE\021=\201\003\227\275\034\316\300\274\021\021\034\275l\376\207\274\002\236\362=\242\326\307\275K&_;JS \275\245\371\217\273kU\r<\317\2457=\235\214\277=\224\272\320=\216\374\233\275\342h\034\276\254\033\t=\206\310\231\274\207\223\216=\320f\334\275\2006\200=\273\237\210\275\265z\351;A\270\321<\032\203\377\275A@$<\221\216\313=\277b\330=\326\325F=\345\302\215\275\323^\214\273\005\261\367<\016\201\337;\374\034\230\273\241\203\350=\336\257\266=\332Tx\274\246\314Z=\344\251\005=\027\232\333;\200K:<Gu\330;98k\275\200$\321\274m\030\3378en\275<\227\323\314;\016\312\000\276\230|\033=\'\360V:\377\016Y\275\340\036#=(\375\247<\004;\024\275\252\025\357=\231\203u;[@\347\274\315Xs<\222\036\013=\376\234$=\343\267\221\275\026z2=\222\321\016<\241\210\251\275\341\204\262<\211\264\200\275\233\311\\;\351\355G\275\324\374\342\273\177\351\353\275F;\005\275\236_\320\275\345\2604<\220)\204<\\\221[;\3056\265<\206i\321\275w\256\206=\225\231{\275\332\246u\274!\374\311<I3\204\274\236\177\204\275\004\360\036<\376\351\266=U\212\371\274~8\306=\234\271[<o\362\321=8c\301\274\034\036\237\274\276\374\374\275\323\205B\275Jz\355=R\030\226\275\026j\276\275\332\021B\276Y\374\016\276\377\r\267\275\3026\r\276T0\254=\241\222\r>v\034\361\275\013\243\034\276\336\217k=\033-\367\2746\371\n\276\215\340\327\275)7\316\275\264\r\214</M\017\275\271\252\271=\022\027\242\275\316\1773<!\032/>\007#\202=o\253\244\275\270\262m=\273\261\220=\027\373);v\r\037\275\0248;\275V\331\205\275\276M\335\275\216\327Z=%\275;>\224\215\007=\230\303\267=\336\320\031\276H\252\371<\217\014\212\273\276\252f\275*\301q=Q\240\246\274\024r\007=:}\346=\021\r\316=\231\316\335\275i{\300=\230\244i<\021\213u=\327l\365\275\277$\223\274`\n)>c\r\351<\227\025\216=\306\261\r\275\211\302\200\275\376\014\254=\253\022\r\276\270\241{\276/-N=\342`\377=\253\254\352=2\r\243\275\363\275\215=\327\343(\275.\0375\275\037@d\275>g\034>*Qa=\270\340\357=\2323#=^\364\007>&W\262\275D4d=S\373\220\275\017\203\211=na\">\003ET\274\322\014\316\275rL \276\274o\374\273$\010\021>\373\243\243=\206\226\373\275\303\206\366=\376\311N\272pC\274\273\006\241X=\263\371\217=\316\245\014>M\340\300<:{\201\275\'\354\255=\307L\"=\325\360\330=\03688=\270x\255=XM\002\276\370jf=\226\210\335=\313\207\260\274On\t>\214Y\256<\021\350\217\275C\325d\275\235\\\320\274\226c\000\274\342\262\277=\334\331\335\275\264\244v\275M/\007\276\'\364\226;$\267B\276\0339\207\275\342\351S\275\220\022N\275\213\332\004=\235\036\252=\320L\021>\257\224\255\275\327>?\275\t\240\327=\240\311\222\275\372\352)>\345o\361=g\271\341\275\337\250M\274\303\262\020\275\206\033\337<\350\024E<;2\335=Ei\315\275Mw,\275\273I^\275M\256\016>\350J\215\275t\261I\275m\002\230\275\236\335\306\275\370t\033=\327~:=\2746\003>\232v\017\275%\224\251=\274\351\030\275\250\324\347<o\3716\272P\rx\275\244\016\001\275G\334 \275\025\345\037\275\356\323\246=\266\234\310\273&\255\005>\031r$<\010\026\341;\311\031\001>\320\370w\275\311\304\276\275Zg\006\275i\301,>Kz2>\316\216\214\267s.\210\275\267\334\333<\227\217\310=\036]/\274\237\360Y\275g\006\335\275\000\257q\275JkC\273\003K\025>XT\361\274\260%E\271\304\224\006>@;\271=\017\365\307=\212x*\276\"u\313=>\034\305\275G\217-=\315I\033\276g\016\006>\023K-\276d\265\333:\026\352\006\2766Qh\276\342\243\030\273\323P\214\274\004\343\215\273\2230\026\275\372d\252=\335\275`=3\360\243=\243H\005=L\307\013\276\227Y\007\276\336\236\231\275\373\366\344\275\331\204\303=F\315>;tzS\275<3\350\274\016ss>\346.,\275\251\361K=5\347\324=\224F\304=@\212\005>\233*\004>\353\221\350\274\324\370\213=j\370\207=\214\n?\275\037\014\027>\201E\001\276\032\333)>\232@\203=\245T\210=h\246\227<\037?\205=\371\267\272\274\251\377\030\276_\356-\275\302\326;=\022u\225=\204\365\251\274\237i\300\274\255\336\317<\226\354-=\360\223\314\275\375f\005>\335\r\212\275\033\034z\275\354\234\035\275\342\202\251<C6[;\003\027\005\275x&\333\275\270\214\303<F\257\233;@\005>>\235\303,<\336/\374=\234\214\271\274\010\235\177\276\213\261\364\275\263K\031\276\374\032\000=\374\310<=Q\250O\2758o\t\272\357g\013\274\276\001\266\275m\262\371\2745Q\006>?q\225=\337\326f:\255\225\201\276\177~\024=\365\225-\276\305\310\312\275\254\035\215=\262\337\352=V\334\312\275\270\305:;Z\2502=C\236\305=\031\344\257\275zZ\267\275Z\311\221=\231f\256<\201?\010>\267\210\315=\222h\001>\204\025\225<\204\233.\276\312\304\3269-[#\276^~\016>\005\307\267=\026\240)>01\037>or<\274\242\336\'>F\332h\273\250\t\317=\006y\007\276\215}Q;\004N\004>Mi\252;d\356w=&\277\307\275\013}\370\275d\321\234\273dO\313=-\276w=D\320\037>\323\002w<g\302\t>5]\330<\024\230\027\276\366y\326=G\334\353\274\232\326\214\275\313\230P<\3362\364<E\021;==9\030>bV\344=W\023u>W9}\275\256~2<r\305\374\275V\2235=\016\257\271=0@\252=J\0148\275\217\317z<]G0>$9 \276[\022(\275\240\013r=\'\353\r>\306W\354\2755=v<\242\265\004\275\242{\001>\232\033\365:))6>6\365\220\275\257\323.\276\312\320\"\275\037\026\251\275A\001M\275\362\237\201\274p\371\320\275Us\003>\363\215\227=y\257V\275BA\027\275\360%\010>\322C\277=\265\364\335\275A\004\335=\2658\232\275\354\232\r\276Q\n\225=\357\036\217=\0256N=KM4=@\250\335=\3102\320=\242\201\323\2752\235\303=\rb&\276\027\223x\275\372\233/\275\225h\024\274V\"\350\273\222\311\323\275\247r\246=\363z0\274\210\347c\275f!\231=\266\264a<|\301\316\275@\027$\276sg\316=\033{Y>F\377\256\275\221\217%>\305_*\276\016B\332\275\006@\r\276\333\n\222=\310@\303\275@W\330<J\367\343=\341\366\257=pq\255\275\177T\r\276IJ\332\274W\257\007>*w\r\276\321\221s=\206o\017\275\265\345.>\315/<=\330\221\013>\255\001\013>\370\351\023\276{\014\263\275\242-f\275a^\311<%\225\022>\254\007x=\323\302\006>F3\014\276\247\225\330=\2665^<\227\003\004:\337\232\217=\031\337~\274\350A{=\205\032\024\275\254\302\332<\3458\335\2743\027\301=\376\216 >\242(N=_Xk<\331\277\001\274\260\230\216\274\362\377.=\217\033\224\274*l\226\274\240\351\253\275\331\343\033\274e\003R<l\245\376\275\2007c=M\312/\275\207\342\211<\014\222U=)\334\225=6\007\213=6\320\260=6U\033>\024s\376\273\255S\321\275\230\262\007>9{&>\2329\335=A\2517=SV\220=\227-2=h\347;\275TB\351\273G1\234\275\224\375\020\274N\304\002>\205C\302=\010R\265=\032=\373=Re(>z\214\307\275\202}\302\274\375\362\241\274\0252\010\276\0000\002\274\243\224\264\275\n\361%\275\264\362(\276\013\2042>\217\324\334=\204\262h=\'\261\340\275\256\211>\275\320\031*\275\357\034#\276\235\222\203\2752i\213=\177\031\301<{a\320\2749}w=\241\367\344<n\365\361=\003\263\267\275\232|\005\273\013\314\304\274\023\324\036\275\263\3247\275\234:0\274\000\245\301\275\235c\020\275NjL\276\273X2\275\320o\233==\3373\275\031\234\000=Pb\030\276o\310\\=\335\354\323=\222\003W\274\334\230a<\017%\311\275b\030\000\276\300\234\270\275\243c\357\274\016D\371\275\342~\334\2751\022\'\276n\311\317\275)\331\210=\305J\264=\232\023\202\275z\243)\274Uu\333=i\005D\2751\002q\274lQ\355\274\236\002)=\352\006\373\274\372\227\023\276\254\035\007\274\037\274Y\275\304\272\367\275\303\025\206\274(s\322\275m&)\276\277\367%\276\030%\210= \0178\275\354\215\353\275\260\260#\276y\237e\275K\r\363<mA\n\276\032v\253\273\'B\304\275\037\336\231\275\260\002\234=\201\3465=)\364\215\272\232\353$\2765\241Y=\312\035D;\345\343\314\273\334Nm=W\303\367\274\036\037\020\276\331\324Y\273\206\327\265\274\365\034\330\272\027\320\312=B#\266\274\033\233 \274\241\337\310<\201\371\221\274:!\370\275\354\003\360\272 \014L=S\355n\275}\032Q=\247\223l=j\270\213<\246|\224\275\375\363\034>v\310\017>\337\276\214\275\363\237\335=\222\022)={\251\000>\337\037\251\274\234\t\034\275N\300\203\275\"\320\306=_\255\203\275\312\222\365\274U\002\231=)r\231=W\250\236=pg]=\345\253\343\275\014\225\305=tj\003\276\323]\356=<?\272\273\316^\205\275\207\266\316\275\007zq\275\016\312\001=\277\262E\274\256\346\254=w\323s\275\002;\247\274\213\323\304=\240X\207<\225|\222=\204$\365\274\325\355\200\274\236\340-=w\305\020>f\303\351\273t\'0<2\305\000<\024\t\257\274\200\214u\274COk\275\307\016\370=\017\356\330=\321\310\341\275{\\2=G\265\226\275\255\376\177\275\252~\366\2759\376\204\274\303\n\374;\312\312x\275\254\255t\275\255\253:\276\245\2170=?\275U\275\205\341\335;n\366$;\253`\266\275[k>=\016\303\005>Y\345\334\275\022\352\203<\274b\362<\353\237i=\220\317\230=,v\245\275\330\276\350=\323\333\247\275\256NK\276m4\037<?\265\315\275q\333+<2\333\261\275\0144\007\275V\331\370\275\035U\372\274\221\354\271\275\354u\r>\350W\000\276T\241\266=N\307\023<\336\300&>\024\004\204\275\273\214\277\273\320\200\366\275\373S\367;\222\346\034\276\207\325\033\276\220\251A<\240\222\n=\357\014-\276l\217\221\275W\377\324\275fH\253\275^\365\037=\375\026\354\275\010v\001=\001\367\361=T%\207\275sY;=\256\350\314=\255\260\231=g>\240<\230\355\026\275a\226\304\275C2\274=\273\3760\275}\003\027>\270{L=\236\004\372\275\350n\346=kA\r\275\265/@=\254\tw\275\231\320@\275\232?\362\274\245\327\013=aN\377=\376\304\216\275\372\216\260<z\020S\274\313l\374\274\236\240\211=s\345\232;\026\350\033\275\023\230\333;\370\362\222\274\356\204\\\275\353w*=?\310\371=,B;;U\363\026\276ru\023\276G\"\005\275\007\320\002>\177\312\263=\216\333L\275\227,\231=|\010\022\276\270\373\024>c\351\343=\311\273\020> \327\324\275\261\"3=\271\036H\275e\352\257\2751\202\022\275T%\031=H\320\262\275\236\227\370\272\227?\314\275e\353Q>\026\374\361\275\003\035\034<h(\370=\206d\214\275\357\320\355=;n\371;\265\2103\275o\221\366={\234\305<\010\361\241=\263\023\224\275o\272n\273NGs\275\205J\215\274\366\247\007\276\013\237|\275\370\317h=\007\357N\276\257v\304\275\342\203\253<\364\320\355;qJL\275\234p\265\275@-\220\274\245E\237\273r\351\320=1w\337=\316\201\267<\352\325\253\275\323\365\242=\355\201\003\276\306\261\232\273\300\224\211= @\272\275\237> \276y\311\220\274\325\002\266\275\301\320\242\273\212\335\310=\257AI=\200\003\035>\334\321\002\276\007\r.;\016\304\007>\232\223)\275F\247\304\275\246\337;\276+n\253\274X\237\010\276\361\327\342\274\341\037\020\276\276\006\330=\016\016\367;\\\014\033>\231$\333\275\213L\337\273\274\252\317=\374\210\220=\2038\272=\375\314a=:uD>:\224k<\017|\010>x\310\241\2758\355\000>p\325x\2754\245U\276\275\220\r=\336\254\204\274\343\325\025=\302\340 >\344S\357=\241U*>\321\036G=\253\350\303<\250^\346\272\233\252\243\273\"\311|=\335\366\371\275\362\340E>9\344*\275]\312\213\274\0337\214=Y\265\034\275\2473H;\354\005\n\275\323\371\022=\313\267\237\273(\245\242=WK?>\202 \036\276e-\013>~\034\377<Q\261\354=\237\032\362\274\231\332_\274~Z\346<\357h\371<\302\304\264=\016\266\246\275\373\356b;\372\035\200=:\231x>\023\203M\276\303`\245\2750q\303\275\221<\354\275\305\313\313\275\204\375[\276\225\343\232=\362\360\\=\'\014\030\276\362\353\234\275\337\304t\276\244r\031=k\324\031=@\345\024>\324\205\265=\251\366$>\335\347\021;\365\324d=F\354G<\315\237\006\275\236m+\272;`\312={\025s\276\203\022\236=\030\003\270=\300\230\326\275\021W\216\2756/\217=t\022->\017\270\256\274\2303\360=\240\314\325\273\373\354\252\273\002\016\330=\345H\206=\236?\270=\367\304Q=\374H\177\274\356r\230<\r\273\211\273\226/\246=\323f\236=\272\334\377\275`V1\2750\205\225=\032C\354\274\323&\003\276\204e\026\276\356\336\006\276D\026\036>\020\311\225>\350\2257\274K\246`\274\020\376\200=\013\\0>\002\032\033\275\010M(\276\235#\000\2755%\001=\002h\212=\232U\002\275? \031\275\275\336\322\275S\214I>A\037\246\275p:\247;N\332\340\275/\303\031>\316  \275b\244\220<\301\354\212<\335z\225<\244x\002>\353d\036>{\241\266<qJ\322=\344\332T\276\3566\246=\233\363D\275[9\231=\333\0212\276\276!\267<\376\256N>|\300\206=\272\t\000\276\001b\225\275\022-\303\2753\374\001>T\236\241=q\231\254=\372\336@\273\343{^\276\026\n\025=\252gT>U^\265\275\261\222}=\213[\002=\334\264\021\276\306o\013=;\230\227\275\342\217\276=v\033\276=\217\206p\275\271K\375<(\021\223\275\0217\214\2758\330\341\274T\362L=\035\210\t\275\220\341\343\275!{\372\275\243\315Y\275I\177i\275\247s\314\274]j\3169\'\370\203=\306\026\217\274\374P\205=\305O\257\275\006\300s\274g\233\245=|\317I<g\"\265<\345/K\275\274\270\364=\010L\233=\242C+<\202W\023>\211L\216=(y \275\262\336\022\276bCf\275\206\035\245\275\203\227&\276b\350\272\275}\371!>\'=\020>\330G\227=\256\345\211=e\360\273\275\"\366&\276\313.\023\276\211\311\031\276\t\357\343:d\344\210\274\322\303&=\372%\244\275\177{\357\274\224\337\002:\242|!\276\014\234\000>\251\232\321=\270H\201\275\252I\001\276wf\360=z{\261<*\344t=\214\310\360\275\0305M=N\263\332\275:\376\315=\032Z\r>\027A~\2759\350\274\274NvZ\275\200A\374\275\016\244\206\273\314\254\211\275\336\272{=\256J\375\275\005Q<=\307\240\303\274}\245\237\275@\343\246=G\222\303=\366$\355<1\225\326<\340at\275\231\331\261=\213\336\010>O\223\004=\352\227+\275\340\245\212\275f]\276<\271=\000>&g\364<Xr \276;*g\275\334\205=\275\366\306\003\275\3320\r=\244\246\327<|6\033\276\247y\271\275\203\333\315\274-\214\365=\317\t\203\275\231t\257;\231H\234=\306E\330=j\345\347=C^\'>\241\363\277\274\346mc\275[>\351=\341{\275=\033\345\206=\272\033\361\275\317Tb\275\360\342B=\007\037\256\275\300\267\026>\376\014`\275\2715x=n\n\307<\t`\276\275\027?\304=JpE\275C\2538=N\325%=\263\261#>\240\375\326=\370\305\217\274\327\256\005=9\261\207\275\022\0172;\243T\323=(\003\233<bF\221=\330\212\333<\341\2047\276H[\241=,\316\354=YB\210=)\235\344:\2617h\275\300\031\263<\354\371\342=\217\272\204=^Z\276\274|\177\277\275\302q7<_`\023=@T\334\275l\273\037>e\004\266;\237\224\342\275D9\010=\320b==\314\257S:\303\322\005\275\224$\372=y\317\256\274c\374\364=\267\365\375;\300\262\371\274\275\3252=+}L\275\211<\367=@\270+\275\352\227C>tu\343=0Q\367=\344\355\243\274\344\201\226=\\\367,>)\000\320=kt\226\275\254$\022>\335\336\372\275l\206\003\276\251\tD>@\215\335\275\313}\331=\202\327\220=\265\204n\276\371\356\323\275HZZ<\370@\026\274\352\0327\275Z\000\303\275\371i\000\276\321;\020>\256\005J\276ca\322\275\242\203\'>\371\343:\275\2325\213\275g\r\021\276(\035\251=\303\177\351\274H)\033\275&\305\356<\227Mg=\23411\275&A\237\274\026\371\343\275\347\204\033=\314\301\037=\350\336\207\275\001d\244<\025\003-\276E\357\235\275(\252\326\273\310\252k\275\'%\211\275\373\"r=\003\305\347\274\356/\"\274\003\372W\275\030\266\037<\277\345\353\274\002\356==\002Y\254\275\231\"\325\275\240\233\230<\265\007\005=\353go\275\226c\210<\325\010\030>\351U\355=\257K\242\275\330V\340<\222\005{=|\3443\274/\276\240=\211\310\251<\332f\210=\031s\263=\245\244\327<AO\226\275\304\211\224\275\247\321\\\2763\211!>\340S\206\275\005\203n==\020j=\014aB\274\344\2123>\262\321o=\205\257\353=\370U\376<}\240>\2768\306\253\275\274s\323=\352D\255<M\301)<\266\353\305\273\340\356X=\215\303\024\276L:#\274\r\355\340\275\300\n\001>ql\"\275\324\276\000>_\260\324=i\225\277<\2301q\275\216\300\343<Qx\022;\2764\310\275{\206\243=\373\003\307\275N!\357\274\366\3278\274\335{\t\276\332\333\312=\"v\021\276u\020c=\253y\271\273\245\375\007\276\007\243\213\274X\372\211\275\221\332\225=\213\240\277\274x!$;`\330\000\2757i\326\274\263\216<<I0\t>\037.\264=\262-\215\273\305\006\375\273\333\333\016>2\277\026\276\257h\026\275\326\375{\275\352\203\265\275\301\313x\275\257\326\016\276j1\327\275\267\377\246\275{\220\342\275;\256\213\275z\255\2609\004V\244\275H\027\026>j\340\227\275\331\370\\=\311\363t\274BM\247=\367\013\026\275-];\276\333\267q=\256!\356=\314\r&>\323\374\262\273\032\321\242\275Q\023\005\2761m\000>\023(`=\361\204\206<\262C\n\276a&\312\275\262\010\363\275\017\177\021\276\t\030\037>\220\305\031:\031\232\r\276\r\322\216=n\3439=\367U\023\2765L,=\212\252\341\275\341\006R\275\365\016\253\275\233\264\371<-T\027=\344\223\266\275\025\320\327<o\014\277\274\203\305\002\276\316\030\304\275\272Qz<0\252\256\275\313\262}\275Z\347\001\275G,[\275~\220\311\275F\354\272\274\345\342\013=k\034\334<\226R\212\275\233D\354=e\351\216\274\023\230\006>\244\243\302\274\337M\225=\n\024\005>\211L\302;\372\001\342=\335\"\242\275}\224\350<]7\367\274 M\340=\2425\266<\027\213\037=9T\232\2749\342\236=\277\220\264<\020\253\210=\232\363\005\276\350\004\257\275\206\006X\275\216\333\t>\233\336\337<\004Y\000\276J\r\223\275\352\221\211=\234\n]\275\257W\010\276\211R\270=\206J\007\276\223\312\341\274yt\266\275\265p\254=\036\267\234=U\316\025>\034hh\275\217\201\230=\n\1776\273r\027\301<d\331\207\275\004\277\010\275\270D(=\321\317l=$\3438=\333\201\230<\345\326\350\274\236\356\031=-\263\356=~\023a=c\005\233\275,&\237=\teI\274.h\346\275\'>\262=\223\363 =>\027\r\274\242\202\377\273\246\240$=`\260/=\000-7<\215\270\014;\007\3231<B\201n<G\360\221<\221Q\207\275\304\275\235\275G\324\311=]\315j<Z?\226=\022\000\014\274\261\035\234\275\275\254\260=)^\273=\\r\342<C)#\2769X\n>\236\243\255\275\375\261\n\276(f\212;\225\237\207\275*C,\276\310i\371\275\023\300\360\274\\\234\243<\312T\005<\2656j\275\007\306+\275\303\0104\275\241\363\260=fF\224=\251\250\004>\313\032R\276l\250]\273r\007*>)D\t\275\330K\n\276\014\n\006>\255\266\005=\020\nQ\275\214\272\010<\177}*>\367\030\205\274\236\322\205\275&\305\213\275\037N\264\275\023\275(<\230\271+;\265\360(\275d\270\007\276\001\030\232=c|\362=V\336\334\275\305\236\020\276.\013t=\225\256\001\276\370M\342\275\276\262\224;\264\"\336=\250_|=\332dN>\261\201\371\275tk!\275]HP<_l\351\275\nP\235:\360f@>I\306\203<\002\375\t\275p\265\035\276\022\020c=\230\305\n\276\307<\377<\242Z\343\275\363\271\007=\177\315Q\275j\365\214\274y\021\207\275\024\034\001\274?\222)\276\271\344\204\275N\315\342\275hd\206\273T\307\343=T\242\240\275Q:\360<3RZ=RT\211=\252\240M\275x\303\034>\021wp\275\221\013\t>\377R\357\274E\"\210\275\306F\003>B\332\311\274\220\361\241\275\315\234\351\275k\346\006>\t\2003<\247\306\227=K;\357\275=Q\036\276\233\251\032\276\254\245\n\275V\002\270\275\360\320\037=\226d\014\276\330`\350\275\374P\324=\311:\234=\367\225\204:\266\025\010=\3046 \276\356\246\022=\336dp\272\344\333_=\215\\\201\275\232>J\275\305kS<U\"\002\276\332\217Z\275\343b\334<5\311\2259\217\310\213;\207\332\254\275\314=\016\276\217\224y\275]\202\212;?Y\202\274\337?\023=\225\r\010=\014\223m\274\321\201\r>\356V]=\346\232\365\274\346-\242;s[\354\272y\027\177\274\336\201+\276\303C\017=\373\025\320\275\035\211\007\276\202\210\013>\377\001\001\275\226\013\263\275\231R\227=\251f/\276\177\247\016\276\252\317\265=uR\022\276\202\302\014\276\020\213\220\275-\261_\275\035}\241\275-\373\321<\310\002/\274\376\2322>\272XX\275\237W\010=\354\336v=m\352\256\274\332\335T>7.\020\276\251<\036>\233\022\376\274P\300 \276j/\377=_R\224<\2702\026\276F\364\237\275\247\330\005\275\021\223\354=,\301\'>;\371\215<\2265\223;wC\265=\345\325\300\275\227!?>\372X\301=\004\252T>jZ\272\275\270G\021<\3345g\274\346G\204\2733A\217=\365\330*\275\214\314\320=\353\025F>^\001\315\2744-\322\274\210\217\244\275=p\t>\372fs\274\300o+>\037\241\330\273<~\331=\317\0033\275\205[b=\021h2=\357\244\030=\356\277\007\276\023u\343=\216\277(\275\035\036\342\275\213%\300\275\010\305G\274p\3632\276\246gO;&\022\024\276\025\031\311=\030\356\272=\3057\313=_.L<\377\371a>\032c\277<\312~;\275\251\340\024\274g\373\305\275\363\332\003<p\263\243=\351\306n=1\005P>\317\210\016\275\241\302t=\315\216k\276\234\020\233\274\304P\337\273\202\014D=\270\217\322=_\002\215=\212rC\2759\374\n=\262\346\021\275\220\376\\<\n(1>\224&\321=\241\227\354=Gg\203\274:\276?\275\030\215\020=G\336)\275e\243\355;\263\200C=\031=\035=\252\271\000>\325\320+\273\276\361\317\275\236\316\217<\354 \244=/\352 >\234\231\241\274\253\027\224\274\366\317g>C)\331\275k\214R<\036m.\273d)*\275E\301\r\276\226\371*=\244\003\246\275vu\237<\206\0142=\027Z.\276\301j>\273\376R\034\276\230-\212\274\3378\207\274\307o\301\274g\206\244;\323\376a\274\022$\276\275\026\261\213\275C\247\014<63y\275\265~\255=\322\033\t>_K1\276\327i\033>\361V]<\335\214W=W\201\037>\215\331\030\276\001\352U\275gn\026<\252\355\324\274V\354\004<u\263\227=[\222B>-M\366\274hRb\275 \r6\275\247~\221=\270K\357\274G\016\253<9\260\325<\'\215\325=$\360\202=\220\221\340=\233\342\035>`\033\265\275\255G\224\275\235\370\340\274\n\014-\276\344\356\263=v^\365=\354iq\2764I\271\275\247\247\215\275K\224\354=7\220\260=\014\264\353=\243\301R=\024\007\366=\307h\352=;<\356\273\017\321\257=\246\001\373=\305}5\276\033\370\203\274\373\310!=\232\220p;ZG\271=\3651\370;X~\303;\t\000D\275\2530\241\275\345\202m=\026lY=\0220\263\275\003aG>\225\013\016\275\263>\366<\314\n\240=\235\262w<Y\200L=\323%F\275\242\341i>\376>\272\275\200%\365=\327x\217\274\356x\314\275\304uW\275\311\355\245=Xg\322\275\273\300\345=\221\253\363\275<$\344\275O\305\240\275\310X\275\274\007|\342\275Ob\230=\243\313\025\275)z\227\275\204\263\216=\344\211\212\274i\331\231=\372T\024>$,(=M\364\313\275\307N\325\275!\005\343=\033;\271=\254\342Y\275\227\257\223=\022\327\306;G\303#\274`\341\255\274\377JA=\244=\334=;\304\375=\236\315\327<\241\275\026\276&c\247<\305A@\276@)}=\222 \274=\374\016\302=~\314\020\275@fG\274\036\1775<+\324-=\251S\200=\005\341\013=1\366\274<=\244\314;\200x\206=\337\306G\275d\343\216<\266`\266\274\027g\034\275\032\306\237\275\343\214\022\274\367\317\313\275&\340\217\275\366Z\027\275\317\354\321<P\315\277\274w9\031\275Z\r\026\275\250\220\367=P\000)=\267\231\242=\021@\033>]\032_>\331m\333<\245\232\222\275\325\245\256\274\312\\\216=I\306\332=\206\234z=Y\030\346=\337\275\351\275sO\024\276i\212&>\023\025H\275\221\002G\276\003\255I\275\177`\000;\r8\357\2740@\365<!cp\273\322\262\333<\207xz=E\323)\274f\354\033>>b\301\274!X\310\275\250f\334=\035\005\322=PS\356\274U%<>\2531\024=\337\246\323=2\341\261\272\027=\036\274\035\034\217<q?`\273\274\305\334=\276\025\\;\214@g\273\001\\\007\276\201\352\005\275\211n\032\275Go\034\276\366Q,=\355\003\271\274n_.>\036\231\\\275\254t.\272\t\004F=\230]f\274n\224\250\275\247\002\006\273in|<\200\032\344=\374\275*\275\364}\210=\304\302\307=\023\006 \275\303\350\357\275L\016\230=Q\340\260\274\321%\003>\0205\017<\256\320\017>J\2153<\305D\200=\352\347\271\2759\223\025\275\261k\202\274B\2754>[2\377=z\310\230\275\207\331\372\275@d\276<cT\000\276\320 \215=d\'\025\275\340\265\036\274+\223;\276\243\302\025>8\336\302<Y2\215\275\032\003\372\275]\340K=\266\'\002>\261\375\316\275\3524\230\275\246\260\353=\007\036\315=\303(\356\275\371\022\363\275(6\034=\216\007/\274\035\223\200=\246\377\010\276\326uq=g!\021>\202(\021>I\t`<R5{\275wo\307\274\214\334\246=\261\364\030\275\362\373\001\275>\026a\272\004\217\346:\332d\326=S\242\013>\367\'\206=\317\244\024\273\002\346\016=E\333\024\274\223\205\213=i\275a\275\314\235\231=\351\332\314=\373\342\373=k\214\t>\241\335\000\274\230\242)=\t\362\244\275\226\022K\275;\210@</\331\310\275\351Y\241=\351\251\264\275\010\203^\275\201\346\241\275\326a\214\275\223\225)>\314g(\276C\344:>\3044\310\274=\366\356=\350\244[=\2022,=W\246\257\275\207\216\013=\262\221Z>{}\304\272,