node {
  name: "input"
  op: "Placeholder"
  attr {
    key: "dtype"
    value {
      type: DT_FLOAT
    }
  }
}
node {
  name: "transpose/perm"
  op: "Const"
  attr {
    key: "dtype"
    value {
      type: DT_INT32
    }
  }
  attr {
    key: "value"
    value {
      tensor {
        dtype: DT_INT32
        tensor_shape {
          dim {
            size: 3
          }
        }
        tensor_content: "\001\000\000\000\000\000\000\000\002\000\000\000"
      }
    }
  }
}
node {
  name: "transpose"
  op: "Transpose"
  input: "input"
  input: "transpose/perm"
  attr {
    key: "T"
    value {
      type: DT_FLOAT
    }
  }
  attr {
    key: "Tperm"
    value {
      type: DT_INT32
    }
  }
}
node {
  name: "reshape/shape"
  op: "Const"
  attr {
    key: "dtype"
    value {
      type: DT_INT32
    }
  }
  attr {
    key: "value"
    value {
      tensor {
        dtype: DT_INT32
        tensor_shape {
          dim {
            size: 2
          }
        }
        tensor_content: "\377\377\377\377\t\000\000\000"
      }
    }
  }
}
node {
  name: "reshape"
  op: "Reshape"
  input: "transpose"
  input: "reshape/shape"
  attr {
    key: "T"
    value {
      type: DT_FLOAT
    }
  }
  attr {
    key: "Tshape"
    value {
      type: DT_INT32
    }
  }
}
node {
  name: "w_in"
  op: "Const"
  attr {
    key: "dtype"
    value {
      type: DT_FLOAT
    }
  }
  attr {
    key: "value"
    value {
      tensor {
        dtype: DT_FLOAT
        tensor_shape {
          dim {
            size: 9
          }
          dim {
            size: 32
          }
        }
        tensor_content: "\334\302\267?\273\227\205\276\274\210\013\300\332X\316>\266\310l\277\271\340\210\277\302\226\260?\262\251\343>&\240\224?H+J\276\254#;\277\177\322\256\2770GM?\003\241\034\3007\010\363>\264c\206?z\243\023\276\223\345\326\277\214\3278<J\276\233>\253S\200?x\014\356?\302N\023\277\360m\347\277\317,J?]\364$?\031\254>\275Xic?(t~\277\034\212\202\276\244Z\263>,|q?\275-\307\277\223\350Z?\225\351\003\277&\226\002@\253sS\277\023~\026@\266\361\346\276.\276\226\275\344\223\234\276\037p\007\277\332\024\320\276m\004\027?\234>\327\276BQ\305\277O\344\320\277?\215x?Q\342\034\300\024c\206=\342\255\252=*y\240>\005\336\244\274\302\371\230\277\\\226\235>\266\245*\273\314\016\003\277\276\r\334?&Ej\275=>\006@\207\224 @\306\331\002?9)\351\276\035\327\200\277x>\221\276\354\330k\277D\262\241\276+.\241\277\205\371\366>\343#\035?\350g\"?\177\360\273?\201\301\234\2773\005u?\244@\370\276\005\217\026\2769\246\022>w\2430\277\013\207\243?Ss*?r\345\223\276\335v\217?\342\026w?\020\323\343\277\t2 ?\344Z\352\277\252\256\272>\341\032\257>\001\324\243\276\254\221=\277\265\246@?\207\321\243?d\247\215?HB\021?\331\342#\277J\363$\276(\240$?\206\252\221\277\346\235\335?\305\265\212?\316\202\222?\201R\005\277M-o\275\334\031\207?6*\311\275A\362T\275\247\361\355>\330g\302?P\203.\276\037\202\244\277\037\007~>\204\365\t\3003\332\217\277\306\375\000\277\022\352K\275\031\224\313\277\245\272@?/\373~?L~\265\277\267\007\322?\r;.?|[O?k\200\334?;M\242>\n\032\252\277*\3610\275\'#\270\276t$Z>%\037\030>\327\276E?o\325\217?\343\263\203\277U\353\007\2779\211\004?\3570\024>5\277^?Z\231$\2776\365\345?\'\332\253={_\033?\350A\026?\314\363\222\276\023\232\004?\036\253\375\277\334_\313?\360\274?\277\002\017P\277\366f\"?W\263f?\334<\306\277\231>\243>\255\234\270?I\352\315?\000q\347\274\207[v?\223\207\025?\205\356\244>![a\277\355Oo\277\374\212\206?\354\003>>\265[\307?\365\n@>\340\3500\276xY\204=\321o\301>\371\203\325\2772\373\200\277\376\225\320\275R\222\264>\017g\264\277\034\335\177\276>ZU=\016l\244?\211\362\034\277\240\217\311>\333\030m>p\234\357\276\004\220\244?s\263j\276\3616\017?\253{\244\277\332\342\273\277\214\027\007?B.q>\030\335\231\277\201X<>\302\307\000\277\'\322\313?7\232\020?E\306\321\274.\333\'\276K\336\227>\376\317\360?\3332\302>\204LK?\325\201\341?H\023@\277\330\234\240\276\263\336\203?\235.\372\277\370\002\312\277\022]\373\277\324\001i?)va\277\377\324\002?^L\241\277\272\367\200?\271c\004\277\313\324\260\276\205\313\327\277\360\236\023?\2248\203?*\252\222?\235\003V\277\317\037a\277\307V\300>6\211\250\276\353\375\010\277\025s`\277!w$>\371\007\374\277\206\321\301?x\304)?\207\3560\277\250\300a\277+\032@?\362\005\226>\037\006\235\276\315\201p?\365-\306>\322\316\233\276\033R\223\277\247\347\366>?\226J\277,O\256?\232\312\007\300c\370\r\277\202\016\'?\032\215\255\277\257\000\311\276\003\034B\277#\234\330>/\356 \277\027E}?\r\001\207\277N2\265?Sp\227\277\245\023\252?\0004%\277i\233n\277\366\231\351\273U\333\331\277\360m\260>D\335\322?\031\010\335?f\302\245\277\357\324*?\233O\275\274\330\225\214>9\363|?\367\324\r@\0148\266?\220M\204\277<\030A\277\022+\205?\005\226\330\277\"o\360>\333\020\307?O\301\'>\376\006\224?\333k\017@\020\357Y\277\"\006Y?t\243\217?\326\237\261?-\335\036\277\375\245\177\277\001>\317\277ge\376\277+o\n?\354\246A@2<\020=\t\331l\277^\325\243\276\014\3364?\204\222w\277\035[F\274"
      }
    }
  }
}
node {
  name: "b_in"
  op: "Const"
  attr {
    key: "dtype"
    value {
      type: DT_FLOAT
    }
  }
  attr {
    key: "value"
    value {
      tensor {
        dtype: DT_FLOAT
        tensor_shape {
          dim {
            size: 32
          }
        }
        tensor_content: "l\342a>V\373@?p\233T>\247=\310?\313\023\345?\2233^?\265\366\324\276{\365\312?\024\357\256\277\023\027\312?\"\022\014@\236l\240?\331\350\271?a\2203>\251\324\233\276K\033V?L\217\256>[\211\246=Y\006\350=\314g\251?n\356\010\277\316e\256?\013\312\352?!\010\360\276_\341\260\275\242V\032@\352\357.?\254A\n@\277\355\375?}\022\314>\265\273\300?y\315H?"
      }
    }
  }
}
node {
  name: "MatMul"
  op: "MatMul"
  input: "reshape"
  input: "w_in"
  attr {
    key: "T"
    value {
      type: DT_FLOAT
    }
  }
  attr {
    key: "transpose_a"
    value {
      b: false
    }
  }
  attr {
    key: "transpose_b"
    value {
      b: false
    }
  }
}
node {
  name: "add"
  op: "Add"
  input: "MatMul"
  input: "b_in"
  attr {
    key: "T"
    value {
      type: DT_FLOAT
    }
  }
}
node {
  name: "relu"
  op: "Relu"
  input: "add"
  attr {
    key: "T"
    value {
      type: DT_FLOAT
    }
  }
}
node {
  name: "split/split_dim"
  op: "Const"
  attr {
    key: "dtype"
    value {
      type: DT_INT32
    }
  }
  attr {
    key: "value"
    value {
      tensor {
        dtype: DT_INT32
        tensor_shape {
        }
        int_val: 0
      }
    }
  }
}
node {
  name: "split"
  op: "Split"
  input: "split/split_dim"
  input: "relu"
  attr {
    key: "T"
    value {
      type: DT_FLOAT
    }
  }
  attr {
    key: "num_split"
    value {
      i: 128
    }
  }
}
node {
  name: "rnn/Shape"
  op: "Shape"
  input: "split"
  attr {
    key: "T"
    value {
      type: DT_FLOAT
    }
  }
  attr {
    key: "out_type"
    value {
      type: DT_INT32
    }
  }
}
node {
  name: "rnn/strided_slice/stack"
  op: "Const"
  attr {
    key: "dtype"
    value {
      type: DT_INT32
    }
  }
  attr {
    key: "value"
    value {
      tensor {
        dtype: DT_INT32
        tensor_shape {
          dim {
            size: 1
          }
        }
        int_val: 0
      }
    }
  }
}
node {
  name: "rnn/strided_slice/stack_1"
  op: "Const"
  attr {
    key: "dtype"
    value {
      type: DT_INT32
    }
  }
  attr {
    key: "value"
    value {
      tensor {
        dtype: DT_INT32
        tensor_shape {
          dim {
            size: 1
          }
        }
        int_val: 1
      }
    }
  }
}
node {
  name: "rnn/strided_slice/stack_2"
  op: "Const"
  attr {
    key: "dtype"
    value {
      type: DT_INT32
    }
  }
  attr {
    key: "value"
    value {
      tensor {
        dtype: DT_INT32
        tensor_shape {
          dim {
            size: 1
          }
        }
        int_val: 1
      }
    }
  }
}
node {
  name: "rnn/strided_slice"
  op: "StridedSlice"
  input: "rnn/Shape"
  input: "rnn/strided_slice/stack"
  input: "rnn/strided_slice/stack_1"
  input: "rnn/strided_slice/stack_2"
  attr {
    key: "Index"
    value {
      type: DT_INT32
    }
  }
  attr {
    key: "T"
    value {
      type: DT_INT32
    }
  }
  attr {
    key: "begin_mask"
    value {
      i: 0
    }
  }
  attr {
    key: "ellipsis_mask"
    value {
      i: 0
    }
  }
  attr {
    key: "end_mask"
    value {
      i: 0
    }
  }
  attr {
    key: "new_axis_mask"
    value {
      i: 0
    }
  }
  attr {
    key: "shrink_axis_mask"
    value {
      i: 1
    }
  }
}
node {
  name: "rnn/MultiRNNCellZeroState/BasicLSTMCellZeroState/ExpandDims/dim"
  op: "Const"
  attr {
    key: "dtype"
    value {
      type: DT_INT32
    }
  }
  attr {
    key: "value"
    value {
      tensor {
        dtype: DT_INT32
        tensor_shape {
        }
        int_val: 0
      }
    }
  }
}
node {
  name: "rnn/MultiRNNCellZeroState/BasicLSTMCellZeroState/ExpandDims"
  op: "ExpandDims"
  input: "rnn/strided_slice"
  input: "rnn/MultiRNNCellZeroState/BasicLSTMCellZeroState/ExpandDims/dim"
  attr {
    key: "T"
    value {
      type: DT_INT32
    }
  }
  attr {
    key: "Tdim"
    value {
      type: DT_INT32
    }
  }
}
node {
  name: "rnn/MultiRNNCellZeroState/BasicLSTMCellZeroState/Const"
  op: "Const"
  attr {
    key: "dtype"
    value {
      type: DT_INT32
    }
  }
  attr {
    key: "value"
    value {
      tensor {
        dtype: DT_INT32
        tensor_shape {
          dim {
            size: 1
          }
        }
        int_val: 32
      }
    }
  }
}
node {
  name: "rnn/MultiRNNCellZeroState/BasicLSTMCellZeroState/concat/axis"
  op: "Const"
  attr {
    key: "dtype"
    value {
      type: DT_INT32
    }
  }
  attr {
    key: "value"
    value {
      tensor {
        dtype: DT_INT32
        tensor_shape {
        }
        int_val: 0
      }
    }
  }
}
node {
  name: "rnn/MultiRNNCellZeroState/BasicLSTMCellZeroState/concat"
  op: "ConcatV2"
  input: "rnn/MultiRNNCellZeroState/BasicLSTMCellZeroState/ExpandDims"
  input: "rnn/MultiRNNCellZeroState/BasicLSTMCellZeroState/Const"
  input: "rnn/MultiRNNCellZeroState/BasicLSTMCellZeroState/concat/axis"
  attr {
    key: "N"
    value {
      i: 2
    }
  }
  attr {
    key: "T"
    value {
      type: DT_INT32
    }
  }
  attr {
    key: "Tidx"
    value {
      type: DT_INT32
    }
  }
}
node {
  name: "rnn/MultiRNNCellZeroState/BasicLSTMCellZeroState/zeros/Const"
  op: "Const"
  attr {
    key: "dtype"
    value {
      type: DT_FLOAT
    }
  }
  attr {
    key: "value"
    value {
      tensor {
        dtype: DT_FLOAT
        tensor_shape {
        }
        float_val: 0.0
      }
    }
  }
}
node {
  name: "rnn/MultiRNNCellZeroState/BasicLSTMCellZeroState/zeros"
  op: "Fill"
  input: "rnn/MultiRNNCellZeroState/BasicLSTMCellZeroState/concat"
  input: "rnn/MultiRNNCellZeroState/BasicLSTMCellZeroState/zeros/Const"
  attr {
    key: "T"
    value {
      type: DT_FLOAT
    }
  }
  attr {
    key: "index_type"
    value {
      type: DT_INT32
    }
  }
}
node {
  name: "rnn/MultiRNNCellZeroState/BasicLSTMCellZeroState/ExpandDims_2/dim"
  op: "Const"
  attr {
    key: "dtype"
    value {
      type: DT_INT32
    }
  }
  attr {
    key: "value"
    value {
      tensor {
        dtype: DT_INT32
        tensor_shape {
        }
        int_val: 0
      }
    }
  }
}
node {
  name: "rnn/MultiRNNCellZeroState/BasicLSTMCellZeroState/ExpandDims_2"
  op: "ExpandDims"
  input: "rnn/strided_slice"
  input: "rnn/MultiRNNCellZeroState/BasicLSTMCellZeroState/ExpandDims_2/dim"
  attr {
    key: "T"
    value {
      type: DT_INT32
    }
  }
  attr {
    key: "Tdim"
    value {
      type: DT_INT32
    }
  }
}
node {
  name: "rnn/MultiRNNCellZeroState/BasicLSTMCellZeroState/Const_2"
  op: "Const"
  attr {
    key: "dtype"
    value {
      type: DT_INT32
    }
  }
  attr {
    key: "value"
    value {
      tensor {
        dtype: DT_INT32
        tensor_shape {
          dim {
            size: 1
          }
        }
        int_val: 32
      }
    }
  }
}
node {
  name: "rnn/MultiRNNCellZeroState/BasicLSTMCellZeroState/concat_1/axis"
  op: "Const"
  attr {
    key: "dtype"
    value {
      type: DT_INT32
    }
  }
  attr {
    key: "value"
    value {
      tensor {
        dtype: DT_INT32
        tensor_shape {
        }
        int_val: 0
      }
    }
  }
}
node {
  name: "rnn/MultiRNNCellZeroState/BasicLSTMCellZeroState/concat_1"
  op: "ConcatV2"
  input: "rnn/MultiRNNCellZeroState/BasicLSTMCellZeroState/ExpandDims_2"
  input: "rnn/MultiRNNCellZeroState/BasicLSTMCellZeroState/Const_2"
  input: "rnn/MultiRNNCellZeroState/BasicLSTMCellZeroState/concat_1/axis"
  attr {
    key: "N"
    value {
      i: 2
    }
  }
  attr {
    key: "T"
    value {
      type: DT_INT32
    }
  }
  attr {
    key: "Tidx"
    value {
      type: DT_INT32
    }
  }
}
node {
  name: "rnn/MultiRNNCellZeroState/BasicLSTMCellZeroState/zeros_1/Const"
  op: "Const"
  attr {
    key: "dtype"
    value {
      type: DT_FLOAT
    }
  }
  attr {
    key: "value"
    value {
      tensor {
        dtype: DT_FLOAT
        tensor_shape {
        }
        float_val: 0.0
      }
    }
  }
}
node {
  name: "rnn/MultiRNNCellZeroState/BasicLSTMCellZeroState/zeros_1"
  op: "Fill"
  input: "rnn/MultiRNNCellZeroState/BasicLSTMCellZeroState/concat_1"
  input: "rnn/MultiRNNCellZeroState/BasicLSTMCellZeroState/zeros_1/Const"
  attr {
    key: "T"
    value {
      type: DT_FLOAT
    }
  }
  attr {
    key: "index_type"
    value {
      type: DT_INT32
    }
  }
}
node {
  name: "rnn/MultiRNNCellZeroState/BasicLSTMCellZeroState_1/ExpandDims/dim"
  op: "Const"
  attr {
    key: "dtype"
    value {
      type: DT_INT32
    }
  }
  attr {
    key: "value"
    value {
      tensor {
        dtype: DT_INT32
        tensor_shape {
        }
        int_val: 0
      }
    }
  }
}
node {
  name: "rnn/MultiRNNCellZeroState/BasicLSTMCellZeroState_1/ExpandDims"
  op: "ExpandDims"
  input: "rnn/strided_slice"
  input: "rnn/MultiRNNCellZeroState/BasicLSTMCellZeroState_1/ExpandDims/dim"
  attr {
    key: "T"
    value {
      type: DT_INT32
    }
  }
  attr {
    key: "Tdim"
    value {
      type: DT_INT32
    }
  }
}
node {
  name: "rnn/MultiRNNCellZeroState/BasicLSTMCellZeroState_1/Const"
  op: "Const"
  attr {
    key: "dtype"
    value {
      type: DT_INT32
    }
  }
  attr {
    key: "value"
    value {
      tensor {
        dtype: DT_INT32
        tensor_shape {
          dim {
            size: 1
          }
        }
        int_val: 32
      }
    }
  }
}
node {
  name: "rnn/MultiRNNCellZeroState/BasicLSTMCellZeroState_1/concat/axis"
  op: "Const"
  attr {
    key: "dtype"
    value {
      type: DT_INT32
    }
  }
  attr {
    key: "value"
    value {
      tensor {
        dtype: DT_INT32
        tensor_shape {
        }
        int_val: 0
      }
    }
  }
}
node {
  name: "rnn/MultiRNNCellZeroState/BasicLSTMCellZeroState_1/concat"
  op: "ConcatV2"
  input: "rnn/MultiRNNCellZeroState/BasicLSTMCellZeroState_1/ExpandDims"
  input: "rnn/MultiRNNCellZeroState/BasicLSTMCellZeroState_1/Const"
  input: "rnn/MultiRNNCellZeroState/BasicLSTMCellZeroState_1/concat/axis"
  attr {
    key: "N"
    value {
      i: 2
    }
  }
  attr {
    key: "T"
    value {
      type: DT_INT32
    }
  }
  attr {
    key: "Tidx"
    value {
      type: DT_INT32
    }
  }
}
node {
  name: "rnn/MultiRNNCellZeroState/BasicLSTMCellZeroState_1/zeros/Const"
  op: "Const"
  attr {
    key: "dtype"
    value {
      type: DT_FLOAT
    }
  }
  attr {
    key: "value"
    value {
      tensor {
        dtype: DT_FLOAT
        tensor_shape {
        }
        float_val: 0.0
      }
    }
  }
}
node {
  name: "rnn/MultiRNNCellZeroState/BasicLSTMCellZeroState_1/zeros"
  op: "Fill"
  input: "rnn/MultiRNNCellZeroState/BasicLSTMCellZeroState_1/concat"
  input: "rnn/MultiRNNCellZeroState/BasicLSTMCellZeroState_1/zeros/Const"
  attr {
    key: "T"
    value {
      type: DT_FLOAT
    }
  }
  attr {
    key: "index_type"
    value {
      type: DT_INT32
    }
  }
}
node {
  name: "rnn/MultiRNNCellZeroState/BasicLSTMCellZeroState_1/ExpandDims_2/dim"
  op: "Const"
  attr {
    key: "dtype"
    value {
      type: DT_INT32
    }
  }
  attr {
    key: "value"
    value {
      tensor {
        dtype: DT_INT32
        tensor_shape {
        }
        int_val: 0
      }
    }
  }
}
node {
  name: "rnn/MultiRNNCellZeroState/BasicLSTMCellZeroState_1/ExpandDims_2"
  op: "ExpandDims"
  input: "rnn/strided_slice"
  input: "rnn/MultiRNNCellZeroState/BasicLSTMCellZeroState_1/ExpandDims_2/dim"
  attr {
    key: "T"
    value {
      type: DT_INT32
    }
  }
  attr {
    key: "Tdim"
    value {
      type: DT_INT32
    }
  }
}
node {
  name: "rnn/MultiRNNCellZeroState/BasicLSTMCellZeroState_1/Const_2"
  op: "Const"
  attr {
    key: "dtype"
    value {
      type: DT_INT32
    }
  }
  attr {
    key: "value"
    value {
      tensor {
        dtype: DT_INT32
        tensor_shape {
          dim {
            size: 1
          }
        }
        int_val: 32
      }
    }
  }
}
node {
  name: "rnn/MultiRNNCellZeroState/BasicLSTMCellZeroState_1/concat_1/axis"
  op: "Const"
  attr {
    key: "dtype"
    value {
      type: DT_INT32
    }
  }
  attr {
    key: "value"
    value {
      tensor {
        dtype: DT_INT32
        tensor_shape {
        }
        int_val: 0
      }
    }
  }
}
node {
  name: "rnn/MultiRNNCellZeroState/BasicLSTMCellZeroState_1/concat_1"
  op: "ConcatV2"
  input: "rnn/MultiRNNCellZeroState/BasicLSTMCellZeroState_1/ExpandDims_2"
  input: "rnn/MultiRNNCellZeroState/BasicLSTMCellZeroState_1/Const_2"
  input: "rnn/MultiRNNCellZeroState/BasicLSTMCellZeroState_1/concat_1/axis"
  attr {
    key: "N"
    value {
      i: 2
    }
  }
  attr {
    key: "T"
    value {
      type: DT_INT32
    }
  }
  attr {
    key: "Tidx"
    value {
      type: DT_INT32
    }
  }
}
node {
  name: "rnn/MultiRNNCellZeroState/BasicLSTMCellZeroState_1/zeros_1/Const"
  op: "Const"
  attr {
    key: "dtype"
    value {
      type: DT_FLOAT
    }
  }
  attr {
    key: "value"
    value {
      tensor {
        dtype: DT_FLOAT
        tensor_shape {
        }
        float_val: 0.0
      }
    }
  }
}
node {
  name: "rnn/MultiRNNCellZeroState/BasicLSTMCellZeroState_1/zeros_1"
  op: "Fill"
  input: "rnn/MultiRNNCellZeroState/BasicLSTMCellZeroState_1/concat_1"
  input: "rnn/MultiRNNCellZeroState/BasicLSTMCellZeroState_1/zeros_1/Const"
  attr {
    key: "T"
    value {
      type: DT_FLOAT
    }
  }
  attr {
    key: "index_type"
    value {
      type: DT_INT32
    }
  }
}
node {
  name: "rnn/multi_rnn_cell/cell_0/basic_lstm_cell/kernel"
  op: "Const"
  attr {
    key: "dtype"
    value {
      type: DT_FLOAT
    }
  }
  attr {
    key: "value"
    value {
      tensor {
        dtype: DT_FLOAT
        tensor_shape {
          dim {
            size: 64
          }
          dim {
            size: 128
          }
        }
        tensor_content: "\3428\254\275D\221\021>\001\200\362\275\324\327\031<LL\332\275\272T\304=\331F&\276q\233->\364\300\375\275\323\023\334\275}\271\272\275\230O\270\275\314\310{\272;\307\t\276\001\004\360=K\\}\275\025\265\367=y\255i<\200\347\205<d\310\302\275\365\200\341\275\310\"N=\364\257\271=gd\265=\014N\\=\r\005\336\275p\325\314;\\\001+\275c\333\255\275\241\314#;\276\374\250\272\325+\251\274.Lj;\277\214 \276d\363\000>\314\205\235=\320\0314\276\2367\026\274A\331\207\275/\202\352\275\343\227\031>\226\365@\275_\335\373=\245\242\301=\255;\347\275\035`\330\274k8\256=\002\035\253<\376\312!\276\364ZM=k\220\304\275\354\210\324\275\366_\025\275\230v+\275\363\016\022>\373Y$\276\350/\203\275\r\206D\275p\263\376\275\233!\026>\354\273.\275\315\366\237\274#\354\306=\261\206\224=\336h\216=!\346T\274\202\\\">\260\2510\276\373_\020\276\220d\304\275C\211(>\265m\365\275\317\237\232\275\227S\335=\2705\323\274w\017\205=t\375\307<\344\245\364\275w\177\306\275c+\026\276rY\'>x\222\006>\332?\216\275\275\213\235\275\024\032\037\276\014/j=\375;Q\275\223i,>\261gi\275^\227\004\275b\'\000\275\nh\027>b1\000>\000t\033>f\032\242\2753U\016>8\\\223=I\344.>3h%=\314{>\274\030\226\303\275\305h\251=\332\322\377<\250}w=\025\257R\275\311\036\001>g\022\000\276\264q\202\274\024#!=S\2216\276_b\362=~\326\372=\251\250\255\275\221\212t=\301R\224\274\312]\256\275\305\034\276\275\\\204G:\203\017\263\275*\027\003>MO\006=T\276Q\275\326\221\322\274r\355\265\275?\371P\275\374\342)>\357\251\">\016\322\344=\035B\271\275$\221\360=!=\266\273\265&I\275\362\236\370\275\262b-\276A}\001=0\235u;mA\\\275|\234\010\276\205:&>F\316\003\276\243\316\315;\3122/\2751\211#\275\304\200\020\276\003\333\247=P\354\202\275\236\267&\274*\310\273=\307\370\005>4\020\013=3\'\001\276\200\2763\276g\014\231<\344\343\241=8\331\3239k\0236\275\241\360\033\276+\357\017\276\307\333\211=\032*e\275I\021\335\274?\274\272=\324\3454\276\'20>\277\230k\275\215\035\304\275\253x\017\275\313\234I\274\256\334\026\276\034r\243\273_z8=@\247O\274\311tV=\3058\005>\201\370\243\275\013h$\276\246\023\203\275\257\211\325\275\033\2141\275\332h\034\276\367\034,>\002f\202<\255i\010\276\362\205\003>\320S\035\276\236\310\373\275\033\305/\276\212\202\r>\200\304\010>\215\344\312=R(\312=\211\210!>\210\363\206=W\031\216\274\014\206\247\274\035F\361\275\2654\335\2750\347\217=L\236\317\275\010e\267=\321t\377=mA\227\275Rx\333=(\243\235<u(\001=\325\033\343\275p\t\214\275t\354\324;%.4\276\345!k\275\220n\221\275\377\371)>\201\"\260\275_\251R=\202V\014\276;d/>\034\256\032>\201k\266=\\4\357=\216\271\016\276\367>\036>\024\376G\275\263\n\323=3\204\017\276D\221\304=\364h\343=\220\265\353=\236q+\275W\242;\275\275\342\217\274\211\326\006>\345\322\304<&\262\327=\366%\343\273\320\351 \2760c\027>\216zA\275\236\363\032>C\272\027\276\266O8\276\320\306\232\275\237^\000>\266C\333=\370\237W\275~j\313\275-\300\205\275\000\2732=\246\263\002=Gg\316=\231\364\033\275\317h\223\2753L\334=\025\221\275\275\354\307\252\275@\353x=\307E\007>\317\032\026>6\212H\275\276\276\307\274\224\223\250\275\177\277\037>\347\373(\276>\030;\275\270!-\276\017\335\265\275\237%\003\276f.\211\274aY=\275t\377\250=\277\203,\276\331B\234=\274\204.\276\214~\346=\255i\332\275\253\r\000>\026J\204\275kG\321\274\216\211+><\321\341\275#\315\013>D\377\317<-\017\'=@\020\374\275\360\267\001=\347]\360=W1w;r~\r>DL\353<w\242\017\276\274\240\213\274\375\316\257\274\244i3\276h\244\017\276\373\001\026\276\205F\232\275?\342\010\274I\271\034>\256\252V\275\007aj\275Q\245\020\276\252\021\252\275\0372\321\275\327\023\000>\036(\021>\225s\356<J\275\371<\2026{=\333k\371=jl\007\275\256\222\375\275\361!\275\275y\307\'>\325sm=?\357\266\275\373\303->\254\210\206=~Y\323\275\025\352\360<\243 \014>R\341\354<#\n\227=\313\307\303\275\257Q`=\322\232\211=\354\342\024\273\310\350\t>.\361\301=G\232#>Z\237\036\275\210;\340\274\226.\237=|\032\025\276\023q\210\275\\\312\030\276C\251\276\274\355\025\220\275\336\275\215\2754\321#\276\340d%>\320\343\t>9\247\270=\317m\222=\333\003\336=\335\031(\276-\325\245=\203\324\001\276\225\330\342=\024\304\222\275\010c\324=\")\307=m\271\257=_\326\001>\207%\262\275\350\276\027>\364\332\337=G2\350\275\"q\000>h}\324\275)\002\222\2756\364^\275?\314u\275\335G\230\275\001\333a\275\300>\232\275!{/\2762\376\016\276M8\"\276\302\025\301=w\247\250\2754\370;\275\305\356\377\275\300\270t\275<-\245=\".s<\322\036\t>\250\032O=\340\013\023\275\304\366n=\372\032\220=\321z\237=:\332D\275\231\242(\276<\2627>\264N\243\272\350`\334=\344\224\321\273\314 \013>S\275u=F(\313\275P\364\225\273\361\224\300=\227\021@\275e\013 \276\036\214/>!\2115>\344\005/;\217\366\222=\264\243\370\275E4\t>\235\276\'\276\325\334\001\276\032\314\261=\r\010\\\274I\311\316\275L\020\032\276j\377\212\275\2015\035>\312\276\005\276\256L\321=\00076=\351\230\035>\000\250\322\274\247\316*\276\22730>\035\224\326<B\210\354\273\3041$\276!\264\277=P\364\237=\177\362\341\275\r\1772\275\345D\353\275\\23>,\210\370\275\314r\242\275\010\336\254=L\326\360=\316\274\000>\242C\310=\376\357(\274\270I\313=IA~\275|S(>\ni \276P\004\332\275V\204$>CS\035=\356\004\007>\275\317\033>\336\025\034>\361j\271\275\013\350\\=\0340e\274\020\213\226=+C\343\275\231O\016\276\253\252\021\276\354u&;\022[\273=[d3\275\277 \216\275\303E\350\275y1\250=_r\'>\325\334\025\276\204\003Z=\360\004\204\275\\/\026=?D\036>\215\344\237\274\347\234\263<\214\205/\276\2314\373=\203o1>K\323\362=\250K%=\264\324\252\275\252c\001>\034\324\342\2759\321X=\315\331*\275\327\214\230<\234\224\342\275\\s\025\276@\031%\276\305\353#>\275\302\235\275k-t=\277 \234=\314\215\\=\3152\025\276\217qp;\020\351\231=-\322\004\275>s)>;+\"\275\251\021\265=w\212\376\275$\216\264=\311H\307=\304e\332=\\r*\276\020\345\000>\323\352\n>\361\337\217=T\202\237=\342\241\016>f3\342\275f\244\'\275\002 \311<\307b\365\274\017\023\271<m\273\032>U\2161\276\313\243\024>\365p\361\275\360~\352=u|p\275\377\371\024\276\363!&>C\037)>Z\0229\2743\361\265\275.\3476>q\025\023>\372\362X\275\206A3\275\346\002\033\276\254\311y<A\037\371\275\244\345\021=\362 \273\275f\177\377=l\322\036>\204\360\200;\254>\252\274\355\302\025=H\3512>\037L>\275v\317m=\325\355\343\275/?\224=l\357\t>|\345\024\276\236\033\222=\367i7=:Z\027\276\317\020\237\275\305\356\315\273\206\357\022\276\230d\346\275\007\200\200\275\311`\213<\220\264G=\272\346\261\275\333\331\213\2753u\270=\177\222\233;\306P\025>\363\265\377\274\306\332]\275\300\210p=\333\302%\276\016N\275=\242\210\002>\221M,>(\177\243=\276\n\237\275\262\351\234\273\020\005\212=`\037\337\2753\265!\276e\337\363\275\276\205\372<\224\r\007\274,m`\274\365\263/\2769\037\n\276pu\004\276\326\224\245=\210\300\327\275\252(\021\276\257L\036>\"\346\300=2\341\267=k\232\031\276\301\260\355\275\221s\305:\210\345\361\275\217\255\206\275\365\2431\276@\033a=\230\326\210\274:{I=R@\177\274\t\260<<SF\026\276\330\340\202=\373\317\220=`,\362=\257\270\315\275\2677\363=\02274\276\345V\250=B\307o\275\020a\333\275ni\345=\360V\021\276\326$\234<E\021\014>\007\026\222=/\367\022\276\333\265\202\274N\256\364\272N3\250\275\322d\327\275\032`R\275\3769\303<(\246\341< \245\337=\330\350\333=]\350\322=E\2003\276\314<,\276\360\376\035>_\301\n\276#O\n\276\032\241\r>\322^+>\277\254\337=r\0025\275s\267\306=\200+\024\275J\211\310=\3646\005\275\363\352#\274^3\001\276\024\031F\275\271\2345>\261\227\024\276nT\372\275\030\260^=\375\001\020\276*\007\306\275B[\231\275\307\347*\276\235\243\305\275\376]\225=<\233\t=O\202\030\276ng\266\274\\x\340\275\3114\037=J\262\241\272\026\276\252\275\312\221!>\256\300\023>\361\010~=\252\021\016=\207\375\014\276\270r\234\274\264\300\177\275<\321\034\274\353W\000>\030$\370\274L,-\275\244\225\361\275\2563\010>Ef+>F\263\330=\210\010\355\275\232\337@=W\005\303=\001\335 >\021%\362\273\t\352\r>De\014>\365\3273\276\n\326\030\276\211!\010>1\313\017\2764\375\222\274\210\270\034\276\022\235\320\274\373|\342=R\213\342=wO\034=\371\313\230=\035\237\266\274*^\347\275n\367\357<H\377\357\2751\374*\276\323\205\337=\224.\236=k\365\262\272Q\200\226=EX\270=U\236\357=\\\347\033=VZw=\341\222\233\275=\2422\276\316\245,=#\r\037\276\275g\013\276\351W\032\276\007\372&\276\033\360\">*c\013>\314\230\016\276\267\026\300\275)\242X\274m\210\351\275\225\033\001\276\301\357\010>\217\277.=\327\220`\275\250\202\004>\362\232\246:\001g\010>\230d\005\276\352\332<=\213\324H\275~\224\246\275g\236U\275 \310\016\276K\245\033=\346\343w=I\007\025\276\212\2731\276R\261\321=6\212(>a\2529<+\013\033\2764W.>;h\201<\331\240\267=n\201\205=\257\355\n=*\254\313=\204\353p=\024=\r\276\360q\"=\221\231/=\320f\025>w`\370\274]\276\223<\030O\225\275\375\300\277=\260\023\017\276F7\371\275\021\004{=j3\327=\370Y\031=\000\360\016\276\343\272`=\021\370r=\364S\315=\301i\316\275?\001\377:\222\006\365\275\244\254\000\275\374v\342\275\206\332\'>d5\">\226\201,\275\0161\305\275}\032\337=6\376\004\276\266wN=d\013\'>\304\204\210=M\255\367\274\304\322\'\2766Y\022=\316r\003\276{\376k\275=\323\003>\363\260\233\2756\326\035\276<\333\t\276[\225\032>\000d\313=\004l\320\275}\260\030\2769\024\221=\236#\345<I<\367\274\361k\271<C.\243=\rd:\275\346\265\267\275`Q\3018\016\004\032\276\266\377\020\276\272\313\033\275\212:/\276|-A=|\014w=*K[=IB\317\275\222p\007\276\212\241\023>B\200A=\330\002\013>\004x\234\274\354/2>\022\3365=\327\3259\275\231\235\267\274n\317\022>\252O\322\275+\211\005>\377\216 >\260\r*\275.\342%\276i\340\330=\300\007\315\271\021\311\364\275\321\364X=l\222\004>;)\320=\356z\263=\201\363\332\275u\021u\275\247\247.\276\370\244\276\275\t\317\323=u\301\342=SP\357=\214\365\311\275\261\010\207\2752)\257\275:\210\323\275\270\225\017\276v~j=#r\003>\203/\223\274\2453\"\276\013\316\367<e5\027>H\237\377<79\371\275\000\304?<\010\201\";\0267\022>\306/\'\276\013\275\036\274Rg\004\276\211\"\203\274\261W\201=3\366\272<4*\212\274\370:\253=\346\301\022>KL.>\362p\220\273\002\247\355<u\246\365\275\372K|=\364\"\224\275\324\214\207\275\314\035\304=\232e\013=\257\370\204=)\374\257\275^q\254=0\033\223\275\304\027\022\276\226]1\276\361|\000\276W\214\017>\227\023O;\013 \'=_v\327\275\346\"\252\275\254\252\311=\026o\025\276+P\375=\237\n\234\275\366R\013>\260,#\276@a\366=\273\2617;!60\27522\354\275\310\350\203\275\204\r\373\2723\337\024>G\366A=k\2271>\340\004\r>\340E\321\275\311\374\272\275\246\367t=\332I\244<\301\266\023>\356\"%>sU\254\274G\013\362\275V\206\300=\333\276\277\275\3458)>\236+#\276\200\262.\276#\302)<\214\250\325<\375\027\253\275\312\213\306\275\003\2138=h\005\206;W\243\020>I\037\004\276\226@\213=\323\262\220\275`0\350;\234L\202=\210k\002\275d\213\006\273N38>h$\024=\020\027\016>\323\033\"\275L1Z\275J\353\312\275\232\310\">\304G\273\274\214\311\230=\216\\!>\373\245-=*?-\275\014\003\210=\314\254\276\272\300\233\254=\004\317\357=\352\006\204<\214\304\251=\246\024>\273\236H\266\272\026\255\320\275\206\224\325<\375-\366=j8\322=\016\025\032<V-\017=W\365\035\276\315c\003>\370\2444\275\256]\322\275|\211/>\004\270\003\276\240\272_<<a!\275&6H<\016\333\226\273\226\227\n\276G\211l\275}\355!>\002\250\270<\274\224\237\275\340\022\035\274\010\'\206={\354\"=g\303\020=\327\341\201<\002tj\2751\316V=\246?\266\275\330\032\207=y\351\237\275\272\t\344=\303\210\303=\203\262\002<h\377*\276I\257\351\275\204B\213=!\206\"\276Y\260\252\275V\014\355<\267\341%>\020\204\327\275\200\316\271=*OL=\311a$>\274_\004\276l\276\347\275\240o+\274!y*\276i\326\r\2761\341\215=\233\263g\275\231&\243\274\273\004X=\271\224\277=\023\300\014<D-\270=\021\035\003\275\024\3676\275\020\226\t\276F\343-\2765}\312<\020:\301\275\014r\305=\014E\033>i\351\026>t\225t<|_(\276\032L\254\275y\034\032>\200\231\365\275.\234#\275\362\255\304=z\014\351=\231\236h=M\274\021\276F\336\241=h\271\324\275\241\321\020>\243j\314\275EC\215<\32774\275%\335\324=xo\263\274\217\006D=\272\022>\275\247\265\340=J\270\341=i-\010=\375\025$>\330\332\333\274\234K\322\275\"d\000\276+\276\217\275\273\031\345=\3411\023\276\215\233\350=\210~\031=\220oT<\036\244\201\275\244\375\016\276\320\355a\275\351X\310=\344Z#=\3617r\274\375\200\271=\254\312\035\272\337{*>0f\244=\321\214\305\275\032Y\210\272-\276 =\216J\026\275\274t\260\275\020\247 \276\221\352\226=\t\240\337\275\300\314\003\276\001\244\356\274\007^\037>\026\335\363\274\271\025\355\275\257\t\327\275\010\255\360\275\025\222$\276:\n(>S\006+>\200N\027=\247-)\2760\363\300=)?\226=\236{\255\272m\342!\276\337\200\307=\230\372\276\273\376/\213=\215\260\014=\366,$=\317|\237\275c\336\210\275\213\236\314=\252\261$\276\275\024\241;\335\357\255=\024\272\244\273\357\242\220\275\247\257)>\264\225\025=\356k.>.\320\321\273\275!\035>\020S\001\2750m\334=\007\355%>\372:\353=)\373\003>s\247\023>\201>\311\275\355\354\376\275\021\270\233=\371\206\337=\000\252\311=R\333\324\274\275\351\032\276\210\267.>5\320\371=Je\024\276\177L\206\275\020\020_<\'\003\023>\367\315\317=\324\230.\275y~==\357\003\371=\266{\307\275\234\201\371=\035Y\245\274\270\271\014\276\377\266\261\273\227\367%>X\r\357<\372\256\275=\0313\031=&yU\275!i\256=\307&\247;oO\322<\020\222\200\2751!\327=\236\024\027\276\366k\267\275\244\025\264=d\207\317=\311\374\001=\n\256\n<6\n2\274\200<\327\273X\276\211\275cw\021\275e\350\025=\325\237\305\275\301\376\373\275\342\261\006\275\316\265\221\275J\217\336<\311\027k\273\252\343\323=H\036\327=n\177\027\275H+\034\276\343\275\027>\010\005\252\275cm\003<\177\313\224\274\030\343-=3\314B=1\377\025>\214\327\236\274*z\017\275\201\034\004\276x{\202\275\33333\275\"\032\020>\326\215\225=\2701\207<\362\262\000=S\350\260=\322\323.\276p\321\001\271\032\354\230\275\177e5>8\232\033\276l%\245=\010\206\207=\356\014\020>\317\1775\276\320<\025>\205y\023> He\275Q\315\344;r;\213=\351#\266\275\002\321 >-0\327\275\274\2341\276\250\003Q=\343\271\305\274HS\252=\\Z\205=8\370\036\276\276|2\275\315\322\n>\031\311\344\275F\017\333\275\tY+>\035\t\256=(\217[=0k.>\203\277\306=9\031\006>\273\215\326\275\330\343\216\275\222\304\003>\227\371\220=\250\320\230=\240B\022\276\247t\023\276\210\362\010>\2323\230=N+\354\275\353\026\233\275\305\017\343=\305\200\225\275\177p\366\275\313\032&\276<\314\244\274*\217\253\275`O\035\275K(\331\2743:\337=\367\222\323=0\257l\274\rB\314<V\004H\2754\241\241\275\014\304\261\275\3524c\275ut\004=\342.2\276+#\014=[\240\001=8\252\r\276\035\004\265=Kh\t\275V,=\275@\274\355<\300\352\260\275\232\241\037\276`z\020\276X>\271<\237\204h<\346\336.\275\273\267\027\276\232\320\204\275\325W\177\2759a(>\305\356\020>\270PE\275>\261Y=ll\n\276\253z\023\276.\211,\276\261>\024\275\342\365\036\275ll\263=\252\322\344=\326\273D<\266:\300<W\327\366\275\232J\262<}Y\r\276\330\251/\276EM\363\275\355\3604>\005\262\373=e\227\200=\350\271\031\276\304~\"\276\203|)>\345>\006\276\027\235\n>\240\332\274\275\361\340\010\276/\246\316\275}\272\211\275[\016\257\275\341\300\346=\002t\233=\3263\374=0Vi\275\353Gk<$\373\266\275\364\354\027>k\361\364\275;\014\026\276\361Q\265=\205\343\002=d\331\n>\300\004\263=8~\007=f\343\211<\307\234\205=\336Q\'>\303\2362\275\352\023\316=\007J\343<\026N\213\275\313]9\275\002\320\273=\213\364\222<\345Z\247=Q\r\352\275\354\205\356=\324\333\324\274H\300\200\275\026\037\033>\2749\004>$\374\260\275\230\3427=A\352\020>.U\024>tZ\341\275\351q\305\275\376\373\"\275\001\376\205\275\320\323\262=#|\025>\2342\025\276\352{K=\036\211\260<?\342 >\365\3214>\373\250\222=\364\320\233=y|.>21\333=/\312\275\275c\242\344;\271\320\277\274M\246\272\275\203\247\273<\303\313\241\273\376\335\232\275\314\242\005\276[\344\346=J\265\226=\035G\221\274;\355x\274n^E<FS\361\275\035gC;Z\244\375\275f:#\276\330\357\340\274\347.\002>6\'\351\275D\264H\275fh$\276\356:\264<\005\216\202\275gO<=\337i\t>Y\271\205\275\226\356p<\223y\010\276\243H\023>8\024\221\273\242\010\010\276&Wp\275\2568_\275h\263\241\273\234\345\030\276c\263\032>\225\022\235\275\233\217\304\275fC\253=P\274\027;p_\353\275\370R!\276h\322-><Lo\275\233\027\037\276\332de=NT2\276\340\3031>\334\3762=hJ\332=\271+\354\275G\n\323=e\233\272\274\314\226\020\275\216\310\322=N\201\324\275\266D\257=R\005\340=\324\265\250=J\001\242\274\270G\034\276\341g(\276\212[7\2763Vr\274.#\356<\350`\223\275\343\362\336<\344N)<\325\372}\273\312\256\265=8A\031\275\276\303K=\254`\025=L\307\232\275\025\302q=#\010\324\274/#\001>_\017\350\275\346x\262\275\230\327U=Z<\271=\372I\222=\245\344\332=\032\026J\275$[!>h.\257<\306\312\210\275\366\r\245=M\336\232=\266\317[=8;,\276Bb\262=\217\355\t>(\275\246\2758\003,\276\335\033\375\275\307\036\014>\270]\272=\376\274\005\276\367\033k\275M.\374\275R\312\026\276\265\244\007>\315\234\207=S\207\247\275\3408r\275\315\265\250\274\302\245s<\007\251\236\274\273\006\273=\375\004\320\275\210^ >x\332\274=5\310\237\275\237\r\243=\365\245P=\236\267\036>\231N8\276\277\322\023\276L\n!=\274\243\007\274 m\020\276\010\240\266\27561\">Y^_\275\201G>\275\233\326\213\275\266k\347\274*\377\342\275\021$1>\240\231t;R\017\021\276\000\216\017>\330e\322=\237\035@\275\244\343\344\274\277\267\000\276\272)V=\244\250\024\276\356\330\003\276ba\273\275\376\242r<\303N\357\275\314\3151\276\307;\007\275~\032I\275\3251\240\275\224\356\020<\345\374==\272|H\2758\245\220\275{\325*\276Dm\345=#u,\276z\201\314<\005\247\312=\325\177\333=\352Z+>w \232\274_J\306\275\"\370\355=y\267\027>\201\306*>\021\317\004\276\242_\352\275\243\307\301=>*;=\261\300Q<\026U`=\020\303\203\275(\340|<f\016\374\275u:#\276ya)=\373\216*>\205\323\353\275\233\006\262\275\255\307\375=\035\322^=\024\000\004\276y\017 >q\223\317=)8\032>\272w\200=j\342\005\276OL\"=\255\307\322=1u\342=}E\003>~\351\253\274+\240\031\275\214z\220=uz9=&O\226\275\223\362V=\220\013\005>\371\"\252=\301\210\220\274\352\332\016\276\244\331\262<H\240#\275\325\236\225=\216\256q\274%\026\216;k\023D\275\262\345;;\234;\013>\204\275\336=m\003d=\0040m=H@*\276 \010{\273\262d/>\353\355\355=\214\323\311=\257>\002>9f\326\274I.S<\372[\326=c\353\317<o55=w\3553>l\256\221\272\250Z\372=\2623\035=\313q\373\273\274\236\222\275\356\334\323=_\325\"\276j-\324\274\220\274\256=g\253\312=\226\354&>vC\247:\243D\014>\372H7\276\3543\312=\322+\326\275\260\230\276\275\257s\362\275\200C\374=J\022;\274*\202U=m5e\275d\205Y=\273\305(>\342\345!>\200\250\301\275\001|,>\350\025\034\275\263\363@=\3507\260=h\277_\274|\301/>#\277\240=\267m\232=\373<\324\275`U\246\274L\246\010=\212-\250=k\2150\276\022\224\317=*\355\315\275\304\253\177=\237\343\016>\006\016\326\275\332c\373=\325\311\252\275\027\224\t\276\306\037\020>\367 \215\275\266\260\003>!\252\332=>x\207<\367\221\026>h\227\014\276\351~\346\275\275\327J=\235\310+\275|6\374<\204\274G\275\352\230\363<C\"\370\274m\265\037>\023l\313\275\336\214\272\275\201&(\276\010\216\374\275\350k\020>Jp\252\271\247\003\031\276\272j\363<X\0072>0Q\271=\007%\020\276~W\212\274v\242\201\274\365\231\253\275\347\360\002>.\254\371<\021\371\007>b\\\037\276\276|\000\276\364^+>\002`\024=\254=0>\023\251\366\275\027\034\005<0\333\234=n\304z;\010\240\263<{\245e=\260\207\355=qg3\274\306o\r>y\243\013>\205\245,>\030\355\022\2760\362\026>\014+&\2765\177->\023\247\260<\254\365]\275\351\267\367=\247>\027\274\037\254\356=\225L\353\275]<\021\276G\313\301=\374\025\347=4=\336=\225\304\374\275\235\3633\273\211{\250\275\265\340\t>|\367\010>,\205\354\275\035\260\035\276\267\250>\275J\2206>\247\2235\276\220e\021>\337Ra=~\000j\275\3339#\276\264\306\256\275V|\016<Q\330.\276\340\312\305=\370\322\370<\360(\257=[;\013\276\177K\t>\360\3215=\320\355\204<lF\377\275\037\275\236\274eO\257\275\363\356\245\275\310a\266\273\244\214+>\200A\256<\347V&>\202\225\026>\264\253\243=\027\303\306\275\323\253\203= \276(>9\356\005\276\217\202\351\274a\201\211=\323\377-<\363\256\n>\313Uj;\215Sy\275\316v\315\275Dt\325=\340n\n>\213\271\r=\374\025%>\262\205&>\005{\010>^i\375\275\333\025\002>\252g\273<|2\277=\322q\207\275\311\210\033\276~z%\276\004.\345:\317\034\361=np\023>;\025\200\275\366\243G<\215l\254=\265&\312\275h\326\265=J\244P\275\357\270k\275`]%\276\320\333\354\273\316k\224\275\006\342w=_\220\025\275\3024\267\275\216,I=Z\'\007\275\204j\013>\354gu<m\020(>\330\tV<\016\000\332=\320\260\265\275\321\260\247\275\361\256+>\320\240\201=\014\223\013\276,T$>\350g\221\274\026L\316=a?\036\275\247m\024\276\245\306\307\275\301\304\267\273zv\346=\3706M\274A\346,>dx8\276\010\214\033\276\306\033\'>B\276{=\2478\022>Q\241+>\021\006+>\324g\'\27345\n\276\236\324\t\276+\254&\276\0301-=RU\372\274\252\224\322<\017\201\005><\200\253<I3\311=f\034\327\274\r\177\n>DL\221<w\315\355<\263.\006=\264g.\276\035=\236=\002a\232\274:\355\327=\201\037\341=\n$\343\275\022I\225\275w\025\343=o\'+\276>\244\\\2735\\\'\276\312t\310\275H?}\275\2000\240=\347$\350=\376a\215\274\3307\232\275*\316\216<\332\000\016=\232\037#>JLy\275\230\307)>\343\271\263\274\361$\267\275)\330\335\275\345;\355\275\262\363#\276\220\345O\274\241\275\343\274P\375g\275\"\n(\276+d\316=\003x\363\275TU}=\316\315\230:Z\027\324\275\354K\t\276\260-\002\275\r\265\217<\355X\331\275\0135\377\275\303\333\242\275Qw5\275\312_\020\273\243\315\252\275\262\373\226\275Q\r\025=\n\245\036>\252P3>7\227^\274}\313\357=7\307\014\275n$\376\274J|\324\275\320\2270\276\267\213\244\275?\362\372=\"\246\302\275\363\265\026\276\021b\275=\327\344h\275\205M\021>\ni\021>$$~\275\352G\035\276WG\271=>3\002>\n\330\272;\354\235\006\276\355\002X=\320\024|\274\362\023z=\322\315\013\276]V\273=\225h\206\275\377\320\367\275\371\350F=q\242\256=\336u\255=\2235\371\275\370\177.>\024\2149\274Lo\214\275^\324==\177x\r\276\244\260(\275\370\227\377=\266t\233=cz\032\276\"\331\344=?\310@=\345\217\213\274\212\322\226<\\\000\216=\267\327\355\275w^\013<\356E\340\275V[\310;R\253\361=*\247\031=\304)\037\275\374\304\n\276($\013\276>\255\002>\207c+\276\320\030\334=\204\005,\274H\303\177\275\210*#\276\200g\356=3B\332=\212+\237\274\014\315\311\272\267\356\004>1?a=\230\030\347=\316\356\232\275~\2270\276\334/\027>\306R\236=\357\222\016\276\232L\214<\375A\371\275\212\024c\275\324!!>\nA\254<\t\351R\275\221\2372>\254\236\036\276T\320\374=\316.\272=\305\033\375=o,\007\276\037\"\303\275l\014\034=\007\336\330;\3145\037>C\026\031\275D@&\275*>\362=\337\3061=\314Y\177\275|\013\333<QI\353<\204\347\321=\273H\005>\364\273\237=d#\003>\372\341\213;\326#\227\275P\001\207=\033\335\371\274g\002\251\275\\\2171\276:_\026\276\337q\376\275\327K\350=\357\037\014=U5\340\274\262\037->T\023\272=\363\256U;\316\367\004>\257\236\266<\311\025\333=s\343&>\205\337\355\275Ps\330=\023\016g<\234C\004\274\376\002$>\3715\312\275\361M\215=S\274\003\276Qz\364=\340\250\357\275K\342\201<\353\241)\276\261[\026\275cb\243=A\350\367\272\335\021\263=T\250\206\275\244:\201\275\266\323#>\266G\214\275\220\272\242\275M\275\007\276\342\336p=\271\014\026>\235G\327\2750\244\"\276\371\215\202\275*I\031>\254\251\001\275{~R\275\351\322\007\275S\022u\274D\373\213=\3500\362\275\205\020\242=_O\303\275)P\337\275\263\201\253=\020~)=g\027\300\275\335D\325=%\367\203\274\303\206\020>\001\031\006\276\323P\002>Vg\202\275\3072\373\275\257\250t\275r\210\027\274dJ(=\236\216\006>\334\216u=\247\350\233\275\24081\275\224E\254<\277\300\177=N\355&\276\354\270\200\275\035{\301=\020\021\353;\372\001\236\275\267\314\315\274\\\303\370\2751~\365\275\235c\026\276~\242\223=\026n\340\275\321w\370=V\002\223=\335\301\234=o\023>\275z\0165\276\254&\010\276X\352Z=\323/\363\274\213\336\215=\322\353\333\274\267g\226\275h\241\262\275\201Q\254=:5\261=^\341\322\273\0062\247=d\260\323;\317%\'\275\257&\010\276\000-\251=\'v\214=\343$(\276\354\311\236<A\301\305=\342\325*\276.\242\367= \300\n\276\021\212\025\276\322p\000\275^\177)\276\275\376\277=n\337\335=\261\207\025>\250\272!=([\373\275\274\324f\274\376\220\244;\225\264\211\275(,\027>\266vE\275\357\342\001\276\203-\262=S\366\311<\033\214\256\275\023\326\025>p.\004\276\277t\n>\337b\013>\223\366\266\275\035o\237=\364\321v=\007\016\312\274&\332\014=\315\217\202=\r\345\324=\222C#=zZ9\276\260\030\002\276C\201(\276\206Cw=\372\230\342\275K\247\005\276\301,\367\275\337\022,\276;\375\022>\233\377\221\275h0\344=\367\036\230=v\2067<\264i\001\276\006\016\251=\211\373#\276Z\276\003>Gl\003\276y\325\370=L^\203=\267>\256<\300i\022>\314\331\240=\357\004\013\276\202\005\271\275&\024\303\275\010\316\t>}z!=k\246\300\275\320\201\213\271B\251\226=D}T<\324=n\275\347\245\227=n\200]\274\020\223\312=\215-\320\274\254uo=g\351\035>gp5>\017\262\367\275\313\001\005>\225\216<\275\364.\253\275\323\217\241\274QQ%>dl\331==M\261\275v3\004>r*\002\276Z\r\326\275=\2045\276V\004\354\275\035D\201=0.\036>_\025$\276\370d\307\2753\333\016\275~8\017\276\367\3012\273Hc+\276\375\271W=\310\276!>\370\253c\274\235*\253\275\n2\r\274\265\2025>\0232\024\276`\223\323<\353\017)=\317\267\032\2744\236m\275/\363F\275\361R\230\274d\331\035>Tt\245=u\020\">\313\214\325<\341H0\274\376p\024=@\353\256<\204\'(\276t\227\030>B\243\263=k[\t\274\377Q\024\276X\302\r>\310\342*\276\3470\000>\315\306,\276\2632\276\275p\305 <\233\005\226\274\375\031 \276\344\331\272=\372\r\243=\305T\003>.\275U\274\233\'\271<\272\264\313=r\367>\275\272L\003\276y\256N=\350\377\206=\312\373\021\276\312\276\270\275\026\337\033\275\337\362\216\274\214B&>2\307\226=\364\t!\276\211\251\030;V\372&\274<g*\276qS\254\274\016@+>\203\r\240=\3206\010=\230\372\000>(\234[\275\355\234n=\036{\013\276\225\367\006\276\305\3524>0\263\210=DJ\177\275=\227\243\275\250ch\275\033\027\001\276\275\326\212\274l\344\t\276\312Y)>\344d\375\275\206ha=\340\001\t\275o\001\027\276\240#\200\275x\326\016>\005\245#>#\246{=\326\310\225=\305\222->\340X\177\272\005\230\376=\205g\'\275\206\230\253=C\204\007>6\345\304<G\223\355=\347\244[\275\t\2312>\211\347\t\276\331\014z<(\217\374\275\344\332\006\276\3451\307=\365\006r=\373\335\206<,$[\275f\2468>*\230\337;\211Ef=\026y\t\276L\017 >\022\263\201\275UY\340\274\235\344\r>h\245\275=\316\237\357:\272\247\\;!\376\026\276\005v\247\274\344\224.>\0344\316\275!\030g\275[\206x=@\027\374=\301\032\032><\344\350\275i*\003=\200\303c\270J/\217=\264[\255<\251\207\337\275\236\306\346=\266\371\033><~\250\2759\266\367;8Mo=\274\322\267=\364\371N\275\320\307E=\004\r\000>\030\337\031\276\256\275\346=\375\235J=y\367\340:\036e\324=*\313\'>\355%\366\275*\337\326\275\363\342\013\276!\022\232\275C\215#=\242\351\314\275\237\301/\276-\206\225\274s\010+\276\202\376\375\275\350\211@=\t\316\275\275\005P%>\333,\235\275\005O\202\275)\017*>\316\343\214;\206\315\235\275p\316 >\277F\237=\3118\007\274x\n\201<\246X\026>\265\375\036=\332!\246<\033\264\305\273\007~\242<\t{#>\304(\367=\236R\231:)\372\366=\262\200Q=\231\356\351\275\247\354\310\273#\355)>\215an\274\021\247\300=\351\221\006>\367&\025=\216\243S\275\206\264\223\275\246\217\003=2\004\201=[T\306=\263%\t>\243\321\003>n\326\304\275\264V\212=\311\346(>}\300a\275\337\350\031<:r\350\275=\013\345=\201\361+\276\243\030\261=\306\353\202\275\250\345\351\273g^\305=\305\351\233\274\312\'T\275\361Y\302=\254\344\361\275\262\023\364\275lSR\275\270\222\r>\352n\000\276\022\2301\276i\267\351=\265\334\016\276\01425\276\351\031\020\276b\032\335\275\347\243\223\275VY\374=\n\2042>\243\234\034\276\346\362\270\275\310]\202<_[\"\276i\000\322\274\306\232\275=\263\363\267=\346\263/>\330\000\333\275\222\255\340=\203\232#\276\004\245\227\274\321\361\311\275\300W*6b\017\357;\210k1>\371\336\017\276\261\231v\275I\355\233\275qg\354\275-\007)\276D\254R=\006\326\256=\214\372\265\275\" \222\275\351\037\033>o\314\351=\272U\023\276\3766\024\276\0340\t\276\304~\000;\241:\335\274$\230&>\266\332\301=\025\341\037>S\370\027=\210:2>\356\212\302\275x\345\017\275\026\316\334<\352\031\024\276:\363\374=B\027\263=+i\204=\"I\003>*i]\275\001c\035>K\014\031\276s\'b\275J\242\016\276K\237\005\276\001\244\243\275&\303\020\276!\223\005\276\000(^\271C\233\233=\205\t\007>\266t\t=f~\016\275\372\202\276=\340R\013>0\255\266\275 0=\275n}\371=\226H4\276\350k|<\352J\206=mo\000\276\232\310\020=\227\262-\276Z\220\300=\324\323\037\276\314\342(>\317C\021>(\223\201;|\3671\276\242\010\312\275\013\254\037\276\254!\321<\241u\214=\233\'\345\274\227\3464;\304Uf\273\343\200\001\276s\355\241<\274\277]=\025M\010\276\362/\250\275\331\326\013\276\261\232\n\275A\330\000\276\006\340\021\276\372\377%\276\026\311\241\274\014\206l\275@\006\317=\373\261\032\276\377:=\275U\324\254<\323\221\245\275\2634\032>\357\014\203\275\326\205\217\275H\r\020\276\0001\300\275\230R\024\276\330Y\007\276\314f\310=;f\005>&\200\246\275\321\222\266\275\330\366b\275\006\306\207=\003U\247<\336\200 \276I\'\017>\030\331\356==\237\003\276\360\240O=B\307\221<\025[\266<\313(\334=\372\222.>W>\023>\254\214)>\002*^\275\260\305\002\275\313\244\004\276\261d6\275y\374h\275\004\227\213\275<_|<d)\356\273\343\325\372\2755\206\353<\272\247\020=\234D\336<{3\004\276a\357\021\276\225M!>V\027\006\276 [1\276\372\353\245\273E\334\353:\240\320@\275N\246\033>8\367-\276\342\245\215\274\031\227\n\275q\323\345\275*\265\326<h\255%>u\200\211=\262\250\231=R\250$\276Z\273\036\274\256\253\"\276\250\254\034=\266\361\204\274\315\343\236=Q(\217\274h\nE\275\230\352\000\276\025\210\225<\263\035h=!\337\002\2764@\000\276\263N\360=$y%=\345c\004>\210O\224\275\233\037\020\275%\307\030\276\370\021\213=\305\017\032>\\\377.>\254\301\247\275\340\274\010\276Q\017\217=D\217m=\311F\035\276\331\211\t\276\363M\356<\367\025\026=~\346M\275\013\262\n\276\2077\023\276\263\362\030\275\331{\030\276\032\231\002>)s(>\'\264\017\276kd\277\273\267\263\007\274\366\361\351\275\343\370\233\275\016y\363\275\025\016\370\274\t\370\240\275g\353\276\275\274\244\360\275%\341\343=-\315/\276I\370\026\276d\325\367=R[\245=9\271%>\263\t\010>\325xy=\342\253\266\274\375\313\314<\350\357h;\014k\217\2759\333\023\276\315\335\311=\024r\034\276\321\311(=jf\230\274ln&\274\203#/\276\301\360\264\275b2?\275e\370\275\275\373\200\250\275\323=\244=\247\203b\275,\306\213\275\026?\207\272@\007\333<\216\204\262\275\216\327\362=[\244\242=\304t)>\300i\343=\202\222\351\275\273\241\231=\220L\355=`N\003\276\245\333\007\275\272\235\227\275\034=/\276\263\210\214=<\r$>\002&\347\275\331\216&>\035\236\310=\322\341(=g\001\033\275\276.4\275\024\013\243\272\324\032!\276\027}7>6\323\340=\270d\233\274\200\246\252\275\234>\305\273X\311\314\275\256!\262\273\0227\272=\005\367\022<.;\250\275\375k7\275\032+\207\275\030&f=<\230\260\274J\333->\241\330\014=T\306\215\275\244\\0>\33203>U\3273>v2\232\275W<\317\274q\355&\2760\2012>\364\270\300\274M\332\262\275\206\014 >\375\032\005>\367lg\275\316\r\215<\200\372=\274\350q\356\275T\345\242\2756s\022\275\r\362\303\2752d%>NcD=S\255\026\276\232>H\275\326fV\275\017\307\252\275\t\205\221=\013]\017>\332\346W\275\354]\n\276Sw<\275\004\223\264\275\350\213\335\275$\361\362\275:>\370;V\332\370\273\207\265\356\275v\032\016\276oj\257\2730O\220\274\001|b\275c\353\277\275{\225\314\275Y\365\201\275I!4>${\">8\351E\275\240\217.\276\273\000\010>\263{/=\355\004\031\276z\013\030\276S\017\266;\210\036\322\275\024\r\334\275\036\357\343<\260\2111=p$F9\350\264z<\314\324\265\275;I\224=\274|\366;\213\351\221<\375\201\033\275d\234\255\275\215\352\034\275\367R\032>\343\332}\275\255\032\337\275\200\251\307=\2367\204=Il\032>\356\240\342=\002o\324=\213\203\373=wr\034<\233\265.\275q\367z=T\353\374\275\331\232|\275\351\201\330;\366\017\370\2755\"\274<\330\320\356=\304\230\367\275\241\255,\276\232)\263<2F\230=Q\236\322=t/\242\275\227\\$;\000a\311=p\351+\276\324#7\276\252\337\315=\223\260\007\276\305\033\325<\343\313\342=\"\205\346\275\\%\205=\333?&>\256\200\037\276dZ\336\275My\242\275\341?\216=\206\336\n>\220\037!=\241\236\030>\251n3=E\023\'\274\021Q\305=E\357\030>a\357\230=\267\014\001\275h9\261\275\376(\037\276kt\210\275U\335!<\357\355\022>\363\201\000>\213\261\271\275\362#\032\276\035\260\025>`\242\262\275\215\241\031>rPd\275r\210\232=\246\030\234=p+\002>\360.\203\275 |:\275\261\262\033>M2\331\273\221\353\367\275\315\305\247=\217\346\027\276\212S\220=X\031\356=e\362\357\275\364\227\025>\236{%\276~,\305<\317\251\022>\032B\316=X\366\350\274{\227\351=\304M/>\245\344\301=\0136{=\315T\231\275kp\033\276\0362\372=\371\352\311\274\372\305\216\275\362e5>\203=\033\276L\305\021>>\351o\275b*\032>\0332\345==\223\362\274\020\010|\271\343\243\013\276\377@\243\275M`\211<\r2/\276\366\005\326\275\357{>\275\266\250\003\276\320\277\277=G\2406\2753\372\032>A\355\216\275\317\265\241=nh\355<\325\304\211\275\367]y=\330e\275\271\333:\334=5\373\376<\212}\362=\215\']=C>[\274\262\346\030\276\2565\031\276\262w\351=Y\362\031\274?S\354\275\373n$\276L\"\033>\001\321\214\275\030\267v\274\r\315\024\275\320\313\210<\312\272$>\204\273i\275\245~\210=3&/\275\247\366\025>-f\231=\337\235\260\273u\353\272\275\227\322d<8\2103>\355(2\276OL\037>\373\321\033\276\237\004N<\273\277\263;\331s\377\275\326\324&\2743\032\031>\345\n\027>n2\362\274\277J#=\252fn<\333\036/\276\372F\031\276\354T\237\275\231\007\013>\264\232\322:\222\361\253=,\023\023>I\321\222=6\260\033\276}\177\033\275\31166\275.\232`<\241\205U=N\215}\275\376\032\276\275\337j\201=v\t\232=\372\2522\276ab!>\245\270\360\275\274\373C=j\027/\275\317\030\325\274\210?\031>\354/\320\275\257V\273=\007p\200\275P\226\'\276=\310\230=\347z\021\276ay\027>rAK=\021#\341\275v\243\355=m$$\276\276\257\321:\032\010\350\275\334\"\231\275\027A\350=\331sE=w\377 \276G\360\227=\t/\034>Jw\354=\016\257\r\276\314\325\003>\341\031\243=\366\313\230\275`\t\263;b\371+\276}\326\365\275\373v$>\034\1779\276\340\243\346\274\034\005+\276\315h\222=\267\025\224=\214\030\r>\250\245\026\276\241\232\217\275\333\3556\275\002\347\264=\032\330{=\207r&=P\001)\275\275Q\"=5\227W\275y\373+\276+\363->4\224\252\274r\013\037\2766\243\014\275\036X\024\276\337\005\342\275\335\321\341\275\256\324\232\275\355\032F\274\036\247\304\274\240\024L\274\240+\022\275\370[\337\274\346R\330\275~A\022>\222\360\257\274\206.\003\276v\244_=\373C\014\276\303\316\002>\0342&>T\017\313\275\031\016\031\275\302\334\336\2759\205-\275W\305,\276uz\020\276\332\324\301=\202\330\014\275\214lc=\262\\\252\275\237\030\027>Fh\373\275\344\333\202=\025X4\276GO\002\276\371\230L=!\340\r>\0312\237=\345\206\211\275\345\305\241\275\375a\005>\220\320\235:\363W\356\275\251\331\022\276*\"v\275\r\373>=\352\014\254<?\376\024\276)\254a=\030\313\376\275!1\340=\014Q\267=a#\224\274\240Q#\276H\273\257=\241%(>\000\305\023\276\257\221\345=Z\325\003>\336\305\347=\252\005&\276\216\001*>\265X\267=o\2107>Z\355e\275%\014\212\2755\321\035>el\230\275d\224\034\275\2057\010>\331\016Q=\202`\321=\346\347\017=^\232\352=\034[\010\276\376\024\334\272\245\314\336=\365Q\353\275\000\ns=_\243_=\035@<==B\241<\025\322\244\275S\241!\276\366Q->\353\262\216\275z\354\'>\336>\224\275U\001*<_\234\004=\030\245\016\276\323~3\276\267i/=\002\201\277\275\033G\223=\347\307\345\275\337I\321\275\273\336\010>xi~\275\306;%\276\271\346\004>\324o#\275-\004\027=\026\332\265=\3434\241=G\010,\276\000\204\334\275\342\206P\274\000\3764\276\275`(>k{\017>\374K\257\275\203\2154>\323A\022\276\210=\020\276D\225/:0\207\214<\370P,\276\037^,\276\256\336S=;\257\244<\340#\236=\242\331\365<\215;\'>\202Z\n\276\236\326\245=)\344\035\275\314\026\324\275\207-\025>y\366Y\274\007=\371\275\332\324\352=\251\250\231=\236\375\033\276%\352\365=\335\035\021>\242\261\232=\022\201*\276=\"\312\275\3157;=/\377\025=\344\365B=\317\325\003>\236&\252\275jX#>\366\265\n>\236\010\370=E.\275=\210:\211<\243\362\032>\373\202->\352\256\006>\032\006\211=\224\n#=\003\221\006\276\2060Y=\302\225\267<\002\023/=eWV\275e}\217\275\317\227\255=\273\203\216<\227\030\307\275\316\242\326\274q\332\016>\216\260q<\233J\000\274fD\236=\262Q\336\275\250-\246=\230\201:\271\233\257\262=\265\306\230\275\325\030\n>\021\013->P\007\324\274\'\030b=\262\021\033\275\000\017\356:\017%\271=6\316\022>\345\031Z=\232\351\326;\325t\272\275\262\265\t\276ZA\265<\346=-\276:F)>J\"\006\276\016\230`=\207G\004\276m(\027\276X\357\\<\024X\372=N[\025\2750V#>\003\206\323\2756\025\244\274\037#\344\275\316\232\003>M0*>B\265\t\276G0\302\275/\374\316=\354\033\363=\200\202\225\274\006\235->2\010\035\275!\004\014>\027\211\261=\347\336\n\275\370\277\202=h\301*\276\023\377\031>\353\n-\276\221\207\370\275\t1\336<N\315&>!&\021=\375\"8\276\026]\351\272\254=\027>\267\312!\274\211K-<\014\330\231\275\356>\355=nFy\275\004\027&>\226+\345=lm1\276N\270\236=\251l\364\275_\341\233\275\313\0202=\322\321\r\274\200\266\360\275\252\344\206<\331x*\276\374\254\234\274\267\336\217=\005L\341\275\337\222J<\007\247\347\275bu%\276\247\177\364\275\277\225\031\276\340W\"\276\303\371\006>\200\241.\276\004/E<\230V\025\276o\214)\276p\000\330=<\007\027=\337\367\344\275\202\323\223\274\210\233\206<\316\030|=\243.\354=q;\273=\t\310\210\275B\325\026\276B\221\001>\243\243\211=\250\001\n\276\2475\030>q\214D<\036\267\363=L\330\304\274V\314\224=\005\215A\275\260\247\207<O\032\344<b\274\237\275\034<\274\275\001\352\032\276\375\204\023\276\305\247\007\2768\203\217=R[\021\276D\025\211\275P|/>z\367;=\374\244\301\275Eu5=\316\264\207=\320\235\032>tj\254\275\312V\036>;\344\235\274\354\354\214=\355\256\027>:\2118\276\356s\311\274\366\257X\275\273K\275\275\374\310\013\276\010\223\372=\242F7>\336 \214<Q\255\027\276\271\366\324\275\305\377\226=/\221\t>l8m\275\010\250\366\275\301Z\227=\034\244\247<}\361\237=p\376\241=\305e\"\276\244\207\247\274\264\026\216\2744\372\214=aB\230\275\033\264\004\276-\271\010>\334\332\006\276\026e\355=\t\373\005\276\222t=\275\0008\374<\256\345\037\275\242\\\364=\000\243;;\"\211)\276\366Fx;\272G\004\27677\200=\357\373\234\275\272\205\224\275\t\0175>\246\336\021>cL@\275Bm)>\234\007/>\224\324*>\370\2076=\213\330\274=\214\240\316=\370\341\032\276_\213\371\275\216&\370\275f\245f=\307\006\373=\337E\321<\t\262\224\275\022\022\267=\036\2522\275 i\347=\270\305\250;\331\3172\275\342\230 \276#\004\355=nzQ=(\344\021>\020<F=\3228\230=Z?\277=\240s\342\275 \207\273\275\255\223\"\275\347\337\277\2757\2775>\245\322\013=O?\004\276\004E\034=T\375c\275\"g\367\275\305\022\260<1fl<=r7<\017H\260\275G\2224\275\241U\034>\247\222\332\275\223\036F=\377\254\266=O\274*>\024\031\037\275z\307\245\275}\340\006>\213n0\276\246\347\261=\372\221\'\276I>\220\275\271\226\307=\273\n\260=\330\312\346\275\367\333\234=\217*\357=\205\330\215\275\254X.\2765\010\207\275\031!,>X\022j=\220\235\301=\364Hr\275\025\256\252\275\033\247\030\275\321t\331<L(\010\276.\223\003=\3516g=\204\217]<|N\333=W\0277>\006\336\001\274Q\026\024>S\231\256\275\3778\n>\260\3334\276Om.\276\247\344*\276\376\351)\275\364L\312\2728\372\003::C\030>\2320,=:A\030>\201`s\275\374\254\307\274\t\323\355\274c\307\332=dS\315=\021D\300\275\013\267->\213i\221=m[\277=\302D\t\275\370\036.>\224\036 >\234\022\006=I\313P=\322\207\236\274l@t<\371\236\010\274*;\235=\227\030\352\275\227\260\205\275\233\265\313\275\350\317\315<p\177\033>M=\016>oB\t\276\031=\n\276&\370.\276\026\255Q\275\034F\327\275\236\014$=\375\353&>\266&\200\274\035\277\241\275@V\030\276g\3420\275ZX*>\256\321?\275\000K\036\276\220l\365\275\232\010\242=&\2372\276\004\227\025>\014\027m\275\366\303\233\275b6+\274\314{\241=i\006\365\273\005\241\014>\200Z\231\275\367\233c=\241\331\267\275?\301\231=g\323\224=]d\317\274[\302\263<\221\262\350<\0108!\275\\\310\003\276M\344\345\275\254,!>Z\033\"\276\262\230\221=j\326\037>\2428\003< \327\330<\260\030#\272p\205\217\274s\324<\275\017\231\230\275)0\317\275\231\205\230=Z\362\353\274\034\333\337\275\014\320k=\342\343\210=\241\252\317\275HV\256\275\357#%>C\274\267\275\342]1>\361P\206\275U\022\032\276\272\206!\274\264\304)\275\234_%>\216\246#\275\000\372\262\273\022\353\375\275oaa\274\001)\273\275H\300\304\273VfN=|\301$\276\203\312i=\342ih\275j\221\263\275\334\013.>\254\036)>\215\025\333\275\321l\273\275\277O\203<\247\364\300=y\366\264\275\370 \260<\036\302\353=\240\377\034>\264]\302=\3429G=\030|\236=\363\215z\275\024\364-\275^\260\264\275e\212\214=\3302\003>\030W\330\275>M\020\276\364\236\371=T5\017>/N0>8\343J:(J\024>\312\225\201=\0300\331<yH\013>}C\344<MP\032\276\3037C\275\241\304\363\275\317\257K=R\222\230=h\374\212\275\007\327\367=m \213\275\030\237\304=3h\210=\211i\366\275\316\202\235\275\234z\240\275\206\030\275=\021\\J\275\241U\215\275\034n\302\2758P3>\302\360Z\274\361\0267\275q\010X\275U\021\021\275\276V\013>f\214\020\276\022O\177=}\315%>\344\256\034>\207\337\207\275\207w\034>+\213->~Q\341=\"\t\236\275d\233\002>\025\003K\275\265\265\334\275\227\2659\276\247\212\033\276x\337\245=\004\251\037>\254w(=\253\357\n\276\035\002\225=\221\336\233\275\203\037\022>%j\265\2741c\006\276)\002\327=\002\360\024\276\333B\033>@\020\250\275\215\025\274\275\306k\341=$#\244\274\000c/\272\001\310%>\n\2439\274\260\326a\275qN\366\274%\004\262\275\312\216\350=?q\004>\365p-\276M\267\233<\224\323\264\275kn\037>O\3260\275\307\224\026>([+\276\204\353\027\276\205\003\030<g_\023\276\263 b\275%S\223\275+\317\007\276A\241\343\275\246\177\261<\365\270&>\024\233\027\276\323\270\177<\314\021\242\2758\213==]\"<=\016\364\037=TQ\363=\233\021c\275\335\374\276\275\352h\324=\030\325%\276\023\035[\275\016\'\020\276\377\315.\275]64>#\374\274<Ct\022\276\357\303\263=\322\301\354=@NO=5\272\033\276?\225\231<\247\2445=\000b\207=>\032\331=\266\026\327<\355f/\276\252&\265=B\242\332\275\314\335\033>O\017\005\276\236\362\277=\303\337\353=S.\256\2750\271;\274\313?\240\275\347\004\034\276`{k\275\214\324\271=\204y,\276\306\217\265\275\272\204\240\274\376{\356\273}\224\006>r\222&>\310\021\350<D\354\321\275\241\036k=k\2029>\020E2\276\302v\"=\305\204\376\274t\014u<\222\227\036>\025\334x=\007\210\020\276\016\362\216=E\036\246\275Z\033\251=\305\257\233\275\200\300\004=*\014s\275;\0146\276A\233\334=\217\350\024>?\326\347=\233w\320=<I\327\275w\255}=.l\205\275/\235\227<\2051\267\275w\342`\275\002\r/\276/\254\n=\372\r\266\275\320AV;-\327\210\275\244G \276f\246\000>\333\277\n\275Z\300j=\225|\210\273\035\264\354\275wn\375=\0329\033=\335\013\232=k\274\272=\017\025\264\275\026m\034=\231\032a\275\240\205\262\275c{\303\275zK\374<\211\305\222\275\302\205\361\275\t\005\023\275\314\275\026=*\024\002\276T\036t=\366\253\252=-E\372;/\216j\275RR\027>W\327\340\275R\257\233\274H\236\033\275\227\261\213\275!9\226\275\316\210\267<\\k\024\276\231G\363=\0348\241<\033\261\266\275P\325\252\274s\332}=\256h1>\314\226\334=\024\366\377=\264\241\r>4\014\016\275\237\t\332=\035P%\276\355|\233\275\253t\004>\271{\210=\3710\035>\240R\r>z\034J=F\2517\276\263\254\026>\360Z\320=\014\224\252=s\312\002\276B\357\227=b\357\315\275(\216\031>\317\325\r\276\364\273\243=gW$>\243k!\275V)F\275$L|=\234)\347\275:\2652\275\005l >*\274k\275\026\355\202=\237\316\230\273K&\341\275\370\024\360<\001\374W\275\346\331\203\275\240\202U=\374\2610>-D\367\275\036X9=\313-s\275\214G\246\275\177\207\215\275\036\354\337=\324\275\363\274<\333S=\353\205\000>&\346K\2752\237\"\275`\342\"\275\372\341\203=\036!\354\2757\307\367\275\217\t\n=\2655\023>w\246\002\276\004\376\244=P\361{\275\352\020\026\276\306\240\375\275U_/> \344\033\276!o\010\276\230\200\237=|\363.>\351\345\016\276\005\351\206=\246)\303\274\361\207\324\275LmK=\357\223\326\275\216\326\"\276!\030T\275\237\336\005=M\221*\276\245\374.\276\323\004\235\2753\356\327=\355\246\022>,\372\005>\005\341\342<\250\3731>*\n)\276\235\365\004>\254\260z\275(]\242\275*\010\263\275\265\253\324=]\241\265=\016\241\037\276\373M-\2753\370\014\276-\261\350\275R\241H=\362>\225=t\026\342<{\356A=i8\362\275\026\230\215=\010\001\355=\367\233\373=\\\265\264=}\332\022\276\201\336\333=\346\250\365\275\n\357\346=`\275\211\275u{v\274\366a\005>\212\242\302=r\355\023>\020l\304=l\3425\275\316\\\016>\204#\310\274\364\363\001=\006\267a=~\271\346=+\351\246<\220\006\237=\020\220\036>\007b\361\275\251\314\317=\213}\021\276\217\323\326=_\024\322<\232J\222<6^\256=z\276\243=\024g\006\276\326\340\335<G_\216\275\ti\234\275\200i1>\017\302@=\351h\366=\242v\235=\'\236=\275L\214Q\275\'\317\031\275u\034)\276\310\266\335\275\363\212\020>2\264$>\007P\275\275Q\273\254\275Iz\336=\214-~<\266\233 \273\0147\021\276\272\327\022\276\n\222!>\205\276\213\275\350\301)>\211\357\032>\006\271\213<\265\345\033>\372m\014=\312\254\255=,#\210=\372\375O\274\302\210j\275\363j\276<\241\241\250=\271\272\374\275\200>\370=4\212\221\275\367\340\305\274\223\275\354=M\374\254=\252\342j\275H\301W=\230\362]\275VV\">\316\237\372\275\340\337E<\204D\302=\247\235\246\275x\336\025\275u\2711\275\376\263$\276\340i\307<\004u\020>\214\267Z;p\'\r>\216\304.\276\354]\243=s#\237\275t\276\312\275Kl\036\275(e\357=\305\001H= \201\237\275\343\3147\276\300\033\274=\025%\307=\347\344\277\274\252\315\006\275\200I\026>\265\014\334\275\207\006V\275\364\036(\276\354\352\345=h\223;=\3134\204\275/\023\373\275\'Ko\274y\247H\275(\207\336=\203^\274\275U\001\275=$P\364\274X\310$\276Q\n\205=\212\307N=\350F.> \266!\276\025\341\t>\315\202\016>k\360\232<3fb\274\006\215\356=yC\031>HZ\214=\311\265b\273\231:\352<\213\2737>\237\237\031>\367\254j=\027\227V=\3702\223=\235\n\361=W\262\374=\235:\017>\356z\036\276`\301 \274\323\315\247=g\330A=\370\\0\276\237|\314=\275\371{=\343W/=\023#\020\275\027\203$>\020-\357=\230\330\224\275\316D\303\275\021\0267<\2721\013=1\277r;\223\352\371=[:6=[\3170=\247\014\212=_9\003>\223\337\377=\207\241\330=\225\370\017\276>\267\000\276\326\031\363<j\337\235\275\337\033,>\223\211\213\275\254\'%\276k\263F\275}\034\200\275\314\251\307<\372\260\320=\204\326\036=\235{\024\276]\n\026\276\240\216\002\275\371x\347=\204\211y\274\\\300\255<\221{\334\275[z\243=\024t3\276\227l+>\352\377\n\275\346I/>^~\307\275\262\210X\275=\242\364=\364\014\350\275:\336\212\273\232\212\037>-\344\272\274xk\254=b\037\377\275\241\331\327\274\006-\375<G\n\002=\257\320\343<U\016h\275\374>!>\211L\222\275\0163\347<\324\371\347\275\002\003\r>\001=\004\275\033\2466=3\020\256\275\273\347\330=\023\274r=\244\362\334=\352\352*\276$P\374\275\021\007\004\275H\013+\276_z\216\275\247*m<\315\2441\276\335\345\334=\371\251\210=E#{=$\300\037\276$\263\000\274\305Z\207\2753\333\007\276\'\235\020=nN\007\274fH\362\274\217\346G=\023\343\314\275\346?\216<\232\214\021=\244\226\346=\021\036\374\275aVW\274\246c\027\276#\315\314=\206\004\003\275\277H\002>g\357!\276\237\263\322\275\305-e\274\225\336\215=\346\240\t\276\332P\025>\030\321#=\270[\177=\017\017\n>m\314\033>l\005\233=\324\203\010\275 \235\345\275\244\231&>\211`\346\275\324\316\"\276\\\231\014=\264\335\333=v\322\005\276c\270\034>5$\017>v2\207=\321C\210\275T\353\311=\\y\030>\002\256\000\276\t\343\230=9\204\016\275\253\013S=\010\335\033\276\225m\023>h\315+\2766\240\214\275\337\235v=\302\025\350\274\277X\265=\207\300\251\275\"\r\337=&h\210\274\253\357\001>h\2734\274\206H\014> ~K=\205\237\310\275\007\307\306\275\014c$\276#\231\320<8\320\363=\3746\375\271sC1\276\311\353\020>\026\231m=\250\367\032\276\242\242\367=\343\230F\273\266\233\024>=D\037\2765\230\273=\353\231\260\275\006\304\354\275\261\0315>\350\370\213<\317t\027\275\343?%>EB\335=\260^\313\274\000{H\267\333\257\227\275\335\202\371\275I\030M\275K^Y=\304\013\350<\323\257b\275\242b\004> \374\000\276\3208\014>\251B\232\275\371a\367=\327y/\276\020\312,\276\204XS\274J\250$\276\205\255_<.\206\177\275dp\371<\357!\037\276w\265\016\276\225`z=\224\372&>EH\326=\370\251a\274X\370u\272\340\307\352=I\t\257\275\257\224\224\275\200n\312\274\374\320\232\275<\350O<\034\342\r<\236\240\316\275\030\230\361\273\027(\211\275\357\374\324\275\207@\310=\1774\036\275\335\267\005>4\210\270\275C\306\005<\201\330\254=m\351\262=\336\010\341=d\351\225\273t\232\341\275/\350|\274\217 \203\275\247P\"\276\270[R:Xt\342=X\226E=\224\0070\276\021\026!\276(\216\206\275\353\343\'\276\342^%\276?\n\335=\235q\010\275\000\374\3009\261x\220\274\224\265+>\251\323\276=\013\336\027\2757\253\317\275\331\367\250\275\017\002\352=\201[\374\275\021:\355\274\351\305\332<\206q\007=\273>\372\275R\204\222\275\350i\020=\'\312\310=\014\314\337=\304\272\246<Ms\265=\t\243\312\275\246\245\207=O\345\202\275\341\225\003>\301\263\020\276\022\027r<\242\230\314=&\"*\275p\017\245\275\326\263\343=\223\371\004\275!\375\250\275\371f\325\274\364MO<\251\003\345=\033\257&\276\372\020\233\273g:7<\346\243\235\273<`O\274\277_\267\275\264\313u=b\240\371\275\270)\260;\377\337\270\275\312\367[\273\024\307\177\275\306O\225\274\3210-\276,\277\t>\214\277\360<:\304\263\275\242\005\313<U\366\034\276m\006\331=\376\270\347=\267.\326=\351\304\205=\212\342\255=E\247+\275\251\335\010\274\n\343\257\273@\210\352=\360Z\020;\355\354\234=5\257\003\276+\310h\273,3\352\273\036:\002\276?}\355\275\202o+\276N\024\"\276\225\177\307=\320\274 >\177\247\327=@>\214;\301\320\371=D#\344\273;}%=G\353\371\275\347E\266\275\035/\007>\237\023\007>\033\262\366\274\271\0047=\362>%>\316T\034\276\307\312\305\275\311\347\313\273\264\024\036>\213\t.>\027C9\275\232\304\023\276\247 %\276\355n\343\275\024\210\017>\"\231\000=\210\037\376=rD\002>_\240\215=|\236$>*`\240=\262\026\370=\204\025\036>\031\355\361\273\342\260\360=jU$>6\027\014>W\255\230\275x\203\013\276*C\360=\250\377\030\276\034B\035>\3720~\275p\272\n\276f%;\275]\233J\275/\032\312\275\252\362!\276|\240,>\375\260\225<ah\322\275\273\265\022\276\t~(\275\272>4\276\333%8\276\3753\276=\371\375\323<q}\210<\354\232\363=t\243,\276\341\r\354=\302\257\021\276\235\245\036\276\232L\315<\361\305\034\275s\275\265\275\367\366\035\275\321\004\364\275\273\371k\275\231\316|=R\202\024>\306\220\375\275\347\024\244\275(\242\001\276+\240f=!B$\2764\007\317\274S\312\376\272\342F\352=\177\001$>#\224U<\322P\213\275\342K\r\276\231\342\327=\253\342\362=4\201\230\2759\250I=\235\2458\276~\237\242:d\377%>q~\276\275\274\340\316=\356m\327\275\312\247\031=\304a#\276\262h\301=\332s\267\275V\213\371\274\317i\220\274\225\256\370<M\002\316\275\331\031C=\242\332\n>B\351\373<7\235\034\276\211\200\262=\233\001\037\275\310\371\213=O\026\204\2745\255f\275]\201\336<\242\263\244\275\300\262\007>H\264\032\276\360\000\373\274\274\275\020\276\216.\314\275v\311\372\275\356i\270=l4\021>*\350\203\275\302\016^=0\306\237\275\345xl\2754\263\245=\304`\023>\025i.\276\257\355\326\274\336\350\022>\315\367\275=H\207 \276\027S\253=\013\246K=\372A\255=\270\305\002\276\245k\231<\016|\220=a\342\255\275Y*\035>\333\205\342\275se\346\274\023K\361\275\305\'0=\341>\240\275\360\242\271;\375D\232\275UFF=8\263\375\275\333\3409>\225<\004\275\376|\352\275\204 \256=\316tE<a\254,>/ \362= B\010>\305\370 \274\n\350+\2759\205/>\000b\337\275\343\271\360=\261\200\035>\005n\223=\005\205->\252\2214\276p\275\234<;\233\200\2752\351\242\275\270O\032=\246m\016\2768?\246\275)\016\332=\024\326\'\276\277\307\241\275kP4\276u\234\301\275X\205\346={y\264=\233\224\230<\017\232\021\276\344n\024\276\352\344\204\274\225\221\354\275\303p\227=<\365E\274\032Z\210;2\255\315=\037\254\232\275j\225\317\275JA\365\273g\367\021\276\267/\005\276\356\022\360=\345K\367;\275\331\370\275\3546\021\276T@0\276y\te\275\006\020\211\275\361q\264\275F\317\302\275\3715\335=\203\242r=H\213t<\325\312\010\276\030\037 =\302S\261\275\315?\327=\211%%=\261\363\314=\nU\354=x\325\211\2756\275\274=os\344\275Ny\021\276\034\246$>\356\351\034=\370\233-\276j\221\006\276\325\237\005\276\216\256\220=\311\216\007>\006\311\034\276\233\363\376<\205\200\271\274\370Z\010\274y\202\367\275\367\203\212=\274r9\276\312d\347=?\317W=\333g\343\275S(\310=:\337\026>Uh\223\275\303\2572\276\247A\360=\302\200\007\276\2039\014>\321\200*>F\251\346=\2317\264=\241\241\007\276!%\272\275\203\377\370=t\221,>+\327\363\275\354\270\247=1|\301\274\376\327\326\275\253\005{\274\026\007)\275\222\361\212\275#C\007>\275\327\253\275c-\343=r]m\275\221\036\310=Y\353\016>D\016!>[\2716\275\271\307)>\270\237\366\275O\216\273=\375\304\034\276\036\346\014\276\223\216\357\275l\366\027>\336\343\343=c\303\334\275\022\335\026\276\331\0109\276\003\325\021>\222\273\034\276\217\255\242;\211,\315\274([\344\274>\006\201==l\002=\311\257\004>\301hn\275\001\331\365\275\247B\223\275\2536\203=\001\363\344=\204\016\370\275$i\353\274\264\364\"<\202\233\376\273.|\233=\320\233\265\275\254*\372\273\204\345K;\304\336\236<\222\233u<d\274\036=ajh=\220\037\006\276\246\275\265\275\200\256/>\240\252\014>\300\264\n\276\302(\307=\311\334\225\275\303g\264=\235\373\313<\005\337\023>\273\t1\275\254\017$\276\027\362\320=Wv0=\035=&\275n\017\r\276$\372f<K\277\004\276\263k/\275\225\377\206;\347\351\265\275WS\032<M\303G=\377\245\r\276I1\316=\242\322 >\330\346\t\276B\007\n\276\354\223\277=\026\257\233\275~\313\t>\217.\221\275\337E(>\201\322\244\275\273T#\276\001\003\235\275O\330\370=\007\340O=R\013\334<\370\353\036=T\017\014\272v\216\314=\235\316+=\031\371\002\275\361\205\017\2768z\"\276\260\035\003\276\376h\203=\275\005\036\276\232\264\376=\312\353\\\275t&\261;\252\320\202=.K\230\275\r3.>\2506?=s\241\201=\203&\262=\244~\251\2754\334\250=o\3502>\247\330\234\275V\315\002\275\217=\023\276\254\206F\275j\002?<a\0236\276\2751\373=]\325\323=7-\272=l>\364\2741\254U\273\262V\025>\215\364\010>\2318/\276\345\333\333\275Z\261\244=\333v\224\275&\225\027>\303l\035>\007\367\264=;H\"\276)w\217\274\t\275\377=\340S\032\275\032%\360=J\215\027\276$=\266=?p\304\275m\342\270\275\227U\031>\342\310\303\275FH\273=?\344\375=\350\353\256\275BC\'>`\324!\276@F\277=\252\250\251=r*s\275\026y\336=@\355\313<\240\005\375\273\267\005W=\240\236g=i\256\301\275\372U\365<m\016k=\317\3441>Y\365U=\306\n\023\276\177\272L=\254\355\023>n\367\207\275do\277\275?\010\303=\312H+>$\262\324\275\310\n\262<G\032(\275\243\347\322\275(\367\210=\316\243W\2754\355\003=\'Z.>\276\266\300=\216\334\320=e\n\373=!\213\334\274q\325\323=\212Q\204=\207_\202\275\032.\022>:\245\322\274\353\274\274=\313e\345=7\263\003>\206\2666<\220u\253=\325L\032\275\330x\217\275g\324h\2758\313\345;H\246h=\'\034,\276w\017\321\275p\031\370\275\021\2113\276\335$\376\275\016\204\223=\200\013\027\276=\234\356=\217Y\233<\035X\255\275\302\232\n\276\360<\033<I\003\371\275\226\303\243\275^=P\275\364f\331=\"6Y\275\270m\366\275fG\325=6\245 \276\363\256t=\237G\000>_-\316\275xM\201\275\016{\021>\036\r*>\014\330\307\275\326\357\216\274\207\022G=\307\274\203\275\356\375\322\275\220b\223\274F\237\030\276H\375$>\241<\r\276\236A\203=\354&\325=\201\\\223\274z\255 >\211T\t=\326\232\036>\\\036\221=u\350I=\330\214\001>>\250\233\274D\336p\2756YT=a\223=\275*\024\024\273\036Z\205\275\025\204\261\273i\\\337\275\223\254\221\275\017\010\362\275\210\005\344<\240\035\314=f\311\265\275\221\336\031>\247h\331=\032\035{\275\366\253\345\274g*\305\275\366\020\234\275\277\376\372\275\333\032\205\275\020N\r\276\014l >F\255\314<\377Q\037\275\372\3462\276\236\234\234\275s\367\375\275|\177\023>\216\344\237\275\202J\300=\244\224\234\275Fo\226= \266\311=i\311(\276\323Q\300\2742\010\350=K\352\r\276H\366\0058\261\364\374\275\320\2510=$\306*;\227S\246=+\275\346\275_\302\210=w\372\231<\215\340\'\276\211D/\276\226\363\325=\325\2245=\376\264p\275,{\334=\324,\341=\327\215\010>\000\r\006>\252\3517\274\033\233\242=H\0078\275\366\3121>\340\360\353;\356\223\215\274\353\014\326\275o\332->\363\000\313=\205\232\265=\374\013!>\266W\370;\034\335\266=~\351/>\343\357\300\275\251\317\017\276\375\353\275=r\036(<%,s=`\026.\276\330\214r=\235\333\343=\2104%\275G\205\023>\334k\001>aA\t\274^\306\021>dv0\276\273#==\345\311\274<\341co<78\027\276_p\025\276C\277\317=7>t;\263\251\004\276\320\272\277\275\253I\217\275\237\3331<J|\004\2750\234\241=\r\366D<\252\032Q;E\333\017\276I\310\331< \003\360\2746M\262=\037\363\321\2752_\002>\242\250K\273\207\037\035>8\010\230\274\250\344\006\276\213n\020\276\321\260q=\370\272\207\2757W\r>\270\237m<\004\242\311\274i\243\334\275\207\\\030\2766*>=D\260-\2762\034\231\274\216\023\320\2757\r&>\034\236\205\275\026\350\345=\314\234j;\325\203\245=\3523\374\275\3217\273\275j\301\017=\024\303\021>\203_&\276\254\376\034=h,x\275}\200h=\235\356\336=\274\033\350=B\034\017=^\000\003\276\203\254\261\275W\010\017>\216l>\274Y\363\005=\307\230\250=\274K\353\273\310\342\r\275\221\250I=<\201^=\302\034.>\250\361\227\275\327\336a\274`\232\363\275\305(\025\276<\036\320=\343\323><\322Z\216=\213C#\273\201\2457>\365\376\216\274$\0039\276Yc\350<V\343\327\275`@0<\202 \330\275\266\351\273\275\341\200(\276\243\325\226\274Xz\202=\256\307$>\201\300/\276\226%\361\275\316S7=-\3477;\203\013\t=\320\271\"<u\215\000\275o\036,\2763\213/\275$\267\341;\263\233->\230;\203\275\342\013\367<e\3533<YB\354=\264(\273\275]\217 <T\214\316;\347\311\313\275\017\375*\275(\017W=\253\035\020\276F\307\220=\2277A\273\255&\n>Nn\347\275\024\272\252\274|\010G\273\014\313\256;\340\363H\275$+\023>\027P\356=\357O\026>\211\201\274=\353\177|=G\366\'\276\245\001\254\275A\342\355\274\347U\006\276\2423\211\275\037h/\276\213\024\033>\330D\276\275t\026\334=\025\372&>\255\367\251=\007\375\233=\t\300\013\2765\275(\276\224j6\275\013\362\025\276\024\231\275\275\270\300\321\275\301\345\020\275f\355\276\275lu\233=\320\226\032\2764\363\357\275\320cu\274It\231=@\006A\275\036h0\276\264\303\003>\010L\214=S\363\032>\027G\"\276\247R\032\276\022-\363=\267\027\037=\nf\310=Q\224f=w8\272\275}L\027\276eF\035>A\t-\275\332`E\275\325r,=\024\257F\275\345\010,>\365q\026\276\356l\010\276\242i\256=\026\"\323=\313\271\207=av\345\275i\362\000>\003\276D=\201\310\252=\033\245\t;t\374\212\275\255J\002\276cK\n\276\252\254\204\275\034\377->G\303\373\275\371\010\t\276\220\275\332\275R\'\n\276\260\374.>#\266\361=L\326\036=k\337\364\275\006\004\003>\347N\362\275_IK\275\245\020\276\275\317r\016>\260@\027\275j\244\312\275\262\375\257=\t\205\002\276\317K\004>[\256\322\275\251\2612<\211-7\275_\026+>\270\351\242\275\255Xy\274Q$+>Z\'\313\274\r\326\364<\3274)\276\232\211\204=\364\252\006\276\354{\032\2766*5\276LM\377=\035\312\250\275\231\020\017\275\355y-=\007\\)>\373\342\r\276H*\222=\275\214(=|\364\001>j\276\227\274d{\037\276\370\257\270=8\203\267\275\370\004\007>\032\0238=\236\376\323<\216P&=\260\025\270\275x!\241=\344\323\373\275\265Y7\276XZ\237=\314\306\324<\300ol=[\332\260=z\244\372\275Z\222\325=\303@\235=u\264H\274\211j\210<\334\264\271\275v\"\r\276\244\371\305=\313\310\261=?{\272\274.Q\021\276\205\235\025>\014\034!\276\356\301\374=S5\350=\224\210\023\276.HI\275\356\277\254\275\212Bg=\031/\203=\365[&\276\371\346\233=\023K\260\275\036.\276=<p\351<\301\317\025>K6v\274\322%$>VZ\301=\345N\262\275\026U\032>n\260T=\264\360\336=0\230\n>&\270\023\276\335\254\371\274n\300\235\275\327\312\025=\233o\274=n\266\202\272\021\025,\276+\276P=\332\211\251<\356\222\230\275z\001\377\275a\316\027>\027\245\024\276\257bj=\323\311\245\274\241\210\313<\227}\356=\037\260-=T8\224\275rU\037=t?\357=iT\356\275\306\247\276;G\2767>[!\263=\366\316\246\275\232k\371=\005\310B=\226\313\003>J5\037>\354\340!\276H\'\020\276\277)\272\275\206\345\313=_6\313\274\327!\344\275VE_=(\271Q\274\214\352\217=\355n\205;K\204\302\275u\027*\276+\253\034>\317L\261\275$[\016\276\370x\273=\245\031\013\275\367\271\303=\234\234R\274\325\003\007\274\257\001\206\275\270\2665\276\321\334\371=\033\331\206=\300d\377=\002+\n>J\310v\2752\314\006>w\200+\276c\207O\275n@5\275V\3759=\261-\273\275\332\016\013>dS \276\264S\312\275/k\331=\327v\006>\225\035\333=w\n\'\276\372\3076=c\221\244=\331k\'>\356\330M\275\360\346\361=\225\374\207=\000\226\326\275\367K\300=o\371\034>L\310\016>\005\177\000<\\v\211\275\320\207\215\273\007m\271<\365\344\354\275\313\210d=4\373\203\275F\221\351=\016\037\210=\376\262\266\275p\342W;\201\220-\276\3361\226\275\377\333$>\320\017\032>\212\212\007>\262\304$>\254\311\021\276\244c\251=`\347\313\275 \324\314=\034\343\005\275\231\362\267\275\'\362\022\274\227\342{\275O`#\276\242\203\035\2735@\004>\347\337\t\276yN\374\275\341\377\207\275\236\024\021\276\006^\304\275\031@\017\276w\301\005\276b.\337=O\013\207;\025\332\240=\327\025\027=T\236\n>n\263R\273\267$P=\031\0360\276\367l\027\276\370\204\361\275\273d\375<\035\214\226=\204\260!\276\016#\030>\352\211\363=\372j\200\275\224\257\006\276<\250)\276^\243\022\276\277w\020>z|\373\275\236\304\025\276\355^\244\275^\364\304=\241\216\323=\210s\360\275\374\013\003>\017\200\033<\211C\013\276\202\3742<\360\355\325\2753 u<\202\300\330<\272\003\021\275a\301\025\276\212\275Z=\372\303\263=O\203\234\274\"\200\334=B\2521=\030\230\333=\232\216n\275?]\223=3\267\361=p\207\025\276\276w\337=B\0278>\246\241\320\275\246\226\247\273\207/@;\320\203\312\275A`\340;\301?\030\276\365\000\000>\242\216\324\275)\247\350\275\n\213%\276%\013\320=\300l\201\275\314\317\253\275\234<1\276N}5\276\334\370\253\275\211\026+<Emp=\327S\001>\237ik\275\270\234\267=\301$\017\275Q\303\333\275\325\341\271=A|+>\255\201\034>\014\020\374=AZ0\276\325<\310\275RA\347\273\033l\243\2759\212\250\275BN\024\276\223QD\275Ae\022\276\220\353\037\275V5\301\275YV\000>+\3065\275\314\332\034\275P>\223\275\242\235\023\276\341\311\244=\272V$\276:\000\356=\306\307\247\275?\265j<\313\324\350\274\261\211\010>n\331\342=\222\264-\276\355\033\205\275\347\322\302\275L\321[=i\376-\275U\314!\276\322\026\316=\017\2212\276\366(\252=\260I\002\276x\211\302\275\337\210\313<\023z\354\275lb\035>R\202?=C\242I=j\024\007\276\345\324\201\274`Lv\275\302y\363\274z\r\334\275\204^\036<\300\323\'\276\250C\252=\317\311\314=\341\025\t>\032f\307\275\325@\255\275S\263\225=h\304%>6F\274\273\306\367$>T\343\t\275i\262\221=\302m\201<*\223!>\224x\324=!j\305\275\365\010\022>O\304\352\275\036\221\331<\274\364\255\275x\264-\275\346\255\241=\323\3439=\242}:\274\231\342)\276b\273 \273\243\372\216\275/\r\025\276\210O\215\273\223u\021\276tHZ\274\3715\271=\231\350\014>\r\252\020=\t\322\326=\317\010\347=]\016\005\276\327\326\030>M\351\'\275\342@\376=\211=\276=a\256\n\276Cq->\207[\032\276M\014\332\274\327\354\235=\033\275U\275\036%r=\332\247\362\273R\003\255\275\362D\n\275y\356\023\274\272\232\013\276\225\227,\275\355cU\275\262\343~\275\234\331\227=5\235\237=\271\217\334<\205y6>M\022v\2751\204&>\362-\006>X\210\211\271]\306\360;J=*>\214\317&\275\036\276\336=\357\234\270<8`\310;73%> \256\2779&\013\315<\234\032\365\275]\361\004\276a\324\365\273vA\"\276R\244\003>\212\266b=\244\224\272\275C\322\305=\354\021g=\372k2>\360\302\200=\253\265\232\275\345\2408\276d9\352=\017\315\331\275Ui\314=\215\342+\275\3316\340\275\203\004\275=\326\032\323\275\215\366\351\275\220\221\345=\246<\267=\214\276\201=\251\246\270<\031\211\225==\267&\276K\214\232\2754\210\323\274WA\003\275;q\243\275b\301\253=\016\316`=\375\010#\275F\267\027>\336y\006>\304\267\037>\341\235\">\346\372\364=\342\365\350=\033\2174\2755\006\030>\002\007p=\325\373\326\275\306\275\004\276F\322\017>K\267\376\275@r\230<\320\005\245=i\325\001\276\375}\244=\307T\262=#\252\356=8\325\034\276\004Q\242\275\031\322\351\274\315\2204\275BF{<0]d=\005\310\252=~\214x\275\336B&>\227W\023\276\221k|<\373\330.\273\305\032\243<\224e\236\275\233-\265=\2559\353\275B\301\330=\353\001$=VC\235\275\321\300T=@\225\n\275=\256#>J-\307;\324p\337\275%A\271=\354\322\326\275F\222\224=\034)\021\275\200->\275\211)\232\275\342W\270=\224Q\246\275,\206\r\276\235\215\326\275>\266.\276l?7\275\343\030\300\275\333f\221<\362\374.>N\201\t>!\234\013>\3030\324=0\300e<*V\022\275\225\342\303\274\371\337\261\275v\332\302=\363\231\005\274,\023\r>\203H\307=`\331\245;^\0277\275\347\313\303\275\310\262I\275\347\350\366\275\352d\374=\024\372\023>\237\225\346\274\200\363\221\273k\352\263=\315\211\254\275\351H8<\263\001\020>\254\240(\276\302\325\360=\200h!>\333T\206=.&\n<G\204N\275\363\275\256<\001T\003>\360\205\023\276\344\320\357\275\3440\020<\034\326\005>\206\240\335=\246\322\304=\324N\005>5\244\005>3)\215=\376\211\034\276L\372\277\274\273\262\t>\332\202\340\275\301\223\245=P\'\334=\035\374\022\275\326\331\035>\214\203\007\276J\242\351\275\307q\025>O\261;<\010@\361\275SP\224< \321k\275\031\010\267\275A\t\307=?\240\234<\n\211\326<\005\234\024\276\347\353\217=\016l\006\275\265\037\342\274\373\2740>\261\207\200=\365\n\217=\301\323\025\276\211m\206;\204\020*\276\233u6\275C\372\205\275r\210\000>\\\317|<\301[S=u\255\022\276jSD=\327\226\t\276\030\254\204<\201\001\'=iR\016<\365\355\257\275\r\005\224<dc\355\275\261\000.\276\024\267\337\275f\242\033\276\"\017\013\276\250\007(\276\010\365\037\272\032\352t\275&\335!\276\217M\027\276+:$>\250\261m\275\305\225c\275V\2431><\304\022\275\245\213}\275\253O%>Y\177\236;=%~=2\360\237=\354!`<\331\206\323\275\331S\'\275\246\311\315\275v\000\332<4\305\251= 5)>\337\355\032\276p\272\002\276u\254\355\275>\024\034\276\364\030\276<4:\310\275\340\207\235=\376\017\003\275\302n\260=H\372\t=\305ph;\374j0\276e\304\272\274\262g/>\347!\237<\253\352\304\275\241(|\275(j\377=\336\231\336;\021\223\212=/Y\342\275\241I\371\275+W\335=\336A\346\275\314\206\013\276\332T\024>\371\022\347\275\363$\'=Sn\345=u\034\217\274\244&\031\276\222z\220=\326\214E=b4&\276.\343\013\274\310\261M=C\254%\276\375\366\372=0UZ\274U\316\032\275\267d\027\276\006\213\334=m\375X=Y\265\301=\032c\266<|\353\276\273\306\237\271={\326\\\274\3244\227=dO\007\276\001\225q\275XM\221=\273\350\207\274\332\352#\275\200\337\322\275l&\013\276\251\264\036>tF\227\274*X\221\275\306U\302\275\263\031\002\275\n\374/>M4\013>\026b\006\276~\003\002=\333\306\000=\373`\023>\013\340\255\275\014\r\033\276\222\314\t>i-\227=q\362\026\276\367X\205\273\333@3\276_\034\000>\021\375\017\276\331\355R\275\256\343\363=2n\237\274N\320!>\333\322\212\275\275\315\317\275\301\214\035>\177+o\273fE\242\274\355\356M\273\250\320q\273T\230\255<\340\305\315\275k+H\275DM\246\275\260v\305\274\276\264\362\275\226h\036\275T\274\000>*6U\275W\000\272\275\235_\223\275\025-\t>\0062&\276y\265\333=\002\307\327\275v\353\352=w\237\037>\342U\261=\016\365\303=\"\277\364=\266\356\373=\003\355\272=\021\252\320=w\214\211=\211h\002>\225\345\362\275\0323\203=GK\006=\371\375\202=\332Yd\274\020\020\236\275\234\341(>\276.%\276#\342\364<\004d\010\274\036\016\273=\262\220\261\2752\351\367=2e\233\275h{\317\274\330=Z=@}y</Rv\275\'\2020=\210\345y;~\216\035>\331V)>\263\327\024\276*$\006>hw\032\276H\273\277=\232N+\276\220\000\207\275\351\200H\275\323\373\332=6b3\275\344\354\255\275na\">\n\024\311=0c\007\2767yb\275\n\253\224\274\302\2274>\"\274\035>73\010>\245Q\313\275\023V\037\276\367\361\367\275\030\263,=*\375)\276K\022\314\274\222\013\304\275\354\253\235\275\226\014\260\275&\210q\275\231\261\305\275v\240%\276\331</>p9\345=*\340<\275\333\261.\275#\303\230<\345U =^\263/<\362\236\r\275:$\027>\222\245?;k\215.=\372\022\275\274\210\223)\276\177\276)\275d,\202=mL\321\275F?\361\275j\375\030>\351\364\357\275|\212\000\276Usx=\234\023&\275\005N4=\323\330\371=\246\266\311\275\373K\037\276CK\005>-\013*\276\356\021\013=\035}\016\275\306\033m=e$\321=q\311&\276\227-\366\275\302\271\213<u\321\002\276\203\260\253<\361\272\027\276N\232\332\275\236\253\005\276\324>\'>u\262\365=\360s\006>\226\205\337=\231\343\271\275\204\322\r>\312\361\004=\031zG=(n\030\275\207\\\002\275\036\374\034\276K\027U=\005\'\210=\027\315\345\275\236k\033>U\305\013\275\033-\310\275\014\357\026\276\255f\354<\341\300w<I\253\372\274\340\313\316\274\212n(>$\202\023>;W\237\275R\375*=.a\272\275\316\004\034=:h-\276hl\231=\205c\344=\300\247\246=))\036>\326\335\230:<\030\364\274\214\224\234\274\025\256\257=8\004\276;3\2128>\322S\271\275l\247\276=\351\014\003\276\237\023\350\275`\272\324=\344\021\333=\264\233\234\275v\264\241\275\255N\323\275k\220\334=\037\277\312\275<\342\267=\356^\025\276n\007\265\272\373;\214\275\200o\032>qI\r>\224\216\362\275c\211\336=\263\177(\276u\330\023\276\264\327\006>\307\341\231\273\224\314/>\343\362\007\276\226\367\030>p\331o=\t\017\006\275\244\037\371=\022\372\026\275\371\363\271\275D\212\020\276\"\362\246=\371]\032>>\321|\274Y\353\315=\224\3120\275\240\026.>\251D\275\2746\201T\274\301\324\025<^\355\002>\343\363\373=c\217\320=\033UF\275M\336\305\275hC\261=Z\325\217\275\322%/\276\304c\333\275\343_\006>\305\006g\275\356,\276;<b\037>\244\016\000\276\265\277\274=\265\032\022\275\3555\024\276\313%\340=M\2663=\001H\000\276\242{\315=9:&\275\317\037@\275\002\224\025\276[6\327\275;\211\210\274R\226H:\342\267\374\274r\204&\276\356+\034\274\2269\326\275\007\\\250=6\200\307\275r\264\231:\025f\030\276\007G\213=\346\n\233\275\232M\036>3 \360\275n\200!\276\223X\030>\346\034\271\2758\251!\275f:\'=\375\005\313=g\022n\275\205~\001\276\362\270}\275\236gm\274\251\226\252\275!\300\025=\272\037\010>\034Se:\215\266\006=\246\026\307=D\013\250=\343\216\201\275Dj\225=k\244*\276hl\347<\027\027\030=@\021\t=6\310\021>\212av\275\205q+\276F7\255\273L\374.>,MF\274\016=\005>#\304\266\275r5\226\274\256\372\265\273\237\250\354\274<S\004\275\276\234&>\246$\207\275\267\033\264<\000_\263<\242<\006\276\203\223&\276\201\345\375\275w\352e\275\275\324\025>\014\254\026>\006\315&\276\030\2049\275PR,;c%\373\275\372\247\003\275i\r\221<\300-\314\274\362\177\235\274Y|\332=\334G\377=\324\203n=LC~\275\2030\211;\235\317\003>\307o\005\274\2372\256\275\021\336\260=E\340\254<\212I\'\275\236\265\222\275S\3372\275=\253\365=\241\353\320=n\'\250\273\330*,>!=\263\275\217K\362=\343\317\225=\334v\237\275\245X\035\276\305L\274\275AH\265=\327&\322=\336Nk\275\224W\315=v\333p\275\255e\027>\274X\362;\277\373\227=g\310 >\2632\335=\210\316\263\275\010\027R\275\373\302I\274\371f0;\214m\304=k\246\001>\275\221\345<\033{(\276T \377\275\020\343->\010\221->\250\250\210=\201\236\022\276\2217\024\275\367\031\201\275\273\333\036\275\310+c=Ir\025=\320Y\341\275\247\337.<\354>\000\276J\253&=w\336\235=p\225\252\275t\3065\276@\233\202= C\034\276g:T\275\223\270;\275h\002\000>\276\224\n\276\237\350\256\275\375o8>\232\203\350\2746\3367\27694[=kj\244=\201\260X=$\re\275\222_1>\357\226\303\274\356\302\241\275S{\237=\223\004\000\276\0025\352=9\"y=w\222\035>\234\240\220=\225\211\037\276\342\037\004\276h(Z=\323D\237=V\377\214\275\307F\030<\201[K=\r\347\314=\323\233\036=\301`\006=\217u,\275\223\377)>r\371\266\275[y\367<\336\313\327<d\034z\274\362F7\276\306.\014=\307\350\036\275m$\201;\177\017p\275\010\365\274\274\n\303\003>\224\245\034>\240\005\306\2742d\255\275\275\014\336=W3\032\276\036\232\347\275Q\027\362=\265;>\275\363\224\005>E\313\311\275\006y+\276\270Z\243\271f($>/\357\004>$\032\001>\213\215\020\276l\325\237<a\202\221<z\316.\276\t\376\006>\364R\204=\341\256\321=\377\202\214\275W&\003<B0->\364\010P=\217\230k\275\372\023<;\023g\333=\216]\335=ap\237=\261\332\344<\220{(>X\362\204=\315\277\014>\335\007b=\225\223\024\276\225C\262\275dNn\275\">F\274\337G\007>1\374\354<\214\014\373=/83>\026\257$=[|\r=$z\024\276\033\343C\275\027\374&>HR\251=\206\241\324\274#\346\032>\262}\233</Q\215\275I \353;\007\205\324<\202\254\375\275\347\202\334\275]\205\022>\006\tX\275\320\265\364<#\255\354\275g\212\330\274\255\"\356\2753\216p;\216\342|<wI\244\275\317\326\366;y\261\233<o;)>\r;n\275\250x\277<m\274Y=\036\242\022\276\210>\307\273\007|\020;:\025\036\276\222\252V=\302\362P\274$#\230\275|\206\244=g\257\037\276\356\216\227=\215W\004>~\020,>r-\212=2\035\007\275A\030D=_W\026>\376\310\274=\272\327\004>g\231\337\274\335\232\005<6\343+>y\250\254=\320g\314=\323\355j=\332\202\277\275\226\036\327=\236?<\275\031\361)\276\271\207\340\275\204\263\030\276\"\267(\276\261\364#\276\004\014u<=\245*>\260B\r>\3641\242=\305\270$\276\346\205\036\276\024\204==\216\035m\274\347&|\2753\372\375\275r\277\372\275\377\222$>\302\252\212:\377\024l<\262\247\260\274\234\027\364\275\330\276%>HA\256=&q\333=\304y\261=~\237\n\276\217\220\301<\200R\211\275=\031\224=\346[\203\275\302\237\'>\205Qq\275w\211\367\275\005^\324\274\364\t]\275\330\264\266\275{\315\303\275\304\022\343=\357\206\262=\207!\013>\206t\326\275\340\2066>\241*.\2742!\227\275\010\276\001\276%\370\021\276\007\2004=k\203\323\275\233\376\233\272*\263\225\275\016u\'\276\316]\232\274K\352\026>z\205\231\275N\320,>\255\216\010\276\303\255\266<\247\307\224=]~\353=\372j\321;\223F\242=\202\010\316=e\001C\275?\232\213=\266\214\241\275\206\226.>]b\277=%\351\033\276X) \276_\346\352\275\031\301\317\275n\225\021>6\234\344<\302\264$\274f\307\001>aJ\035\276_\215\336=\355\256\010>\022\205\033=6\277\270\275\001{\261<\002<\364<\027\232\241\275\364\313\273\275AcA\275\025\035\004>u\212\267\275\307\006<\275DO\370=v\241n\2759y\255=\252\345\276\275\013`,;0\022\247=\320\360u\275\036\377\370\275:r\210=\306\375u\274\367\027\001\275&\342\370\275\361\2745=\243\363\035>B\177\016>\266\342\321<\005\246\212=\014B:=\214!\232=Q\027\225\275\302^\311\275\204r+\276 1&\276\262\221\027\276\233\307\303\275\000\361\253<\344\007\205\275*N\010\274\261\002\346\275;\" >\241\331\335\275\260\366\253=\222GS=\356\245\"\275\002\272\235\275n\\\335=(\310\305=\352(\271\274z\366\t\276GZ?=$u\360=\001\r\025\274\334\250\376;\350\350\027\27647\252=s\r\033\275\217\317\273<\234\226\374=\232\252\231\273}I-\276\\Z\006\273\2235\177=\235\310w=\020P->\006n\013>V&\240\275\004\242h\275\214\327\036\275H\363\000\275N\202\024>:\026\334=\266T)\276\237\260\034>\007X\022\275ELB\275\265\310\227\275\241\235\217\275\007\223\022>mb]=H\nY\274k\236\031>\206\0140<r\254\020\276\250!\003>\277r\032>0\335\023\276=\355\365\275\244M\233=\352\032\336\274\326\031\234\274\216\241\335=\2239\335\274\256\361\340;%\375T<L\035\343\275\273Z\032\274\200\026\244\275y|\216=\177;\226<\371\336\221\275s\307\212\2757\205\354=\316?\246=\206e\355<\351\371\037\276\007\263\037>Z\027\241=\002j\200=\376\363\031>\210\331\317\274\377`\273=\244P\005\274\362\335\"\276\311\341\003>\005T\334=\233\333\025\276\271\006$>\325\331\253<\306\242\222\275V\241g<\303\301\231\275\215\206\205\274\274\203\200\275*\250\031\276_\250\303=l\245\372\275\321\266*\276\235\r\002>\306\236\322<c5d\273\021\3574\276\212\375\300=\252}8><\312p=\311\211\240\275\003~\021\276*\346\227\275\035\2403=\240\200\361\274\335\231\324=\223\252\305=\223-\342\275\370z\024>\300v\017>6\326\205=\343\215\260=\276n\334=\013\2533=\376\227\017<\242\345#\276\354\317G\275W\337e=pm\240\275X\353\024>\341T\374=\002\253\335\275/$#\276\371\212\376=%\305?=\277\334\327\275\347\227\261\275:L\206;7\317\224\275Q\352&>\326\261u\275\314\201->w\025\336=\271\337\023>\340\314\274=+\340\246=\277Z\030>\261\333\032\276\207\024\267\275\273\307I\275\363\004#\276\370g\n\276}1%>q\344\037>\211i\003>Se]\275`X\001>\222\370)\276W\364\267\275w,\202\275e\312*>\227x\304=\320\243\263<pF\260\274\364\303\203=\316\275C=\036\275\017\276\245\330\336=\266b\014>\206\237\274=\006\005\264\275\350\2216>1\026$\276\037\347\356<s\217\300=\255\271\230\275U\0245<W\002\373<^\324:\275\262f\301<\356\363\303\274!\235\021\275\r\215\340=9\206_\275\\\036\375<\233^W<\264\235\203=\247n,=5[\317=\270\212\300<o\235\357;M\027\006>\262{\275=\352\261\002>\346}\333=\244\\%>\360\330\001\276\023G\353=\373\326*>\254O7\276\t,\312\275\336A7\274\027\224-\275\373\025\t\274+\2601=\020\0160>\313\217\005\276@\307\327=|\211\371=o%\355\275\367g)>\314\374\322=\215~\256\275\303\324\313\275\346\231w=-\341\025>\357\345\013>D10\275\314\252\340=+Lj=\213\333\030\275~B\t;\276\010\010>\361~\365\274\244J\305={\223\357\275\371\305V=\312cK;\366\\\233=#\362\270=\365\346G\275b\037\344\275\276B\021\276\376\312,\276\033\325\016>o~1\276\325\354\307\275\335\241\023\275\010\254\303<\353\004[\275\315\203\027>\251\257\001>\235\010\021>\230\325i=Oc!\275cS\037\2768\363\313\275L!\255=O$\344\275\241t\024>\266^\372\275N\344\n>2\214/\276\020\035\336\272gE\027\276%\t\205\274\002\327}\275c\316\274\275\264\305%>\\\202\r<,\300\215\273p\353\341\275\253\206%=\037\273\336\275!\342\335\274\325\312\033\276Z\322\374\273\365A-\276i9\333\275\003\021\361\274\030\221><vL\246<\300\244O=v\032\002\275~\364\241\2742g(>\240\375\223<\007\346-\276[\017\'>\243\327\"\276i\023z=A\266/\276\240\330\026\275\203\346\376\275\340:\337=\361a\032\274M\307\'>\2138\014\275\313\353\263=\035g\337=\2321\340<J\031\370\275\"8\330\275\210:\241\275\025\352*\276\360\315\224=\276\220\245\275\274\n\262\275V\320c=\276T\353\272\377\016@=\311\214.>\310\2408;\370\030\'\276\200\n9>$\350b\275\261\306\221=L\273->\025\352\274\275N\354\">\025\213\311\274Q\355X\275\2520\254\275\233\240!\276Noo<\024\220\346=7b\376\275dG\224\275\203~\362=3#\255=\017\026\r>\350F\334\275iv\031\276\227\004\255=\026\377S\275\314\003\212<\275\034\247=\t\2243=\002\016\255=#\277F\275F\244\031\276\353\360\365=\257\355t\275\344_\362\2754L)\276\274\261/>LSy=\221\370\032>\274\357\213=)1\357=\232\251\014>k\242\252\274{\014\376\275\020\335[\274\327f\005\2768Qy=>A\331\275v% \276\244\034\220=\016>&\276\330\231\035>\311\211Q=RC\022=\004\343\205\275\003\322\246\273\303\371\035\276:\323\340=\271r\213\275#\352\307\275&\352\254<Z\372\261\275\222\260\242;\035\357\361\275\204\376\020>kz#\276\227$\016\275n\027z\275\023\276\363\275L\260\247=\240\005\277<s\237\341\275\276\216\340=\211\333\003\276T6\215\275\374<\335<\'\202\311=\365\257A=\237^!;s\\\233\275\203\276\024\276\226\241#\276\264\344#\276T\267+\276\241\2673>$j\321=\376]\275\275\323\375\303=\377+\000>\014-.\276\226%&\276\303[\346<w\365\203=\325\262;\275wa\206\275\247\220$\276\205\233\020\276\ni*=\025\2302\276\374v\311=$\215/>E\365f\274\215x\270<j\272\211=\375`,\276\266\234e=\3658,\276j\336\254=\233\320\"\275Y\276\t>Um\t\276\177\2430\276\276\310\321<<\3702=\327I\363\275,\270\035>\324\263\355=\017U#\276\216m\032\276\213:\001\276\374+\033<\2455\370\275N\233\245=h\264\034>\341m->\314--\276~m\">\367\3239\275W\3052=\246)*\275\377\\*<jj\210=\034I\006\276\335j\275=M\2457>]\364\016>\037\236G=S\313\276=\347=\005\275\236\345};A?\227\275Q\254\002>\037\245\021\276W\311E\275\201U\275=\2144\202\275\265\032k\275F*\244\275G\035z\275\325Z\010<\"\006Z\274\311\233\245=\245u$>\206E\246=:j\246\275\200\264\204<,k\030=Q>%>\221\303\360\274Yo\345\275B}&>\023&\263=^\2202\274\247Q\024>A\373\230;\t\024\201\275\2165\365=\357\027\263\275\346)\270\275\251d\003=\227\r\331\275\266\222\324=\340\271\326\2735\203\255\275\222\323\006>\0267\216=s\223\314<X0\233\275\303\"j=!\2652\275\306\374\023\276a\253\004\276\322\341\031\275\265\370\034>b\371#>\245i\035>\221@\014\276YL\337<\271B\374\275H\321.\275e\233\315<HO,\275x/\202=\244\302\317\275^\344\201<T\314\374=\177\267|=%\213!\276\006G\365=\303q\004>\225\270\327\275\353<\316=\201z\243=\226\200\252=\211\202\036\276\330\253\005\275\"s\307:-\330D\275\201\352,\275\032\237\014\276\237\336\325<Js\010=#\027\221=\274\'\003\276\365\341B\275s\361\301\275b\0317=\207\271\254=f#\245\275\261Ol<\003\006J\274h\346\003>\370\236\336=w\254\356=\276\360\216= \277\304\275\014;\205\275\035@\201=k\213\357\275\004\325\004>v\021\357=\370`\254=)^\300\275\001\r\213=\316\002\363=\352\321_<\002\237\334=\312W\350=\346W\273:\214\372\020>\266T\262=#\005\017\275&\032 >0\375+=\3244\303\273L3\n>\027\303\263<\245\372\342\275\364\274\206\275<\211\215=m\217\347\274S\276\334\275\324\006\350\275\307\251\031>\273?%\276\236\363E\275\300s\364=\\\364\003;\ta\232<\210\322\310;4\203\002\276\314\003\241\275n\205\034>\315M\r\276\031d\016\2760\275/\276\350N\t<\023W\347\275t\326D<\327p\006\276\362;\027\276\262\002{\275\017\353\255=\210I\030\276\"7j=\356\265\014\276\355\372\035\276}\237$>!\231\010>\214\344&\276\344\322\204=\014\215q=$\033\234\275-\366\360=\014*\354=\324\034g=\n\242\222\274\311c\\;\247\232x\275\233\021\344\275\202x\331\2753\213\260\274\220\345\035=^\330\363\275L\226.\275\211E\243\274\025\3770\276\315\203\365=\232\306\026>\031\265\330\275\200Q\'=\002\272\200\275\305A\230=\205\307\337=!\025\022\276\354\217\337\274\200\354\004>\266v,\276/\335\020\276!\244%\275P/\335\275)\2466>\313.x\275:29\276\001n\373\2751{\027=\273E\254\274\337\310\314=\230F\376=\236\374\014\276R.8>\241\025\227\275\020Z\331=n\344\242<tZ\230=\212;\001\275u\020\326\275\300\232\266\275.k-\276\214\020\212\275p\375\327=\235\210\317\275\242\213\253=\350\237\031\276@\325\253<\364\241!\276\321\025\204=[)\377<S\2633\276nVx\275%\003\316=\266@\215=\254\024)\276\265\212\023\276\210\346.=\217a/>\214\246-\273\205\005\251=\233x\222=\032\276\330\275t\005\346\274?\230\005<\314I\241=\016\230\'\276\212\033\003>\241\201\216\2751\222\361\274\231\264*=M\247\314\275`\302\t>\024\333b;\371S\216\275>Q\002\275\266w\024\276|T\352\275\327\370\351=\317O\242=p\311$\276\202\031g\2750\237T:\026\234\271\274\346Q\312=\325\300,\276\212c\006\276F\007\031:\212V\326\275ECp\275A\252\031\275nI\353\274\343\3328>\353\372\314\274\031M\036>\357Y1=qg3\274k\256\032>\351\tS\275\225]\376\274\331-\024>N\344\005>W\303\006>G\371)\275_C}=z\333\t\276\224\025s9\370/\036\276\n\030I\275f\305}\275t\274\351\275\201\0213\276\374\235\301\273\006\022\311\275DD\354\275\220Tk<\306\322z\274\010N7=eoe=#\3727>6\013\230\275\016\261\r>zq\354= \325\025>A\024I=,\225\354\274\3759(>\260\332\010\276\201r\016>:\314)\276\352-\353\275\344|*>\304\006\265\275\233\2406>\007e\022\275\216\226\002>\367z@=\t\266\221<fT4\275\254e\226=\366\277J\275zOo\275[\326\235=f*\250=\340\325\002>5\361\340<\202\025x\275{\233\200=\233u8>\010X&\276\376\370\362\274\320y9\275\216\001\022\274ozk\275W\274+\275\367\"E\275\370\265\307\274\261\033\323=\030\350\r>\3209\257\275\217~\305\275\344\0266>\205\031\222\275\325\002)>\257e\223=m\031\351\274 EB\273\037u~\275\213\372\n>\255v\005>\342\007X=\331{\336=<\252\240=m\014\311=\344\210\331=\230)\017\273\321\240w\273\260\266\020\276\262j\200=\244\277\007\276>A\255=\364\243z=L-\032>\014\201.\276\237#\375\2740\355\r\276\034\312\007\276WZ\232=<\336H\274\277>>=6\275\032\276\2144\253\275\301_\342\2755h\311<\300\3458=\356\234J\275\361H\273\275\321\017\273\275\275\225\364\275\2752\007\2768\266\372<\210o\017>u\375\301<Z,\202\275\356\267P\275dbk\275\305\377)<\306\211\010\276\340\340Z\275\2071\354\275N\337\353\275\276\254\037\276\260\220\"\2769\350`;\241*^=\267,\254\275\007\021<\274\025\200\013\275\275\246\366=M>\232=\326Z\334\275\320h->\313\305\214\274\226\345\020\276]g\367\275\322\030\013\276\032I\321\275b\322\334\274\246\3720\276\201\353\245\274l\330\277<\316\353\352<\301\371\262\275l\365\212\275}\223#\276N\262\033\276\311\342\033>\315\006\272\275\226QZ\274\201\343}\274\346\241\241<,*+\276\336B\000>\214^\201\275\311\205z<\334[O\275\010~\036><\022\341=)\016\234<\3079\013>L\'\337=\033\333/>\254\030\004\276r\375\026\276\245\332\370<\334+\"\276\323\"\263<\036\031\031\276\016\211\274=\177\2215\275\0369\236\275\nZ\016\276\263\266\024\276rs4=tK5>\276\301\371\275\022\275\216=\311!,\276$\353\363={\310\375=\236\264\374<\212\036B=\334\363\031>\370O\327<@\271\231\273\245\nF\273bG4\276\353\005\366=E1\260=\235\340\315\275;\005\033>.\032\243\275z\333`=Q(\221\275\306y\023>\314\207,\276\336\177@\275\3251\002\275\226\0130>P~\356<\017!\377\275q\257\n>\021(\343=\303\3032>\202=\207\275i\340\010\276\3635\254=F\3105\276\026\364\017\2761(\r\276\244\tj\274\261 5\276\3720\003\276 \252\022=\363\277\036\2760f\303\275I\264\022>\246U-\276^\r\r<0Y%=\345\021\021>`\317Q\274\322\371=\274F\363V=\360$\001\276\245\317\373=a\317\301=\325d\027>\311\343?=d\n\220\273\223\350\035<\224\215<\274\340\'\'\276\374\034\231\275\350\371\215\275wr\374\275\260i\216=\276\213\213\275X\3510\276\310\220\377\275\223\201x\275 \256\234=\374N6\276\266\006\216=\022\177/\276\301\224\020=A\356\265=\364j\307=a{\345=?\315\r\276z\007\201\275=\360\321=\271\376\377\275\307;\032\276\244Qw=-\2605>\222&\376==\212*\275\022x\024\275\005\305f\275p\200\034\276\322\002\327\274\250\361)=J\222\001>\225`*\276\267\345\035\276\266\250\311=\212\024\354\275Z9\332=\001\334\202=pV\005\274r\203\017>\023\320\363=\355\003\020>%}\210=\212\344i\275\332\200\324=\207\005,