node {
  name: "input"
  op: "Placeholder"
  attr {
    key: "dtype"
    value {
      type: DT_FLOAT
    }
  }
}
node {
  name: "transpose/perm"
  op: "Const"
  attr {
    key: "dtype"
    value {
      type: DT_INT32
    }
  }
  attr {
    key: "value"
    value {
      tensor {
        dtype: DT_INT32
        tensor_shape {
          dim {
            size: 3
          }
        }
        tensor_content: "\001\000\000\000\000\000\000\000\002\000\000\000"
      }
    }
  }
}
node {
  name: "transpose"
  op: "Transpose"
  input: "input"
  input: "transpose/perm"
  attr {
    key: "T"
    value {
      type: DT_FLOAT
    }
  }
  attr {
    key: "Tperm"
    value {
      type: DT_INT32
    }
  }
}
node {
  name: "reshape/shape"
  op: "Const"
  attr {
    key: "dtype"
    value {
      type: DT_INT32
    }
  }
  attr {
    key: "value"
    value {
      tensor {
        dtype: DT_INT32
        tensor_shape {
          dim {
            size: 2
          }
        }
        tensor_content: "\377\377\377\377\t\000\000\000"
      }
    }
  }
}
node {
  name: "reshape"
  op: "Reshape"
  input: "transpose"
  input: "reshape/shape"
  attr {
    key: "T"
    value {
      type: DT_FLOAT
    }
  }
  attr {
    key: "Tshape"
    value {
      type: DT_INT32
    }
  }
}
node {
  name: "w_in"
  op: "Const"
  attr {
    key: "dtype"
    value {
      type: DT_FLOAT
    }
  }
  attr {
    key: "value"
    value {
      tensor {
        dtype: DT_FLOAT
        tensor_shape {
          dim {
            size: 9
          }
          dim {
            size: 32
          }
        }
        tensor_content: "H\363\177?J>+?5j\020?\335\025\216\277\371f\240\277\262\230v\277%\244\261?b\325w\276\013;\322=\\-\036?R\375\241?\327\353\'\276\372\"\314?ur\202>\000\035\t?Nr\350\277\347\362\224?\321\337\363=\236rw>\260\334\325\276fF\357?\352r\301>\307h^\277\337D\371\277\033\3163\275\352\334\231\276\261\203\240>\305\264\341>\301\037\223?9\235\213\2770yq?h\327<\275\247\273\215\277\275\021\316?$O\266>\016\320^\276\207\321\237\277\006\222t\277w\023\273\277\006\323V?\355\321\035\277!K/\277\341}=\2771\261{\276\020\325\201>\317\252\206?\376\337\270\277\205>j\277\303^\274\277k\002C?f\331D=\221\0144\277^\345=\277\303\354\310>\237>\n\300\014\364f\277\'\206\320?\256\007\024\277\363k\024\277/w\"\277\330\344\014?\277\371w\277&\232&\277\004\253\216?\204\013-?2\254\317?iX#@\3147\262?\315\\\355\276.\374*?\303 \016\277\025\257j>X\253\253\276\201\267\220>\273\341\250;\275\342\351\277\370\214,\277\013\036\325\277\231rf\277\324O$?:\250d\277o\177d?\3154\202\277-\200\302?\372\316!>\247\343\234\277\333\230\225\277\204\017m?\326Y\214?\261+x\277U\334\317\276\025\025\001>\371\301\375>]\261\304?8\376v?\\\215n\276\271\213\374>\313\333\260\276\023\364\350>H\265;>)\255|?7\353\314\276\"\004\020\277i\200\304>msT>\377\260\267=\272\375\243\277G\036\234>\223\254N?\237\306x?\013\367\010>\236\005\003\277\270\031\033\3002#$?\374V\322?1\010\000?\363\002i?_\221\376\274n\266\312>q\222p\277\\\006a?\250\321l>\370\252%\276\206\232\217>e\240\366\276\241\204{\275\025;\037\277\306%M?\327\357\177=\314`\373\277\255\000@?\037t\374\276P\267\014\277\306\212\241>.G\346=G\360\270\277\370\262\241\276\242\321]\277\330\325*?\232\231\241\277\002\025\271?qA\220\277Y!\302\277bG\311>\r\234\327\277\003\335\367>\\\234\260\276\237\366\204?\341\264M\276\327r6=\340\035??\224\275\363\276\364O\217?n\343\364>K\\t\276\n\313R>\2327\205>\254c\302\275<\027\337\275t\355B@\232F\232\277\217\357\322>A\267C?g\335$\276\257^\021\277EP\273=\242\301\001?<\025\246?\216\001\007?\277\370$\277~L\030>T\306\314?1`\237>\225x\201\277\336\312\370\275e\362\244=v\200\233\277\232$\356=\007K\321\277\nG\267?I9\364\276\376F\221>s\344\366\276\3643i\277\304\317y\277\365;\336?\365$?\276\022\360\\\277\243\312H\277\345\367\225?\342\263\000\300f\254q?\256\367\202>\337Q{>$T\321?\007\2073\277\336\204\212?\277]\036=\021\365;?0\'r>\353\005\221\277:K\205\277<\006\251>\230+\206?\304ec\277\3512\031?\223s\306>\031\242\247?\332S\373>\'Vk\277\326\336\267\277=\212\267\276\202i\270\277\376\243\030>\014\326\244>[X\\?`D\213?\233\234\301>\212J\217=y[\201?B\236\241\277\031\227)@ZC\337>\320\253\341\2776\3058?<\t\375<\266>P\277\3443\200\277\363\235\264>V\337\367\275\013\030\272\276\276\365\303?\241\036\017\277\206]\035?\313\321\371>.\323\315\276\234\030\006\277\312\212$\300\205\017Q\277\252\327\245\276T\262L?\n/\217?\3778\216?5:@=\201\274\r=\\U\252?=\004+>K|\265?E\316\016\275\270\374\t?\336\231\342?\231p\005\277\242\000\027?\244\352\001\277\315\225+>\037\274\352\276\300^\212\277\316\030>?\320\240%\300\340\373\235=Q?\273\277\"\264\337=\346z\354\276V\215\352\276\rB\263\277\345!.@^\364=\276\276\342I\277\222\257\027\275\2525\213?/\337\222\277V\371\274>\366W\321?\367\2153?SS\273>\257\020\204=*\017\r\277\026U\344\274\217\210\240?\351\236\243?\032\270\000\276\345\310\243\277\325\246L\276\n\224\322\275\0367\n\276#\252\371\274\265\253\246>\r\346\202>"
      }
    }
  }
}
node {
  name: "b_in"
  op: "Const"
  attr {
    key: "dtype"
    value {
      type: DT_FLOAT
    }
  }
  attr {
    key: "value"
    value {
      tensor {
        dtype: DT_FLOAT
        tensor_shape {
          dim {
            size: 32
          }
        }
        tensor_content: "AO\370=\351\235/@2\255.\277\271+\002\277\346j-\276\341I\270?,\265\323?\004\237\377\276:l\225?\375\255C\277\321\004\313?\016\324d>\345\376\324>\375\017\315?\020;J?BU/\276\313\334\370\276R31=\035\217e\276\217.\363\276\034\314\377\276zA\006\277*S\352?\212\206\n@\231\242j?\202\363\242?\010~\323?,\265.@\031T\020=\270\333\245;\'\263\307?9\373>\277"
      }
    }
  }
}
node {
  name: "MatMul"
  op: "MatMul"
  input: "reshape"
  input: "w_in"
  attr {
    key: "T"
    value {
      type: DT_FLOAT
    }
  }
  attr {
    key: "transpose_a"
    value {
      b: false
    }
  }
  attr {
    key: "transpose_b"
    value {
      b: false
    }
  }
}
node {
  name: "add"
  op: "Add"
  input: "MatMul"
  input: "b_in"
  attr {
    key: "T"
    value {
      type: DT_FLOAT
    }
  }
}
node {
  name: "relu"
  op: "Relu"
  input: "add"
  attr {
    key: "T"
    value {
      type: DT_FLOAT
    }
  }
}
node {
  name: "split/split_dim"
  op: "Const"
  attr {
    key: "dtype"
    value {
      type: DT_INT32
    }
  }
  attr {
    key: "value"
    value {
      tensor {
        dtype: DT_INT32
        tensor_shape {
        }
        int_val: 0
      }
    }
  }
}
node {
  name: "split"
  op: "Split"
  input: "split/split_dim"
  input: "relu"
  attr {
    key: "T"
    value {
      type: DT_FLOAT
    }
  }
  attr {
    key: "num_split"
    value {
      i: 128
    }
  }
}
node {
  name: "rnn/Shape"
  op: "Shape"
  input: "split"
  attr {
    key: "T"
    value {
      type: DT_FLOAT
    }
  }
  attr {
    key: "out_type"
    value {
      type: DT_INT32
    }
  }
}
node {
  name: "rnn/strided_slice/stack"
  op: "Const"
  attr {
    key: "dtype"
    value {
      type: DT_INT32
    }
  }
  attr {
    key: "value"
    value {
      tensor {
        dtype: DT_INT32
        tensor_shape {
          dim {
            size: 1
          }
        }
        int_val: 0
      }
    }
  }
}
node {
  name: "rnn/strided_slice/stack_1"
  op: "Const"
  attr {
    key: "dtype"
    value {
      type: DT_INT32
    }
  }
  attr {
    key: "value"
    value {
      tensor {
        dtype: DT_INT32
        tensor_shape {
          dim {
            size: 1
          }
        }
        int_val: 1
      }
    }
  }
}
node {
  name: "rnn/strided_slice/stack_2"
  op: "Const"
  attr {
    key: "dtype"
    value {
      type: DT_INT32
    }
  }
  attr {
    key: "value"
    value {
      tensor {
        dtype: DT_INT32
        tensor_shape {
          dim {
            size: 1
          }
        }
        int_val: 1
      }
    }
  }
}
node {
  name: "rnn/strided_slice"
  op: "StridedSlice"
  input: "rnn/Shape"
  input: "rnn/strided_slice/stack"
  input: "rnn/strided_slice/stack_1"
  input: "rnn/strided_slice/stack_2"
  attr {
    key: "Index"
    value {
      type: DT_INT32
    }
  }
  attr {
    key: "T"
    value {
      type: DT_INT32
    }
  }
  attr {
    key: "begin_mask"
    value {
      i: 0
    }
  }
  attr {
    key: "ellipsis_mask"
    value {
      i: 0
    }
  }
  attr {
    key: "end_mask"
    value {
      i: 0
    }
  }
  attr {
    key: "new_axis_mask"
    value {
      i: 0
    }
  }
  attr {
    key: "shrink_axis_mask"
    value {
      i: 1
    }
  }
}
node {
  name: "rnn/MultiRNNCellZeroState/BasicLSTMCellZeroState/ExpandDims/dim"
  op: "Const"
  attr {
    key: "dtype"
    value {
      type: DT_INT32
    }
  }
  attr {
    key: "value"
    value {
      tensor {
        dtype: DT_INT32
        tensor_shape {
        }
        int_val: 0
      }
    }
  }
}
node {
  name: "rnn/MultiRNNCellZeroState/BasicLSTMCellZeroState/ExpandDims"
  op: "ExpandDims"
  input: "rnn/strided_slice"
  input: "rnn/MultiRNNCellZeroState/BasicLSTMCellZeroState/ExpandDims/dim"
  attr {
    key: "T"
    value {
      type: DT_INT32
    }
  }
  attr {
    key: "Tdim"
    value {
      type: DT_INT32
    }
  }
}
node {
  name: "rnn/MultiRNNCellZeroState/BasicLSTMCellZeroState/Const"
  op: "Const"
  attr {
    key: "dtype"
    value {
      type: DT_INT32
    }
  }
  attr {
    key: "value"
    value {
      tensor {
        dtype: DT_INT32
        tensor_shape {
          dim {
            size: 1
          }
        }
        int_val: 32
      }
    }
  }
}
node {
  name: "rnn/MultiRNNCellZeroState/BasicLSTMCellZeroState/concat/axis"
  op: "Const"
  attr {
    key: "dtype"
    value {
      type: DT_INT32
    }
  }
  attr {
    key: "value"
    value {
      tensor {
        dtype: DT_INT32
        tensor_shape {
        }
        int_val: 0
      }
    }
  }
}
node {
  name: "rnn/MultiRNNCellZeroState/BasicLSTMCellZeroState/concat"
  op: "ConcatV2"
  input: "rnn/MultiRNNCellZeroState/BasicLSTMCellZeroState/ExpandDims"
  input: "rnn/MultiRNNCellZeroState/BasicLSTMCellZeroState/Const"
  input: "rnn/MultiRNNCellZeroState/BasicLSTMCellZeroState/concat/axis"
  attr {
    key: "N"
    value {
      i: 2
    }
  }
  attr {
    key: "T"
    value {
      type: DT_INT32
    }
  }
  attr {
    key: "Tidx"
    value {
      type: DT_INT32
    }
  }
}
node {
  name: "rnn/MultiRNNCellZeroState/BasicLSTMCellZeroState/zeros/Const"
  op: "Const"
  attr {
    key: "dtype"
    value {
      type: DT_FLOAT
    }
  }
  attr {
    key: "value"
    value {
      tensor {
        dtype: DT_FLOAT
        tensor_shape {
        }
        float_val: 0.0
      }
    }
  }
}
node {
  name: "rnn/MultiRNNCellZeroState/BasicLSTMCellZeroState/zeros"
  op: "Fill"
  input: "rnn/MultiRNNCellZeroState/BasicLSTMCellZeroState/concat"
  input: "rnn/MultiRNNCellZeroState/BasicLSTMCellZeroState/zeros/Const"
  attr {
    key: "T"
    value {
      type: DT_FLOAT
    }
  }
  attr {
    key: "index_type"
    value {
      type: DT_INT32
    }
  }
}
node {
  name: "rnn/MultiRNNCellZeroState/BasicLSTMCellZeroState/ExpandDims_2/dim"
  op: "Const"
  attr {
    key: "dtype"
    value {
      type: DT_INT32
    }
  }
  attr {
    key: "value"
    value {
      tensor {
        dtype: DT_INT32
        tensor_shape {
        }
        int_val: 0
      }
    }
  }
}
node {
  name: "rnn/MultiRNNCellZeroState/BasicLSTMCellZeroState/ExpandDims_2"
  op: "ExpandDims"
  input: "rnn/strided_slice"
  input: "rnn/MultiRNNCellZeroState/BasicLSTMCellZeroState/ExpandDims_2/dim"
  attr {
    key: "T"
    value {
      type: DT_INT32
    }
  }
  attr {
    key: "Tdim"
    value {
      type: DT_INT32
    }
  }
}
node {
  name: "rnn/MultiRNNCellZeroState/BasicLSTMCellZeroState/Const_2"
  op: "Const"
  attr {
    key: "dtype"
    value {
      type: DT_INT32
    }
  }
  attr {
    key: "value"
    value {
      tensor {
        dtype: DT_INT32
        tensor_shape {
          dim {
            size: 1
          }
        }
        int_val: 32
      }
    }
  }
}
node {
  name: "rnn/MultiRNNCellZeroState/BasicLSTMCellZeroState/concat_1/axis"
  op: "Const"
  attr {
    key: "dtype"
    value {
      type: DT_INT32
    }
  }
  attr {
    key: "value"
    value {
      tensor {
        dtype: DT_INT32
        tensor_shape {
        }
        int_val: 0
      }
    }
  }
}
node {
  name: "rnn/MultiRNNCellZeroState/BasicLSTMCellZeroState/concat_1"
  op: "ConcatV2"
  input: "rnn/MultiRNNCellZeroState/BasicLSTMCellZeroState/ExpandDims_2"
  input: "rnn/MultiRNNCellZeroState/BasicLSTMCellZeroState/Const_2"
  input: "rnn/MultiRNNCellZeroState/BasicLSTMCellZeroState/concat_1/axis"
  attr {
    key: "N"
    value {
      i: 2
    }
  }
  attr {
    key: "T"
    value {
      type: DT_INT32
    }
  }
  attr {
    key: "Tidx"
    value {
      type: DT_INT32
    }
  }
}
node {
  name: "rnn/MultiRNNCellZeroState/BasicLSTMCellZeroState/zeros_1/Const"
  op: "Const"
  attr {
    key: "dtype"
    value {
      type: DT_FLOAT
    }
  }
  attr {
    key: "value"
    value {
      tensor {
        dtype: DT_FLOAT
        tensor_shape {
        }
        float_val: 0.0
      }
    }
  }
}
node {
  name: "rnn/MultiRNNCellZeroState/BasicLSTMCellZeroState/zeros_1"
  op: "Fill"
  input: "rnn/MultiRNNCellZeroState/BasicLSTMCellZeroState/concat_1"
  input: "rnn/MultiRNNCellZeroState/BasicLSTMCellZeroState/zeros_1/Const"
  attr {
    key: "T"
    value {
      type: DT_FLOAT
    }
  }
  attr {
    key: "index_type"
    value {
      type: DT_INT32
    }
  }
}
node {
  name: "rnn/MultiRNNCellZeroState/BasicLSTMCellZeroState_1/ExpandDims/dim"
  op: "Const"
  attr {
    key: "dtype"
    value {
      type: DT_INT32
    }
  }
  attr {
    key: "value"
    value {
      tensor {
        dtype: DT_INT32
        tensor_shape {
        }
        int_val: 0
      }
    }
  }
}
node {
  name: "rnn/MultiRNNCellZeroState/BasicLSTMCellZeroState_1/ExpandDims"
  op: "ExpandDims"
  input: "rnn/strided_slice"
  input: "rnn/MultiRNNCellZeroState/BasicLSTMCellZeroState_1/ExpandDims/dim"
  attr {
    key: "T"
    value {
      type: DT_INT32
    }
  }
  attr {
    key: "Tdim"
    value {
      type: DT_INT32
    }
  }
}
node {
  name: "rnn/MultiRNNCellZeroState/BasicLSTMCellZeroState_1/Const"
  op: "Const"
  attr {
    key: "dtype"
    value {
      type: DT_INT32
    }
  }
  attr {
    key: "value"
    value {
      tensor {
        dtype: DT_INT32
        tensor_shape {
          dim {
            size: 1
          }
        }
        int_val: 32
      }
    }
  }
}
node {
  name: "rnn/MultiRNNCellZeroState/BasicLSTMCellZeroState_1/concat/axis"
  op: "Const"
  attr {
    key: "dtype"
    value {
      type: DT_INT32
    }
  }
  attr {
    key: "value"
    value {
      tensor {
        dtype: DT_INT32
        tensor_shape {
        }
        int_val: 0
      }
    }
  }
}
node {
  name: "rnn/MultiRNNCellZeroState/BasicLSTMCellZeroState_1/concat"
  op: "ConcatV2"
  input: "rnn/MultiRNNCellZeroState/BasicLSTMCellZeroState_1/ExpandDims"
  input: "rnn/MultiRNNCellZeroState/BasicLSTMCellZeroState_1/Const"
  input: "rnn/MultiRNNCellZeroState/BasicLSTMCellZeroState_1/concat/axis"
  attr {
    key: "N"
    value {
      i: 2
    }
  }
  attr {
    key: "T"
    value {
      type: DT_INT32
    }
  }
  attr {
    key: "Tidx"
    value {
      type: DT_INT32
    }
  }
}
node {
  name: "rnn/MultiRNNCellZeroState/BasicLSTMCellZeroState_1/zeros/Const"
  op: "Const"
  attr {
    key: "dtype"
    value {
      type: DT_FLOAT
    }
  }
  attr {
    key: "value"
    value {
      tensor {
        dtype: DT_FLOAT
        tensor_shape {
        }
        float_val: 0.0
      }
    }
  }
}
node {
  name: "rnn/MultiRNNCellZeroState/BasicLSTMCellZeroState_1/zeros"
  op: "Fill"
  input: "rnn/MultiRNNCellZeroState/BasicLSTMCellZeroState_1/concat"
  input: "rnn/MultiRNNCellZeroState/BasicLSTMCellZeroState_1/zeros/Const"
  attr {
    key: "T"
    value {
      type: DT_FLOAT
    }
  }
  attr {
    key: "index_type"
    value {
      type: DT_INT32
    }
  }
}
node {
  name: "rnn/MultiRNNCellZeroState/BasicLSTMCellZeroState_1/ExpandDims_2/dim"
  op: "Const"
  attr {
    key: "dtype"
    value {
      type: DT_INT32
    }
  }
  attr {
    key: "value"
    value {
      tensor {
        dtype: DT_INT32
        tensor_shape {
        }
        int_val: 0
      }
    }
  }
}
node {
  name: "rnn/MultiRNNCellZeroState/BasicLSTMCellZeroState_1/ExpandDims_2"
  op: "ExpandDims"
  input: "rnn/strided_slice"
  input: "rnn/MultiRNNCellZeroState/BasicLSTMCellZeroState_1/ExpandDims_2/dim"
  attr {
    key: "T"
    value {
      type: DT_INT32
    }
  }
  attr {
    key: "Tdim"
    value {
      type: DT_INT32
    }
  }
}
node {
  name: "rnn/MultiRNNCellZeroState/BasicLSTMCellZeroState_1/Const_2"
  op: "Const"
  attr {
    key: "dtype"
    value {
      type: DT_INT32
    }
  }
  attr {
    key: "value"
    value {
      tensor {
        dtype: DT_INT32
        tensor_shape {
          dim {
            size: 1
          }
        }
        int_val: 32
      }
    }
  }
}
node {
  name: "rnn/MultiRNNCellZeroState/BasicLSTMCellZeroState_1/concat_1/axis"
  op: "Const"
  attr {
    key: "dtype"
    value {
      type: DT_INT32
    }
  }
  attr {
    key: "value"
    value {
      tensor {
        dtype: DT_INT32
        tensor_shape {
        }
        int_val: 0
      }
    }
  }
}
node {
  name: "rnn/MultiRNNCellZeroState/BasicLSTMCellZeroState_1/concat_1"
  op: "ConcatV2"
  input: "rnn/MultiRNNCellZeroState/BasicLSTMCellZeroState_1/ExpandDims_2"
  input: "rnn/MultiRNNCellZeroState/BasicLSTMCellZeroState_1/Const_2"
  input: "rnn/MultiRNNCellZeroState/BasicLSTMCellZeroState_1/concat_1/axis"
  attr {
    key: "N"
    value {
      i: 2
    }
  }
  attr {
    key: "T"
    value {
      type: DT_INT32
    }
  }
  attr {
    key: "Tidx"
    value {
      type: DT_INT32
    }
  }
}
node {
  name: "rnn/MultiRNNCellZeroState/BasicLSTMCellZeroState_1/zeros_1/Const"
  op: "Const"
  attr {
    key: "dtype"
    value {
      type: DT_FLOAT
    }
  }
  attr {
    key: "value"
    value {
      tensor {
        dtype: DT_FLOAT
        tensor_shape {
        }
        float_val: 0.0
      }
    }
  }
}
node {
  name: "rnn/MultiRNNCellZeroState/BasicLSTMCellZeroState_1/zeros_1"
  op: "Fill"
  input: "rnn/MultiRNNCellZeroState/BasicLSTMCellZeroState_1/concat_1"
  input: "rnn/MultiRNNCellZeroState/BasicLSTMCellZeroState_1/zeros_1/Const"
  attr {
    key: "T"
    value {
      type: DT_FLOAT
    }
  }
  attr {
    key: "index_type"
    value {
      type: DT_INT32
    }
  }
}
node {
  name: "rnn/multi_rnn_cell/cell_0/basic_lstm_cell/kernel"
  op: "Const"
  attr {
    key: "dtype"
    value {
      type: DT_FLOAT
    }
  }
  attr {
    key: "value"
    value {
      tensor {
        dtype: DT_FLOAT
        tensor_shape {
          dim {
            size: 64
          }
          dim {
            size: 128
          }
        }
        tensor_content: "*\276\031\276\006N\026\276B\325\370= \215,\276x_\216=@\017\001>/{4\276\201\2139\276@\226\250:\356j2\276C\n7=\013$\343=\344\036\214\275\353sm=\323s\212<\re\362\275\2121,=\233\205\264=B\271\002>zq\236=p\312l=\274\002\214=t\246;\275\204\360\020\276B%\376=\236\2008\276H\376K=\210\025\006>\335m\034>\220C\337=\33608\274\330\263\311\274\253\031\247\275\205\037\253=\206\262\326\274=Oi=\206\035\';Q\025\320=z\314\253=\302\253\345=\312\002\023\276\355\246G\275\375\n\362\275a\314\365=\355c6>\377\357\022=e`\306\275\307\356\300=\271\006\230=$>\373=\207\207\007>\2568\212\275\217h\t>7\361\344\274p\037\312\274\322g4<\353\2265\276:\0100\276\"\263\245;\037b\013\276\0345\257=\201c\000\276\244\211D:V\226\005>C\226\263=\366K\311\274\330\356\370;O\245\217<\000k$\276\034\354_=\236j\216<`ky\275S0&>\'\007)>\311\237\363<\352I\201=\033\337\251=\340rl<VH,>\216\342W\275\257\266\265=\333\313u=\371\235 \276\261;0\276\350<+\276\224/n;\307#\354=\007\027\\\275\t\007\006\276I4|=\206\367,>\227\304\023\276:\032\365=\004\\\253\273\245\3143\273\227)\226\274\311k\004>\'\351\226\275\221z\217\275X\223\245=\340\003\372=\013\224\r\276\230\300\310\275\302}!=\247\241\000\276\271\013\370=\346 B=p\216\005\276\205\224\017\2746\210]\275\310T\274<\303e\266<+\262\022\275\246\255\346=[\237\366<\345\270\032\276s\204,>\024s\007\275\367\254\232=x\213\n\275e\206\255=\036/\210\275a\377\324=\334w\020\276\336\031\202;\254\270\000>=\207C=\026\036\301\274#\313$\275z\312\336\275\373\\\311=\250Y\336\275\023\000\237=\233I\300=\334m\014=\357\260\005>\032U8\276\274p\303\275\231:\023\276sG\346\275\346\n#\276Z\203\315\275\013\257\330\273k[\326\2752\274t\275n\264V=9\247\205=\273\374\241\274+\r\021\276K\016\251<I\372\272\275K\362\321=d\3218=\322`\210<\177}\363\275\2573\014>Z\355\257\275e\211\275=\017\035\316<l\3753\276\016^,>*\347\016\276\214\226\370\275P\027\007\276\231\304\001\276\267\327\376\275\366C\025\276_\005\350=\302j\366\275e\327\346\274\277\013\245<Z7x\275\201\201\270\2757c\372\275\222$0\275\333\231\363\275\306 \265=\002\261\321=;)\214=\230`\023\276\252\212\245\275\361|0=6y*\276\016E\'>Q\352\023>\330Yo=1U\320\275\303H\213\274\210-\n=\"+\001\276~l\207=\204\000\033>\022u\270=ll\364\275\020J\257;\263`\347=\201t\305\274\202A\010=f\010F\275\344\243\236\275d\"\253\275{\274\010>\320\256\365=\256i/\275b\215\217\274\222%(>\036\366\303\274g0\255=\335\347)\276\212\337\245;\351\210\000\276\204%\371\275Ce==HB\246\275\025\216\024\2767\0170>\260\214\366=L_\003>_\024\324=\220\314\335\275d\351)\276\2732\200\2758\314\343\275=\020/>\247c\252\275\254\235\215=\236j\363=\332\360\t>}\020\257\274\270\007!\276\262q\252\275\255G\267=\241\233m\275\204P/\275\3034J=\363\266\030\276\341i\376\274G\021/\276\2340\025>e&\247=\313K\372=\r\305\025>;#0;\357F\325\275\006\341\354\275\253\323V=\024\256D\275\257\nE\275\020\005\300=(b$<\t\005\246=\275B\023<\265B\366=\026|\014>\'\026:\276S\027\367=\375\302\333<}\237\213=\321O/\276\312\335\376\275\255\211\025>4\223\014\276\230R\033\276\245K\022>\252\233,>\257\220\037\276.\r\001>\202d\032>\242\223\357=jY->\317\252\013\2767\024\n\276\361\n%\276\032\207\272\275\376H\010\276\213[\370\274\352\204\370:N\035\360<\336\355,\276\344\331\241=\303\337\276\275\001Y\215\275B\252\236=\365\n\326\275_S\010\275hi\024\276Z\332I=D\0137\274\006\000\r\276\331=H\275\366\351 \275Mq4>\004\025*=H\367\222\275\334+\034>\371\003\006\276W\364\030\276\331\273\337\275b\334\374=\\\010\300=\322\203.\275\373$\356=\341\007\355\275\217\357\311\274\350w\224\275\022\200\000=]\252\270=U\036\322=r\307\204=\376:\223<\227v:=\335^\026>\004n\n>w\311\217=2\013=\275=\373d=\370\2607>\021\211\370\275G\334{=\307m\035\276=\241\267\275\231\014\310=\346\371\270=\tc\030\274\217\314\233=\223O\203\275DS\377\275W\204\330\275\304\033\261;_\001\211=\267N\202\274\022p\272=\330;\331\275\330\270\314\274\'J\360\275\274\300\220=\202\325\276\275\260\357\355\275jf\362=\233\3320\276\324\336\005>Y\025\">\000\245\356\275I\242\224=\333\217\257\275\032\035-\273\020\220\256\275\017\007\014>\211|n=\316\213\032>\373\210_\275\034M#\2762\365\003\275&\207\216=rf3=\356\014`\275\037O\311\274$\t\031<n\255\262\275x\314\266\274\347\0172\276\250C\r\276<M\251\275\301(*\276\027\013\027>t\024\033>\341Q\355=\304P-\276\320\305\313<\232\276\203\275n\3220\276\202M\217\275\206B0;1EO\275\022\017\311\275\310\276x=\351\304\365=\300\223\242;\t\204\365=\265\241\207<rR\304\275\230\240\351\275\037\241\016>\177\" \276&\306c=b\3532>x|\013=k\201,\275M\221\272\275FE\363\275\250\303\227<F\177\237=\246^y=kZ\240<`\224\262\275*\300\316\275\347\"j\275\312\037\036<\354\320&\275\024\274#\275\025`\250\274\247?,>\322s<\275h)\010=\2464\035\276\302\337>\275*\210\205<\242Q\n>>:\013>\037}\276=\311\033R=#\023\245\275\312J\032\276\365\243\321;g\260*>\262\330\207<\242\026\235<<\202\025\276\017\261\035\275\2441\241\2758;\273\275\327\037\231\275|H\003>\335Y\365\273\325u\345;\341\036\337\275.CR=\213\207\263\274\256\356\002\276\312\201\325=\003\200\010=\356C\334=\360=\325=\357xM=jE\273\275\003\340\024\276\346\313$\276\n\027\217\274\231\276\366<K-\027\276\025\320\010\2764\304z;/\320\034\2765\246\016>&;\216=\263l\034\276\351\236\237=\223\003\007\276\305\273\340\275\321\2327>\234m\257\275\274\323\352=\315M\251\275j\337\'=|\2470\276x\r\226=\334B\020>\364\215Y\275\352m\311\273\006r)=\224\340\376\274\274\007\014>\327\241\235=\332I\374=\353\005\223=!\250S==w\253=\342C\261=\340\361\361\275I.\270=\030s\221\275\333\3449\274@\336\312=\336\300A=hb\371=t5\033\276\207\316\032\276Y\332\216<[\316\323\275q\230\017\276\226\027.\276\274\233v=\031\r\317<t\275\214<\216\017Y\275k#a\275\311\307h\274\243\225B=m\210%\276\310\221\211;!\341\'\276\313\203\025>\032\245\322=\337\034\356\275W\031\213\274\363\014Q=nY\300=?\360\213\275~\355\016\276\020\273\014\276,%\004\275\245\227\024\275\315C>\275P\313\250\275\260L\030\274x\220\t:\244g\021\276\220\255\n>\003\007->\322\013Q\2755$\274\274\214\004\323=%\221\230\274Fr\345\275+\357\002\276+@\'\276~\001\021>\016\321\"\276*\327#\276\316\024\345=\376n\373=\023(\374\274a\004\350=a\265\013=\260\355\346\275\254\305I\2749\010\031>\217\302+=\321K\200\275\206\262\333;\005;\021>\213\373\343\275\243\266\020>\3075\035\275\274\241&\276\357\240\250=\360\276\024>?W\026>8\376\001=\016\377\335\275\271\220 >4n\215=@n\232\275\252\374/=R\265\305\275xJ\271=(kW=P\r,\275\317\027;\275\323G/\276\320y\372<\332\222\210=\305p\345<\226\341\363=G\342\334\275\2625\227=\240\177\267=\020\037 \276l\200)\276\211E\334\275Xm\330<\373K\375\275.wZ<\262\265\350\275\360\350\270=\336\\\365=K}\321=\304\317\300=\006B\361\275E\003\034>5\3536=\031\3464\276\264M\220=T\275\231<\246J\363\275v\374\253=8d\232\275$\007\r\276\262k\307<\007#1\276B\201\342\274\230\352<=\271\221\202\275r\253\336\275\022}9\275V\252@<\226\035\010==k\341=\332\327\007>?\336\016>\316\263\000>\225H\001\276W\247\232=P]4=O\334\230<\332Q\254:\2363\023>K\002\355<\325%\245\275\027\253\364=vt\206<\303\356m\275\261t\336\275\276R\004>\264\307\216<\017R\240=\227\256\267\275\253\333\252=\277\031\264=v\307\247=\253\211/\275\251\005\023\276\250%\205\273\007\315\261=\177\357t=lx\217=\347k-\276e\311<\274\211\272\030>t\370\332=\222\212\376=\351?\242=\320\201\n>\202\241\217=\274T\350\275\306\376\004\276\251\323z=\004B\333=N\034F<\217j\272=;\030,\276\256\311\000=\210\377\332\274\360\374\363;\325Z\214;\035\241\022\276\276S\352\2745$\301<\216>\342\274\357\226\027\276}\357\200<j\024\006=X\000\004\276\334\301>=\030\356\345;!G!>\354/\203\272tI\244\2754\352\010\276\245\235\031>\3151\r>\203\211\037>S@\031\276\242\022N<l\345!=\035\312f\275|U\201\275]\377$>v\nS<V\261\244<a=\237\275\372\023\033\276\320\270\022\2769\342\004\276\034}\375\275\362\224\007\276\227m\264\274\256\277/\276qM\027\2762\013\242=\013\024\013>\320\037\254\275\306=\330=Y\331\366=X@\340\275\241\031l=\177\220\200=B\311\005\276\034\242r\275\261\346\375\275\321\tr=\344\277\364\275\014\335\353<\212<\001>\354\032\030>]\245\033>\314\236\366=\247>\177\275\234Ne=\327g\231\275/\233\250\275\200\335\">N,\031=\020\322\344\275z\301\263=\021\355\351=\310\340(\276\235\341#>\226\225#\276:\t)=z\360\023\276\n\370,\276\222\314\r\276X\3752\273B\235\257=\254K >\261\305$\276\034Z\036\275\331\3453\276\247(\342\275{\342\t\275O\347&>6\322\006\276\231\035\321=\370\010\226\275\373F\005=rY\r>\r\027\266\275\3264\247=\356\030\320\275r\312\240=\177\267\035\276\216\247\017\276\310\353\303=\220\246\226:\000LC=\376\321\363\275o\242q\275a\243\006\274\2406\300=_\314\323=\005\274\206\274%\217\200=\261\344\262\275\307,\253=\323\251\004\275\213\014\004>Z\226\024>\230s\253<oF.>\360\350\023\2762\371\\\275\302\312\032<\335\253\311=%\261\310\275\252I\254\275r\n,=\320\273\031\276.m5\275\263\240\025>\375\2016\274i\207\257\274\215q\263=\206m\033>_j\035>\362\314\243\275\014I\315=\nc\035\276R\323\007\276\251\263\'\275\321\342\326=|\267P;S\320\344\275\274\256\263=\265\342}\274f\235}\274\205\346\037\276S\027\014\276SM\035\276\362\241\234=\263\237\372=y=\027\276\327\002j=_h\033>\314\205\"\275\326\023\375=H\263{=\331\203\014>\231\277\255\275Z\226\205=V\351,\276_\032<=\212\035&=Z\320\326\275n\204\'\276[{!\276w\367\177\274\372T\364=\351\256!>\353S\024>\237\004\211=\360\235\\=\343\2069>\254\262\347:\312\261\351=\214.\263\273\320\n\205=LO\347=p-\026=\223.\t>\\\343\000:\270\271\363\274\207\244\202=\005T*>\256\304\371\275\276\255.\276\032\240\331=B\334\225<\237$ \275\312\247S<\217\312\206\275UE\243\275cj?\275\207\027\247=51|\275\253\210\024=\214\230\000>\323\016,\2749b\315=\274\257\033\276WA+=\342*\016\275\353\314\001>\032\002\274;E\341\275=\n\262\016=*\221M\274\177\361\016>\336yA<\370JA\274:\002,>\221\250\214\275\036\342\227\275\260\351+>+L\331=\002\275+\276\305\225\177\274\247\027\337\275s\365o=\277G\254\275\224<\217=\207 \347=\332i&=\236`\302\275\025y\033>\253\351\000=\276J\215=^}\242\274\313\014\325=H\356\333<?!\301\275\372\275G=\203h\020\275\332x\037\276\200\300\325\275\225\235\032\276\3754\276\273aU\202=\246\203\257=\"j\340\275_\235\344\275\232\223\213\2755\371\344=\010\272\275=\261\241\271\275\245\002*>\271x\006\276\343u\317\275\347\005\332\275\331\374\t\275E0\216=\357(\375\275\345[\013\275\367n\341\275\254\021\257=\265u\316<\026U\341\275\251w\214=-%\217\275\221\311\254=?\017\004;\365\302\344=\355H\332=x7\325\275U1\253\273\254\377t\274^\030B=\224\277$\275\343{S=\203\240\317<Va \275\025WZ=\214n\305=<$\n\276\n0\025>@\002\310\275`\202\275\270\032\3716<\366\247\316\274A\202\252=\272\265\210=n\206\211\275\275\0321=c\017\025=\026\n\312=\322W\267\275x\213\331\275\004XR\274\234\240\032>? \213=\274\254!>\233\334\211=\3678*\276\200.\025\276\t\340\333=X} \276\274[\246\272\t\211\205\275]]1>\274H\371<\215\"\343<\021\251\n>\235\302\351=\336\337}\274\273\224\000\276Lo\272\273NV)>\010\323z\274Wm\031\276\272\026\024\274\221\373\377\275\364\350\257\275\351Z\033\276\352#\016>\373SK=b\010\345\275\247\2617\276\007:\325=\315\313\250<b\276<=\250\322\016\276F.a=-j\317=U$5>\020\216\037\276\337\272\007\276Z\246\003>\334\372\324=\251\0210\276^\255\365\275\230\201o=i\204\231\274\275yf=\366P\265\274\352!\036>\t\325\363=<\231$>P\215\035>\267\177\007>}\035\261\275qmP\273\234\361\030\276\370\006\306\275\302\002\225:\253>.>\200\212\177=\356\022O=\201\270\320\275\340/\253=\226\320\274=,(\022>\264V\245<\307<\030\276\"Y\237;V\024\215\275\337T\t\275\266D|=\027\003\326<\222\264\010>\335m\010=\324\005\010\274\027\234\352\275\253\371/>\215T\016>\263\271\035\276\330E\024=<f/=w\200\264\274\340\273\371\274I75\276\207\2203\275\301_<=\n=\003\276\360\360\225\274\274\271\026=Y\235\275=WT}\273\237v5\275w\306(\276#\273\n\276\244<\036\276\343\276\"\275.7\017\276>=0\276\362]\362\27596\016=D7 >\333v*\276N\313\021>\211\277\237=_,\016\276\024\010\">\342\234\263=\251\331\350=\000Ul<\343\267\033\276\265\251\224<\323X\316\275\216\372\020\275\334}\254=\350\361\326;3\014V<\374\004\343\274+\3205\2764\177\260=AO(\276\r\246/\276TY\210=\240\246\320=\222\032\265<\345\274\311\275XB\t>lV\017\2742\024\271<\317\010{\275\376\321\034\275U\034\274\274\231\006\303\275\361#\334\275\245|\037>\216\r!>\207\2576\276+\237\005\276R\332\351\275\347\262X<\014\237\000\276\253/\245;e\217\245=y\206\325<]\005\352\273\232\331\021<\201\371\307\275\313\357\345;5F\014\276L\013\214\272w]0=\262Ba\274?\220\230\275\263.\320=Sz\274=y\021\013>\322@\t>L{\245=\234U\310\273\220f\236=\0301b;\243\201\033=}\260:<\227\210\322\275\216\341\370==\034\266\275\334\2108>^k\251=\222\300\036<hM%\276\337\016J<\253XQ\275\017g\021\276!i\311=i8\237=\354\0325\275\351\263\032>1\004\177\275?\232\010\273\252\346K<qM\241=U+\240\275\350\317?\274\240\320>9\337\262\232<\360V\314\275\260l\336\275u\240O\275\347F~=\'a >\356?#=`^\023>\032\260\331\275%J)>\205,+\276~<\212\275m\323I<N1:\275\362\315\275\274\300\\\001\276\005\272\032\276\243\326\004\276\365\354\320=K\342\264=\027>\247=a\242\350=#\005a=\023\203\005>$\364&>\031\215\327\275z\350\235=\213\"\275\275s\'\310\274\3613\013>\226\350+>\240\227O=\214\324\241=\007[\037>bn\230\275_a\252=\266<>\275\372]\344\275L\244\302\275\345;9>\353l\037\276\3271\201\275\303\226]\275\016g\361\275\230\002)\273,\344\021>\031\324[\275\032\324\235=\260\3032=W\365\235=\004\334+\276\342YD\274sL>\275%\351\217\273gR\256\275]\013\324=\241\311l\275%\364==\360\036\340\275~\0326=[\221/\274Q\344\014\275y\305\267\275\234\217\030=C\017$\276\231]\034\276\006Q\262<\376-\267\275+\000\215\274\037\201\264\275%\3130>\350#\t\275\030\332\013\276\005q\000>\242\214\344\273\344D\016=\362\253l=\205\255\030\275\376\261J=!\232\272\275\356\013\355<\300\315\016>\245I\351\2759Z\356=`\265\001>\305z\037=\304\006\375=\016V\316=B\242}\274\327\231\273\275\324\245m=,\'\t=\030\320\'>\212L\003\275(_\247=X\206\327=\330\360\305\275\206+\327:\320R+>]P9\276?\361(>\0013\301\275\334\276\311\275o[e<B\253\267;w\303+>7#\355\275a\346\307\275\365\\\021><oJ\275\016\371\335\275\333\366\n>/\236\242\275\333\376\'\276L\006\r\275\322n\351=\244L\272\275;\233C=\n\021\020>\271~\013\2766oE=\373{\370=\360!J=\353\255\341\2753\010\335=@\243&>\005L >\214\366#>\330m\262;\211s\307=\357\034$>\207\255\021\276\210\353\030>\034g\340\275(\032A\274\244ET=\230\321\230=\340|/\276\275\307\001>\336\234->\353J\020\276\270\026\021>\227\345\274=\030;\033\275\"\265S\273]#4>\001F\n>\232\242%>/=->\307\277\032\276\263c\366\274\227\345\315\275\322\274\260\275\307G\010\276V\313v\275\360\316\350=\330\247\237<\307\345?\275\343\315a=O\337\221=!\336 <Z\353(>\221d\035=.\222\306<\276\242\365\274oK\027>\\\205\376\275M\262\031\276\306\356\030>\301\355 >\265\247\002\276\021\017\345</\3523>gL\334=\\Um\275U!\257<\034\261\266\275\r\235\005\275C\310\270=\320@\271\275\365\177\245=\315\250x<\021\331\241\275\343\331#\275Z+2\275\353\000\356<-C\014\276\002\277\">Cl^\275\313p\004\276\220\320\252<\207\344\300\273\213U\236=\311v \276\343}@<d\321\275\274\214\216\332<\224\301\356\274\333j\030>\320\262\231\274\221\367\024\276Mk*\276\006%\212\274\247\255y=\333\260\027>\326\331+<\010(\">\235\200\230=@o-\276\351\004\300\274w\237\010<9\022\004\275\274r\022\276%\351|=\261+!\276\344\177\300\275\300B\364<*\367\334\275\327\213\024>\312\241\'\274V\230\304\274\242\241\032\275\225\242\244\275\373c#\276\3529\014=\000w\n=\370\030&\276g4\264=\032M\274=V.\000\276\260\3173\2754\001\251\275rO\366=|\316#>\n\000\367;\343\371\030>\344\224\014>.L(=Pn\354<\234\252\201=T\033T<\220\026\232=I\263\237=k\351\030>w\245\315\275\277\025\220=\277\324\255<\035\227\217=W\325\352\274\230\276~=\210\010&>K:+>M\214\325\275M\222#>F\342\005\276\2550\347=\030B\024>\224\354\202\272\265\371\351<t+,\275\372RC=\2116\221\275\267_\363=\2324\256\275\250Q\313<l\261\021\2764\371\246\274\343`\367=7\231-\276\307\267\230\272\206\001$>d\310m\274\002\262\001\276GF\275<\013\222\222\275\013\026:=\207\001\000>{\264\332\274/\207\033=\007\366\003>\326\020\177\275O\203\315=\236\277t=\231\261\007\276\016\3500\276J\205\241\274e\252\334<>\261\332\274\024\354\355=+\035\001\276\262\006\003\276\203\2574=r\022\357<\304F\370<\021\235\037>\207{\001\276\264\201\245\275\3627\277\275\335\330\217<\266\242\301=.\247\250=\211\033p=lt\033\275\302N/=\214b5\276\2124\277<\262P*\276\260h\032\275\336\027\035>\036\t\376\274t\217\273<\325\373\340=\024\214\036\276\031f\226\275\1770\363=U\271\345\275\227\326\013>\302\334a<k\001\242=<\306\r=1\t\331=\370\026\335=\"b:=&)&\276u;\n>\336\201i\275\311T\021\276\232]\364\275\346\340\246=\036/\255\275\020B\\\275f\350\027\276e\345,\2762\027 \276\252J\336\2747@\023>y\332\014=\204g\316<\354Q\324\275I\216$>+|\036\276\177pg\275\001\3765=\3177\r=*\360`\275\244\332]\275i\277\006>\025\253\260<0\300\275\273\026\337\342=NC4\276\314\2033=,\347\213=\035.&>O\264\206=E\034\003\276\037\227\365<\244a\022>\270\302\027>\346\213\233=a\3778=\305D\t>\271:\034\275\002v\314\274\214\263\"\276xo\247=\261\360)\275\242\031\234\274\225\374q\2757\236\003\276\332\201A\273\272:\227\274\216\254\002=\210\260\017\276\321\277\243\275\243\270o\275\271\210\304=y?\021\276\317\035\245<\205\310O=\266i\363<\326\026\306\275Z\337\t\276bi\034>B\360\266=\376\260\356;\316k,\276\022\364%=\356\276f\272\037\207\317\274\340\226\361\275H\214\217;3\373\037\274;\321-<\222r\376\273`\034-=h\225->s\353\342<$\337\226<\323\260\005=\002\244\216;\245\342\"=\370R\210=\365\234\320\275\r\361\357\275b\233K\274$n\025\275v\341r=\244\024\215\274\303I\363=%\332\217=\025\024D\275\327m\016>^\342l=\356\247\007\276?\330A\275Z=\003>2\233\332\275\235\227-\274\\\315\230\275]G\"=o\265\202=\321\356\327=:\353h=\036\356\033=\002\250!=\3472H<<y\'\276\203\343M=Cp\r>\227\032\343\275\"w1>?\013\030\276\333m\307\275t~\242=\000\251\201=S\2560>s\315\262=y\310\003<\262!\006>\315|\335=\321 \001\276\334\302\256\275\022/\300=\352\335\321\275\23403\276\216\233\000>\\\323\027>Y2\034=4\372`=[\231f\274D>\304\274\257\310\224=R\360\225\275\310u\367=\322A\030>\350\020\223=\"A*>\226\235\036=@\2004=\374\000\327=\260|\326\274-\016\374=_\233\343\274.rH=\314\235\007>d<\177\275\036\020\200\275\340\2317<\257\242\004=\310\260\001\275\260p\003\275\260\254\004\276[\263\315\273\267\024\034>Y\031\313\275\241\275\330<\367\342\204<R\202\313\275\3161\026>\321\014\254\275x[,\276\237\366!>u0\371\275\304\236\344=w\'(\276\267\231k<\247=\345=\006D\204\275\251\2022\276\025\204\014>\342`6\275;\256\374\275^\234\007=\016j!;\020\375\321\274\254\205\302;\367o\005>\026<\215\275@\3765\276\251\030p\275\017I}\275;P->;\240&=\010\374\003>\265\'\004>+\263\376\275g\321\037\275\274\2031>\022\353l=M\257\206=\347V8=\300\034\207=\363N\202=\272\323\031\275\351\005\023\276\365\200\321=$\316\271=<\332\265\273\320\305H\275\266\317\317:d$2\276\236\242\331\275\235\310\262\275\343\037\025\276}\007\r\276\317\037#\276<\276\316\275$4C\274\2375\t>\2729\361=\325T8=\255z\024=\247x$=\306\244\037\276\317\357\026<-\375\005>\352t\266=lZ\257\275N\311\014\274B\241_=a\340\210=\311@\224\2756uk=\tX]=\324Z\263=\034w\010\276\002\277\014>\340\3779=\205\n5\276\221\230\006>\377O >%\357\005>\371\202\254\275\2308\245={\321\214=\202\252\024>H\031\350\274]\002\213=\020\013\307\275O\350\313<1\036!\276\236f\237\275\260\023\273\275R9\244\273\320\345\304\274\201#\322=\342\227\211=R\240\'=Jn\272\275\014E\021\276\0204^\274\3475\212=\375\364\027>\244\177#\275Rdh\275\214\226\360\275N\257\202\275\372V6\276Z\350\260\274~\"\323\2750\362\202\275K\250\264=\323\324\302=\2478\t>\221\036\020\275\336\n\356\274\337\342]=9\315\033\276\037\367\372\2754v\024\274\246Q\302<\274-e=\263\330\026>\240\222\016\2765\363\022>\206\'\301\275\206M\243=\235\\D=Uo\356\274\201\230\002\2761\032\003>\333+,>\007\261\346\275\307o\264=\026\322\343=\020\222\024>\3373\205\275\312\275\240=\373\360\251\274\032\263\013=\020\254\207=%Z\250=\232%\036>\303I(>\214\253\315=\312\300f\275S\211;\275Y\237\372\275\3232\277\275\271;\223\275\34001>\214kK=\373\2740>JE\016>\277O\350\274\\]\345<$\226\261=\203\377%\276:+9\276\331\300\350<+F\">],x=\2738\374=\\@\023\276\227\205\020>\000q&>\000\344?=\330\260\024\276\236(\241\274\206\355\017\276#\317%=5\3537\275\300\303\324=c\017\355\275\'\364\254\275\366\035\026\276:O\367=\362\316\216<\345l\275=i\211\206<t\035!\276T\026F\275\025\277\027>\353c\226=\267\031\305=\023M\n\2763\266-\276\0162\356\275\212\340\236\275|\272\301\275}\215\332\275\207\214n=\364\020\022>\356\336j\275\250Q\211\273TG\'>r{\r\276)s\020\275E\251\266=\210\331f\275\364\353$\276\340\273\030>\"O9>\257\366\211\275\276P\265=c\211z\275&\256\362\275\343\363\035>\021\r3\275\233G%=\335\337/>\312\303\037\275m\252\304\275\026\251\032\275d\373e=\242*\033\276\205F\353\275|\345\314\275\020\257\310\274a\266|=\360P\360=\013\246(\276\266\r\005>\031\022\371\275\325\221\303\274\245O\235\275\3137d=^\034o={\254\372<\300v]=\202\014W=\312]\004\275\207D\030>x\273\016>\246\003\025\275\236\337\002=\267\200\033=\001\361\356\275\262\332%\276\003d\202\275\331`m\275\324$\016>\302\365\036\276\315\3455>\017\032\335<\371\301\014>\320\334\311=\276\212\244:8\n\363\275_h%>)\203\357=tlC\274\310\275\004=\231H\030\276ih\204=\321\355?=\337j\350=\030\\\352=\206\215\344;\244F\255=\252\223U=Q\274\330\274\250h\363\275\3119\013=f\270\211<Y\343\317=F\247\016> e\010\276g\206p=\326\336;=M\271O<?\331\252\275\356\031\302=p\211\005<\373\t7\276\256n\252=\246\010\254\274lT\";\"\031a\275\263l\311=\331\325\240\274P\221\024>]UW\275 \027\346\275\350\351\202=T\357\025\276=\320\235=U\354\t>v\327\">t4\372\275`\244\360\275\364|\">\257J\n>\022\376\036>h\016\"\275\031]\271<\262\237\220\275\245\0300=\3232\222;$5\025>O\323\253\275^h\302\275\014\350\306\273+\340\005\276\241\335\367\275Jjz\275f*(\276y\0161\274D\244\333\275\304\366\025\276o\"\336=,\200\004>7\346\232\275\345Jl=Ah(>\014\220\272=\310+\022\276$\027\316\273\31245>R<*>{v\312\273\033\313z=\341\234\'\276\256\274\026\2754\331\014=\346,I\273DJ\272\275\361m+>0F\032\276H\002\361\274\213\210l\275\261\347>=l\257\236=\270kB:\277\023\177=\031\302\016\2768\226\240=[\201\207<\020\\\212\274\031\233\305\275\243\0359>\017\242\303=\305\032/\274\244\322\036<\357)*\276\031\022u=y\314\004\276\276}\023>\262\370\353\275\270U\'\276uc\264\2753\0008<\350\023\020\276\006\244\"\275\377I\246=\n|\003=\r\253\374=\177Gz=\3769!\276\306\270\343\275\023\361\257\275WY\214\274\226\205\207=\244:\026>\314p\n\275\005M_=m\352\342=\302\373\306=\371H\212=\376\314>\275\367\026\000>\256\021\233\275S#\022><\322}=B\373\013\276\246{\266\275?\364\305\274\030\232\020<\204R%\275\355\303\325\275t>\177\274M\256\220=\004\001\330=$N\375<80\r>\202\025\r>Kr\007>\262ou\275c\005-\276\336\013{=d:)\2763s%\274\364\350\360=0\2455;\234\3536\276M\270.\276\035O\036\276~>\224;S\327\013>\014\256\230=P\221\221\275O\352\016>\311\254\372\275\023J\014<\335_\277=\243u\027\275#\316\024\2762\037\355=\302\363\301<r6\004>OFi=\027-(\274\230\260\226\275z\n\035>o\252\004\276\336\212/\276>\225\300\275ft\251=6\260\005\275\026\216\227=\213\334\030<\022)*>\374\3673=\205\010\340\275\356\373#=\276u\332=\3321g=\216\245\337\275\340\233\031\273?\361\355=j\001\370\274\301\353\345=\276\001\201=\247\'\250=\027\254\001>\216\213H<\327\000\004>\307\266\352\274\365\3607\276\304\242\263\274\264\034\346=\225\277\243\275!E\350\275\033\272\243;@\254\013\275\010+\321=)\036A=\324-\271\275k\213\202\275*\007|=\007a\030=\230\371X\275\201\335e=\241\207\032;\233\214\245=S\224\334\275\241t\035\276c~\274\275FE\024>\377ro\275|\307\033=\270=\350\274fc\326=J\017\223<^v\304<j\250\340\275x\177@<]e/\275_\274\010>)R\027=D\347L\274\247\322->2\220J\273\364\370\300\2759k\254<\302\303j\275\343\304\265<\253\273\370\275\375\302e<\364\260u\275,\\\304=#a(\275c\205\335\274\373W\014<t\310\307\273\360\003\203:pW\037\276~|\345=V\274\014=\023\332\305=;`\312;\0263\300\275:\345\225\275\3007\302\274(\255\361=1t\t\276S\332\t\276\"\203\200\275T\335\346<\021t\"==V(\275\236\325\005>\203\337\013>\250O\324=\021\261\235\275z0\033>g\274#\276vF\004\276c\004\310\275\005>\005\276\374\321\264<D+P=A\330\n>`+\002>3\236\202=j\300(\275\264\"\250<\275\306\001>\213\204+>l!\220=\376\317\276\275X\001\254=\307)\005><\341\374=9\363\341\2754\312\037=\330\005\311\274\030b\274=\221\361\314=\232&E;\271\3633\276\323\0020=\210\006\302=\370\356\305<\361\373$\276\241i\250\275\326\366\254=\2440\036\2763\006^<7\035\004\276:-\343\2745N\356\275\230\037\367=\204\304N\275\236\205\005\275\301a\203\275z\003\200\273\ro>=\303\324\335\274\370\032\201\274\020b\276\275\362\245\350=\341\3659\276\227\362\233=Ih\n=_\007~\275\246\204O<p(2\275\267\302\025>\206[,\276\031\334\332\275\313\3232\276\374M+\276\346A\367=\026d\023\276\214\t\352=\254w\227\275\236\2619\276^\307\376\275# 9\274\007\026*;D\302\333\275\231\327\007\276\027<\361=$wn<\347\210\002>\347\000\010>\366\3224\276&\314->\177\322\331=\261\367\255=4\246.>\035P\370=\312\216\306=v1\025>\'\341\035\275\313\035\375\275}\224\'>\247R\030>\256\331\035\275\324C\244;\017\2438=\"!e\275\362\r\307\275\355\250\257\275`\321\r>\350\350\211\274\3652\322\274\000^\266\275\276c\363\275V\003\212\275\245\336(\276a\3643>~\360\305\275\211>\"\276\322\235\332=\226\222\341\275\204\313\235\275\014G\344\275\270\323\033\276\266\355.\276~\261\200<\231\230\376=Z0\370\275\357\363\014\276\007X\357<\242\302\214\275\277\3246>\346l\342\275\315\022\032=\001c\'>\r\366\320=W\354\274<\204\201&\276\367\007\001>\013\325\245=\370\231^=\233\200\021\275OM\030>\357M\035\274s\354\215=K\330\240=\r\003->.$8\276\273\326\027\276\327\374\325=Fu-\275\313\241\031>\237\214\207\275\202\252\003\2751|\244\275\n\022\304\274\317\327\357<\356\3405\275\325\016/>\300\246\320\275\"\034\341\275\365?\221\275=\021\034>\305\303\341\275nr\373=\320R\265=n\275Z=6\267\035=U\335\314\273\232\213\214\275\363\315\353=\322\026&;\n\235\010\276\304\000\230\275U\217)>;\220(>\322\321\226\274\017\253\031=>1\211\274\031\n\302<\274i+>\253\002`\273\371\204h=`\276->\352.)>\324\370\276\275$\307z\275\272\353\007>/\350\275=\246$\211=V\352\232\275\344\023\307;\352\364\233\275\267\264\340=\216\305\314\275yE\342\275\251P\216\275\2260\247\275\035P\254\275\226\035\021\276\"\261C=\302]N=Y\312\354\275\336\314/>W\374Z=\355\2162\276\252eR=\274\261\320\275\231wS\273\320E\320=\327\243\233=\300\355\222\275L\352\304=\215\264 \276`\3266<\265\257\337\274D/&\276\016\315\352=\312\014u\275\267rY=a\306.\276\032\247\324\274\2424\017>U3\311=\26280\276C\033\223\275@\33458\354\306\t>\007\003(\276\204!0>4\260%>\216|\230\274\301e\021>1\211\026>6\220\303=\317bI\275A\324\324;\253w\346\275%x\235\275\216\364A\274\334m\035<\373\3676\276\221[\325=\020\367\030\276\200\023\002>#e.>\342\316G=\306\212\377=\0032\341\275\037\330\020>\3317\330\275\227{\t\276P\273\271\275\333H\247=B&\227\273\035\332\276=\265\311^\275^\317\333<\230\334^=\361\313\206\2752\341S;K\024\005>\355u\251=e\356\364<\200F\341\2740\347\020>\362\257B\275\211$\207\275\2131\233=6^\317=\312xF=#\266->1R\370\275\370K\325\275\335g\232\275\017`\n\276\217\033\003=\345\203>=e\344\021\276q5\006\276Q\256\367\275\335\300\301<?\241\334\275\223\350\330\275\352\226\262=\216([\275@7(\276\241,\225=\247(X=\220\014\342=EV\">#\"\207\275\265\330\354\275\303\273)\276\227_\203\275*S-=\213\3273>\344\354\357=:ja\274u\024~=\353\013\347=w\370+\276\274\206\303\272,j4>.,\027=\3150\303\275h\206\017>V\372\315;\023\025\004=\335^}\275\336~,<\357\217)\276@T:<\364\035\003>\217\032H=Z\250/\276\240~\351= K\025=\275\003\314=\360\232\250\275\370\242$>\0353\375=\333\226\036>W@q\275\322\347\020\274[\276\010\276\026PE\275\244AU<\230\364\034=\341\225C=\235s$>\'G.>\211k\377\275I\262\'\276~-\034>\362\347o=\266\013\326\275\027&\317\275\030\330\023\274!\227\017\276 \0329>b\223\376\275\343S\256<\303\262%\276,\033\221< A\321\275f\211\321\275\361\302\002>\371@\250=\212\366\350=\025 \001=&\343\007\276\313\367\331=\263z\372=\240l\026>\235\374I=\177-\352=1\262\030\276\036\337h\275\231\213[\273E\301\000\276\022\026\307<\336q.=\200\353}\275$\356\r=B\362\307=\370\".>\027Fj=\034\272\001\276\016\301\277=\010\271_=\3176!\276\0343\034\276=\220K\275f\230 >\022_\027<~\373(\273\326\271\234\275\204\013\037>\306L\'>*\245\016>\261\341@;\270\\\216\274\336\326\253\275\0209\350\2757\333\232<w\271P\275\246u\325\275\263\276\227\275\236O\010\276\202&\337\275\327\376\013\275\342\021\310<\037H\022>U=\025\276\r\233S\275hcF\274{t+>F\317\007\275\257\221\266=\344^\372=~\2449\275\222\332\273\275BPJ\275H\231\207\271=\376\375\274\374f\212=<\227\036\276\033\254\n\276\247_\034\276\362j\244\275\320\027\315\275\234\347\303=\205\030\376\275S0\376=\004K\244=\007\003\360<C\314|=Zc\n;\236\242\241\272U\004j=\310\277\343=\321\020\301\275%(\001>\236\374\374\275\323\202/>\310\3157>J\020\035>q\275B={\254G\275\334\222\007\274m\276\001\276\374\262Z=?u\024>(\217\241=\216K\274<;f\005>4\365g=~\362\315=k\374\002>\313\262\'\276D\n\316<\'$\351\274\270\306(>\277\002\266=\'\017\263=K\037X\275\216\010%\276\001\022\016;F\016\034>\207u\245\275\376\321->\317\242\014>-\000\341=\230vz=\216j\332\274:\244\024\276\250\303\007\275?=\315<\306\223\001\274\"\254\026>\346T\036>f!1\274\344\031\334<,=\033\276\260Jk\275\001^1\274\360H\r\276Xq\364\275\336\233\243=A\364\004;^\364\350\275ta\026\276-\341!\276\003%\262\275I\032=\275\272\251\310\275\364\006\017\276\022Zi\275\352\256\016>,\301\310\275\230\334\230\275\276\211(>\010\325@=\323\213\016\274us\273\274:a(\276\006\033\261\274=|\t\276p\357\370\275?\021\247\275\257\025z=f\0209\275\354\025\304=oJv=X\001\023>T\230n\275\363D\336=Y0\246=1\216\365=\277x\022>\266\"\333==J\007>\244\345\300<\031B\010\276\227%%\276\031g\343=\252\200\231=\277i\212\275\351)\326\275\242\240\317\275\333I\024>K3/<\345O\232\275Uyl=\274\370,>\276/\363\273\324\r\n\276\226G(\276 bY=)\243\356\275\364\251\323=\246\206\330=\037u\313=\333\320Q\275o\222\333\275s\364\007=o\273\230=J\2529\275\233\226\033\276\n\367\020>\017\267\334=U\354\005<\342\261\345<U\001\207<hz\261=\211\330\020\276\363\033\210;\265\330\037>\370\377\203\274D\203\240\275\004\316\334<\226\001}=\267\326\026>\234\0050\275\024\242\305;\202\007\013\276uW\005=\'\230\313=\372O\010\274\2578->\222\375\350\275V\241\241\275gu\033>>\325?=\004-@=\242\210\010\276\252\305\232=\353\250\003>\350\212\302=\324\202\014\276o\224,>\256\336 <;P\214=\304\251\002>;`\005=\010k\264;\016\002\243=\205$P=/\r\007=>o%<9\252\344=\360\270#=*i\337<\"w\262=\357\260%==v\215\275\314\317V;<,\020=\343*!>L\313\031\276_k\350\275\320\276,\276\204 \232\274\323\237\023\276\214\304\016\276(J\223\275\301\365\232\275j\217\270\275X\014\327=\007\302o=bx\010\275\327\374\202=\203\000\014>2\261\215=\356\017\021>9\252&\275\034\372\336\275\236\242\">\220z\016\276\2651B\275\001\273%=M\334\341=@\303(\276\371#\216\275\352D\006<\343\262\226=\343\265\206\275A\332#\276\003\021\373\275~@\275<OU\033>\037\256\004>\272\302\306=\303p\027>\214u\202<\227Z\252\275rX\342\275\003\227\317=\326\017\327\275\010\342<\274\026\215\"\275\2169N\2758\346\304=\222\343:=\002d\324\275\343\033\267;\313\324<=:i\215=\\;\363\275\353\250\032;Z\245%=\312B\n\276\006>o\274\243b\274\275m\246-=Y\357\211=`w\372\273\2618\030\275\327j\026>\r\253,>*v\276\274g\313-=SWv\275\223\334\360=&\350?\273\334i\"\275\021\275\221=\202Y\234=\200\227!\276\336r\345\275$\')>wEL\275\257\231\006>\2570\037>\240\252\006>\304\225\325\274\367U]=d\351$\276\266E\032>{\216\327\2747\310};0\274i\275\'$\342\275\266A\211=]\332\007<\252R\031>j\216\342<\240\246\236=B\337\023\275F9\031\273\314\014\354\275\rX#=\231e5=\312\303\371=0a\277;\202\351.\276\021\233\"\276kT\337=+\207\003>X\031#\276\237\354\354=\3031p=\316\340\347\275\030\272\324;\333\022\237;\320R\243<\366O5\275\017/\'\276BO\'=\221|\350\274\000R\200<e\177\370=\252g\240=\331\302,\276Pm\213<\256\335&\276\t;\263=_4i<l\017\272=\006C\220\275\014\211\335\274Qi*>\332\302\344\2751H\204=q}\033=\275\210\344=\005\013L<\272\344\020\276\355\352\202\275\"\316<=\232Q\014\275\331O\365\275\226\367\245\275-N#>u\352U\275b0/\275\0200\337=\207\215\342\275\241\252\t>\245\302\267\275/\335e=\361\204\002>\224\237^\275\326\221\234=\253\311*\276\266\365\243\275h\356\027\276\271\325\t>P\366\020>&\334m=\254\"k=\322\222E\275\200\217\n:I\360\007\276<\272\023\27364\200\2744o\233\274\272\322\007<i@\216=\350\315\322=\321\342i\275\306\037Z<r\3671\275\226H\311=?\250R=\003\371\352=u%I=]\013\256\275c\272u=\356\211\252\275\362[0>\353`\364\275r\222#\275\365G\354\275z|i\275$\322;=\225P\316=\262\000\352\275\302/\216<\027\223\322=\255*\004=k\236\233\275\026\204o=4\302$>\035\266\035\276\371\211\376\275\356\341\031>\372RZ\275\307\002\004\276\231F\214\275\027ZW\275\212\326\264=\010\334\037\276^\370\320=\346\022\264\275\237\345,>C\360u;\351u,>;\301\372\275\266T\202=\\=\020>Ol\376<\233k,\276\376&\010>\373\353\017;\231\367\022\276#\306\202\2755\360\034=\027n\020\276\331\r\374\274\261\273%\275F\306\322=I\233p=_\220\357=\275\326\002\276\031\345\013>\372I.\276\022\005\217=\245\013\372=F\326\000> X\n\276h\315\307\272R\350\226=\234G$\276\330h\030<\351m\005\276\253\013\255=a\260\\\2751\252\363=\376\373l\274FXy=(\307\016\275\242e\023=\260\001\350\274\251\3026>\372\272\353\275@I)>\350f\205\273\024\275\027\275\342\017\004\275O\342\010\276\375\024\355=w\n\002=\"\347\370;f/n<X\353\325=w\3567\276\t\275\027>r^\030<\204L\343=G\301\262=L\326\200<\331m-\276\332\331\300=\260\204\016>\272\212\237<\256\037\342=o\216\304\275b\363#;&x\365\275\350\326\242=\"\260\271\274\024\277h\275\275\276\264\275\205S\253\274(\331\211<\327nR\2756Iu=\212\306\260=O!-\276\027\021\017\276\007\365\023\276\313w\252=\023\237\020>a\323\244\275\335;\271\275Z\317\225=\330%\037\276B\234\321\275\014!\272=%x\242\275t\370\023>\367~\207==\326\357\274b\253\354<\213\254#>\245\307\036>P\352\210\275\367\240->\274\0054=C\177\307\275b7\002\276\203\2560\276s\322\263\275\366c\203\275\"\307\250=h\362h;\317u\332=\351\010#\2752\000\372\275\3678\321=\007\354\333\275\263\023)\276%\3305\276\313ir\273^$\205=\223\346.\276I7\024\276\242\315\265\274\345I\241\274m\217\025=;\007\027>YH\t>\377\377\360=+\313\207=\235\022\276=\306\036\217\275\324\226\272=\335W\356;\365h\226;\236\005\n=\326\007\221\274f*\346\2744\337\246=\347\213\237=\376\275\n=\2536\314=N\372\002\276\225\236\277=y\224\326\274\314\241\031>\\\010\352\274*\345i\273H?\021\275\210\261\266=\215k\014>V\324\017\275\021\023\203\274\350\010J\275o\334+>\027*\017=\365\303\215=D\3725\276\345\315\'>(\265\254\275\332:\330<\017*\353=\257\356\330\2753\321\032\276\2226\214\272R\362\266\275\252\375\277=\244\321\346\275\312\035*\276\247j\351\275\\4I=\267\327S\275N\334\010>(j\240\275\032\323l<\250\242\276=\235V\270=e\356\271\275\206\177\345\275\250\224\264=\374\001\006>\223m\351\275E\234\021>\234\345\323=\260f\227\275\375\2435>\316\271\035\275\345q\314\275\310-3\275\237\025\224\275\035\251)\276\021y\367\275#\252.>>q\253=\3022\235<\341PT\275\325\266\203=:\232->\363n\035\276EB2>\211lb\275\334$\021\276\310\347\373=\t\267\216\275\3741\355\275k\203\262\275@\203\321\275\234\233d= \231\355;\0071\002=\371r+\276\344\316\023>+\352\016=\025\314\031\276bU\333\275F\321\253=\224\310\272\273\364\210\r\276\337h\006>\242\034\034>\360\212\206\275Ox\200<<\355\003=\333\031d\275\341\nf=\301\240\201\275\257&9\275Iqt\275\234\023\201=\220\215\361<2\231\351\275\333\354\317\275\264\022\017>\033k\374\274\305k\372\274\026\333\353=\352E^=Zp\000<\225\250\245=pM\026\276^M\231=\300W(\276n\244\032>h\203~\275\272\257\371\275\020\214|\2750\364\026>R\037\r>Ef\374<l\205\272=\270\344\010>\017\365%>\201d%\275\344V\365:\354\330\230=\003\203\r>.\016\013\274L\317\341=\226h\340\275\n\266\323\2733\241\350<\001\235\203\275w\302#=\022\322\301=\255\3241=q\271\342\275\330\341\217<\220\370\034>\361c\375=\263J#\276\326\t\340=\025B\035\276\227\034\340=\031\032\362\275\214\346==\020F\242\271W`\202\274W\262\010\275\347\225\243\275\333;#\275\214\257\313\275\2101\334\275\313`u\273\224\004\336<\014\225\013\276\340\266\324\275\241\252-\276\303\270s<\236\230\371=\316\270\026>\014\263\333=\350qY\275RU\001\274r\241\014\274\361\267\225=r\0014>\363\263M=\177\3416\276\026m\336=\213\001\204\275\227\376\334=\260\332\343\271FG\022>Z\323\302\274\227\013\027\276\204\301\265\275\205\2374=s\234\235\275|\021\035=\307\231A=fk+>\3035&\275\032\305\366<P\333/\276K\353\222=\2471\215=h\207\373\275C\232-><]u=\320\244\006\2767\235\236=\352B\252\274\n\376)>\247m\252\275\256\032\271=@\3161>H3\316\275\366\270\035>\3351\034\275x\375\235\275\212F\305\274\004k\313=\271\360\250\274\225,\027\275eB\r\276\311\016`;\031\247\326\275I\023\226\275^\307\027<\233E\227=\340\304\3718>x4=Q\212\260=\231\n<\2751O\353=\241\014N<\267\355\200=L\303~\275\017\365V\275\036\364h=3r\316\275\367\315\034\276~g\222\2754\307\006>\221\223\203\275\322c\030\275\2227r=\232\234\337=\325D\332<\023\223\225=\332\211\232\274\320\247\017\2769\023\336= \300P=\263{\003=8\310\000\276\\W\251\275^\002x\275@\331\246=q\337\001>S\341\305=\036\200\032\276\341\n\'\276\235\304\227=@X\316<\361I\362=\256\\\034>\251\262\325<n\027\033\276BI\021\276K\273\375\275ZA\022>\200!\224\275\333e\r=+\005*>:&]\275\262\232/\276c\206\006\275;\274\032\275jT\037>(\325\233\275}\010%\276\317\003\241=\001\337\363\275V\\\004\276%l\302\275\246\303\324=\241]\n>\005\\5\274Em\017=\014\370\336=\327\362\t=\375\270\213=\347\353\231\275\256\371\240=\354\225\360=\277\264\003\276\360\371\023>\237CR\274d\254[\275\336\277\360\275*\367\271\275]d`=@#\003\276\350HB==\350)>N\t\245\275\30751\276\347b(\276\377\235\014\275\261\222r\275\216\002|=\270m\337=\t\037\216\275\371\211\265=\356F\324<\005\003\302\275\325\2123\276\211\361\000\276N\333\320=\000%b=\311\025\310\274mB\344=\216Z}\273\314\363\000\276\375\304)\276(Z\311\274\223\312R\275\333\"\324\275i\344\025\276{W\014>X\324\256\274Aj\r>\354\207\033\276\206\343\023\275AR\366\274\226\354Q\275\030\244\031>}\277\252\275\'\336\006\276T\220+<\325\251\010\276\2018\253=\017y\016\276F\250\200=\240&\002>\226p\212\275\242[\"\274&\277/>\332ak=\252\007\351<\270:\337\271\030~d\272\330\341\224=\263;\t\276\375\304F=Y\245~=\037\264q=\220}\036>\312\256\261=\232\002\256\275o\265/>^:{=\332\307L=\004yH\274F\261\004=\310\366\325=-\002/>\262\321\252\273\246\213\207=\202[\374\274}\3743\276n\242\231\275\010\340\260\274.\361\'>\311\220\r\276\273\022|<n \311\275\013\274\354==`\265;\020b\252\275\364\262\005\276p(\222=\366*\224\275\216z?<A(\331=\236\260\364=\010\347B;v\322\032\275@}\342\275\367\361\276\275lB\256\275:\255\005\276\024\250\367;7\231\223=\351\267\031\2748\230*>H\016M\273\242\000\023>v\226\017\276\354\'3\275O\331\302=\013I\354\275\265\316&>6\002\025>[m/\274\024g\236\2741\030\000>\"W,\276_~1>rA\005\276\344p\031>\324\362\347\275&A\200=_\203\265=p\0328\276\tNX\274\010!\010>xm\352:\005\0052>:\233\022\275\313\3435\276\221N\202=\016o >\336hn=\227\323+\276[\322\035<\231\n\334\275t\245\032\276\314%\262;S\202Q\275t%\232\275\361\354\021\273\3729(>\031\224\336\274(J\320=;\273\001\276/x\331\274\274,\'>Y\243\035>\241\252$\276h:\311\275.\320\023>\240\202/=\356\225\031\276\244\246\274\275t\274d\274\031\234!>Qp\216<\260^7\275\215\207\020=\035\035!>1\206\002\275\027=\374\275\004\210\246\275T\351\014=\344\030\033\275\271\0065>\233\263 \276>g\022\2756\351K\275X64<\262\375 \276)\322\365\275\312\001\330=\271\303Z\275\027T\327\274\236\306#\276]\036%=\337\217o\275\362m\033\275\277\245)>\006g\277\275\337\247\373\275r\177\262\275\020\334\035\276\036G8\275]\274b<\313\363\365\275\217\255\034>\247a\235<\314\020\300\275\020\316\211<\210\316U<\342Pp<\207~\307\275\244\231}\275\204\342\376=\275\252\234=\233\306\354\275\304\350R=\374\326\311=v\2157=Q\367\342=\237\032\321=\307\327 \275|\265\025\2768\254\034>0\255\346<\246\276o\275D\255\004>\026\372w\275\315f\237=\024\301\'\276\353$F\274\303\027h\275K~\016\275\246\320\200\275r\347{=\203\035*>\315j\025=g\260\343=\256<\370=\313%\225=\202R\252<\005\377Y;\314\312\273\275<\0036\276\314\342\277\275\227Q\004>9\215\n>\323\306\346=\337\201\036\275\370\254\315\275\025|o\273\224\242\320=\215y0>\330\205e\274\273V\302=\330\235~<\323O\261=\033g\203==\373-=\2010\207\275\031S\230<\266P\276=\350L\264=\006\211\204=u8,>\277\377l=\327\020X=\211\366\207=\237\300O\275\223L\351<\247\333\347=\231x \276\035#\025\276\030\016\032>\234t\247\274\360\010\036\276\320!\275\274\352\244\'=Fo\373\275Px\'\274\3705\021\273\336\320\3469H\264.>\010\351\337\275\341j\373\275\243\200\030\276&z\021\276\373\356\301\275\300\374\301\275\376\311l\275\361a\005>\233\273\026=\265\232\264=T\351\013\276(\217\037\275\276\275\022\276\234\330\372:#\016\365=S\006\211<\264~\\\273]\240b=\235\216\004\276\245\377\n\276\"w\273\274\371\350\005\276\306\363\207\275Dh\336\275\037\031\003\276\201!3>\220\213!\276\tye=\235M\336\2749+t\275G\347\004\275I\314\010\276\244\237d:\036\275R=9\256\206=\275\027\250<\266\306.<z\365)\276[P\001\276\3773*\276\240W\031>Z\t\307=\216\017\324\275\260\266\035\275:\277\235\274\332\014\031\276\362\350\202\275\261@ \276\337\251\215<\002y\230;\324\203\324\275\007\315\361=\255s\213\275U*\'>\366\230\002\276\230\320\305\275k\317\232\275\362\204\000\276\244\346\376\275\2233\374\275n\204\324=\373C\213\275\272\304\226\274\022\025\326;\363\276\016>h\337\266\274\311\361\304=\365\362\217=\200\t\037>.\340\364\275\366N^;\021\001\024>\305+\347<\343-\010<\356\t\007\276\303=\243\274\251\222:<\235\241R=\177;\032\275$0\320<j\207g\275\313\230\234=\343\016\020\276nR\244\275\264\223\240\275\250\230\003\276dv\367\274\245\217\021\275`\030o\275#\002\031>i\022\327=\227b\006>gz\212\275\030\350\320;d\2512>z\354\307<\313\265\227\275\241\315\002=gq2\276xR\'\276\347\254\017\276\017\"\014\275\014q\251\274v\371H\275cp\245=d\002?\273\206S\014\274\346\345\032>\337\315\365=\025\310^\275x\017\027>\364\214\211<:\240\r\276\223\343\035=\023\316\023\275\340\364\363=\260\010\317=`I\340\275Q\013\224=\237\214\036>O\330!>1\347\322\275&\332\345\275/o\352<\257h\000>\222\217\016\2758\231\362\274?\022\010>\221\213\263\275\374?\022\276\340`\310=\234\362\013>\337\336\363\275G\004\364=\374\226\033\276\004dW=\315\247\t>Z\t\320=\334\354*>8&\376\275\205S*\276\305\2468\276i\256\267\275\373j\t>=\241\017\276\354\352\024\276\211I\031\276@H\322\275|\231\377\275V\220\304\275\001\212\027>E\337\205\275\031\203\001\276\302O\345=\0311*>\365\244I=\377\027\204\275\275\330\336\275\224\363\232=\305\240#=\374\306\336=t5\253\274j\031%=N\344/=hs\365=\364\034\006\275h\364\204=\014\213\367\275\316>\037=C\345\023\276\204\224\223\274\213uw=|\206Z\275\2530\224=\010 \002\276\240\351P=4\353\335=\3720 =\026\021B=#\343\343\275\325\276\221\275\241\333/\276\004\372\342\275\264\300\360<\246;_=)\n&\276\025\333q<\262\271\303=+\2608=\205\357\202<;\020\034\276\200\310\014>H\2521>A\230\367=\363\027==\233\232\017>\322\035&>\375$)\275.\257\356=\260\234\n\276\030\335\246=\376\336\033\276\017\256}\273\311\316\251\274J\\\025>\204V\\=\300\nQ=1\'\n>1[&\276s\254+\276gx\021\276\377\363\266=\323\223\305\275\243a\030=\221\313\024<\344\375\307=w7\250\275\t\247%\276\223\351,\276\214\303\'\276`\316H=x\367\014>F\324t=\314\377\303\275\371Z\274=+l*\275\342\313\t=\312\271=:-+\'<n^\214<6)\t\276\231,/\276p\017#\276luk<\230\205\214<\347\345B\275\021u->\031\267\000>\270\021\367=\341\264\344=03\302=\213\334\034>\246\215W;\211\261\307<\252pV\274\010\247\236=\265\0051>\201\331Q=\3039#\276\244\351{\275\264!\311\275\\\010\n\275)\000\335\274\213\220\016>\026(\372=tt\r>\257n%<\207\261\024\276_\020\306=\310\027\200=\360[3>\246\243.<\024\234)>\355\256\375<\271V(>\n\221\363\275x\\H\275E\312\222\275\217\310;=\t\266J=\224VX:\030\272\210\275\256S\251\275\344\020\007>\212\232\275=f\223\324=\304=0\275N\354$\276\373\331\247=\3042U=e\207/>\343\367\t>J\235\t>5w\347=\234O\262=_\357\346=!\017\363\275\376\257\262\274G\211\352=;\207\370\275h\204\007\276\022\277\264\275GP\304\275\376\036\202=J;\010<\325\231\310\275\357\030\033\273\032\242l<\'\256\334=r\363\207:C\316\010\276\2415$<H\010\235<T\017\n>N\352%>\023/,=\226\037\306=\224k\331\274YC\014>{\030\023\276\314}\377=L,/>\246T\314\274Qa\370\275lg\241=\004\267\210=\312\343\013\276\315\255\336\274\321\363\016\275W\206#>$t\017=q\002$>5;\213=\350\204\004=<\206\036\276\206Vc=Z@\n>\031\304\204\275U!t;\366\'%\276\273\375\022>\232\362^\275\335\003\024\275X\277\252;\214R|\275\tZ\243=\230s\272\274-\202\025\276@M\017>\017\216\374=;\256\366\275\332\227\t>1\024\353<\302\037,>\207\204\335;0b\267=\035\023d=I\364t\275\0349\352=,\221\327\275O0!\276A-\341\275\311-\013\276*\263\025\276\274,\273\275\246\2311>[\024\242\275\245\246\234\275\324\374(\276\362`\252=\200\025\010>o\377c=\330\267\001\276\177\016\314\275\334\213\333=A\333\231=\016\342\027\2762\212^<\034\303\354\275\311\323\300\2751}7<sN.\275V\343\020>\330\302\342\275\036\236\220\275\356\343\337\2747m/\2766V\254=\035\212\333={3\"\276(\345\031=_\344[=\204\020\317=\346\215e\275\270\0372\276\037\374&\275\000M\275=\264\305\363\275&\3408>\235\001\024\276\341.0\276\353h\224=)c\262=\206\207\363\275\277\2215\273\"\316\265\275Y\224$\275\330\320\202=jY~</\233\030>\221\003\273=\0276\256=]\316\315\275\221\236\232=b\356\322<DX\235=\346\021\243=fhV\275!\234\234=\271\333\200\275\312\214\n=N\344\226<\305\310\311=\324\223\020>\305>\243=\335\277\220<\266\357\337\275\016;r\275\246\030z=^\307\354=K~\013\276\231L\007>W\375-\276\301 \337\275\232,\255=\217\031Z\275bZ\344\275un\337\275*\260\006>\037?\232\275\246\377X\275\021\254\233\275v\014\317\274\026\351\265=U\177\034\276y\266\364=*\337\205\275\362\303\327\275\032\177J=2\2627\276\357\201\343=\024ET=\254l\303\275\313-\037\276\021\325+\275\240\271\203\275\013\214-=6\013\023\276\300\363%\276\036\331,\276\335e\025\275q\032\272=s\322\365=l\204\257=q\370\265=\347\021)>}\200\321=\375\245&>\277\214\016>\210\014\336\275\350h\245\275I6->\270\3154>\255\237f=\201V\360\275\374c1\275B3\260=\302N\273<\006?\267=Y\336\025>r\277\213\275jw\352;T@\020\275{\036\032\276\030\351\363=\272\033\332\275(`\017>Y\367$\275\207\177U<\224\240\343\275\370J\321\275F\224Q:f\005\005\276\n\320+\276\\\\0\276\n\232\200=8f\024\275A\316\036\276\004)\023>\236j\372=\251mY=\311\310\247=\001\300\324\2759\314y\274\366\230\022\276Lt\r=\030\321g\274\276\347\233\275\335\244\026\275\370\335\264\273\302\327\n\276lW\337=\351|{;\010]\341\275\221\253!>\3417\006\276r\316\310=#^->\n\000p=\355\301==\226}\324=\177\360\220=.r\203\275{\326\016>g\240\362=;i\004=*V\352=\036~\261\274h\037\234\275\356U$\276\326* >\310\207{=[\376\244=\201\324\304\275\204I\014\276\200\376\300\275 l\270\274$\017\\\275\353\366\005\276\273\225\205<Q\263\304=\372P\206=\360\252\354\275\377\236+>\313*!=^x\033>5Cg<\242\017\236\274;V\232\2754B{\274h\206\332\275\'\013\345\275\274\n&>/\260r<R]\000\276\354\317\030>\330\316\343=\245\"\375\274\236`)\276r\230a=\202\224\246<\314[\036\274\237\233\377<\014\3142\275QS\223=\355)\322<7\010\267<\ns\252=\2348\t>\014\031\262=\240\353\370\275\203\252\346\275\353k\270\275\261\020\013\276\013\"Q=`\266\264\275\310\310\024\276\317\277\200\275*\004\022=\333\023\212\2756\1777=l3\342=\320\276\200<\017\361\256<\272\302\016=z\275\013>W\246\023\276\302\273/\276)P\373\274\310\202\247=\246J\033==\'\226=\004\312\204\275\351\222\002>\273\371,\276\351\255!\276\256-\036>\322{\014\276\335\037\221\274\306\250&\275\362^L=\246\242Q=\270\306\013>\023\001\002>tW\023\273V\250/>\353\332m=\354\265\242=\312\371\004\2763@p=\317tO\275N|\352<g@\257;\032\317\355\275:%\216<\304\305\221<\205TU\275\2752\035\276\035y\021>W`\r>a\210c=/O\226<rA\376\275\037\'\344\275\371\rG\273\255p\225=\326\037\235\275\274\350\240\273\177o\202=;\003\036=\0346\313=C\314\301\274!\224\n>r5\'=j\010\002\276\014\230\320=\246d\246\274\343E\232\274:\242$<UM7>\270\352\356<\303\204\006\276rF\377\274\032\316\034>\347\230\374\275O>\226\275f\336\033\276\340>5\276#\021\231=\224\030+\276\022\243/>\231\223\313\275\215\220\023\276\241u,\276>\364\332\275^\325\036>\315\367\344\275\003n\374\274\013\r\342=\226\341\232\272\262\017\031==?w<\223\314)=2\320\275=\221\342\316\275O\326=\273&\370\207\275l1\232\274.z\305\275w\317(\276\322\346\355=\035\3453>\2274\255=\201\227#\274\233\034{\2740\252\336\275;&\255=b\004\321\275y>\036\276\263\341,\275\036q\021\275\255\\G<\364\032\361\273n\005\306\275\361\371)\276\016\321\001\276\004\004\310=x\305\026\276\266B=\275\327]\027>\350\222\376\275y\030\217\275\362\260&>\317\221\233=\035\300\035\275\243\215\016\276\016\364H=ds\312\275\025]\311\274\275/\231=)\231\035\276[\241\277\2752\377\001>\306\013\315=\325\262\245\274\022(\373<\334\177\213\274@\033\353\275\242\221\317\275%?\360\275\305J,>\310S\302=\217\267\352=\320\332\363\275\031P1\276f\350\256=\000\020\010\265\022\005g=\230\254\031>2R\024>\235\270\033=Dj\010>\017A\323\275\215&`\2756d\014>\312Y<=\256S\254\275(mI\275\256\270Z\274H\234\254=~\002\004>4\032%>b\245\036\276\364\013&>I\030\201=n\001W\275?\317\211\275\312S\'\275\317\323\303\275\023\344\204\275\007\256\377\275\204\2625\274\310\336\240\274\261\2630>\254%0=\035\354\376<\262F\356\275B_\354\275\350B7=~@\007\274\037\024\233\275\307\022\230=N\264\035\276\275L#\276&,\247\274\312\211\241\272\266/\200\275\277\252\203\275\236o\256=r\273\236<uK\006\275F\367c=\340\307\200\275\366w\323=:b\340\274\317\274\013>\362\310\306\274\254\203\020=\352\220\006>Y\373f=\252<\216;o\177\033>$\263\271=\210\271\000\271\026\n\272=<\031\024=|\316-\276\353\0320\276\303\273\361<\005\3467=&W\026=\266F\203=\352S\367\275BP2\276\024\032M<s0\324\275:\026!\274\305\206$>\210\240\337\273 *\373=\315\201\220<[0\000\276\273\207\223=b7\013\276\306:\026\274\311\362\033\276\357\213&>\325\242\037=\221\254\262\275\241Vp\275\245Sy=\254\220\327\275\366X\346=r\035\213\275O\277K<\213\220==\031\351\021=\273\260\364=\235W5>\226\026\231\275\327\202U\273\327\372\244<\032\376\355\274\315:\336=z\333\247=\336\217\335=\006\241=<\342\026\321\275n\365\021\276\227\2435>\3416(\273U\033\235<\022\001\032\275\321\372\224<?A\004>\224\210(\276\277\327\n>\013\313\001>\325\246\031\276a\276X\275C\256\213=\310\001\025=\230\t\233\274TH\001\276\342\232\327=vz#>6\270\305=._(\275\356X\340\275\003\230g=\361\343\365=\\\013*\276\r\010\n\276.b\244=\222\3253\275i\204}=\376\307\023=QS\273=`C$>:Q\033=9y\242\275\353\312\320\275g\207\225=/=\313=\375^\332=\3534+=\224\001\007>\321\274\003\275\370\270l=\265\325\267\275\003\374\001\275\371\306\034\276\013\277\214= wT=\375\221\201\275-\003\345\275{\232\334\275i%\206<\277!\020=\313,6>\016\237\"><\333n\275)\326&\275\377E\322=\030\367\326=.\025\000\276f\"1\274\031\367\035>^T\230<z\350\215\275\327\351\371\275\355`\027\275\240(\236\274\247\233-\276r\377\027>\352D\305\275\224k\002=\300\002\210\275f\230\007\276\032\257\374=h3\227\275NWn\2753\021k\275o\000\212=\355\253.><\030\004<\366\212\013=\036\006\004\276\276\016\035>1\211!\273\2733)\276\226!\026\276\315D!>\277\265\262=,\346g=\276R\211\274!EW\275ST\036\275\312k/\276\017\270\016>\305\261\033\276\345\316\353\275\253I\004\276}\205\347\2750\240\346\275\246\331\210\275\235\330\025\275u\342\004\276\333LV=\305\212\362\275=\246\300\274\317F\357=BL\272\275}\305W<\326;\377=\355TL=\372\">=\006%\005>\226\\\227\275r\205\027>~R\270;\275\346(>\030\006\013\276XO\002\2711\270\027\276\020;\006>\375\263\316\275\356\264\203=h\256\033\276Z\335\202\275\376\277\276<DZ\t\276v1\303=\276\334->@\025z;\321\231\007\276\236Q\003\276U5\'\275\342p\000>i\2776\276\357O\000\276\377\326\232\275\213&X;%\267\337=\347\034G=\230\004$>\242\030\031>\326\200\222=\031\362\370=J1\023>\316t\350\275\243ir=^\226\240=\026\323\r>\005\336\'\2754\321\325={\217\004\276\360\027\">H\343\031>\200\315O\275\215\2636\274\361\357\317\275\247B\214=M(\n>\266M\264\275\231\355n\275\231\232\223=\373*\203\275\006\366\276\274\315n\362\274a\271\325=/\310l=\270\276\020=R\010\262=`\260a=\227K\327\274\264\007\013\272\203t1>\001\035\365\274.:\320<\303n\243=O\310o=\207\226s=\304\336\021\275\014\352\023>s\233\306\275v:)=&\362\273=na\r\276\255\303;=\331r\356=\026\037\307=\311\356\271<\000\212\225<\023c\372=Y\344\334\275\226%o=\'h\003\275\310&%\275L~Z=4S\227=\205j\t\276\037\0233\276X\023\325\275)I0\276KM\007\276\274.\324=\233\254>\275\246\0214=\301\201\242\275\336\376+\276\2340\036\276\256\006\333=\024\372)\276\331\255\026\276\346-\022\276\252A\212=\325;\216\275\203|\246;E\363\326\275}\257\337\275\332\244\034=`\2410\275O\" \275z\360%>\366\2767\276b\222\377\275\364\022\245\275\023o\016<q\274\301\275O\324\t<\250\031\304\274.\'\264<\357\023\270=\263\310N\275\024\332\200=\353\014\274\274\335\261\315\275\304\260a\275?J\022\275\346\'\277\274\313\233\314\275\206\331\034\276\374\313k=m,\004\275\352\300d<l99=5Z\001\276j*=;b\234\374\274\355\214\016\276q\302\334\275\247^\275=\324\330\262=\371\350\333=\211\2236>\023\305\003\276\324\026\214<.\352s\274b\311\274\275Q\213\361=\270\344\374=0{_\275p\274\025>\331\352\341\275\027\363$>w\016\006\276\274\234\261\275\343\2731>\022~\322\274\355\026\034\276~\276\340\275\036\177$\276\263\221\331=\257\320\023>\025\326\264\275\230\031\340=:9[\273\016e\035>\365\276\222=\036<|\275\233\212\025\276\303y\245<\331\317\002\276\030\305\355=\234}\013\276(\223\230=\300\177\274\275Z\364\375=\367\335*>\210\377\245\275?^\024\276\3248=<\357@\232\275\267\302\321\274\316\316t\275\352\321\346<\021w6\275\030,\336<\303~+>\223_\363\273\315\201\226=7\324*=\271a*\276D\251\006=\375\nk=*vB\275W\2567\275\307\214\014<\034I0\276\222\343\007\276\365\021\203\275u\177\357\275\361\261\005\276\035\031\021>\230X\024\2749)\270\275\372>\003>\365\034#=Ot\000>\"u\000\276\247\323\026\276yM\033\276\324\307\227\275\314\001\222=\264\214,\276M\205\010\276\032w\007>\341\026\345\274&\204!\276\220\326\006<#\r\024>\034\306\005\274yi\212=\032\301\307=\r\\\372\275\020\303\027\276\024*\334\274\277?g\275\313P\335\274\321\262\235\275\261\376\274\274i\027\'>EsB\275\266h\014>\241+\302=\000\201h=e\200\237\274\034\317\202\275)iG\2753\026\210=c\376\375=\262>\234=\334\374q;t\333O=\235\3039>\024\277\013\276\013\334\215=\230\313\376\275\200\337\002\275\314\\\034\276\241\257.\276\360\200\r\276\353L\312=\224\233\360=\232q\232=\224Qq=#l\025\276\213\330 \274m\356\212=\200\003\371=\034\372\237=UQ!>[\264$\276k_\016\276\000\025\026\275\241\305\020>\247\024\350\275w\325\004\275\375@%\276\341\215\201=-\362\264\275k\301\n>5L\036>\276\241\217\275o\266\367\275\000\220\267\275,\203\037\276\244K\342:d\261\025\276\356\363\244\275\nk\203=$\257\321\275\005\267%>\334\3341\275\024\201\303=\206t\223:ME\254\275\017>\361<\n}\r>\347\340\377<\030\270\037=1/\332=\003^!>\272\000\313=\010\376\361=\322\377\245\275KB\365\275l\216\231:c\026\227=l\014\225=\363B\021>\220\271+\2756\232\246\275\351\241\025=\347\244\314=$\372\022\275\202\352$\274\\\305\035\275\035\331\214\275d\327\226<b\305V\275\214\232\000>L\355\362\274\252\007\032\276\255\252\337\274\204,\277\275W\373(\276\201\317\002\274\204\305\337=\315\006\024\276fe\262\275\017\033\251=S\274\037\276\256L\222\275\231!\323\275\341\207\271<\215\217-\276\017\006\031\276\201#\212=\'\2178>\274w\231\275m\326\225\275\021\205\025>3\320\247\275W\002\367\275VK\364=|*\365\2750\374\357<\250\034\016\276@9\333=\340A\036\276\027p/\276hB\217=*\340/>\241A\251\275\234\370\241\273\303\203\210=\201$\237\275\304\202\003\276\315G\344=\036E\007\276l\261\221\275\r\022\244\275p\357\207\275\035`\000>\335\327\327=\2411\361=\\\202\253\275\342c\007\274\364\305\332\275\274\273\320=x\014/>xf\022>\320\007\337\274\351B\320=\353\316\312=\260\r\237;\345 s=\004&\003\276\263b7<\372\376\362=\036\001\306=\367@\205=n\006\t\2764\312\250=Kd\212<\210\365\224=J\343)=\221\304\260=f\275\030\276m\0335>4\221I=f\335\204\275NUi<\200\225 >v\363\025\276\363?\347<\277\037\032>\321h\037>\231\t\356<\337v\244=\270\271\026>w\231,\276\201\341\217=Gc\025\276\036X\264=\361F\376=y\213\"\274\236\230\346=\003d~<\261\242\000>\r\221\344=3\327\301=\311A(=.\231\363\275\021W\031\276\247\037\034\276\3700\212=d\242(>\035\263\020\276\230\305u\2756\031\307=\302\322\031=\031\333N<n\370T\275%\303P\2740\242\201<\331\302\261\275Y\202\372\275 N\354=\327\014\200=\250\363\007<\340\267\353\275\200+\336<\257D\231\275\303z\334\275\025\3049=\254\034\007=&\036\002>-\236,\276\246\316\007>\334l\207\275\245f0\275\242_0>\300$,\276$N6\273\350\032\r\275\311]\235=\206\247\217\275\212\245\237=\300\207\017\276\362O\374\275>\2423\275C\3476>\255\214 \276\232<\352=\267D\320=\004\001\374\275[uG\275\006\224\331\275\310^\332=;!\">o\324\'>p9\251:\"\300\262\275\261Q\331\275(\014\224=\0106\246\274\265h\013>\233i\021\276\007\205N<\311\230\037\276c\323\020\276-R\361\275|\377\037>b2\270<\031\213\343\275\004\377\370\275\370\203\227=\n;\347=2\361\364\275\365V\371\275\026F\301\275Qu\306\275\360|?=\270\205\250=jD#>\310t\027=-\307\216\274W^\232\275\241F.\275d\376!\276\205P\033\276O4&>8\325\365=\303\021\020>(K\024\276o\356\257\275#p\005\276}5!\276\274\3268\276\327\362\322\275\016\206\023>\261\231\335\275\347p\005>\013Q->:\372)\276\262\344i\275\207\021\016>\335\301\305\274\263\2259\273\370Z]=]$\036<\313\213\374=\351 \222\273F\237-\276\022\370\333=\221(\367\275A\026\005>\315X?=\362\360\253\275\\\221\031>\360q\275\275\367\300\363=\341\246\320\275\355\3071>ds\367=S\240\267=\367j\004>\001\017\002=\226#\342<\374K\'\276\250f\330;\036\0329\275\032@\000>3Y\257\275\t\352\255\275`\262\0059N\247\252=\006\r,>*\316)>1\365.=&\207\342=\240O\363\274\022\3520\276\023\366\221=l\304\007\272\302I\t\276X\241\027\276j\274\216=\245Q\333=\336\215\001\2760w\302=\034\234z\275F\305\003>\251r\001\276\315,\021\276LO\212=\247&\351=So\342\275\243\347d=\036D\341=K\224\200\275\237E\010>Y\000\367=m\254\275=\206\274H=\244\262C:\222\217\257<\204\321\242=\021\347\216<\215\246\217\274\244\375:=|;\374=\274\217\255\273\010.\267=i0\352\275\235Ap\275f\320\203\275\244\232\016\275\275\013\262\275\360H\t\276\253\t\037\275\022K~=\202\307\324\275\2275\337\275\3101\206=s\303\225=\037i\030\276\344\372\023\275\330E\322=\276C\031\276\000\324\254\275\306U(=\005\357\r>?p\270=n\302\255\274\235\246*\276\276\206z\275\302\312\360\275P\333&>\\H\024>\270\321x=h\270\2069&\311\020\276\327\366\036>\005\277\333\274\375\275\337\275\310\362\235\275\314\025\264\274\030#\332\275\335eU<\204\264\025\275\002y\031>\222~\360\273\231\004W\275\037\342\246\275\313\"\370\275\205T\021\276TO\001\276do\322\275f+\221=\347g\362= \335G;\204\\\263=j\007t\275\367\271\026>\211N\001>%\2602>kCS=k\252\340\275\234`\026\276\316\031\252\275\350z\301=\302\376\000\276\000\237-\275\300\262\210\274v\206\t>\004\261\340\275\347\357\370=\365\347\222\2752\302\357\2754\213H=\037\361\013\276q8\370\274\027\342+\276\310\330\217\275\247{\217=h`\310<}\260 >G\335><\234\335\276<\001\327\026\275\\\322\024>a\t\362=\343/\307=`\316\356\274d~\027><\321\370=v\356\343=\r\235\022\276\261\264\030>\212\0243\276\224\333\032\275a\217\026\276\365\376\r\276L\331\304:\274\233\352\275\335\341,\275/B\363\275\236\340\036\276\234b\330\275a\245\013\276Nh\320==\327\215=\372\013v=\367\021,\276\233l\252\275\344\242\005\276 z:\275\351\205\'\275\\\020/\276\213,\034\276\250\322i=\250\020\\=Z\332\377=\217Ib=\337\030\006>i\367\245\275j,\016=VJ\316\275\335\242=\275\305\254\226<\242\254\325<ks\022\276a\250O\275\236$*>IqV\275z\254\006\275\001I\267=a\353\316=f3\333<\342\275\007>\360\260\021\274]r\021\275\301\260\005\276\007\3516\276N\337+>X(\257=5\240\335<\277p\217=G\016`\275\34350>\000\276\"=\203\\h\275\341<2=\374v\230\2757s\367=\313\017\343\275X\357\004\276^\316\344\275~\231\241\275\350\006\233=\0234\n>\037\006\247\274S1\374\275\253\372\262=\325\346\014=\rM\024\273z>\275=q^7>\352\321\340=\272\255\304=\013\347\032>\273/\300\275\016\023\223\275\376b\033>12\327=\377\244\217\275\325\362L\275L\264\352=\212\022\204=\257\331\212\2753\222\027>\2776,>\333\222\031>S\376\353<\270\343w=i9\004>\341\221\025>\215P-= \247\264\275\334:\217\275\237\025\202=6s\347\273&1\347<(\221\223\275\006@\356\2751\2078\275\265\342\005\276\242\246\253\275\244\243$\276\026K==\21732\275\302\260n\275\213\000\263\275\254\241\211=8.\261\275b>\303\275\"g\013>\014\244t\275\372U\275=\242\246\020>\020[.\276\374\264\265\275\362\177\014\276\014\351\243=,>\347=\"k\002\276\014|\246=\250*\331=\273w\005\276\302\321\360=\205\037\236:AfJ\275Z\312\310=\211\366\261=\004\375\217<\257\004\013>\005\321%=N\233\210\275\350\374\305:\007\003\210=.=`\275\200\346\333\2750\332}\273N!\325\275\252\250\027>/\221 \276\210A\323=~\261\333=\375Z\002=\277[\363\275\255\336\377=P\250%>\017n\356<\215\2315>\305}\340\275\265H\336\275\003e\017\276\325\327B\275\245\222\342=\350//>\373,4\276s\315\025>\026\277 =yw\016\276\323\317\010=\002\370\007>\247\315\031\276E\355\003>\273\333\216\275/K\276<\324\264\326=E\254n=\377\260)>#\006?=\373\020\260\274\256\252\017>2;\034\276\320D\014>\340o\322=\302U+\275t-\206\275\tC\213\275\260gJ=z\313#\276\177\2319\276\273\246\031>=\332A=,\230.\276\301.\336=\322\237P=\320\266\274\275X(\260<\352\260#\276i\252\344=\226d\221=\262\224\212\275|O1>\010\002\010>\231\302\315\275P\216p=u\347\203\275\375\327\337\275\367\010\374<\243\310\244=\223\362\022<\r\351\'\276r\231E;\244\221\002>\215\202?\275\300\202s\2740\334\335<\2557\312=\332\013\022=\231\346\275=\017\367\004>\364\036e\275\363\303\035\275\007\263\302=\253-4>\311\311\366=J\242\272\274\347n#=\222]*\276AY\031=\033O\375=\342 \t\274\215\0331\275$\021\312=\351R\234=i\343\316=\254\244\252=\274\304\253=\341\223\342\274\302r\330\275)r\016\275C\030\007\276\220:\024\276\216*\355<\"\310\224</a\020\276\224\373\262\275\275\202\375=\231\3445\276\237\021\002>\261\340\243<\346\306\311=u\354\336\275\017\023i\275^\272\201\274\310\214\260=\260\266\357\275M\334\237=v\321\343\273\314\336\275\274\351\332/\276:\364\253=\213tV=\006s\224\274\007\021\355\275\252U >\007\275\025>\275\334\020>\25592=\241\353\302=\'\313\026\276h\t\245<j\275\213<M|\037\276\254N\307\275\362\376\274=k\203+>\255\235Z\275\331\226\224\2747>\345\275$4\206=\031\037\315\275FqX\275&\212\213\275E=\023\275(\002>=#\275\234\275V>\306\275\020\301\251=j\215\n>\267\352\023>\031\",>EL\335=\313gI\275\217\001!\276\244p\016\276\232\340\264\274\023\020\337\275*\253\222=/\177d\273\276\3460>\000C.>\357z\267<\270\t\371\275\363\267\347=t>\'\276\327j\316</\211F;I\177\023\276\214\202.\276\232\221\316\275\246\206i=?\031\016\275\r{\\=\362H7>\342\305\312=\000|\361\275\324^\312\272*S\252<f\306m=\307W\030>@$\275\275\315v\325\274\212\021\341\275H\247\r\276O\352\020>\256\247\327=\340a\206\272qv\020\276\266cb\274\271\035\223\275\314\276\2639\233b\320\275\010)\315\275\036~\320=d\346\036\276\347\263\364<0\273\n>\377\007\321\274\"\265\200\275\213\"\251=\r\236\214=0i\362\275\202\217\325=x;N\275\0341\371=&P\354\275\201\364I=\314\245T=\345\004(\275X\252\034\276\235\231\256=\226\326\355=Z)\020\2767\330-=\013\030\000>M\032I=\261\351\013>\217W\252==\302|\275e\347\347\275y\376\026>\246\030\025>\241 \365\275\233\260*>\"S->\366\177\311\275U\247\311=\343\373.\276 \250\347=\304\245\001\276d\351C=\274\325\"=7\001\303\275\262\245\006>\022t\031>y\373\313\275\242\374\313=\006:\002\276)\272\315\275\331\374 =\276\377\016>\r\342\321\275\302\013\372\275\356\277x\274k\235\310=\004l\023\275\032\033\232=\322d\'\276_B\367;*7\227=\017[\373<\235\301$>\206\233\003>V\356\014\2763\235\032\274\353\202\032\276q\005\321\275\004\325\000\276\276\303\322\275\367A\'>\0307h=\374\226\211=\300\250\r>\333\203.=\027X\200=2\223\317\274\236\376\245=\003\312\263\275\320\206[\275\242\327m\275\202\203$\274\';\202\275\347\364\377\275\232\000.>\265\201D\275\342\227\223=\355\232/<\223\236\235=t\255H\275\364\246\212<\233\240O\275\034\027\333=\300v\007\276z\376\350=\356\330\350=l\223\355\273\266\031\340\275\tc-\276\321\026E=3\222\031>\324\206\016=A\005\276\275\006\263%>\356\027\026>#\316\024>\324b6\272\244\352M<\302\341\335\275\233\207\030>\n3\376\275\247r\031=\231\025\001\276\346|\231\275\275\236\027\275\216\037\375\274\274\216\261=[\271A\275\220N0\276\344j\356\275\213\242\367\275\005\022\366\274\024\207 \276\323\3155\276<\213\226\273<\006(\276\215\003\022\276\317\034@=a\336/>|\211\021>\231\204E<\217\t\027\276&<\030>b\243D=\024m\r\276\305)\017\276\335\243\035\275\014\222\216=u\271\313\275\273\370\r>\345\265\315\275\335\335`\275\274\021\037\276=\034\214==%`\274\006\021\302<\357l\027\276>\225\357\275\027\233\023\276\224Wf\275V-\355=\211M\000\2769\363\026\276u\261+>!\001\033>\203\210[\274\235\367\370=n\002\251=\315\322O=Z\023\016>\226\031\371=\253\nS=\"\255\034\276\301:n=\342\360\273\274\030\357\005>nz\357\275\021\312\033>g\250\340=[_\374=\237A\236:\2625#\275\351-\n>@\0171< \\\212\275\206\204(>\324\217\232\275?7\213=\222w\356\275q\247\246\275\322p\014>\331,\027\276\222\243\366;\271\277\006\276\371DE=~\353\223\273\246\347\255\274<$\016=a\306\300<\304}W\275X(5\276\336_\215<k4\247\275\261\342\023\275\3518(>\370\277\341=z\265\337\274\233\010_\274\360\253`\274\355\346.\276\230q\210=I\034*<\252l\311\274\266\214\307=ve,\276{\000\202=T\361x\275\207\247\013>\272A\204=@\242*>bX3>/\t\227;k\214\233\275eVo\2751\365\027\276\020\220Z= \274\000\276\177:\215=*\021\177=p\362\024>\365\331\222:\346E\037=}\232 \275\270\005\354\275\303\212m\273\233\212\347=I\243F=\360..\276\332\036*=\026\214\214=\360\311\353=_\010*\276t.\005\276J\251\034>\264I\025>v5\t>x\347K=\252\311\002>\ng-=\016Y,\276\003]\'>[\010\025\276\221k\373=\\\273>;\251\341\267=Z\323%\276n\321\023<\321\361D\274\004-\025>\020\216\261=\250!\n\276\275\216+\274H\\\267=\307wU;\032\357\020>\337\'\301=\037[\320= \270\310\275\3320\301=\245\014\270=e2\221\275\342\261\r=\321\031N=\333u\n\2763-\225\274\002\236\014\276\251f\033\276\030\336\221\274>?\303\2740W\003>\244(k;\324\n\326=W\242\257=FH-\276\266\374\274<\373\313\361<\2452.>v3\024>\036($\276\307H\241\274G\262\002\276\323\244\371\275(\010\275\275@\003\372\275\326\275\237\274*\257\270=[\322\024\276\303\244\352\275\341\3052\276\377s\023\276\365\021\031\276\251b\034\274\216\366\346=\332\315\030\276\371`\004\276\372\0319\275\212G\372=\306\354\332=|\343\300\275}p\301\275\342v\360<\364\202&>\3157\225=ju\363\275>\244\004>B>\206=\1775\023\276\037\322z=\204D\331;\307>\022\276vE\266=\032M\331=\243\277U\275\322*\320\275\237\3277>\357\375i=6?\032>\334+@=4v\353=O\027\036>Nc\307<\326X\224\275\034\200|=f\211\341\275[*\035\275\004\377\240<J\334\003>*\204\325\274\025\247\r>\322\334\333<(\200,\275\330=u\275w\3365>\321\247\320<\003\303\234=M/\315<\370FL\275%\346\232=e[\314\275\341\233\242\275\336\317*\276U\226\017\276\244\253\252:H\014\027=$\375*\276\034\371\313\275\334k~=$\222\211\274\370\201&\276\177\313+\276\023\343_=>\'\022\276\244E\324\274\324+\326\275\303\356\013\276\014\322\031\276\003\\\255\275\032\301\376<\241\376\225=\204\037\003\276T\032\265=w\026\034\274;s$\276\306\211\325\275\251\242\310=\304\322Y\274\260\033\371\275|\315r;\017\263\236\275Tg\314\275oB\025\2766Z\353=\253`\025\276#9\'=#\010\">/\250\\\275\312\001W\274\264r#\276\001z\022\276\245\263\322=v\226\010>c\334\014\276n\013\027\276\2523\261=\331\016\">G\363\027\276[\3576\276\213l\020\276\213z\251=\345\311R\275m\202\355\275C\274+>\257\3121\276E\315\260<&\352\344;\2479\357<\034<\312<>\235\033>{\316\006>\365>\213=\004\303\311\2758v\271=\r\246\320=\216\352v\274\002\302\357=,\205 \276\227\225\342\274\361\354\260\275\313\245,\276\303\205\005=\365\311\036\276\331\363\345=\226\244(=\177D\333\275\222 Y=\316a\321=\r\312\232=y\323\037\276\235\302\256<\377\337\023>7\375%\276\344^\202=\303^\202\275\014\257\261=hL\021>\327_\370\275\305\340\"=*\013\247\275\356\025\355;P\217&\2758\360\356\273lY\233\275\343\022\277\275\205E\221\275\223\203\355\275\244\225\271\275\3531\202=\031\221\005>\316jo\275\211\007\335\275\2725F\275\376\331\263\275\242\350\321=\307\261\027\276\210\224\017>\216*(>\232\350\330<\0217\364=:T.\276eu\216\275Q\226\323\274\247)\367<\376\240\'\276\224\313\022=^\037\031>QS >3`R;\206\320\251==\322*>\342X(>\001\227\350\275\373\352\315=\201\035\244\275\272\001\237\275\341\330\010\276\360\363\201\273\272\220(>\266\0050\276\211\003\022=\237\205)=\212\272\212=\306\216\366\275\314G,\276\311\255->\331\333\253\275^\234\215=\016QE\275\252\367\373=\336\353\336=\304\366\277=\034\3234>Gt\333\275\326;\"\276\206\371\206\275\330p\004>pt$<#\202&\276S\372\311\274\367\0106\273V\031\006>$=\026=J\367\250=\004*~\273\241\202\225=\263G\302<\352\027D=\016h\220=\311\365\225=\rX\016\276cd\331=\372s\371=\017j\344=\360\341\237=\231\005\013\276}y\344=\326\247\332=\036\332\307=\223R\000\276\352\345\321=9\207\027\276S7?=\026T/\276\257|\363\275\000B\025>-\355\"\276_\223\036>\273sX=#\362\220=\"v!>\351:\021>c\312J;\010\222\344=\005\375\270\274A\260\366\275\267\3125\276\nD\032>\n}\347=M\022o\275\322\235\255=\312\014\210=*\353\034\276\365>\016\276!\354\027\276>T6\274\004{&\276:1\020\275\307\366\325\275=\211\006>\354\320\221=(o\201\275J\031\277<\"\335r\275\366\213\317\275\240\222\212=\325\352\366\275i\251.\276}\270\307=wH\371<\344mN=\003\225\351\272\006N\305=\360\307\253\275\240\225\357=\014\235\026\274\377*1\276\030c:=\314$\324\275\234QQ\272\3102\020>e\303\356=\322)\333=\206\022\021>\351R\022>>\315\003\276Pu7>\366\216\202=C\2046\275!\033#\2764\353\326\275\247\030/\276\261\260\234=\036c\376\275\304\361\022>N\367\023>\224\340%>\314\3152<\245\210\010\275\263\204\306\275\254w\000\276\264\324\001>\010\243\376\275\356<\223<\255\010!>b^k\275\362\303\033>\01465<\035\321\365=\2366\035\276X\235\265=\322y\031>dD\233=\224HG=\360\273l=y@V=\010\241W\275\332P\264\275\005T\004\276Oz\224<\344\343\021\276\"\310.\274av\221=B\242\004\276\332\030\226\275\207\2408>gU4\275\tL\003>;\274(>nfH\275Y\262t=,\234\374\274\242*\257\275D=T\2750\016\026>\274\373%\276\235\367\255\275\374\363\016>\225J\027>$!\343\274\212\210\r\276\024\232\272\275\311b3<\254\325 \275\353\036\313\273.\360m=h\367\227\275\256\330[=\031\253&\275\315\355\035\276\250\264k\275\345\003<;\260\342\274\271\324\255h\274\034\354\034>HQd=\177\362\351\274x2\304\273\261\320T<\345\266 \276\223\302\002>V\321\277\275\266c/=q\351&\276\205r\343=\207\314\r\276\373W:\274\302]\234<6\3453=\375\301\003>\007\214\310<j5\026>\260\332!\275\335\234\036>\313\t\037>\016|\320\273\220\240\340\274d\006\025\276C\343k\275R\034\373\273\254#\351=\322\373\007<\241w\334<\005\303\031>\345;\001\275\263&\255=\260\263\250=\240\320\302\275\254\020\001>\220\317\366\275(@\315<\357\003\t>\200$\022>\334D\332\274*A\'<\264\031\033=!\033?\274.\222\030<\201E\253\275\021\213\306<\357\366\321=\215x\025>l\372\001>\014\233\n\276\303U\031\275V\223\337=`- >]\364\t>\230!\035>fg\217\274S?\206=\t\351\205=\271\236M=\206\321u=\206 \005>N]\270\274\353>\027=\367,\033\276Z\277\252=V\304\244=Qgc=\260\235:=\237i\017<\331\033L<\246\237\335=\364a\270\274\220\227\036>.\270\017\276#t\344\2747\305!\276`\232\335\275\014\245\304\273\264\235\313=x\'\336={<\235\274\034<\014\276\363*h=\315\200\340\275]\371\262\275\212g\005>\315\320&=\233\260\271=\237\371\036>r\346A=\"\223D\275\320\232>=\r\014\027\276\006\210\377<]V \276\305\200\220\273\301\361\214<\267-R\275\034\235-\276\0328\372<\005\027\345=\307\361\005\275\005-\354=\372\225\264\274W\256\263=\232| \276\035j\222=\263#0\276\334\364$<\002S\276\2759xo;\363g\354<\376\217\316=R\270:\274s\346+\275\332\331e\275\341\0020\276\272\275\026>\336\315\030<\351\220\341\275e+\311=\017of=ps\014\276\337\274->MK\203\275\207O\320=\324q\363\275\022B\224\275\3709\366=\203\325\274;\372\373\001>\302v\035\276}k\005<}\007\025\276\261M\371\275Y\206\375\275A\276\035>\252\371E=/\001\236\275\236S\244=\312\344\010\275\240X\351\275L\375\345\274\251c\314\275Ls\225\274\233^\030>^Pn;\236\335\354\275\016\245\344\274\322\231\'>y\365\276=R\023\002>\034\231->\327\312\'>&\267\312\274z\234\202=\357\303U=\242\344\276=\302L\367\274\222\373Q<\322[\032\276\355Q\273\275\346}\\\275\255\257\034>B\231&\274\335y\217\275E\303f\275\1775\023\276<%S=&\t\264=\336Z6\275OI\031>\037l\\\275\370P\375\272\214\363\354=\357\363\352<b)\307=\316#\353\273\344\235\035\2763\213\363\275\331A_\275V\014M\275\003\357Y\275Y\364\001>\243\240\250\275a\223\342\275Zv\245\275\363W\366\274_\257\n\276\223\251)=\317j\254\275\367\031\373=\013\307!>\244g\302=\301\177\354<\376$\244\275\344g9\275Y.S=\020I\334\275\004\362\252\275\363\016P<\302\252\023\276A\031\010\276\357\356\275=$\236\203\273,\267\032=.7==\220p\307\275\213\001/>6\357f\275()\212\272\214Z\263\275\327\t\215=\025n\010>\305g\025\276\343\246\377\275j\231\335\275h\364Z\275\2327Q\275\'}\377\275\304\234\213\275|\304u=\353f\232=}\214p=\320\374\013>\207\265%>\006\025\016>pl\020=@\266\t\276PW\371=\254\202$>\027<\377=E\225\303=\345\357\013\276\272\263\t\275wW*\276\000#\036\275\236K\004>`\017\273\275\215C\035\276\317{/>\002\357\242=\036\333\003>\034\375v\275Fp\252=\231\344\245=!k\234\274-g\211=\226>\020\276\324t\211\273\367+/\276\303\267\250=&.+>uj\r>5y\323;\001\370\317=\374\232(>5\336\250=3Bw\275\370\263w<\237P\301\275\211\2758\276{\366\253<B%\007\276\317\n\003=E\334\"=\352\263\033\276\276.\321==\333\276=\324o\007\276\327|C=\250W8>p\204\251\275]s$>o\207>=\230\311\001\276\310Z\232=\272\324\260\274|\275\001\276\215\230\370=\022k.=M\022\023\276\267@7=\036\213\032>\311\275\215=gh\013>O\001\014\276,\034\266\275\330M\211\275\312~\034\276\315\356\332=\023\267\n>k\265\031>\341\351p\275}\247\360<-\343$\275\2341\006\276D\257\352<h\351\007>\275\257l<\350\206\020\276\r\023\000\276yZ\235\275\337$G\275\270\203\372\275\346\302\277\275\032\016\317=\361\273->\030\371\202\2739W)\276\263\005d=\345\357\340\275\016\355\'=5iD\275\350g\034\275\367@|\275\255\217\034\276\000N\232<\021\315\204\275h\317$>\344\252\030\275\265kk\275\267\205\237\275\202b2>\306\333\247=\ro(\276)\027\207\275\262\216\000\276hQ\317=\2574\320<\3261->\022\236\n>\274s\231=\327\303\031\276\014\177#>\177\351\340=\324\\7\276\340\370\310\275x8M<\201\223\322\274\"k\227\275\217\216@=P\361\237\275X\253\232=\347\220\014>@\033\237=\241\027\037\276*e\221=)uc\275\344\360\220\274V\332\267=5\340\261=\2649\021>\347\333\000\276\357\007\007>\265\360\037\274\365\235\247=%\373G=\231p$=\310o\307<\344\230!=dS.\275\3401M\275A*\234\274K\333\230=)\266!=\274\3247\275\260\034\331<\267\222 >\t5\323<B\376p=\364\227K\275U\333\367\275\024iR\273(2\336\275Z\224\210\274P\243G=\010M\032>u\376\002>\203\342\200=#\213\366\274q%\026=\336\270\017\276\222\226G=h\021\021>_l\362=\\!y=H\252\220=\371,\216=5M\217\273\016\361D\275O/\304\275M\225\t>\313\3431=\306>\003>\200`\346\275\346\254\226\275\t\003$\275\200\250\004=J\245\004\276\016\240\r\276w.Y;s4\014\276\347L\r\276\275n\020>\"\267\033>9\336\342\275v\327\211\275\013\244\'=\377\226q=v\027\213=}r\364\275P`H;q\024\032\276\031\333\016\276n\264\313<\345\352K=\210\217\234\274k\301\275\275\333\321\025\274+\360$\275\372\324p\274\335\200\320=\250qg=\306\026T;\204\264)\276*\022!>\177z\300\275\010\346@=\372\304\034>\034\001\364\275\\\317_=txw=r<\335\275\253< >u\321(\276\255K\034>\367\367\221=l\013R\275S\223\331\274\375I\267\275\306*5\276vj\266=\321kz=\271^\260\275z\312\020=F.2\276\203u/>Z\257\357\275p\032\005=\253\275w=\3428I\275\376\001%\276<\265\323\274h\263\322\275\236+\242\275\326\221\020=\232b\236<B\267\230=\276&\351=\336F\273\275%\357\020\276\006\262\035>\022\252s\275\325\326\003\275\304#\021>\264X\025>\242\\\373\274\242j\034>\253\026\304\275~\2623\276J\206\227\273\231\201\377=\347\215\213\275{=\240\275\360\325\360\275\377f\264\27419\222\275\nh\304:V\251->.\245n\272h\233>=\247(\001>/\311\001\275\254\317/=.\254\026>%7\000\276\242:,<\007&c\275&\264\020>\376\217\332\275\330A\210;E#\002\276\306=\264=\221\257\236\275\377Q\277=&\240\303\275\201\213\207<\300~\007\276\350\367\272=\235w\007\275BU/\276n|+\276#N\277\275\355\227\336=[\3472\276\022:\035\276\235K\212\275\207(\022> \211\204;\357\202\014\275\373\370\232=\3404!>\014i\264\275\242\2547\275r\037\375\275-W\366\274\302\363\030\276\231\010\365=\250W\005>\252:.<\233\254\231\275\210\326(\276&n\277\275\353\014\234<y[\246=^\346\313\273\300s\203\275\302O\254\274\214\261\002=\304x}\274\335\021\r\276\263\314\017>R\023\001\276\313\272$\275\322\211s\272y\320$\276tP1\275\255\3376\276\313\253)\276~2\357\274\314\216}\275\202>0\276\016R5>\255\371\341=u\376\213\275\276\220\263;\321k\020>\366\240\356;=\374t=4\306\370=\246\215\004>Hi\373\275k\222\304\275i>%\276\215\177\227\275n\205X\274Rl/\276\320\364\273\273n]\340\274\334\342T<\234\\\032\276]c\311=\276\235Q=@hz9]b\243<Y\332\027\276U\310Z=\022\236}<~\010\311\275\353|\333\274\017]\373=v\313]\275\321\246\235<\325\224\231=\372\001%\275\220\037\224<\372\205*=\313\2430=w\277\271\274\351\266\345=n\277\356\275\337{\355\275? f<\332C\030>w3\r=\273W\206=4\034\203\275N\r\251=\002\225\250<\207i\n\275ZJ\025\276%y\300\275-\354)\276\210\276\331=(g\023\275\245j)>\010\251\215\274\377t6;2\217e<\331g\n>J#\033\276\300\037V9G\253\211<@\275\002\275S\377\037=\243\350\031\276q|\332\275\206\366\313\274\271\374\216=\002\021\207<\220\306:\274U\201\344\274f\016\214=\2424\003\274\334\3614\275\256\010+>AA\312\275{\255,\274\220\361\257\274\3659/\276\002\346a\275\201\024I\275\032{R\274\375\253\271=x\264\302\275_\311!>\267C<=\027\022\022>\304\331\000\276\0366\031\276;\036|\275\204h{=\206\033\214\274\315\232\006>\205\301\037>\323\r\236=\275\225\204\275~|\235\274\r#\023>\307-\356=\322\316\351\275\263W\024>V\350\024>\'R\320<\023\2126<\341\364\014\276\227\302\331=\253A\240\274\251<(=\3700\\=\235\252+>\231\311\013>\321jM\275G$\026\2764\213U=C\236\034>\373\326!>\325\016l<\240\252\022>\305[\275\275<\253\347\275\346\336b\275\245\007\313=\021\224<\2750\323M\275\032@\016>\034G\215<\263\300\\=u\324\376=\004/\234\274H~\310\275l \032>\316\364\030=\177)\213\275\373\254\326\275\315\360\266\2758\316\031\276\030\331\027\276dv\230\275\253\037R\275\024\374\342\274\'\261(\2760-\247\274Nn\n\2752\277\361<\322\312\344\275\370<\035>N\304\021>\t\214\020\276\204\342\214\275\204o%>MN\272<\247\277\351\275\343g\214=\357\305+>\377x+\275\007>\254\275\"\206\312\273Nv\372< \200g=\274 \271\274\340\024\376\275s~\304\2758\251\366=6\353\305\275\240t\027>)\216\222\275e\361\370=-3\224=C~O\275\223\261%>\231\352\322\273\241O\360\275\002\375\270=\352Iu=\3324\231\275!\360\241\275\352\271%=\357\303\272<(\361\n\276\r7(\276\000\027\321\274HZ/>sl\033\276\335/\351=\020c\305=\260\356\003\276\230\236\261=L\024b=\270b\263;1\005\031>\324\360)=\236#8=N\2374\2764\254\365\2744\301\372\273S\277p<fI6=\243\253\354=\332\234\332=\036\002\021\276\037\210y\274\235\236m\275\306\363\242\274Qv\'>\242\327\343\272\255\000\237=@gp=F\006O\275\235\006\375\275b\331i\275F\037\262\274\244X\357\275\007\356\316\274\342)&>\353 \367=\266\345{\274\224[\027>\306G\324;\340`\375=\332k\232=\215\3101\275\264\317\262;6<\264\275\356\360j=$\233\247=\330.\212\275D\371\245=\3709\036>\256C\273;\246\213\033\276;\237.>\237\370\031>\245O\030>l\016\210\275\034\242\206<\'\252\036<>>1=\033+\244\275>z\010\276(\365\233=\265AG<q\225O=W\003\365=\0249\375=\231\270\002>!F\255\275t=\033\2753W\375=\007w\306\275ps\013\276\244\223\035>`k\000\276O\347\'\276\206\204*>\263\320\236\273\177>\304=#?\213\274\343\243\022\276\347.\216=](\365\274\240\2437\275\034\222\033=r\301\223=r\224\014\274\032l_\275\224\2421\276oX\252=f{n\275j\253\321\275\337\231\254\275\322\026\362=\200\033^<\223B\241<r\306\006\274XQt\275\345\025 >m\'(\276C\030!\276\222\370\202=1\320\t\276\246C`=Q\3354=\271~K\275\346H\330\274\333n\236;4\021\312\275Tu\377\274}\\\351\274\222\374b\272XD\034\276:\311 \276\371\021J\275V \212\273\357+\313=\350\333->\331 @\275\244K\345=\\H\322;\371\231\005>\005\320\226\275\246\355u=\334\377\320:-o\325=\210O3>\237\233\010\275\356\3308\274\343W\344\275\017\237\333\2750\375\332=\026r\216=\311\264\002>\324F\010\275t\303\375=2\323\037\275\351\032y\273\353\321\275=5\306\004>\325\246\250\2747\177\005\276Y\365\377\275R\204\373=\242\216\373\2757\373\000\276\342L\374\275\026>P\275p\240\357\275\233e\356\275\001\003\354\274\362}\274;\242b!>\320c\007\276Jk\321\275\320\330\335\274\355\t<\275\024\"\234<l\224S<gMW=\243\354\232\275\363\355^=~\352\235\275\003\034\276\275\312\3208\276\022\271\332:\246\206]\275\026\'(\274s\233\305\275^\206\213\275\331t\244\275\234\225\340<\361(b\273\264A\274\275\254_\216=|1\331\274\'\360\262\275h\357D=\343\023\013\276\246/==:\203\371=\204\326\243=\345\326\010\276!B\257=\302\003\'=Slk\274\303O\356\275\264e\261=`\366\016>\n~\202\274.\356\030\276\247w\254=\030z\005>\227`\023\276\330\206V=\3613\317\275\215\033\354\274S\010\366=\227#\302=\022\260\321\275*\347\202=\353\034\300=\031\366s=\265\325\220\275O$\275\275\022\350M=\376\376\t>k\026\341=\327y\306=\360\262\262\275>>{=h\231:\275n9\016=\021@`\275J\352G;\204/\373=(\342@\274\220&\013\276\306!\377\275\224\226\030\276\301\300,>\205E\313=\013\006\010>u\243o=\310j3>\245\345\273\275\rMw=u\205\377=\324\347\377=\3716\005\276P\313\205=\223\t\317\275Z\212\304=\225\221\246\275\263\356\207\275>\227\214\275\002\303\275\275K\342\360\275:g\366\274cJ\020=\312\002\262<\364\3677>\247s\n>\273\220\271\274\220\205A<~\353\310=4\024\203\275\223\010\\=\210\347\361\275\346X\355=A\3132>\317\201\237=?\266\004>\030\317\344=g\262\267<\357\177\233\275/\024\211=N\374\214\275\240\336a\2735;\244=\034\2369=oR\010\276\234\2271\276\243\245\256=\342\274\305=\017\033{=\347R\261=2\374\r\275\257\372\013=\201\267\005\276\303\223\n>\304\027\224\275\007.\014>\177\006/=\230\"\300\275\335\223\227=E\220\005>\354\034-\276\303\017\003=\270\314\010>W\370\036=xLT\275\246\037\243=\274A\227\275\377\200n\275\260\003\034>g7\034>\337\014\014\274x\347\023\276%)&\276\342\323\216\275g\265\227\275\230\307\373\275\312\366\321=NE!>\\0b=\204\206\361=\351\002~\275\352\305\261\275\216Ef\275\377X*\276\270G\202\275\005\271A;Ow\244=\324\t)\276\341#8\275.\274\245<\310\253\326=S\035\354\275\200)w=4O\026\276\265\370\307\275\375L\254=\353\010n\275W\344z<%\013\303\275\247\210\235=\016\276\226\275\030n\306;\240\371\377\274\311.\020>*\304\">\223\336|=\014\375\214\275Hb\027\276\t\262\001\275ll4\274\253\201\024>A\2035\276\370\330\357\275\000\235\246=D\247\345\274+\017\237\275\310\207\262\275X\352\002>\"\204s=8\r\212\275\t\273\233;\305(\322\275\204a\261=\305r5=\224\305\224<\346\246\376\275\300\276h=\220s\333\275\215\233\256\275\007\032\345\2758\325\202=\007*\306=E\213\364=Y\272\371=\272\2620\276\354\030\207<\255\225s\275\372\227M\275\"\363\\=\334\206\344=wU\347=_\201\342=z\213\036=\013L\007\276\177\216\276\275\357\243\210=p\362\227<>-\340=#\016\226\2759\230\202\275\037\006\234\274\342\004\212=i\227\243\275u9\341=\227\362\203;\365S\001\276\356\337\030\275\213\325\026=\354K\004\276\350\007\021>k\223#\276\327\246-\276\271\"\t\276\rs\275\274\234;1=\347\r\277=\000\250\353\2755\3230\276\254\r3\276J\025\310=1\341\220\275\254\017\332\275}\311\276=\207\322\377<\032y\205\275\230O&>8I\021\275\213\324\010>\224\257\034>L\347\342=\345%\357=\325\370\321=+f\003\276M\252-=0O>=\370L\252\275\306R\220<\271\272\035>}\327e\275n\243#>]p\257=|\362\030\276=\027\003\276;,\365\275\274\206h=\004\274%>\033G\204\275\354\264\t\276\025\312(>\316\271\'>\335\t\234=4A,>\304\005\237\275v\223\264=\227U\300=C>r=\017\177\353\275\'\313<\2758u\026>\330W\013\276uVm=\344\216\243<\261U,