node {
  name: "input"
  op: "Placeholder"
  attr {
    key: "dtype"
    value {
      type: DT_FLOAT
    }
  }
}
node {
  name: "transpose/perm"
  op: "Const"
  attr {
    key: "dtype"
    value {
      type: DT_INT32
    }
  }
  attr {
    key: "value"
    value {
      tensor {
        dtype: DT_INT32
        tensor_shape {
          dim {
            size: 3
          }
        }
        tensor_content: "\001\000\000\000\000\000\000\000\002\000\000\000"
      }
    }
  }
}
node {
  name: "transpose"
  op: "Transpose"
  input: "input"
  input: "transpose/perm"
  attr {
    key: "T"
    value {
      type: DT_FLOAT
    }
  }
  attr {
    key: "Tperm"
    value {
      type: DT_INT32
    }
  }
}
node {
  name: "reshape/shape"
  op: "Const"
  attr {
    key: "dtype"
    value {
      type: DT_INT32
    }
  }
  attr {
    key: "value"
    value {
      tensor {
        dtype: DT_INT32
        tensor_shape {
          dim {
            size: 2
          }
        }
        tensor_content: "\377\377\377\377\t\000\000\000"
      }
    }
  }
}
node {
  name: "reshape"
  op: "Reshape"
  input: "transpose"
  input: "reshape/shape"
  attr {
    key: "T"
    value {
      type: DT_FLOAT
    }
  }
  attr {
    key: "Tshape"
    value {
      type: DT_INT32
    }
  }
}
node {
  name: "w_in"
  op: "Const"
  attr {
    key: "dtype"
    value {
      type: DT_FLOAT
    }
  }
  attr {
    key: "value"
    value {
      tensor {
        dtype: DT_FLOAT
        tensor_shape {
          dim {
            size: 9
          }
          dim {
            size: 32
          }
        }
        tensor_content: "\035W_\276\367Bb=V\323\273?\320\333\252\276\350\303\273>\016\222}\276V\324R=\323x\321\276/&-?\224$5\277\333\223\257>5\362I=\234\034e\275{\204p\277OT\213\2763s\032\276\342\373F>xS\207\275\220R\310\275\337\024\261>\366\020\016\277\320Y\212>\332\2038=\337\036\254\257\002\320P\277V\332\252\276*\037!?r\"\034>i\3476>3^\351\275\300J\317\277Q\334r=s\3329>\203\024\036\276\351L\200\276\251\241\246=\316$F\276\003\032\016\275\300\350\224\275\251I\235>u\267\356\274~w\223=\225\247 \276\223\014\013\275\314u\014\276\034\367\222>rV\371=].\276\276ObZ<7\261\207\275zyq=\216l\'>3zh>\245\037\223\276\245\"\020\276\234i*\275B\016J\276\374Uk\275\353\205\263\274\274\255r\276\374\235\261\275+\213k\275\237\347\336>\240\352F\275Mqn=r\021\003>\n\344\000\276\256\305\302=\210\2203\275<\034\013\275T\027\225\275\253\273\372\274a\240*\274\2668\013?i\215\204=L\305\213\273\326x\274\276\020\363\275<\2340\236>\321\354N=wk<<R[\362\276\244x*={\346A>\245Wl9?\215C\276 \254\260\276\227\313\322/q \336\275\261\241/=i\271\372=\263(G\276\027WZ\274\241\274P\275\302\346F\275\305|\226\275\305\017\215\276ac\330>\'>\">\\z\203>Q\024c\277\267\r\276\275\320;\034\277\231\014\224?\362Y\222=?I)\277\030\205e\276Y\271|\277EK\346\276^\340\010=\306}\"\277\'\023\375\2768\313\022\277{qG?#\212\250>j\224I\276]G\257\276\245\273\221>{6%\277\325x39\004M \277\227\017\305?\212<\261>\202=\025>\036&\312\275\034\000\252>~\362-\277\253\033h>\365\322\275>.\271\000=\t\205M>\034vp\276\275+\233\276\235{\321\276f\366\213\276\300G\000\277\325\3610\277y\302i\277\276+\312>>1\227\275\014f\350\275\234\272q\277\256\251\311\276\023\313\037\277Bm\205\275\241=\226>\210U4<\032%\021\300h\322\220\276\276E\275?\330d\220>%\201j5g\022\207\277\232g\225\273\336\250\231\275\"\212\354\274\227\034\001\276\252\323\322>\245\314x>\324\326\330\276\352\353\236=,8>>R&\203\276x:#\276\005p\335\276\030\315-\275.c4\277\316p\304\276\213\r\233?d\217Y=@\344H?\205\233\356=U\030\267\277\014_\226\276\002\367j>|\273\277>\324]\313>B\332\342=q\225\034<U\272\022>7\201\340\275\360w\346=R\247\225>Y\005\3340\262g\000\277\\r\243>\245\030\013?\254\001\323>\372F\204>\344\203;\275s\244]?\241\007\364\276\310)\306?y-\032?\223ys?\315\356\333\2752\352\222\276Pl\202?\253\377\r\276O%\"\277\227\213\204?;\263\225>\271o\345\276\317\264\315\277\3276\222\276\217p\n>8\020D>h\323\035\277K8(\277t\371*>W\204\020\277\346\361\327\277\377\377\224\277z\347&\277\214\273\275?\235\016Q\275(5\225>\345Z\262>F\205\231?Q\356\214>_[\361\276\316\276\032?\364|Z\277\333\241\240\277\340Ek>\364\\\333<\267.w>\202\272\212\277\371\241\222\276\223\275\254?c6\025=l\026\314>\205&\247\276!\361\225\276\341\350\235\277\241D\244?/o\234>\353\3416\277t\3404?\250\205\305?\271\315\224?\250_\000\276\334\211G=\014Z\016>\020\265\033\277\251N&>\331(\250>\350\375\3706\2071\214\276\271ZK\277\"8\230=\313\237\206\2747\302b\277L$?\275\363\345\226\277\325`\006\275\007/\303?\244\372\323>-\376 ?\372\346\203?\326\354$>?\206\342= \374z>$\253\252\277w\002\340\277\310\312J>\241\337b?\326\020U>\357!#\277\3101\213\275\345\357\241=i\335\255?\375\206\366\277NsQ\277\322k\036\275\233\314\232>g\336K?\0073\016>\254Y\247>\376\370*\276\340\306e\277&V\177=\"Rt\276\201\013_>]E\217\276:\250\374\276\302\217\363>\333\004\200\277"
      }
    }
  }
}
node {
  name: "b_in"
  op: "Const"
  attr {
    key: "dtype"
    value {
      type: DT_FLOAT
    }
  }
  attr {
    key: "value"
    value {
      tensor {
        dtype: DT_FLOAT
        tensor_shape {
          dim {
            size: 32
          }
        }
        tensor_content: "H\325\310>)lU=\363@\275?\225@&?\373\177r?-\030V\276\013\243j\275\262\274\274?F\032\276?\211\265A\276\260i\215?\210\352\013@.\262\264>\341\030\236?\251\336\035?\241\036\025@\3522\'?\357\322`\275<\004\305>A\317\016@rR0@-<8?`M\013>\3552M\276W\346\r\276\201\240\252=|\266\036?\032\254\267?\245\222R>[=\264?\376\3103@J#\226?"
      }
    }
  }
}
node {
  name: "MatMul"
  op: "MatMul"
  input: "reshape"
  input: "w_in"
  attr {
    key: "T"
    value {
      type: DT_FLOAT
    }
  }
  attr {
    key: "transpose_a"
    value {
      b: false
    }
  }
  attr {
    key: "transpose_b"
    value {
      b: false
    }
  }
}
node {
  name: "add"
  op: "Add"
  input: "MatMul"
  input: "b_in"
  attr {
    key: "T"
    value {
      type: DT_FLOAT
    }
  }
}
node {
  name: "relu"
  op: "Relu"
  input: "add"
  attr {
    key: "T"
    value {
      type: DT_FLOAT
    }
  }
}
node {
  name: "split/split_dim"
  op: "Const"
  attr {
    key: "dtype"
    value {
      type: DT_INT32
    }
  }
  attr {
    key: "value"
    value {
      tensor {
        dtype: DT_INT32
        tensor_shape {
        }
        int_val: 0
      }
    }
  }
}
node {
  name: "split"
  op: "Split"
  input: "split/split_dim"
  input: "relu"
  attr {
    key: "T"
    value {
      type: DT_FLOAT
    }
  }
  attr {
    key: "num_split"
    value {
      i: 128
    }
  }
}
node {
  name: "bidirectional_rnn/fw/fw/Shape"
  op: "Shape"
  input: "split"
  attr {
    key: "T"
    value {
      type: DT_FLOAT
    }
  }
  attr {
    key: "out_type"
    value {
      type: DT_INT32
    }
  }
}
node {
  name: "bidirectional_rnn/fw/fw/strided_slice/stack"
  op: "Const"
  attr {
    key: "dtype"
    value {
      type: DT_INT32
    }
  }
  attr {
    key: "value"
    value {
      tensor {
        dtype: DT_INT32
        tensor_shape {
          dim {
            size: 1
          }
        }
        int_val: 0
      }
    }
  }
}
node {
  name: "bidirectional_rnn/fw/fw/strided_slice/stack_1"
  op: "Const"
  attr {
    key: "dtype"
    value {
      type: DT_INT32
    }
  }
  attr {
    key: "value"
    value {
      tensor {
        dtype: DT_INT32
        tensor_shape {
          dim {
            size: 1
          }
        }
        int_val: 1
      }
    }
  }
}
node {
  name: "bidirectional_rnn/fw/fw/strided_slice/stack_2"
  op: "Const"
  attr {
    key: "dtype"
    value {
      type: DT_INT32
    }
  }
  attr {
    key: "value"
    value {
      tensor {
        dtype: DT_INT32
        tensor_shape {
          dim {
            size: 1
          }
        }
        int_val: 1
      }
    }
  }
}
node {
  name: "bidirectional_rnn/fw/fw/strided_slice"
  op: "StridedSlice"
  input: "bidirectional_rnn/fw/fw/Shape"
  input: "bidirectional_rnn/fw/fw/strided_slice/stack"
  input: "bidirectional_rnn/fw/fw/strided_slice/stack_1"
  input: "bidirectional_rnn/fw/fw/strided_slice/stack_2"
  attr {
    key: "Index"
    value {
      type: DT_INT32
    }
  }
  attr {
    key: "T"
    value {
      type: DT_INT32
    }
  }
  attr {
    key: "begin_mask"
    value {
      i: 0
    }
  }
  attr {
    key: "ellipsis_mask"
    value {
      i: 0
    }
  }
  attr {
    key: "end_mask"
    value {
      i: 0
    }
  }
  attr {
    key: "new_axis_mask"
    value {
      i: 0
    }
  }
  attr {
    key: "shrink_axis_mask"
    value {
      i: 1
    }
  }
}
node {
  name: "bidirectional_rnn/fw/fw/MultiRNNCellZeroState/BasicLSTMCellZeroState/ExpandDims/dim"
  op: "Const"
  attr {
    key: "dtype"
    value {
      type: DT_INT32
    }
  }
  attr {
    key: "value"
    value {
      tensor {
        dtype: DT_INT32
        tensor_shape {
        }
        int_val: 0
      }
    }
  }
}
node {
  name: "bidirectional_rnn/fw/fw/MultiRNNCellZeroState/BasicLSTMCellZeroState/ExpandDims"
  op: "ExpandDims"
  input: "bidirectional_rnn/fw/fw/strided_slice"
  input: "bidirectional_rnn/fw/fw/MultiRNNCellZeroState/BasicLSTMCellZeroState/ExpandDims/dim"
  attr {
    key: "T"
    value {
      type: DT_INT32
    }
  }
  attr {
    key: "Tdim"
    value {
      type: DT_INT32
    }
  }
}
node {
  name: "bidirectional_rnn/fw/fw/MultiRNNCellZeroState/BasicLSTMCellZeroState/Const"
  op: "Const"
  attr {
    key: "dtype"
    value {
      type: DT_INT32
    }
  }
  attr {
    key: "value"
    value {
      tensor {
        dtype: DT_INT32
        tensor_shape {
          dim {
            size: 1
          }
        }
        int_val: 32
      }
    }
  }
}
node {
  name: "bidirectional_rnn/fw/fw/MultiRNNCellZeroState/BasicLSTMCellZeroState/concat/axis"
  op: "Const"
  attr {
    key: "dtype"
    value {
      type: DT_INT32
    }
  }
  attr {
    key: "value"
    value {
      tensor {
        dtype: DT_INT32
        tensor_shape {
        }
        int_val: 0
      }
    }
  }
}
node {
  name: "bidirectional_rnn/fw/fw/MultiRNNCellZeroState/BasicLSTMCellZeroState/concat"
  op: "ConcatV2"
  input: "bidirectional_rnn/fw/fw/MultiRNNCellZeroState/BasicLSTMCellZeroState/ExpandDims"
  input: "bidirectional_rnn/fw/fw/MultiRNNCellZeroState/BasicLSTMCellZeroState/Const"
  input: "bidirectional_rnn/fw/fw/MultiRNNCellZeroState/BasicLSTMCellZeroState/concat/axis"
  attr {
    key: "N"
    value {
      i: 2
    }
  }
  attr {
    key: "T"
    value {
      type: DT_INT32
    }
  }
  attr {
    key: "Tidx"
    value {
      type: DT_INT32
    }
  }
}
node {
  name: "bidirectional_rnn/fw/fw/MultiRNNCellZeroState/BasicLSTMCellZeroState/zeros/Const"
  op: "Const"
  attr {
    key: "dtype"
    value {
      type: DT_FLOAT
    }
  }
  attr {
    key: "value"
    value {
      tensor {
        dtype: DT_FLOAT
        tensor_shape {
        }
        float_val: 0.0
      }
    }
  }
}
node {
  name: "bidirectional_rnn/fw/fw/MultiRNNCellZeroState/BasicLSTMCellZeroState/zeros"
  op: "Fill"
  input: "bidirectional_rnn/fw/fw/MultiRNNCellZeroState/BasicLSTMCellZeroState/concat"
  input: "bidirectional_rnn/fw/fw/MultiRNNCellZeroState/BasicLSTMCellZeroState/zeros/Const"
  attr {
    key: "T"
    value {
      type: DT_FLOAT
    }
  }
  attr {
    key: "index_type"
    value {
      type: DT_INT32
    }
  }
}
node {
  name: "bidirectional_rnn/fw/fw/MultiRNNCellZeroState/BasicLSTMCellZeroState/ExpandDims_2/dim"
  op: "Const"
  attr {
    key: "dtype"
    value {
      type: DT_INT32
    }
  }
  attr {
    key: "value"
    value {
      tensor {
        dtype: DT_INT32
        tensor_shape {
        }
        int_val: 0
      }
    }
  }
}
node {
  name: "bidirectional_rnn/fw/fw/MultiRNNCellZeroState/BasicLSTMCellZeroState/ExpandDims_2"
  op: "ExpandDims"
  input: "bidirectional_rnn/fw/fw/strided_slice"
  input: "bidirectional_rnn/fw/fw/MultiRNNCellZeroState/BasicLSTMCellZeroState/ExpandDims_2/dim"
  attr {
    key: "T"
    value {
      type: DT_INT32
    }
  }
  attr {
    key: "Tdim"
    value {
      type: DT_INT32
    }
  }
}
node {
  name: "bidirectional_rnn/fw/fw/MultiRNNCellZeroState/BasicLSTMCellZeroState/Const_2"
  op: "Const"
  attr {
    key: "dtype"
    value {
      type: DT_INT32
    }
  }
  attr {
    key: "value"
    value {
      tensor {
        dtype: DT_INT32
        tensor_shape {
          dim {
            size: 1
          }
        }
        int_val: 32
      }
    }
  }
}
node {
  name: "bidirectional_rnn/fw/fw/MultiRNNCellZeroState/BasicLSTMCellZeroState/concat_1/axis"
  op: "Const"
  attr {
    key: "dtype"
    value {
      type: DT_INT32
    }
  }
  attr {
    key: "value"
    value {
      tensor {
        dtype: DT_INT32
        tensor_shape {
        }
        int_val: 0
      }
    }
  }
}
node {
  name: "bidirectional_rnn/fw/fw/MultiRNNCellZeroState/BasicLSTMCellZeroState/concat_1"
  op: "ConcatV2"
  input: "bidirectional_rnn/fw/fw/MultiRNNCellZeroState/BasicLSTMCellZeroState/ExpandDims_2"
  input: "bidirectional_rnn/fw/fw/MultiRNNCellZeroState/BasicLSTMCellZeroState/Const_2"
  input: "bidirectional_rnn/fw/fw/MultiRNNCellZeroState/BasicLSTMCellZeroState/concat_1/axis"
  attr {
    key: "N"
    value {
      i: 2
    }
  }
  attr {
    key: "T"
    value {
      type: DT_INT32
    }
  }
  attr {
    key: "Tidx"
    value {
      type: DT_INT32
    }
  }
}
node {
  name: "bidirectional_rnn/fw/fw/MultiRNNCellZeroState/BasicLSTMCellZeroState/zeros_1/Const"
  op: "Const"
  attr {
    key: "dtype"
    value {
      type: DT_FLOAT
    }
  }
  attr {
    key: "value"
    value {
      tensor {
        dtype: DT_FLOAT
        tensor_shape {
        }
        float_val: 0.0
      }
    }
  }
}
node {
  name: "bidirectional_rnn/fw/fw/MultiRNNCellZeroState/BasicLSTMCellZeroState/zeros_1"
  op: "Fill"
  input: "bidirectional_rnn/fw/fw/MultiRNNCellZeroState/BasicLSTMCellZeroState/concat_1"
  input: "bidirectional_rnn/fw/fw/MultiRNNCellZeroState/BasicLSTMCellZeroState/zeros_1/Const"
  attr {
    key: "T"
    value {
      type: DT_FLOAT
    }
  }
  attr {
    key: "index_type"
    value {
      type: DT_INT32
    }
  }
}
node {
  name: "bidirectional_rnn/fw/fw/MultiRNNCellZeroState/BasicLSTMCellZeroState_1/ExpandDims/dim"
  op: "Const"
  attr {
    key: "dtype"
    value {
      type: DT_INT32
    }
  }
  attr {
    key: "value"
    value {
      tensor {
        dtype: DT_INT32
        tensor_shape {
        }
        int_val: 0
      }
    }
  }
}
node {
  name: "bidirectional_rnn/fw/fw/MultiRNNCellZeroState/BasicLSTMCellZeroState_1/ExpandDims"
  op: "ExpandDims"
  input: "bidirectional_rnn/fw/fw/strided_slice"
  input: "bidirectional_rnn/fw/fw/MultiRNNCellZeroState/BasicLSTMCellZeroState_1/ExpandDims/dim"
  attr {
    key: "T"
    value {
      type: DT_INT32
    }
  }
  attr {
    key: "Tdim"
    value {
      type: DT_INT32
    }
  }
}
node {
  name: "bidirectional_rnn/fw/fw/MultiRNNCellZeroState/BasicLSTMCellZeroState_1/Const"
  op: "Const"
  attr {
    key: "dtype"
    value {
      type: DT_INT32
    }
  }
  attr {
    key: "value"
    value {
      tensor {
        dtype: DT_INT32
        tensor_shape {
          dim {
            size: 1
          }
        }
        int_val: 32
      }
    }
  }
}
node {
  name: "bidirectional_rnn/fw/fw/MultiRNNCellZeroState/BasicLSTMCellZeroState_1/concat/axis"
  op: "Const"
  attr {
    key: "dtype"
    value {
      type: DT_INT32
    }
  }
  attr {
    key: "value"
    value {
      tensor {
        dtype: DT_INT32
        tensor_shape {
        }
        int_val: 0
      }
    }
  }
}
node {
  name: "bidirectional_rnn/fw/fw/MultiRNNCellZeroState/BasicLSTMCellZeroState_1/concat"
  op: "ConcatV2"
  input: "bidirectional_rnn/fw/fw/MultiRNNCellZeroState/BasicLSTMCellZeroState_1/ExpandDims"
  input: "bidirectional_rnn/fw/fw/MultiRNNCellZeroState/BasicLSTMCellZeroState_1/Const"
  input: "bidirectional_rnn/fw/fw/MultiRNNCellZeroState/BasicLSTMCellZeroState_1/concat/axis"
  attr {
    key: "N"
    value {
      i: 2
    }
  }
  attr {
    key: "T"
    value {
      type: DT_INT32
    }
  }
  attr {
    key: "Tidx"
    value {
      type: DT_INT32
    }
  }
}
node {
  name: "bidirectional_rnn/fw/fw/MultiRNNCellZeroState/BasicLSTMCellZeroState_1/zeros/Const"
  op: "Const"
  attr {
    key: "dtype"
    value {
      type: DT_FLOAT
    }
  }
  attr {
    key: "value"
    value {
      tensor {
        dtype: DT_FLOAT
        tensor_shape {
        }
        float_val: 0.0
      }
    }
  }
}
node {
  name: "bidirectional_rnn/fw/fw/MultiRNNCellZeroState/BasicLSTMCellZeroState_1/zeros"
  op: "Fill"
  input: "bidirectional_rnn/fw/fw/MultiRNNCellZeroState/BasicLSTMCellZeroState_1/concat"
  input: "bidirectional_rnn/fw/fw/MultiRNNCellZeroState/BasicLSTMCellZeroState_1/zeros/Const"
  attr {
    key: "T"
    value {
      type: DT_FLOAT
    }
  }
  attr {
    key: "index_type"
    value {
      type: DT_INT32
    }
  }
}
node {
  name: "bidirectional_rnn/fw/fw/MultiRNNCellZeroState/BasicLSTMCellZeroState_1/ExpandDims_2/dim"
  op: "Const"
  attr {
    key: "dtype"
    value {
      type: DT_INT32
    }
  }
  attr {
    key: "value"
    value {
      tensor {
        dtype: DT_INT32
        tensor_shape {
        }
        int_val: 0
      }
    }
  }
}
node {
  name: "bidirectional_rnn/fw/fw/MultiRNNCellZeroState/BasicLSTMCellZeroState_1/ExpandDims_2"
  op: "ExpandDims"
  input: "bidirectional_rnn/fw/fw/strided_slice"
  input: "bidirectional_rnn/fw/fw/MultiRNNCellZeroState/BasicLSTMCellZeroState_1/ExpandDims_2/dim"
  attr {
    key: "T"
    value {
      type: DT_INT32
    }
  }
  attr {
    key: "Tdim"
    value {
      type: DT_INT32
    }
  }
}
node {
  name: "bidirectional_rnn/fw/fw/MultiRNNCellZeroState/BasicLSTMCellZeroState_1/Const_2"
  op: "Const"
  attr {
    key: "dtype"
    value {
      type: DT_INT32
    }
  }
  attr {
    key: "value"
    value {
      tensor {
        dtype: DT_INT32
        tensor_shape {
          dim {
            size: 1
          }
        }
        int_val: 32
      }
    }
  }
}
node {
  name: "bidirectional_rnn/fw/fw/MultiRNNCellZeroState/BasicLSTMCellZeroState_1/concat_1/axis"
  op: "Const"
  attr {
    key: "dtype"
    value {
      type: DT_INT32
    }
  }
  attr {
    key: "value"
    value {
      tensor {
        dtype: DT_INT32
        tensor_shape {
        }
        int_val: 0
      }
    }
  }
}
node {
  name: "bidirectional_rnn/fw/fw/MultiRNNCellZeroState/BasicLSTMCellZeroState_1/concat_1"
  op: "ConcatV2"
  input: "bidirectional_rnn/fw/fw/MultiRNNCellZeroState/BasicLSTMCellZeroState_1/ExpandDims_2"
  input: "bidirectional_rnn/fw/fw/MultiRNNCellZeroState/BasicLSTMCellZeroState_1/Const_2"
  input: "bidirectional_rnn/fw/fw/MultiRNNCellZeroState/BasicLSTMCellZeroState_1/concat_1/axis"
  attr {
    key: "N"
    value {
      i: 2
    }
  }
  attr {
    key: "T"
    value {
      type: DT_INT32
    }
  }
  attr {
    key: "Tidx"
    value {
      type: DT_INT32
    }
  }
}
node {
  name: "bidirectional_rnn/fw/fw/MultiRNNCellZeroState/BasicLSTMCellZeroState_1/zeros_1/Const"
  op: "Const"
  attr {
    key: "dtype"
    value {
      type: DT_FLOAT
    }
  }
  attr {
    key: "value"
    value {
      tensor {
        dtype: DT_FLOAT
        tensor_shape {
        }
        float_val: 0.0
      }
    }
  }
}
node {
  name: "bidirectional_rnn/fw/fw/MultiRNNCellZeroState/BasicLSTMCellZeroState_1/zeros_1"
  op: "Fill"
  input: "bidirectional_rnn/fw/fw/MultiRNNCellZeroState/BasicLSTMCellZeroState_1/concat_1"
  input: "bidirectional_rnn/fw/fw/MultiRNNCellZeroState/BasicLSTMCellZeroState_1/zeros_1/Const"
  attr {
    key: "T"
    value {
      type: DT_FLOAT
    }
  }
  attr {
    key: "index_type"
    value {
      type: DT_INT32
    }
  }
}
node {
  name: "bidirectional_rnn/fw/multi_rnn_cell/cell_0/basic_lstm_cell/kernel"
  op: "Const"
  attr {
    key: "dtype"
    value {
      type: DT_FLOAT
    }
  }
  attr {
    key: "value"
    value {
      tensor {
        dtype: DT_FLOAT
        tensor_shape {
          dim {
            size: 64
          }
          dim {
            size: 128
          }
        }
        tensor_content: "\355jY\275\027lE\275\022\235\246=\215\221\237=\216\230\331\275E<\332=\350YR\2756T\211\274\034\250\261\275A+z=\330{H\275\016<\377\2758U\304<\263\314\375\274\350\322?\274~\032\251\275\314\3239=\303\026\250\274\355[f;\353\357\233\272f@\202\275)\314\334\273PN\037=p\013\365\275\201\217*\275j`[\275%\0346>\'\016\234=\t\256\301=\376!\215\275\261\360\201=1\\f\274N\317\030>\375\360$<\233\202\301=\000\347\027=\322\266)\276.\272\024\275d\t\366\275\361J\002\276h/\220\275\3701\264=\277\000;\276\303r\007\276\342f-\276\221\"w=\340\242\023>y\016\200\274\336\365\335\275\005G\243=\260^\256<\253\r\371=!W\035=X\004\235=~o\353\275\274\226\024>\271<\357<\022\254\261=\032#\211=\304t\272\274\3544)\276\247\001~\275\323\362\023>\205%\206\274\312Di=\333\306\241\275\266\373\005\276i\315\351\275\025TW\275I\rP>\006\203k\275\325:\"\276.c\265\2759<\216\275C?\'>\333\270\244<\3259\242\274\323\260\375\274\004^\272\275\314\315\020>\337\030A\275Q\221\022\274\344\253\"=\216\341\365\275c\304F>\005t\272\275\352\304\347<\257\020\202\272\320\"N\275=a&>4\247\032>\256\221\014=\303NJ=\240\337r=\361\321\200\275\331H\317=h@\257=\020N\264;D\231.=)\220\241\275-\214\013\276=\216(<\351\252\330\275.\315^=\240Q\000>\362P\255=\227\265\314=\3457\344=T\357\201\273\035(\345\275\035o?>\177U\360=\343\033,\276\202S\003>\370\376\217=8\366 \276b\270\310=\3511\374\275AC\030\276/l\350<\262\346*=\324&\016>h\367\010>%T\326=V\355\n\276AM\205\275\236\036\237\275Ee\303=\0253U\275X\030\273=(\347\220=Y\306\236<\306\311\306=\032\216\275\273\227\2652<\254p-\276O\276\020=\3134\326\2746\016\271=\026Q\337\275\370sL=j\226\262\274\017]\230\275\374V)>\000\003`</.\300\274\206\272\245=/\357\223<o:\351\274\017>%\275i\216]\274,K\261=\021=\231=F\230M=x98\275\321z\024\275\271\204\354\274 \216\036\2747\033\265<\340\036\010=$H#\2754/]=`\306V\275{Q\245\275t\nc\275\300r\352<\261t\266\274\340\003|<]\3728>\371\2762=\235\024[<\210\346\357=\334\351\277<L\024\213\274#\004b=\262\327$;\306\314\271;\004\375\207\275\270\002\317=d\326\342=\271\225\r\275#\326k\2752S1\274\276\362\255=#@/\276\320\213\004>\010P\243={\221%\275\215Ya\275\336ck=\35377;\177V\324\273\004\271\322\2733Z=\275\216\n\325\275\316\366\232=:\227\340\275\227\360\202=R\335\352\275\232\321g=\000\006\353<A\240\006\275\2011\031=\344p\216\275\336\374\336;\372y\304\274Ej\016<SY\247\274\376X\300\275\003\257\252\274\226\\\262\275*\177\317=\344$u=~\017|\275\'\360\231<\357Mz=\312\246\302<\331\300\260<uk;\275\322 \320\275d\330\302\275j\361\311\273\203\212m=j\264\237=7\\\246=f\350\246=\224u\332<\354w\323\2754dY;+\362h\275MT\t\276D\335\200=[U\207=?\327\362\273d\312+=#S\004\276\320\341z=\373}\270\275\337Y\325\274\213t\272=\341\2110\275\275\035e=\202\031\227\274],{<\264Z\207=b\257n\274\027Z\316=r\020\023>\272\306\234\275\345\225\252=\240\254\033=\335G\031\275\030\355\001\275\250\315\330<D\264\004>\357M0=\242;{;\211f\225\275(\006\244\275Ed\312\274m\235#\276\255\337z=M\',\275\035\004\325\274\366(\032\276\327\350\367=H\345l>*\232\240\275\315\230\326=M\301\351\2741-h\276\212\002i<*\010\266=X\205\001\273j\357S\2753\032J<\313H@\276\201\005\224\274\272_\217<Zm.>\"\367\256=);\037>\377L\352={)\n\276\226\367\211=\260\213\212\275\240\272\367=\256\336\022=G4q<\374\341\346=\277\226\351\274\003\336&\274\202\212\037\276\326\321\271\275,.J=z\212\031>W\326\243=\000\034\231<\'G\031\276C\201+\273\377\343\001\273\273C+\275\373\2768\276\332\035h=\260S\314=(\245\346=\033Nu\275w\037\213<\2278\243={Z\217\275\347\374\216\274\003\263\251=\206Y\227\2756\202\341=\204+T=\260\021$\2753<u\275;5\002>\032\232\313=\261x\357\273\254\n\n\275pK\376=fT5\276\375;\366\275\020\200\242\275\310\370\220=\333\205\016\275C>A=_\266\252<\235\250U\275\005\301\201\274xa\323=\260%n\275\177V~\2740\233\371\275W\204\003>\271\016\022\276\3163Q<m\tM\275a\301\221\275\202\353\365\275_\274\221\275`\342C\2724\036$>\013\031h\275\036\340\336=\317]e<\364\352R=5]l\274#\034\232=\031\365\032\275\030\331\222=\326\257_\275\260[\214<\214D\251={j\266\274\3441_<!J9<Q<.\275\224*S\275\342\232\200\275\365\227\323<~\247l>D}\020>\021\370\034<\276x]=\031\212\031\276h+\376=\\\334\032\276$:\013>\276\271\030\274}.\274\275\235\264\377=\031\215Y\275\006\031 \276\272\237+>r\365\001\276m,\373\275\"\253\007>d\225\000>\037\221\313\273\327\233\226\274\352\034)>\215p\277=\335\350\355=2b\266=\3462:\276.C\032\274\374\021\252\273@2\025=\365\216X\275wu\225<X\032\202=\016\356\t>\315\312\306=\352\005%\274\371u\227=\363*\335\274\315f\224\274\260\370\r=V\220\352<\005\337\034\274\215\021U=!\326\032\275s\332\375<\221\n\352\273v\275#\274\316\324\315\275;\267>\274\313\276\035\274\241cA=`*\032\275\000A\304\274\242\235\227\2738V\304\273\224\2436<\276\206\360\275\367\217!>Q\256\374\275\336\276\275\275\"\272p\276\264\347\216=@\252\216\275\326&:=\270\2141>S\371z=\213n\200=\027\316\274\274\255@0>\276\364)\273gw\034=\230\265\223<\356\013\366=\360rh=\010\014\325\275\014:$\276\020Qv=\010\263\330=\203\371\203\274\322<\035>\215\346\212=W\377\017\274\267\251o=\327\363\301\275\374\212 >\323\353\302<B\000@\275\365\376\357\275%\373\274=\232\366\321=):$\276.\255\024\275G[\200=}\232m\275}\213\254\274Y\235 >\200\311\357=\364\216\025=n\002.>;\304\030>j\266(\275\245\244\365\274?\303\366=\225\321$>\223h\207\275\343\326\226\273\313`\307\274\276\302O<\221\267\234\275\305\205G<\312g\334\274\'\037f\275{T\366<|\275\236<s\022\253\274\206\205n=\270\340\320\275\221\003\223\275^\004\t\276_\261*=\t\345\035>\307\346\001>\3117\343\274\371\247\302=N\030^\274\006zy\270\364}\333<\016i\326;9\3503>\201\364\237=\255\"\353<tI\231<\327\307\273=\243\214\201\275\264|\000>1g\353\275\267\336\245;\244\334%=\020\255\006\275\251\317\350\275|aS\275\200\362\\<f\333\013>\324cV<\215\026\007\276\240\256\202\275\312F\031=6A\311=\242E&\275:\242V\275Ex\341<\310\033\006<\007\317\205<h\265-=\2561\331\275\356\340\203<\360Y\353\275\tU\355<@\241\364\275\355\177B>\256\014\362\275\361\317\031=\245]\230\274L\256\302=04i<\270\374\212\274\303\321\017\276\356nA\274l\177\222\275,\323\272\274$!\262\275f\213\002=0D\032\276\',q\275VW\251<\337\000O=c\312\207=\033\035\\<c\304\003=\314.\215\275\010\330\005=\274\327\226\274:nh<=\372\315\274\304\031i\275\272\000\275\275Or\312\275\263\335\350\275\351\301\333\275qe\363=?\215\264\275C\361\362\275\256b\213=#V\020\275\030H\337=\324cL<\2754R=9\177W\274\301\014s\2758\244\205\275\006\350.>\234\002\317\274\224HZ<\331\347\005>2\357\332\275\3358u\274T\331\203=\021O.\276\'\226p<\014\"\005\275F4\361=\340\027\325=\372k\257\275\317\352\370;\347\350q\275`\306\253=/5\343\275e\035\366\274\245\356\235=\335@]\274]\326\206\274n\325\201>^\177S\275\322yV\275h\3310\274\303\001\204=,\256\235;\204<&>\017\330\204=[!\246\274\"\rv\275\355D\001>\222\262\262=c\356\226\274$Q\025\275\262\266\315=&\246\030\276>\302B\275\362j&\275\002a\006\275\254\201&=\250]\252\2751\202&=~\276e=\341\375\324\274-\355\216\275\306Q\227\274~\352i\275\014\274\234\275\311\'i=\007\341\241=\315\245\334\275+\334\333=<1\\>\007_o\275\204}\250\274`\372\226=w\373\200<\013\336\372<\226\356B<\013\263C= \253b\275\036\233\325\275\316|\347\275\341\275\223\275\361\323.<\"\007\231=\034\306\036\275\367\212c\274?\3077\275\3552D\275\224\311\304=\3409\252=\023\374\323\275\242\274\010>;\263\275<|U\t>\264\027f;\201+\215=\344Ao\275\274\3256\275\004\3379\275\300k\371\275y\177\203\275n\026\270=\276EU=\364\377|\275p\'M\275\217\360\000\275\262\233\245<\322\002\262\275\322X\220=b>\215<1p\201\274\312\276\277\275>d3=\216\221\220\274\3567%\275\224Qz8At\t;y?\311\275;\037_\274\002V/<\305R\236=\026\357l=\236\006\325\274\244\034S\274\243\022\371\275_{&<\022q%<\307\222\034=\0340\024\274\227\246U=\"\035#=\241$+<\300\240\376\274\313\005\302\275%fh\276\347$\'<\344\236\335<\276\3237>\'\302\325<djq==Pk>\223&\320\275yW\210\274H\213\010>\361.\204=\224+\250\274\223\177\232:\3745\236\275\3149\220\275m5?\276\027\335\252=+\361\036=-\305\352\275\355\307\252\274{\251\010\276[\332\\=\016\347p\276\035v\330\2755&\222\275\333\247\033>\220\210t=:\n\325<\320\361\206\275\245\225\350\273p.\232\275\277t\036>w\357\347<\247v\207\274\3368S<J\213\232\275\200\257\272\274\317P\203=\274\332z=7\006\030=\373l\240\274\337_2\276s\312,>0\257\020=\356d\035\275\212\353\262\275[\243\233\274\352\340\243\274\333/\311\274\210\215\026<}\nK=X\222y=\360\"\377;Tp\345=\321\037\021\276\317\304\234<P\222\\:\332\250+\275\253\346R\275}->=\343;\222\273k\375z=f\000\t\276\275\026 >b\325\025>\342+\277<3\352&=\212\216;\274(8\214=q\314\'=\013\267\035\275\233U\227\273\027\303\330\275?\003\017=\357\255\241\275\346\0307\275OS\351\275\364C\273\275\314\365\227\275\326g\353=4s1\274\345R\206;\021\351\344\275O3.<&B\237<\244ZC<\226\303\202=\342Z\215=\272\320Q\275\005\356\340=P\353d\274~\177g=<l\206\272\356y\255\275\241\004\343\272.\353\220\274\213\034!;\007\211\013\273M\210\306=\026\346\002\275\031F`\273I\";;\276\316\031=\307A\227\273Y\337\206\272\202\254\206\275\343\361\205\273\227\207\356\273\234\':\273\002\364[\273\205w\030<\246\036\370\274\213\00439\311\335E\270\025$\027<v\177\206<\226w\225\274\235\202\370\2748\220\242<\267\2770;\024\032\035\273u\177\004\274\022y\352\273\0079\227=\321\336\000\275\236\016\231=y\212\370;\311\247\007\274\356+\'\276V\226\273\270\302\275g\276\346O\376\275\307::\275\342\371D\275\254\202P>\222\365\020\274\320\022\232\272LAT\275%?\006=z\"^;\242%\272\273\030\313\210=\216\346.=Vs\317\274\253\275\264\273\322\322\005=\3120\261;\233\302\301=\301oP\275\240&\203\274r\230\355=\020\n \275\205\370!\275\006\334C\275\353]!\274S\322\341\274\240\255\2308\250\332\303<E\265\000\273\203\324]\273\326g\016=\277d\2669(K\217\275p\000\210\273\351\275V\273:\320\355:;iv<\230\257(<\370\225\345\271\246\340\037<o\231\225;\223\303\276;\001\267\002\274_k\335<+\022\206<\205\001~\275Jg\021\270r\222@\274>\3505\275\263E\212<\277\005\254<\223q`\274\311\t\t=\237\327Z<\302\020\'\273\325z0\274#\200G;3f\036;(\347::2j\317;EC\275\273\217\016\336\273\321{\301<\354\250\233\273\231\001\000;N\213\2318>KV;\240\244\374:7L\321<fj\340\273KD\016\272\264f\276;B)\223\274\304\r\006;\252\320\321\273\245\331u<\243k\323<\253\252c\274\266\341N\2673\256\362\274\3719\206\273\313\340\267;y\275\323;&\346,\274\223\314\325;\272\"\210<\305T\221\2733\217\341\273\204/[;\274\305\311\275L\277V<0\033\306\275\264ud=~\363\267\275>q<=\246\005\307\275e\343W\276\364e\347=x\007\341\274\207\271\373;\331\360/>\240\200\374=\215+\243\273\254\217s=a\334\343=*\005\004\275m\323\257\274h\322{\275\3435\311=_,\002>\006l\034\273\266\264s<\234\360\276\275\033\274\275<\272\010\352\273\214\244\361\275\372\223x=\351\244\020\275^\363-=\233\204\371\274(VX\274\275\265\247\274\301q\371=\327?\220=\252TC\274\262\331\246= \013\025\276\213\332\324=\013\016\025>\360D_\276\341\270\346\275\257\310\013\276c\236\002>\243\2228=\260\316\214\274\014Y\277=2r\033>\205\017E;e\321\336<\013\253(=e\331\320;\212\207g\275\203\344(\275\255\323\354=j\250\220=\271\2063=nD\270\275/z\305\275\332\367\364\275\267\244\023=\360z\352\275W\374\021:\275(5>\241\025+=\260lo=\010\237\035>\312\036\232;-\340\311\274I\354\233\275\253\351\202\275\320\222*>\230\306 \275*z\014=\265\210D\275\357%\267\275\205\363.>r\325/\274\274Jp=x\215\344=\227\325\017\274\342\014\230\274^\244\275\275|\361@>\377\315\313=\261\347;\275\245\330\200\275\273*`\275\376\375\n>hEI=\363/\034=B\376\200\275\316\264\350<}\263^=q>.\275\260k\242=\027w\263\275\221t\\\274@\205\355=\000\255\016\2765\224\000>S\203\\=\244\0358\275]j/=\276\210!>\315\315.=\307\'4\274l*\006>I!\t>?8c\275\2567W>\201\243\332<~\267l;\314}\002\276\353\024\332<\n\334\031>\034\210k=\3248\316<\203\224K\276\370c\356\275$\244?\275\r\324\313=\366s\206\274\034\231\273=:3\201=I2\003\274\337\203\035\275q\370\342\273q\276\237\275jV`<\274\\\330=\253\337G\275\230\023\n\276\016\253\355\274T\373\213;\304\031*\276\325\314\036=3]\025\276\036\000{\274\350(=\275\223b\202<\260\327d\274&p\231<z\021\233\275\216l\030=\251\335}\273\256X\270;\n\225\010\271\315\0069\276@/\251\275\326\017\\\275\375\203y=\303\375p=\330}#=,\345%=&\360\354=o|\021>m\275d=%\346S\275#W\240=\304\223\273\274u\304\235\274F\234:\276\265\227\371=2\306\205=z2[\275\234\226\271=\303\260\356=N\025\236\275\323\233\001\276\360N\027>\257G\250=\343F\266\2755kN= \304\026\276<X\030>\232m\005\276$B\022\276oT$;\315\031c=\232\337\363\275\020\014\210=\206\355O=\337H<\276+\016\204\273P\203T\275\030\355.\276v\r\033>\265\262\316\273}~\251\275\204^\025=\031\342\006\276\257~\362\274\206\\4=\361^\026\275\343\257\217\275\252\034\206\274\003\031\363<\032\316u=\215u\353<\267*_\275\016\361\250\275\'\016\250=\026W\333\275* \002\276\030]=\2741\205W\274=\005v\274\272UD=\227Nd<y\213\276=\240h\377\275\207.\016\276\0032 \275!\310\264=\330\365\232<\021\005\361=\243\252\034=L\016\272\275\334v\320=s\230%\275o\211\205\275\270\023\336=U\233l=r\363\300<\272\340\037\276u\374\325=GH\201\275\374R\000>\255\326\022\275\323\225O=\345\370A<+\241g\275f\035\231=\363\027\362\274j\222\244\275uu\016=\313@\"\276\005\\\003=uB\371\275\3562\243\274\200\372=\274\331\246\267\274\340\254\204\275\2771m=\232\0305=\030c\002>w\014\021=\230=\267=\t\030\002>\274\247p\275\275\371\273=\036p\326\275\237 \306\275\324c.=X\";<\207{\310<S0\020\275\215?>\276\305\360\203\273\334\247\251=\356\314\253<qC\331\273$\314\026>K\362O=\216\321I<1>\364\275\305sF<[\244\372;1\'\324\272L2\244\275\277\tk=\331N\016<\2062t\274\220Z@\2732.<=^\327\316\274\335\257\362;\204\035\021<\030\371\210\274+},<\360\022\220\275e\254\325\274\202\364g\274\276JO<\236\202\302\273\333^;;I\336\300\274\001\246q=\341\020\202\275*y\373<\016\242\340=\337\333\345=\205_R=N\032\033\274`\304_\276\327i%\276\311\301\201<\333Mj\275\317\234\245\274\224\016s>{\264\251\274\r\030\035>\204=H>\250\232\035<\215\363?\275P\2630>\237\375\r>_\372J>\000\275\230;9\352|=\037y\362\275\2259q\275E\373\025>\265cv\275\327\010\305<\014\223\364=Hb\245\274~\372\213\275\260\301g\275\210\233\215\275\\\335k\275\366\037\315=\201[\255\273_\277\242=\024\016\204=iMq\274\344\201Y\271&n.=\306\331\253\274\354u\007<\262\261\267<\000:\273\274l\312\231\273\335\325+\275\240\367\276=8\357\255<\215x\250\274\363\233\212=\356\335f=;\252\302\273\206\315\254\273v\346\306\274\313v\332;\314y\237=\342\236\034;\360W\360;N)\241<\021u^\274\337a`\274*0\260\275\205W\202\275 \017\312\273\200<\341\275\261Q\021=\245G}\275\237 \351</,\"=j0\334\274\241Y\247=\356\375\307=\0062\223;i\335l:\326d\300<\300\200\254<\372/x\274\003\341a\275\251\317\\\273\354\027\277\273E\201\367\273\366\340<=D\271\264=\004\307?\2754k\243\273=\344\223\274a\356\371<\361\343\277=+\227\002=&\242B\274\200\316\311<U\370\010\274\334\3624=\230fD<n<\364\275\"23\276\215\214\024=W\207\235=\256\256\032;T+\256=\252\r%\274\303\346\324\2750\nA<r\226(>f\265\000\275E\216\020=x\321T\276$g<\275\217\342\322\274F\331\016>\216\303\030\272D\001\004\2769\224\031\274\313\243\316=?\r\323\274\271\365\305\275\216v\205\275\377\024]<\013\247\227=.\261Z\275g\2346\275Z\277z\275\344\236\017\275\214\340\246\275\350/A\275\0019A=RWF=,\225\204=C\272\272\274<\355X>\345\231g\275\223\270\311\275y\027n>>\325,\274c;\010=\320.\000>G\252\024>\304\305\210=\350\350\227=#4\024<\373>O\274\302\362\274\275U\"\341<cZ5\276\016\204\256=\030\236p\274\2022\204\275\272\364\235\2750&\362\274gI+\275_h\232\275[\2417\276\301T\010\275\322\313\214=U:\016>R\273\362\274\310\265\200=\257G\366=s\036\255=\354\364\272=\360=\227\275xX\247\275\300[\220=W\245\314=W\243\373\275T~\252\275r \340=\233\350\214=\317S\241= \365\331\275\364\360\233=f\362\031\276\311p\354\274\270\337p>\222\016\017<Nrh\275L\207\355\272+l\356<\211\205\372\275\371\315\377\273\371\025\272<I\275t=\253|\026>\360~\353=\350vh<\357/\225\275\200\311\332=u\352D\273m\217\240\275\206\033\'\274\221\256\016=\201\201\027>\007\320\023>\220vr=\263\221T\274\212\3625=A\032\222=\201{R=f|\271<\3431\372=Z \013=\270\366\243<H\331\255=\260\337\275=,e\364\275\000\306\\>\350\250\001<\306\310\337\274\377`\364=\214I\307:\336\361\264\275\\#\311=\032?\200<M\336:>)\017\003>Xo\006>\033\225\333=\027\277\002=\036\220\274\275m[\377<\033\212\204\273\275\024\221=:i\220\275a\2469;J\357\252\275\337\207\212\275?%\203<1\010\246=+B\271<\361iZ=\335\343\017=,t\022>\306\365\215=\336\002\303\275\303\177\260=\306r%=\333\t}\273\010\256!=3\366\214\275\013\350~\275\376,|\274\372\034\206\274\312\366\356=\370\353\222;\036\037\306\273\337\226\t=\372^\003\276O\\U\275\302X\204\274)\177\247\275\376\'\316\275\372\351X<\375\326\373<s\335}=\240Z:\274\311\3736\276jF\337\275\2778\027=\351\346\"\274\245j\021>p\325\312<\350\301\274\273\213\310O\276\201\316\007>\353\353\313==9\341\275<\257\274=\365uE>\001\334\253\2754\026\343<\303v\316=;\344\000>\014\272V=\262\316\024\276\237\254\373=\3277\033\276i\216\241=\t\270U\275\357\342g=\305i\240\275\273WW\276}\227\347\274\333aw\2764\244\222\275\351iK<\340\320\346\274\223\254\211\275\357\371\302<\230J\303\274\214\276|>\240\007\301<-\261\010>\223\347I\275\020\005\252=\351X\001\276\023\315\241\275\345\234\016\272\253\215i=\262\250\222\274\257uU=\375\376\367\273Xs\004>\206\300\240=n2\334\275\376~\355;Zr\245\274\241\220\310=F\215\260=\020z\224<\231\222W=\030Tf\275\245\362\'>\223\231t=\303~:=\324\277\361<W\346U<\270\370\224\274\227\205(\275hB\261=\213n\275=t\177\257\275A\256\316=-{\306;a<\n\274\004\'{\274\001\177\201=\306`\310\274f\237\371<\250\245\016\274\331\261\2259\241Wl\275E\3731=\037\361\335\275\\\343C<\016\354\226\275\267\270\234=D\332\231\274\363\235\020\276\362\022G>x\247\234\272\300D\020;\265}\030>0\303\264\275\3232\026=\276t\360=\262\254\210=\256\364\033\275\204\341\275\274f\215\303\274\020v\n>.\230\231\272qZ\257=\027\263\002\275C\352\300\275t\022\246\274\350H\033\276*\253\207<\357\355\352\274\257\026\004>u\n\201\275\027\317\320\273\206\007\220=\261\255\335=\034\234\263;\300F\312;\033\210\264\276\2452\000<K\376\313<\030\372\214\271\235\271\274;\335\345\265<\034t6\275\216\205\035\273\032z\030\273\024H\363\275-\220\231;\225\253\340\273\2239\251\274h\344\345<\262!\207<p\325x\274\214v\274\273\017\0311\275\005\007\014>\253\336\210\274\335\345L\2764\351r;\341i\200=\024\r\267\273r\236Z\273\r~:\276d\261H\276\253=v\276\306\235\372\275>;\260\275\357\002n>\346\231\307\273\010\343<\276Bpa=\254\232\277<\327\256\214\274\255ZV\276\360*&\275\357n\030>\245\256\024\275u*\275\274\350J\264\274\322\333\264\274\257\206\337\275908>*\243\353\275\322W\354\275W\313j\275\363\313\337\275\037W`>\223\026\034\276w\303\036\273\263z\215>\2362\311\274\336=\220\274\302\315\025>\316A\226\274{\n\224\276\253\351X=\030# \2752\366\016<M^\300=\213b\320=+}\261;`\217\376\275<\213\036=\024J\313<d\225#\274\257I*=\263\222\r=\217p\024\276\177\022\2028\215\303\377\274zN\024\276\037\211!;W\025]\275\364\267\305\274\307\200P=\013Y\351<A\240\341\272\341\r\241\2750\300\267\274P\251M\274\237\303\014<5\210\210=\303\r\242\275\233\365A=\210p ><\027\300\274\351\243\t\274\222\3323\275\244\377s\274\323\004b;\316<2>\276V\026=V%\265\273\017\301@\274\'G\255\275+\202f<\312\'_\274\310\235\203<U\361\274<l\211\335\274]\204<;\001\303\"\275\r\372\321\275\353\372\262=\"\000\324\275k\356\223\274\260fl=!<\331=\366\234\371;;\331\260\274*\010h\275~\254\025>S\336L:\"\037\267\275Ra\274=\216\241g\275H\221\225=_\312\330\275&\035\360=\265y\333\2756\301\363\274\005\224\002\276\276\257\274=\247\315\005>\275\200\244\274J4\313\274\263f\241=b\r\026\2768\352P\274\332\003B\275\275\356\240\275~X\213<^\307\201\275\341Co<y<\302\275\321\216\'=\336\374\r\274a\237%<~\372*>&\r\235\274\227\025+\275\2359\354;\244\355\004<\177\350\330\275\254\307\017>\031\027\235\275\230\267\001>\363\006{\275\330\t\232\275y\\3=\324\3564=\307b\365\273\0360\336\275\270V\222<+\256\206<MU:>\021,\336<X#\004>\321\357\306<\205\310\240\275\252 \364\275\373./>o\265\024\276\022\001\314;\251\022(\276\347O\272\274B\221\233=\221q\026>\327\365\367\274v]\235\275\210\201\326\275p\036\244\275mK\033\275\346/\364\275\326\314\024>\\\330\032>\221\017\007;0\366E>=)\344=\022B\001>\375\245\206=\177\244L\275\325\272\303=\371\014v\275p\341P\275Rz\013\275b:\027\275J$\n\275\206`\266\274s\220@>b\357\257\275\021\356r=M\\\213\273\032\030\336=\r\013\r\275H\200\371=\014>\302\274\332\350\203\274\256\274\027\276\256\036m>^rQ=[\237\237\275\023\366Q=\\A\252=\317\244{\275\367,\"\276^\033\370\275\356\242\\\275\021\345\022\276\344\330\254<\267\r\213\275\376u\262\275\037\277\364=8\263!\276O\342\004>\344\360\010<\215\350\275=C?\033>\207\227X\275\352\313\302=-:\000\275\222$\374<\201\010\214\275\205\337|\274\013\035\216\275\256r\267=\225\241n=\371\341\365<\346^\212\275)2;\276H\016\350\275\263[\000\276=@\003\276\221\304\335=\214\230\027<\377\031{<w\330%;f\337\001>\322;\204=\277\317K\2759%q\275 \030F\275V\333\210\275\254\321\224\273\200x\203=4\365\364<H\263\334\275=\360\032=\t\300\216<i\274!\276\271/2=*\336d=\263;^\274\246\216\203=\243]\225\275\341\224\243<8\221\363\274M\022v\275\217`\001=\nr\201<\213\276~\274,\262\370<\302%\360\275\001Lr\275\025ML\275\210\267\277=\206\2130<\3663\214=\250\214\261\274\2379t=\253\347\272\274v\352\302<\230\300\261<\016\202\305\274\016\335\222\275\007\245\362\275\370\376\013\276\324-\246\274<\340\323\275b\372\237\275\033!\331;\0148\t=>\360\212<\235\025\376\275l#J\275p\374\000>\000k$\276\372\331 =\357\226\364<\205\311\003\276^\366%>+\353\271\275\335\244t\275\252v/\275\371\003\003>\01038\276\241\273$\276\316\0222>V\312\n=\225s\207\274@s\324;\022Y\314\274\002\340\001>d\224\346\274\022\3675\275\t \006>Z+\241\275l\204x\274\025h\r>\003\325\034\275q\207d>\177\331\310\272\035\3034<]\032t=\024\370|\275A\354\345=\017\354\215\274\013\307R\274\376\352\024> \002\216=\362q\315\274\214\034\346\275\241\365\246=*\2574>\240\3421\273$\276\326<!\233\004>[\2774=$\227\336;\017\367\361<\335\2534=\311\357\272<:\266T=6I?\275\362<\372\274_Y\314\270Y\201\324\274\347g\272=&h1\275\304\303\243\274\233`^<\235\006\225<\2427\243=\221\373\276<\355\375\236=\330\370\341<\205\310\224\275\345\365f=?z(=l\240\276=\211-$\275\035^\277\275Q*\353\2753\364[\274\305\026\024>\244\356\000>\233\033\331;\320\327\233=A\316{;+P\037>c\343=>\233\307\232=A\277\354=k\347\316\2740<\331\274\3524{=\247X\237\275\264h\276\275P\223\344;J\245Q\275LU\366\274\324\314\n\274za\006>#\240\005\276\326\244\372\275\223\364\340\273K\252\332=\275\264\252\275VT\006=\353Uk=0\004\275\274!\256!>\311U\211\2754^\324\275{&\333\274\351|D\275\267O\024\275\337\227\330;\370\031\211\274\303\321\256<x,n\276e\376\203;\376\243\203=V\330\255<\240\274E\276\007\315\013=\200\315\006\275\207\220\374=\230t`;y\266\231=\330\\\334=1>C\275\311\260{\275A\233#>\0325\223\275\353\253\037\276U\026\020>\300\\\270=\264\367\003>\264V+=\"((>\007\177\332\275\221\373#\275I\242\344<\276\375\253\274t\315\200\274\337\240\255<\217=\200\273\'>\022>w\2735\276ku$\275/?\215\274\374j\231=o\207+\275\245\204)\275\233\352->\255k==\350}\257=\315\232\022>\341\367\310\275=\001\003>\327/\007>\304\302z<\034\256\313=\262\255\225\275\355\\\233=\246d\302=\2432\272=\365\tP>\324P\317=\233K\361=\366\275q\274\332\365\020\275f\037Z\275\036t\261\274}\363r=\206=\365=!\225g<cuF\275\204^\243\275\220\0135>\245?\313=\211G\350\273\'\"\225=\2174\310=\202\260R>\203\212\203\273\316\000\010>>\270\250\274U\020\205<\322\030\244=uX\231\275\031\030\246=-\277\304=\251R\230=\024\006\275=\331\225\247\274\266\255\366\275\234Sm\275!!d\274\024\237\264\275\350\207\240<\272i\264<\027\002\247=*\255b\275S\221\332=K\211\270\275]W\006\275\0033{\275\234\314k=\001\024\202=\237\341\236\275\201 \353=\273\3144>9W\353\273\232\373F=\\t\023\274\373\334\261\275\023{\321=\326\322\001>}\010\364\275\274Ux\274U\030!=\375\034\022>\252\345\262\275]k\'\273^)\327;{\251B=\177\340\314\2749 \004\276\212\211\301\274q\346\255<Z*Y>\222!\311\275\3246o\275N@?\276\223\314\257\275\013\231&\271T\317\223<\276\222\320\275\006\200\272\274\272\220\376\274\334K.<\225\336g\2741\025\237<\033\365\302\275\330\230\315;p^\026=\033\014\210\275\002\232`<\340\334)\275\001\251\317\274\261\025q=\200\220|;\254p\034<\266q\352\273\2417\'\275^\2706\276\361  \276\230\331\326<\234:q=\377$\212>\357\260\323=\032\252\226\275\205\3175\275\207S\304< 9\232=\237&\316\275\217u\303<u9\004\276\257\323\r\275\343\302\021>^d\r\273;\331\022\275}\363[==\016\330\275\270\256\336=i\237\r>\365\306\310=\254\253\372\274K\374h\275z\317\242\275\240\332\271\275!\247\221=\272\016\003\276\315\2365\275\336\254\230\275\023G\n>\323\376\365=\254{\204\275]W\204\274#\242\033>}z\010\275\231\215\210=\374\305b\274\367u==\252!!\2751O\327\275\007\270\366\274\235\340\014\276S\207\301\275\325I\231<\313r\220<,\t\225\2740M\203\275\236J5\273,\271J\273\365,\214<N\256D=\004\214n\275a;\302\273(Yd=z\364\234\274\225z\272\275\262\367\253\272\333B\257=e\347\234<\006l\215\273V\347\035=\220\022;\275\301}\217\275\000:@\275k\365\205=M\310\211=W\244\360\275\261\302\347=rg\305<\354R\214<\314\316\201\274\016r\231\275\240\264\345\273-\252z\274\234\276l=\371V\241\2732\311e;KJf\275\372P\202\274\034\243\020=de\000=U\260\375<l\342\220=j\036_\275\010t\270;\'j\370=yX\226\274W\260\005>r\227$;\202j\321=:\365\027=}\344\216=\313\200n=XB\267\274.Vh;\324\2370=\374\257\365\274\033\373\002>\257M\016\274$=\t\275\205\201n\275\023T\237\275\3266\351\274\207B\313\274R\324\250\274\0342S=\347\232-<\303[\305<\024\322\205;Si\211=E\301\357=\276\274\222<\363jH\273\236U\'=^\ny=r\037\375\275i\323b\274\317\025R\274 \325\324\273\022\354\014\275v)\t=V\261\207\275\2071\007>\215.\022;\226\341Y\274\206\356\263\271.@\310<\221V\356<\335\003\207\275J\026c>\346\000V=\365t\215\275\227\016\'\276@\004\004=\022\222C\275\tc%\271\361\200\356\272_\007\253=&\244|;{\025\332=\323\371\265\273^\221\365\274\373\220\027>\300;\036\276n\252\307\274\311%\017=\017\022P\275\013\223\030=\013v\336=$\210\212<\010\024U\276\347n\021>\202\375z\275\317s2=PS\245\275\242m\333\275xC&\276\326.\202=Vqd\274\200\037\343\274\236\r|\275\234N\326=Z\276E=\261.x:0\004\303\275\354\2408\275\376\026&\276\203\371\035> tB\275\034a\257\275\372q\325\273\345\214\351<\025}\032:\313\230\241;\000$\200\274\327\255z\274\273D\r\274_\200\216=,\274\307=\020\032p\274\306\306\216:9\337\301\274\201\202T\274A\333H\275 \274g\274\254O8\276o\230\024>5\314\240\274%H\216\274\235\311\376\274\302\321\332<#\301<\274\341\n\332\275\243\327\353\273\307/S=\321\341J\274\240c\370<1\203\250\274P\r\233=\017D\266=K\036p\274\026\253\201<\006\221\252\275\363\215\373<\233\312\376\274\247\247D=\247\003h\275\0313\024\275\2446\230\275\264}\305\274\\s\031>\002o6\274\221\347\003<\004U\205\275\331\034\022\274\214q\002\275#\251\203\275~\267\034\275\312\037-=\217\267\207\275V*v\275[\324\177\275k\236\352<?\350><\361\032\244;p\232\221\274h\332\372:\237\251.<\"\226\210\272\237\235U;\253\342_\274\035\2446\273\026V\271;V\177\330\273ap\036;|7(;\234\246\2437\317\356\340<\021\325r\273\363\333\221\273V\030\002:\323 \026\273\243u\032;\245]^;\236d\000;d\320\034;\3769q;2\355\024<\006\252\372:p\223\264\273\"\r_\273\224.x\272\"\036\t<qx\211;nl::1\033\014\276N*\323\273\005\310\316=\\\207L;\305@\250=\016ER>\177h\337\273\304YT=h\241\226\275\246\227\331<L\006\037=\255_=\274\350\233\255=Fo\327\271u\273\025>\336\352\326<\245\226\036\273R\306/=\340E\270\274\274*G\275\245>d;*H\247;\001\025$\274\335\023\223\274I\200\367=^\242\237\275\n\231<\274\022\302\010\275\372%\271\274\222$w\273#\234\231=\325{\227<\3178\006<\275<\276;\215@\267\274r\364\035;\005\274\261;4e\224\271St:;\231\323\247\274\245\275J\274\315\251\022<p\256\261\272\372\210\321\272\205\315\264<^\261\\9\363$\217<\236\230\352\272}R&\273\332r\t\2722\t\304\273\337 \024:]^)<\3072\305:\337\252Z;\355\336\210<\301\256\235;\\\356\202;V\210\214\274\0073\005\275j\337\314:\221\351><\262\277\225<\230\'\261;\350\353\031;\262\n*<\227g\002\271\000\273\200;\225T\332\273My\003\274#lD;\223\374\365:\272*\241\272\005Z/<\227\276\253:~\370x:a\370\257;\034\250\371:\262]\260;\037&\000<\247U\026\273\227d\237;\3323\363\273V\000\351<\235\226Z;\312\326\001;7\032\017;u\201\333:H@@<\257(\204<\342\273\027\272Vs\236\273\202\n\025\272a(\224<O\030\t<\360m\034<F\330\215\2752\272%=\231\217c\276\276\354n;]e\010>\261U]=+\263\327\273\235\005\016\275\2314\264=^\226~=\251\362Q\275\264\311\373=\027n\301=\364\007\002\274\'V&;@\361\207\275Q\361\210\275F\177\014\275\317+G\275e\323\220=t\247\310\275\301_\032<>b\025=C\333\267\275WC\257=\366\031\035\276\371g\203\274\363\"\240=\233\247\252<\304T\035\272\344\202\305<\211\246\364\274\275C\276\275s|\352\274\373\371>=P\316\017<\326\227\370=I\373\365=\313\177z\274:j\010\276\025\365\023\275Z\021<\275s\235\376=\2210\007\275\306\370\331=\017+\246\275\022\361\033>\213\376\260\275\225\302\320=*Z\321=x\027\243=S\327\343\2755\272 =\207\324o<\234\362*>E\343!\276RA\202<\225\257\371\274_\220I>\300\003\027>D\234\264=;\224T>\216$\272=\n\310\343=/\2676\275\325\026\t\276\2668\205=\221\323)=\250\344\246=:\375\343=\3726\005=\333\267\264\274\017(\021\275;\326\243=VZ\032=%\315^=\304\267\014\275\030(y\274c\373\277\275F\001\236=\001K\221\275}F\026\275\231\340O=\t7\200\275\342a\330=\304*\022=C\216\262\2754\227\243=N\215\003>\326az\275\354\334\352=\035\326\273\275I\262:\275\316\023?<\337\230\347\274\301\235\345\275\027\261\225\273:L\003\275&\031\255=\310|\351\274\370\226\354\274\3136\003>.j{\275\317\357\000>_v\033>\004~\366=xH\376\274\374[\371=\236\025\233=4[P\275W\200?=|`\212=r\347\312=THu\274\211\257\232=l^\375\274\276\200\257=\233\363\203=\315\315\222<<\327$\276\243\035\033\276\355\222:;\356[\257\273\2414\230=\347J8\275u\3043\274\370W\203;\307\275\315\274\325\000\023\275\2457\263\275\263\343)\276z,]\275%\312\017\275eP\023>\324\034\014\276v(\235\275\370\255\t>\306)3=\345\352\250\275\t\362\027>\232B\205=\254o\313\274/.D=\031\215&\276\375\267\263\275\306q \274\304\222\002=\264\263\350\2746\231\205\274\255\027%\274\370\352\351;\366\376Y\276\004\262\036=\230\303\027\275V\212\232\2755\034\343\275\305\250\255\275\263\261\224<\343\224\227\274\223R\220<\353<\374\274\322/\n=\311\275$\276\021-\006>\357J#\276\233+t=\273\226J\275\247\004\332\275\024\031(\275\'\314\030\275(\241\024>\331\034\256\275T\n\020>\205\303\224\275\'\017\205<\222$8;X\346\232\274|\007\027\274H#\032\276Kf\003>G\3449=\250\017O=,\330\270\275\317T\203=\340\363\016=\361Y\246\274\3243 \276n\233\037\276\265\335\273=tT\230\275\201L\231=|\344\246=>\232\334=N\224\201;\303\237\354=HZ\267\274{d\236=Q\321\343=C<\340\275D\0073>T\261\312=\225\214u\274L\n\375\274\207\331\026>\\X\275=J.\304\274\000.\226>\235\034\225\275\202\254\203\2739\016\305<Z\001\352=\243XW=\346\003o=.\224\223<\016\310\375\274no\336=\\N\034>\226\3662\275\003\326\247\274\303;\361\275aR\025\274\232\201\224=\014r\320\275\366\277\327\275h\331\246\275\237o\234=S\210\007=x\017L\275i\375\374=\357\234j=\315O\017\275\351L5>g\016W\274\017.\026>\260!\271=\352\256\'>d\323\t>\260\030%\275\0164\027=8\237\230;5\375\206=\\\325\300\275\373\365\244\275\025\354\307\275!\337\242<\374?\337\275\242\302\022\276\310\356\355=\035\301\306\274\262\325&>\264\2731>)E\322\275|\024\023=\374\237\305=\340\351\023>\262\207\264=R\271\302\275\305Fc\274\312NY>\014\031\032<\364bU=\323\225\304\274\305\323.\275\270W\212=\024;\"=\3667F\275\332\317\373=5Bo<z\321\351;\201\037\205:\\\223\020\276\312\220\355<\261\332o<\321\006\235;\221Z\246<8\241y;]\367\340<\246_\227\271\377\006\233\273\317\305\326\275+:\233\275\\g\214=\001\006\202\275R\251\250\273@\313\216<\367\002M\273\304\262\251<t\202\344<N\006\220\275I\236>\276\225\322\214>\025m\331\275!\313\207=\365B\223\275\010?\017=\276Zz\275\250<\342=\03587=\242\232\341<\242h\223\275DF\237<Ea\021\275\250\223i\276\267\234\305<$\271y;\226\021\003\274\351\244\027\275\351B\000\275X,L>1bE\275\237\026\r\275Fl\264\275EeG>(\254j=\01015>\013;\333\2754\025_\274\354\332(\275\020:\003<rk\016=\346>5\274\032\006\375\274\327\376]\274\213~\224\273\265\233\311\273\347y\007\276|\327\025\273w0v\276-\366)>\225i\027\274\364!g\273\374\271\030<\311\205\\=\362\374W\273s\205\225=\367m\344=\324-^\273vl\023;\223\205\234\274\345\316\363\274\347\r\343\275\031\354J\273\270\266{<\034\316\341<q\306K\272\351j{=\201D\004\276f\347\3509I\034\021\275\220\027\327\272Lk\335;\272\325S=\354\236\026<\024a\213\275\036\030\010\274\034B\345\274<7I\275z\210\376<\351A\225<\027\246\010\275\213r\236=\373\000\236\273\367p\003<\344\206\032\273kDl<\2347^\274\0049\351<(KW=\201\233\374\274-\036\353<\'\222\313<\036\t\023>\337=9<\223\231\252:\324\377\345=\262\310\306\274\277\022\030\275)\031\013\276#\216~<\360p\343\274\360&\307\275X\331\204<\326\355\230\273)(\004>\345\023G=\344\376\003>\221\260\346=\3413\342\275\277a\003\276ef\226<\212\331\200\275\327\r\032>(\330\013=\254\326\027\275\3758\211\275O\207\017\276\004S\230=\303\\\331\274r\216*=\\\366\022=\320\253\327\273\313\346\251\274f\013!\275\363?\277=$X\216\275\343\245\013\276\377dK<\213Q.\275c\221\243\275\003\026\243\273\340\242\264\272\276<\025\276\022\373\240\275\231\207\271\275!^_=\362\352\202=k&\252=\270\337+\274\243\226\240\275\244\350&\276P2\220\275\205\334\362=\262<\267\275\334\334\245\275\326K)=\031:R<\214\364\036\276\372\207\330=\013&\007\276\313\206\356<s\006\033=\307\301\010=\257N\026>\253\254\377<\234\n\212\274\336MB=n\266\010=\226\031\325<\310%\034\275\010[\177\274\263c\242\275\346\026\035>\366\016k=\315\036\257=\364\245@\275v\375\216\275\204\365\270\275\2003\260\275\376\323T=\351X\332\275R\324%\275\n\261\253\275g\247\216=\306\226\350\274X\026\325\275\344\223\236=\3379\336;\006\2131\275\367.8=\230\250b\274\215q\030\275\217\267\361\274DB\300\275\253\016G\274Ej\260=\001fB\273\230\271\376<\333\214\301\274\237~\314\275\257\tX\275Vo)\274\003\351\037>\2629\244\274& \207;o$\024<\350\205\233=\010\020\016>Y\336\020\275\364\345\027=\333\211\224\274(\002h=T\257\277=\034\233\003>\256\266l=\301\236\022>\005c\222=\264t\336<ei\366=\035\274\024>\316`\204=\326\310\254<C\245\346\2754\224\210=\035\372\025\276#\026\315=3\325\006>\025\205v=\264\353\024\276_\337\363\275\273c\320=\314\354\223\275\356\231\247:\264\303\003>,=~\274\203)\356=\035\036\265\275\313\314\010\275\267L\213\274 \205\336\275i\033\336=bu\235\275\242\004\202=\314\252\0212+#\2641\000\031\255\262Dq\225\260\200\371_2\202\277\327/\202f\220-\361\214\030\261]/\343\262y\007\344\261\021QX2\r\n\355\262\360$L\261\232k\250\257/D\0033\305\201\214\256\372\"\340\262\224\271H0\"5\3642\333\347A0\203\340\264/\333w\241\261%\370\2031r\355\3363\260\217O\263\264K\333\260<\200\2742\016\214\033\264\230f\031\257F\004\3631\320L\2571\004\315\342\256\3277\2312 \270\201\263\300@\271\263\375\207\200\260\333\025\327\262\273\004\354\261*\272~\260\272\265\363\261\314\232r2\371\000\204\260\237n \263U\035\210\264\254\254\2223\006U\275\260@\233d\2605\261\310\2543\231\300\262\370K3\262\300\335L\264#\240h1:\013H\262\224\363\223\261\245\352\0052.\034b2\313Kc\263\024\241}4\303\356\2643c\032\246\2630G\2202\260\251}\261\372\313\3224n\"\214\262\353\205c1\201W\\0:.B\263\014\342\2320\224\265\2563\204\351H\261\336V\025-\365\301\2073\205Q\005\263\325\254\201\260l$\2341\267\313\3754p7\253\264\002K\251\261\224X]5\272u\304\255\017z\2251;Rd2E\215@1\3326\2560\206\332g0-\300\335\260\r\207Z0\200T\204\262\370\204s3\204w\202\261%\277\2533\324i\2453\276\377\250\261\236&\\\260\243&\3453!b\2570\202\216*/|AY\262\314\300S1\n\006p\261\200jx\257\304Z\t3\352#\370/\376 \2100\250z\374\261%N\0161 !\2471#_\0352\304}\1770\025\310-\260\216D\22438_a\2614LC\262\320\312\314\261#\277$2\330\375\0372U\345\235\257V\346&1\020\233\226\260\347\027\'\2620\216A1k{\033\262cY\002\262\272V\0243@\246\005\260\277\245\247\2612\006\0022\032\365\r\262\250Z\375=U\247\267<.A\347\275\235\253<\274\247\311\266\275&\r/;X\325&\275P\213x>\'\356[<\014N\036\2759\204\356\275O\333\314=\242\035\332<hE\005<\'9B\276\256\322<\275L\005\211<3\317\031\274\275\236*\274\301\304b<C\023\322\275\244|\247;\336S\241<\355\227\355\275\343\314F=Z\020\275\275\232\351\263\274;\020\325=\357l\037=\233\275\343\274h\207\236\274\202\371\\\275\355\333\020>\267\335\247=\371}\344\275a(\270=J6;>\244f#\275\257\360K\274\315D^\276\203\261R\274\010\216\204\275\307E\030>}I\215<t\266\023\275\314\006\247\274\034\334\300\275\2263>>\020w\213=*.\250\275<L\304\274\024\253\333\275\325]g\274\350\202\351<\332\r\226=5T\273=\242\367 =\226\037\024\274\306n#\276=r\002>\030\036\346=.TN\276\246\346^\276wV\324\274*\342\226\275F\252\256;\277\314\222>/X;\274L8\227=8^\325=\220+\356\274dl8<2PT=\252t\\\275\355\370\026\274v\027\013>H\352?=\217\215\243; A \275\276\261\025\275`9\236=\010\316w\274\024\323T=M@\n=\213M\000\276\321p\247\273\242\270:\275\003\316\031\276\361`\370<\233\222\242\275\031\367\004\276f& \275\316G\"=\216o\216\274\"\010r\275\303I\353\275\027V\255<\201\027K\275L-\357=\371\326\207<\272\002\231<GwG>D\355\213\275\230:\246=\007\203\220\274\n\233\200\274\202am<\026/\366<\372\243\203=#t-\274\202\351a=\257\355J\275\301\021\213=\252Gh=\344\366\301=\227\254S=\002\001\345\274r\216)\273i\3036\276\362\306\331\275\344\343\212=\260K\340<p[V\275\320\3409=\311(\212=/(|\275\024h\356<\232r\347\275\264\266\262\275_\213)=\272\n\244\275b\371|\272\273x\331<m`\227\2749\231\274\275\273\340\211\276\276\002\305=\305\274:\274\005#B=\327\313\231;\363\224\327<\230\000\205\274\2645\326=\014\253\214=&C\273\274Z\263\"\274T\371u\2746\373W=-\341b=\204\nu=\373m\346\274\324[\267\275p\300y<\0263\225<\341O\341\274{\341s=\304n><O\272\352\274w\261%<4\313\022=\030\3331\276\024\204\271\275\366~_>/\312\222\2756\253\357=\r|C>\001\020\226=\005~z\275\212x\312;\233\241\035\276\300P\262<e%\272\275\000\271\257\275\3360\311;?\316\323\275ng\021=\304\256F\275}\317\363;\361\264\353\274\215\327\201=N\033\223>\037\\`\275\325\030\211=\031\353.\276\t\246\035=p%\240<\235\336\025\276-\375\306=\317>\377\275\241\0070=\017 (\276\020\036\335\274\200\336.\275\036\304\362\275\346\021\272\2758\270\266=\013h\2219\362*\002\276\002s\225\275\306\252\327=Ch\351=\342\365\031=,\325\313<\250\311\367\275\267\363\343=K\031\252\274\264!\027>`\364->\247\250\025\275\256\3239\274\230 \331\274\201\251\305=T\263\313=m\236\024<\370\037U\275\207\265\361=\300\377\265\274\352\007b=\356\242\361\275@?\321\274A\314O\275\354\276\262:\242kx\275\314BS=\022@\202;\203\251\002\2767A\223\274A\266\244=\213\355u\275[gZ=Wl\221\275\326\236\016>K^8>\341\217\016<$\3240=\334\342C=J&\200=\t\306\235\275\275\346\026>\317%\220\275\334t\377\274\262\375\250\275\240P\323=\0324\036>\225_\361;\274\0350=\330\'\255\275\027\'\002<\270\3055\276|::\274\231h\216\275\031U\304:\276\340\032\276\324\177\216=\207Y\200\273\322\006\276=\275\365,\276}\014\021>\330G\323\274KMl=\306\323M\274\302\220I\274W\203\216\275`\363 \276\334\331+\276\215\230k=Eb\272\273\024\321B\276sB\207<\020\277\262\274A\302\272\275.\237\233\275=\030\014\276\376\261\244\274\357v<=\024\301;\275\024\311\023\276\224A\350\275\007k\014=\017)\212=\272\207\033\275\006\334a\275OC\251\275%\325\352\274\272+\345<f]h\275\034d$\275\23407=/\311\212=\202?\004\276\363\231\006>ct\244=\267\332\252=\236\016\302\275\001h\344\275\3320\013>\253\277)>\367T\003>\351.(=\370=\247\274\314\261&\276\313\013\206\274*\265\210=e\334\237=\323E\216<\227\336\320\275\236\030#>\200\020\201\275Ee\264\275\236\364\227\275?\215Q\275\354\354\t\274\036\354\344=4q\312=\324\316\213\275\226\256\317=\256BY=q\357\016\274\213\313\315=F\034\357\274v\362\347=\251\010)\275[\345\204=a\201\320=\215\214\002\276s\001\024=\357)\324\275\030L@\275\".\261\275\251\211\350\275\367\261 >\317\260\020=T!\242=6=\257\274\224\nZ\276\320\331\205=\367\023G\275=a\026;\232O\205=?xn<H \242=\265f&<3\203\375\273L\342\206=\355\\\276\275I\351 \275\377\351\252=S\3352\275\266\250c<\370\242\323\275\377\350\337=\2676f\275\206\324(>\331\023$\276\323\277\213=\241\006\225\275\372\233;=\360\220\001<\362\313/\2757\200,>\310\304\006\275\362t\216=p\267\353<\277]\023>T\241\017\275+\033E=X \027\275\331t\355=11\024=A6\227\273\356a\232\275\016\211\200\275L\342\365=\205\254E\274\340\033\003<GWz=@\220\265\275\221\235(=9\355\357=\2213\242\274\204\337\000\276O\005\261\275\3319b\275;\013}\275m!N=q\326\346\272w\030\276=p\211A<F\"\356\275B\364L=.\354\331\275\323\273\322\275\t\316n\275z\235\224\274\201\032\202\2752:8=\311\237}=\221g\276\274]\224\337\275\200\264\345\275\253\375\211\275h\362\212\274\036\330Y\275\267<\037=\336\023\340=\211\002\205\275~\261\023\274\273\342\254\275\263O!<\262\300V=\310\245%\275\366w\000\276STJ\275\313\204F\274W\216\006>\232ia;\360\323)\275\024\234n\274xD\005>\030Z\177;)\353\357\275\331\244\301\275\202\277\016\275\202\017\353\275\256\027\002\276\002~\024\275\354\202{\275O)\237\275-\253\314<\324F\275\274\344M#\276\375\210$\276b\034\277\274\333p\232\275\213\253N\274j\331$>\367Xk;\034\037\372<n\375\r\275\020\351\004\276c\0306;\2072,=3\214\341\274}J\205\274dk\247\275\336\335\022>\243:r=S+\033\276\210\355\023>8\311\n>X\373\034\276\2367G\275Y\301@>\200o:=\204\310\025\276b\177H=\275\267\305=\216\026g\275\242W;\275A2\323\275\351j\257\275\013\262\260\274\217\024\250\275\366\243\200\271\252\313\204\275q\267\010<*T\256<\255;\034>m6\034\275X\211\036\275;\016\316;\372\326\203\275\034h\272=_U\t>\355\325-=7\"\345<\335\035\250=\307\206\250=\231\347Z\275&\330\027\275\032\327\022>\311\302\330\275\217\234O\273\354\243\327=?\243\235=\271\2336>w\375\230\275\027\321Z=6\326n\275[\236\005>\376\265\320= \004{\274\361\230*>\016Z\350\275\321@\272=\347`\305=>A|\275\r\241\233\274x(\313\275\312?\370\275\275\013\026>\373\256^\275G\364z<\3377\363<\030\250\t\276\224\036\037>}7t\274)\257)>\020\224\205=\236xD\275\254\034\'>\224\006\303\275\322\037\324\273\334\256U;\007\207\006=[\240\027;*\251\302;\314\265\264\273\221\005\313\272\010.\032=\320,\310;M\001\351;Q\303\205\274i\362W\275&\224\025\272\305K{:\2010\263\274\332m\325\272`o4\271\035\2206\273\341}\232;Q\331`9l\256\034\274\311\305\3309v\033\306:\353\372j<O`\204\2746Gu\2732\320\037\274\262u\260;\210,\023\273\346\253\301;\177@j\272X\335\255;vH\004\276\254\220\313\275\305nD\275S\262\321\274]#\261\274\234\305E>\027\264F;[{\221\275\255\217\016=ie\224\273N\275\304\275C\2012\275\270\262.=\3334f\271\241+\221\275\363H\036\274\220[\350\271\205R\310<H,(\2757Q4\273\206x =\021\335\362;z\234V<\225\007\225\275\300K\354<\361Bo=54\035>:Y\007=\245t\001\274:\323\216<zi\302\273\277\005/;\202\301\362;\001\271\004:Ws\317<\215\001\017;\177\254(\273\'\277\007<@Mx\272Mq\277\273\327\243\230<\247&\273;S\3102\275n\366\212\275\210\361\210\274\326\013J\272*@\221<\347\362\222\273\347\360\346\272\376\331\256\272\025\371\t<\363F7\273\024\267\272\274\226\371\2339\\\204b:H\372K\272f\300\225\274^\332\305\273\255\236\256\274\270z\377\274\211\256\356\271\3207\352;\346[S;\3146\017;\277\211\266:\000\376\"\272\010&\225;)\2206:\365\024\2719\336\177/<\304\354\030\273\\\227=<\334\272,<\274\232\244;\316\326\325\2721\310\321\274\253;\314\271^\017~:\014\326\036\273V\302\250;\"\366\347\272~/M<\362\237m\273hS\271;\010\027\334\273\016\373\3159\266\n\342<!\006\303\273P\255\256\273\256\010\236\274\234\031\364\273\255\3139\274\013Lm\273\321\364!<\375\262\257:\355\316\225\273\304\305\365\275`\360\275=\215\364\331=V\345m;%\236\362=n\370F=\354X\002\275^1\007=\370J(=]Y\360\274\242\344\233=\2742\002>\352]\361=\221\246\252\274v?\333\275:a\352=\305\237\332=,\021\373\273~\027\206\273\251\240==\\\264\310=\312v\312\275C\017C=.\002\030=a\027[\275$\002\304<\032\273\377=\316o\024>\2058\245=\253\271\305\275\"-\336=\244\211\246<P;,<\374\031\342=p\277t\275\212\210b=\300e\204=\027\206\364=A \004\276\236\354\243\275\0303\320\275\370L\211\274\007\020\020\276=\340\247=!\256\273=C\342\224\275w\370\242\275\010\372\200<fa&\276K\273\001\276W\316P==\337\311\274\207\300\203=9\237\027>\301\335~\275\362\"S=\036\002\034>=\311\325\275g\3732=\242\251\226=\003\236\333\275\212\323\346\274\333\te\274\337\206\017\276\'^W=\022!\276=\026\016\224=\'+\230\275\370^[=\243A\213<\3338\323\275\034\036\251=u\327f\275w\226G\275\312\332\324\275=Gr=w\'\"\275\261\375\265\274\346\374\254=\350\345\005>\017\016\330\275\022g\232;D\271\017>/]\226\274\305\251\261=9\350\212\275p\263\224=\246\234Y\275\005j\232<\327\016X\274I\022\211=\273\0104=\326m\271\275kH1\275\370\364s=\r\202\326\273\264\200\205<m?\320\275R\257\024>\316\271:\275n\265\255;\345\201\374<\2002\335\275\245\003`\274qw\n=\250\272\235\275d\233\022>%\373\003=\327\242d=;\013=\2768\273/;p\303\240=\343#\361;\361\207)\276\216\346\237\275R\376\t\276\274\251\222\275\264\326\273\274\353\250\020\276Odf=\325<E\275\315\3706=\025\002\356\273\002\222\033>\205u;\275W\323\013=\250\355\304=\342M$>FA`\275X\2166=k\203\231=\310\2130\275\204{\325\274\333\204\261=3,\315=\266{\216<[\316J>\343\361\250\275\ti\247\275\207\037\007>\3368\241<3#\311\274\300Ck>>\343\244\275\217h\253\274=.t\273%{.>8\314t\275\216\252\265=\200\355e<S\263\251=lq%\275%\343\355\275\234\221\247\275\274\034\204=^\217\245=\240\204s\275\204\300\336=\343\252\032>d\220\177<?0\255=\213_\354<0\347(>\242\r\021\276\205b\201\275p\245\332=\374\203\243=\322f\274\275\265\236\333\275\311\214\025>x0\030>^\237\357\275\274o\300=q#G<^\032\355=\373\331\260\275\260,\004>sj\"\276k\365\n=@\006L=\312/3>\266\242\031\276jF]\275\0232\032>d\001\340=\250\267\027>\270\307S<R\367;\275M\023\243=\271\372\325\274\177>\033\275c\035\337\275\377\354\021=UM\365\275px\306=\024\037\030=N\214G>\352\211\315\274\355\037\372=0=\375;+1->\222\257u\275T\342\342\275\241\023\371=@z8<\0132\237\274\312\362\212>\307\227\355=\327\215r\275\030\327\017=\277\203\344\275\203k\003\276\203^A\275}Y\201\274:\241t=\032nu=S\221)>\307\021\224=y\364\t\275\242\335$=g\327\354<\n\267\367=\260\n\246\275c\215\346=[,\016=\3532\214=\251\214\035>5\227\000\275_\023\n\276\'\307D\275\314h\305<\361\027\345=\203\351K>C\024\256<Na\232=\002\311\243\275\266\372m>\342\014\376;,\022\204>KG\364\273m\n\227\275\276\373\001\276\324\\\213=\006i\354=\363W\246\273Y\212\377\275\221\227\314=\314x\233=\330\032\007>\272\307\343\275\252\236\274:\302z\214=\332\357\331=\245\023\230=\0325\246\275\t\232\203\274\204-\007=6\337\3429!&(\276\310T\211\273\323\004\302\273\210\3264\274\366\035\026\272\333\224Q=\346\210\271\274*>\010<\303\302\200\275\303\255\020=o\264\007<Z\205\037<@=S=\177\354\007\274\233\263\247;*bf;\016Bk<0\371\002=\225\273\362\275\021g\217<\231\004c<\351\362\377\275\206L\t=\325\036Y\275\266\221F\273\327\021\034=\227\214\003<\264\365\016\274\277u\321\274\001\316U\275\211Pv=\02393=\203#\220;\317B\220<\243\3215>1Qt>\300\031\177\274\022i\030\276\036\215\001\276\307\3043=\034{?>#\027\336\275D\024\377=X\364P\274?\356\357\275^*E\275\260D\360\275\035H\001=\371\236<\276\276\016`\275\030\t`>\3044\214\275F\242?<\375B\220=t\010\'>D\300\252\273\002\350\267=P\331|=\270\335\235\275Jl\237\274*\315\214\275!\255\214=\017\336O\2752E\375<\021P\007>\241\274\247\273\177\376\233\274\321\320$\275\364\244^;\341\221\212=;\004\210=\355\245\305\274\004\357*:PPL\274\244\243=\2744\031\026<\273\230\205=q\326\177;\221\276\340:\010?\311\271K\355\300<\035\271\216=\351#\016\276[\243\025<f\007\253\274\340F\256\275h1@<\353\351\235\274\033\177\232\275\020\331\324;\240\270K;\270h\002<\002\377\020\275b\2351\275\263\256\332<\002OO=\241\0165=1\246S\275\003\340\201=\000\236\231<_\341#;\236w\332<\020\331D;\237\0239\273Z\033\303;\240\364\024=*\233\271<\236\003\312;\244T\216=\331\224\211\275oU\255;\375V\001=\373[\355;\244\374\002>\017\021\014\275\224\301\213<j%#\274L\014\223\275b\324\217\274}DY\275\336\016\225;\345\013\035=y\220,<4\240\265\274\202:Y\274\na6\275\334e\207\275y9/\273\023`<=\221\323Z<\375`\007>G\240\n<\243\253?;]\310\350=4\373+=9@\007=@0A;VK-<\334\224\246<\025%\312\274\256\300\"=\340M?=\206\214\234<I\025\370\274\263\363\025\275W\256\351;8\2144>\253q{<\345\014\324;8\004.\272\310\37539I\350\263\274\302\023\232=\314\237D=\366\"\200<\225U\374\274\271\035`<\272[\255\271\232Q\201=c\204Z=\276\216k=Q\021w;\337\\\017\275F)\250\274l:g\274\003\277\264=\2559\017=\246\301\000=tt\225=C4\255=\3128.>\010\220!;\\\323)=\026\325\340\275\361\265\262=\r?\262\274\2437%=Q2B\273\332HF>\224\264\370\273v#\324\275qu}\274)\221\023\276\306\323V;\343\313\025>\217\255\205=\304\037\301<a)#\275\365\350\272\275\035\006\241\275\035\210\354\275\307\310\265\274\337\247\206\275B\236\204<\320\322\033>c=\352=\370\354\344\273\220\241\215>k2\215<\301\372c;\347\277\\\275m\336\246\275m\033U\274\363F\342\274\267\273\335\275\233\252\201\274cZ\325\274S&#\275\312<\177\273d\223v=\355\344\034>\253=\230<h\201\241<\301xX=\025\332\021\275\231\227y\275\3274\037\275\326s\232\275\301\234\320\274\341ua\274\216\224\361<)\223\235;\256\376\357<\311QV\275\273\020\025<\000\t1={J!=\270\263\350=\201\331!\274\003%\270<\222\3250=\315\215\002\272:\315D\274\017.\300<@\266\213\273\222\r\031\275\252\271\212<A\016.\275%q\010<\311\235M\2754\350\377\274\007A\250\275\022;\311<\341Z\250;6J\210\274\2013\317=\311\352!=<\322\">D\036S=^\000\212<#\311\306\274#\270\220\275\262\313\277<\010\301~=\2123\035\275e\263\t\273K\306\001\275K\231\270;x~\274<r\341|<\337X\221\274\371\035{\275\316\024\260\273\326\350\206=sd\320\273J\335\203:z\230\326<\"3\025\274\033\303\207<\367\222#\274q\022\245;\247l4\274\027g\266\274\327\272\261;\273T\267=:\302L8o\226\016;(\237\300\274\351\030\321\273\007Z?\274\3014\332=lXN=\364w:<\215\261\353\273\250\216k<PT\230;\303\345\t\274\327\376\340\274\024\243!\276C_\260\274/A\371\274\013,\201=\335:\262<\020\317\303=b\036\264\2751\007\001=C\350\016>\354\227#\276\017\032\365\275W\220\204\274W\257\263;\263nS\275\361In\275s/y\272\365\320\260\275\371\243+\275\202\253\031>\245\313\320;\260{\202\274\021U\r>\002\314\005=\013\307@\275\t\000}<\235\256\266\275S\027S\275\236\344\242\275Q\233`\275\017h\002=\331\276|\275ST\206\275\346\336\220\274\344\\_<{>\033=\370\325\034=\237o*\274\230\245\261\274\013_\267<\205\267\226;w\003\227\274~\317\221=\321\350?=\373\024v\274<\344\236=\367\014\331<\334\257\322\274i\321z\274j\'\266\274\214\265q\274<\334\352=Rq\346\273}\007\335\2734\246\242<\222AJ=?\214\305\273WJ\377=P%\365<\304s\327\273\365\006\374\273\367\3734<LI!<@z\014=\347\354\270=\317\334\232;\257\002Q\274\333\232\006=\035\351\267=[\016\271\274I\263\035;\201\244\325<V\266\204<\315\246U;\275\036\206=\2217?=\313\222\214\274\250\362_=\226 \347\274\013\036\306\274,WO\275\314\363^\275\237l\253\275t\322\r<\313\332\255:\242\251\255;\024\010\333<P\177\206\274\032\214(\275\'U =wb\310<\262\345\001<\261V3\275\274\227\311<e\0027=\327,\r\276\2035\022\274H\021\014\276\273+\347<\213\347\355\274\343\257\304;$}\251<wF\204>\316\0162\275T\237b\274`\233\251:#5\006=\216\261\016\275\370\211\217:6\322\003>E\301\313\274\0148\324\274\310\335\375<H\344\274<\rB|\270}\354,<\320\271\305:\267\307\341\273\330O4\275\302\002\020\273\266u\357<\'\231\000<\334\241\031=\346\031\257\273\"\306k<\307\211\365\274\307\030\315<\365N\032>\035\006\224=\216\342\t>E\010\233\275\265\236\006\275\307\316u<\237\337\003\275\365\266H\276u\035T>\301\347\'>~z:\274\206\321\013=\023t\252=\375\035\221<\037\303f=L\263\314\274#\225\257\275\204@\030\275D\347\032>\023\305-\275\004d\300<\n\324\300\274\2321\023>\263=]\275m\311F\275 \016\336\272((\205\275@\2076>\034\275\344\274\206F\037<L\0227>M\023\004=\242\255\316<4\241O;\212=\223=*\377\025=&\300\262\2754\302\235\276\272\211\242;\024u\202\275\023\226G=.\235\264;\3256\201=V\2639=x\177\000\276\221\377\233;\366\342!>~>\026=\032\tw\273-\255\"=]\262\004=\330\373\242;\323\263\263\275\301\317k;d`u\274\362f\224\273\317M9\275J\tE=f>W\276\247\334\231=\004Nz\274\013\355\005<\rBh\275~\366\341<D\225!=\230\202\224\271\273YX\275\334\302 <\334\341c\274-l/\276N\267\"<:\346\215=\217h\220\274\246&\023=\311\223\025;\001_U\275\354\274Q\275DG\010=\330,X=2\'\315=n6\332\271)N\245=\003v\377<\263\365X\275\215v\377\274\363\002\n;|D\253=6\226\271=\002\355\204\275e\317\245\274\002%\306\275\306O\006=e\330\311\272\036ad=\360\331\245\275C\002\376<#\250\000=\357\\\002\2719\273\\<\370\021:\273\313E\267\274T)%\274<\360\205\274\330\221v<\3279\206\274Q\033\343\273T\270K\274h\300\362;\270\342\231;\322=\034:Y\020\025:\377;\274\273\216\342\307; \300\246\273\306\024m;\300\307\2449\272\275\311\274:\t\222\273JZ\316\270\232qk\274\n\025P<\371+\031\274nZ\023\275\0131\261\273%T^;=;\025\274\217\220%\273\013\271\034\274uD\227\275\363.\224=eEE\274\247\373\243\274\0068\302\275\221\371\376<s\\\330<q\372\224=*yA\274(\212\372\272\030\205<=\302q]=\366\200\014\2765\334\357\272\227\344\334=k\354t=\372\303~\275X1\365;\300\263\250=\017\215\314<\2537\246\275\223tw\274t\346\233\272G\r\006\2754\021Z\275E\270\373;\227\360\371<`A\253\275\2261\276\274`}\250;\242eD\275\270\006\344<\373#\371<2_\345<\300\010\016=)8\345\273`\376\034=\236\252\357;\2206\250\273\303\261\031\275+Y\350\273\n\241\363\273\335yY\274\002\251\034<\214G\242<^|\230:)@\341\274\037\223\211\274\030\"\001\274\220\262\210\273\353\333\006=\rP\263\274I\360\260\272\333T\230\273\302\001\310\272\333\273e\274*\307\006<\027\357A\274\017\355\377<z2\027\274\226\273\252;po*\274;\212\366;\336\370N\274\310%\352\273\221\027,=\320\221\006<\340|\303;\313\342\035=\343\325}<|1{\274\010l\371<\344A\330<\2024\323\273:9\364:\344\335e;`\2433<\320\326\350\273\354\232\201\274\013\206\311:f\3715\274%\361\210\273\246\r\213<#n\025\274r\303\304;\"\037\373\272$\214\374<V\367\016<\003a\250<\020\275\275;\275)\304<\031\356\326<\324\376\037\274\352\205r;\"x[7\261\024^\274\235\030\262=\325\030\333<\223\275\242<\363h\213;\371\232\006\275b\331\036\275cH\221\274y\232\352<0 ]\275\345\230\027\275\336L@=v\236i:\366)\270\274\231\335\243<\202d\207\275\2225\262\274\337^\234;\001\301\233<E\306\354\274\225\3570\275\320\004\305\2742f\020=\360u\022<\277Yc<c\257\377<|\204\000\274\365\027\3119\032\304z=Y\035~;\203>\350\272\"\021N\275\025\323\273\274B\274\017=\nT\240<\033}6\275^b\310\274Q\332\271=\264O\360<\276\374Z<2\231\026>k\310\240\275=^\351=\364\275\351\275\002\033\037>\311\376x\275\255I\241\274\357i\016>S\025\021>\303\263\357;6\304\225=S\226\267\274\206u)=/C=\275\014r\255\275\267%)\275!f\257\2750\260S>k++\2764r\357\275gP\267=\262\n\347\275CJ*= \024T=\345\0145=\004\263\274\275\312]\300\275jM\352\274\305\212R;\"F 9W3<\273@\210q<\323\021I=\202\030\356\275N\357\254\274\254\256:\273[\246\367\275\253`\354\274\363K\267<1\230\342\275\363\017\006=L\207C<\024\307\316<\365ft\275phP=\266\001r\275\305j\362<M~\000=\177\037Z\275f\001\r\275@\371\362\273\264\354\223=3\346\324\275\326\375r=\233!\365<M&W\275i\243w\274\351\360\357\273&\354a=\357\256\237\274\376B\027=\217\276\230=\277}&\276\200\336\276\273\315`\342\275\205\240\027\276h\360\014\275\206L\350\274\245\261T\275\240\241\004\275\267\346\214;x\311\246\275B\200\216=I\347\\=\312=\347\273E63;\242\2505=<\364\017=zj\247<v\3369>o\216\016\275\027~\037\274l\301\271=\345\310\340\275\236Ed\273\352\371\207<4\266\203\274&\323\335\274\027\020\353\275y@H\275:\272_<\331V\037=\310\240\350<\232\214\253<\306\005\244<!\362\267\274\306\265\217\274\310\221\314<he\313\274:EP=pB\302\274.\177\345:A\303\353\274\221}\220\276\360c\317\274Y;\205\274\372|\030=@\036e<\364$A\275QX/<\024\023\271\274\r\276\216\274k\222\021=\330\3724\275V\314j<\243\310\366=\241\030\242=q\026\330\270y5\275<Z\026\237<>u\002=.\226\007\276\006\332)\275\336\341\202;\330>(\273,]x\275\\<\304=\351\301D<;\232%>\220!\317\275\315\324C\276r\326\336\274\304|\r\276\207\313C\275\223\247\375\274\035\262\340\275\352\336\234=\343\035)=&D\017\275\016\265\226=\271l.\276\254\335.\275A<\220=\207\255d=5\316\231\275\330CW\276\230\273\210\275\002\3106\272m\266\325\275c1\222=\270\233\273<g8\014\275n\032R<N\032)\274\024\364\322;\214\354\005>A>\341<\204\354\313\275\023);=z\224\262\274\307{\031<\312X&>\274\237\307:H\3427\274W;a:si\013=\260\376\367\274)\311\024>(\271\005\275Yf\320\274\267\n\032=\320.\020\275\366\004\235\275\236}\210\275\274\3017\274\220[g\274\256E1;\302\330M\276g\322\243<A(\314=\032@\205\275\227*\375<\222ds9^\361\204<{?\211;l\201\316\273;\304\t>j\235\231<\027f\303<m\206\000>\356\301\320\275\323\242\315\274?\375\033=Z\234\004>g\201\314;\277\242\331<&\245\253=\025Xr=H\355;\275\232/\335<r\251\365<\243\347\032\274\026z\231=\253\330\235\274\351\236t\272w)\277<>y\202\274\024\332\367\274\236\333Q\275,\342Y\275\340!4\275\363\340\233\275\341j\344\274\000\373\252\274\343\314T\275\2260\344;\251\336\202\275\244\032@<\273\347L\273\324\303\265\272\254H\242:0=\274\274\276R$\273g\013l<g\322\027\275\256\352j\274\271\276f<\375\3723<\314\265m\273$7(\272\261\375\030\272a\005\326\272\327\370\336;\301-V<\243\232\021:\241\3136;=\177\246\271\234\206\006=\356x\342:\005\255\334\272\260\340\243<\372N\270;t\342\220\267V\241\2039\337\021\004;Xn\265\272!\224\t;\371C!\273S\376\2349{N\002>{e\032=D\220\227\275\224;\214=\340xv\275\r\326\222\275}\324Y\272\314\035\300\275\312\246\220=\303&!\275\304\314\335\275\313\337\237=\031\t\352=<N\215;\2468\277\275\242q\205\274\213B\210\2753fS=4s\235=]\225\024<\357\255Q=\226\342W<\023\243\340;Om\316\275I\331=<%e\253=\340\203C=\306\223\350<0\325\221\272K_H=j\350g\274q\325\202\274\247\213l\274O-\317\273\020i\263:&U\371:^r\270\2747\333.<\217#\306;jJ\234\275\n\227\214\273W\364\314\273\366!\253:Du\3319\314\006\226;\272\352\261\271w2\214\275\350\373\323\274*\213\366;\004\266s;M\353\274;#\2378<+\223k\273\242\014\306:1\023H\273\313\'\330;<ur;\274\245\322\273\031\235Z\275J\317\212;\312\353\342:V\255\241;\034\2329\273\330<:;jp\312\272\225\312;\275\006\340Y\273\212\0363<U!=\274\244\220\353\271\355c\020<Akj\273\240/\030\274\214\010\253\273&\010\367\271\373{)\275\255\275o\273R\250\356\272u\267\006\275\206\271\013<\303p\326\273A\265\353;Q\274E<@\326\204<\204\360\2438\217L\215:\346\030\033\275\212\252\010=!\023\007\274w)\277<\023T\204\273\334\344:\274\r\306\001<\337~d\274\207}R;\334\034\247;\023\271^\274\232\310\237\272e\247\372\2734wG<#*\364=\252\t\261<\207\225\335\274\372\0166>\217\277F\275vQC\275\\\366)=\264\243\356\275^ \272;6\301\227\274\t\006\332=uo\014\276dy\023\275lm\310\274\\\312\203\275\032\003\224:Kb\334=\020\000\257<e{\016<\225w>=S~O=~\313\'\272\222\021n\275\206:\r<\320\377\2529\261.\002=_\303o\273z\t~;T\241X=\252\373J\274\340I,=\276\000\262=\034\206\020\276k\035\342=\005O>;\305s;>oB6\2756h\245<X\312\310\275g\307|=\354f\267\275\033\234\227=\034y\374=\324\021=\276=\351\202\274c\344\216=E\340\365\274\033\336Z=\204\231\204\275\224\034u\275\373_\351\275\326#\265=\241\315|<\306\246\322=\211F\371\275V\327\t\276\357\210\000>c\013\026>\351\365\315;\314\255\232=\226\n\337=\000v\275=\203\242\004\276\340\366\002\275n\013\016>\324m6=\255?\'\275ai\352\274\365qq\275\203\272v\274[\270\311\274\206J,\276\277\255-=\032\242\225\274}\314\273\275\006\253\341\274\313\246\372\272\360\342+\275-\223\235;\036\302\352\275X\031N>g|\332<AG\271<\247F7<UC\235=j\320l=\245\\\316;\263k\267\275\253\233\203<\225s\302<\331\257\200\275&x\342<\016\373\022\275i\303*\275\027\207\200\275\374\371\247=\213\335\213\275*b\232\274\250\030%=.\233k\274\032\0049\275\323\206\032\275\232\304\027;\013\247\213\274\310\213\264<N\217\031=\322\003\004=\255T\237\275\314)/\275\375\266\304\275E\004/=,z\250<W\262\030=\247\326m<\332\347\351\275\3777\347\274V\320\253\275=\205\037>\234\310\007\2751qX<\202\337\340;\270\017\246<k\033[\275\344\206\303=|\313\225\275\332\343\023<\362O\313<>w\233;\\\266u=\250\355\204\272\250\360\205<\"8S>w\310\'\275\3676\013=\346^\244=\230\375\204\275H\260)\275$\346\233\273\027/,>\276\005\006\275\261%\016\274\353\262\347\272\334\227\217\273\341\031v\274&kW<\371\227\326;\253\354:\273\203\375\000>`\037\017<\270\2230=\265\036\307\274\335C\272\275\t\225<\274\027\3127\274\227\036\002\274-Q\370<^pr\275N\342\036>k.m=\311\253$\276\177\222\327\274\372\3071=V\322\332\274$,k\275\350zd>\001\370\262=*\017\030>^\346\343=\334\364\340\273\347@\351\272\340C\363<Q\340\206\275\355B,\275a\005\177\274*\256\217=\262\231\014<s}W\275\231\267\211\275\275\0334\273d\311\213\275\337\351\002\275\240\222\017\275\255PE:\366\027:\275\317\307\273\275B\241a>\037\024==I\002\327\275i\342\203<\267\271\370<$\374\365\274\000\014\231\271\312Y\235=j\245\223\275\243\000\205;f\271\025=N\310\370\275l\215\'=\300\346e=7\260\243<W\206 \276PT\026\2734=\023\276\322\020\225\274\227d\r\273\260\212\216:\316\335\253<\355:\222\275\214\232\245<\224\007\021;\235\037\242;gq\362=\301\333z\275\317:l=\327\202\214=Q\356 \275\335\025\030\274\354\250\305\274\267\020\246\275\250x;=\361~\343<j\272\227\273a\323j\274\203!5=\247\325R\275\023C\025\276\202\317\364;J(\214\274\330\202\310\275h\276B=\371\203/;)\205\024=.\255\240\275\n\033\245<\217|\r\275\'^\217=\274\204f\273\321\346\345=T;\321<W\255\206\275yM\023\274\311\355\"\273\246B\036=\257HG<\232\341\037<H_\203\2753\200\335<\365\262\\\275\242\355;\273\362K\006\275\272\346[\275\016^\235\274\032\276p\274|J:\274G\253\376<\274\301\233;\213[\374=\230\315\t=-\232\014;\006KZ=U\023\253=\010\033}=_`\320<p{\217\274\343\345\263;\244\344\225\274T{\252=\3303N\2751\'\024\275\026\315\323\274\t\317\006\274]\017\267\274\007\247\202=\336\177\243;\001\332\326;h\306R\275/\307\204\275.\306W<\351.\313<\304\014\313\275tE\347;R\231\216\2736r\327< \000\253<W\347\032>,\3435\275\316a)<\324\023F\275r\r\351\275\320W\310=\335m\245\274\334\245\013<\311\013\003\274\333\347==D=2>\265v\360=\241\271:;\032\022\216\274\005|\245=}\364\255<ssa<v\373\010\274e:\000\276\277|t\275(0\031\274\003\200|=\236\205g\2753G\242=\230\225\251=N\367s\273\200gw\274\0327\321<\243\034U\275~\244]=V\257\365=\314\004l\275|\240\211=\306\252m<\346\325\031\273\025h\013\274\000\324\006>\255^3\274\264\226\352;q\3040>\344d\272<]r\330\274\2028\177\274\306\246g;\024\246\017\275\212\371\277\274\343\010\354<\023\274N<\306\310\206\274Q\327\360\274\255\034$\275\350\026;\275\2565\002>\375\0239:\327\016\261<\216f\210=MpZ=\217\250d=\033\231\010>s\261\017\275\317\351^<\307\t\205\274\250\034\021=\034\230\023=gY\343<u\340\314\275{l\240\274\354B*\275\252L\265\274\370\376\322<\214l\'\274\351\3221<\215\300\363:\273{\030=U*\371:\005b\302\275\372\271\031\274-s\353\274\247\344\315;\037\350\213=\344\203\351\273\331\213\233=\020?\237\275^\327\216=\323?\237=\326+A:-nC=\2656f\275\270\021\004>$j =\375@\020=NG-;f7]\274*~\210<O\342\000\275\005mF\274\343\034\217\275\275\316G<\247\315\245\275c\002P;\273\030\367\274\332\350u<e\312\357;\204\341\276\275\204C8=\241K{=\255\371\233\273\374#R=\353\010\240<\232\235\373;\344\246\223\275\337\232\256;\250\360\2349e\206\265<o\035\026<\200\346^\274\367\177\316:m>O\274\215U\213\273\004\t\026\276>!V\275S\320\216;w\273\354;\264\004M=\200\226\325\273v\311\267\274$i\276;\031ub<\024\211\362=\375a\031\276t\342\021\276\257\371_\274\021\\\306<\344\320\353;x\025\222\274\037~P=\312\364\006\275\332\316\207<\260\003\017\275&\230\256\272\261|-=\261\276\221:\351d\177\275\365\r\351=\251\034\250\275aN\242\274\\\246\235\275U8\001\274sk\216=j\211\034\275\035\301\272<\374=\232=\256\"q>2n\253=\371\276\211\272\334%\237\274\325\315}\275\275_?\275{c4\276\266.\304\272\310\256~\275\206\223\3268\'\273K\275\310\223\321;B\322$\275\274\003X\273\021\200\315;\317Y\202>\272uw=%\273u=x \327<<\313\217<w\342P<\201\251H<+\314\256=\322/\206\275G\261D;<\203#=\033\177\320\274\370\353#\274-\222\227=\270^\327\273\215(\022<y\342L\276\242b\273\274r\203\r\274\305\244\215=`e\266\275[7\226:\345E\234\274\\\250o<7:\006\275B\025Q\274\240\013\265=\346\322{\274\315\021\354\273\262>\341\275\243\366\326=;\005_<\202<\327=Ew+=\341\320\026=\177Y$\274\201\0262<)\037\265<\241q\035\273\310\246\321=f_J\274o\310`\272\325\013$<\343\264\233\274\267Q\231\274k\243\247<\230r\372\273y)\000\275\320;\006\276S\211\236\275\304\325\250\275\236\317\334\274>\323\035\275h\300$\275\375\rT\273\271\324\206=\277\211f<$\324\004=\032\311\030=\234w\033=\022v\002\275\220\365\350=\320\333\214\2725\177\332\274\255\231\341\274\020$\367:L\220\273<T\037\252\274\201\n\355\272\313b\214;JY\245\274\000\364\244=\323\303\332;\0073\027\275\347N\277\274\037\222;=\230\266\202<\213\303\271=\r\215T\273g\035\"<Nh\244\275\024\202\254<$A\220\274Fg\034\273K%\371\275\337\017\363\273\215G<\275\010E\262\273i\330\204\274R\311\376=z%\225<\023\017\233\275x\370\3657wi\343=\034\217\331\275\216F\227\274\004\270\211=p\313\356\275$&\355=\2218\342\275\306_\220=\2053\377;\360\272\202\273G|m>|e\220<\250\216\312\275\217V\215<<c\'>\351\006\257\275\201a3\275\215\251\032=Tm \275\251@\215=\211\274\256=\316\211\313\27599,=\303|\n=\276\346w\275\306#c=Q\323\r\275\324M]=\306\354\214\275\314c\024\2757\374\276=*\r\017\275?\343\007>\276\024\002\275\206\003\n\275\032a#>\337\221L<\252\001\222<\236Rm<\376\253\217;3\332\217\275\365;\313\274X\324\335:hA&=\260\221\270<\001\374\346\274\306\313u=V\007\332\274Y\227\020\273\241/\312\272\304\343\213<8\362\245<\262{\312;wg\305\274\374\3532\275kq\340\275Y\357`\274\270\233\220\275IU\203<wT\243\274\215\351v=\232\005\250\275\272\007\377<\363Q(\275\202\336\276=\030\351Q\275\344v*\275\367\361\032=\023\\\250\274\272y\013<n\0134<\245\201\230\274G\326\206\274\346\376I\272\3625,\275\034\256\361\275\322\001D\274\360\323\334\273*\376j\273\024\246.=\223<\301;\242\353\020;@\254A=\252DL\275\317}\003\275`\233\\\275\364H\221;\262\224U;Z^\203\275\207\033<\275\273\r\000<\t\276\247\2748{\025\275\247,\267< \340=\276\177\325\253:\375\241\360\273\214(\341\273$\2100<\326\3468\276u\256B=\235\021\226<\341\243\350<\000$\347=\377\203\270:-E\247<\021\345>\276\004\350\307=\034\252_<[\340\260<\246\\\244=eIp<\204\304\336\274\\\205\261;9\013\206;\333\333.\276=\033\006=\000\026\335\274\007\024f=?\371\020>\335?\024\274B\177U<=d\215\274\373\315c\273\267S\222\275d\264\300<\312\254\225<\033\001\005\275\027\334\027\276\245\"h=\331\000\014\274\252,\215=O\010G\275\0174\000\276\262,\213\275\026c|\276\350\021\214=\033H\022\275\276\330\216\275\310\305\007=\364\022\333\275-g\241<\300\357\352\274f\344\265\275\376\010Y=\354$0=\207v\203=*2M>\240\204]>\267\200^<\313\216\247=\344\305\034\276k\013J>\245\017\330\275\237\270j\276x\244\215=\345\365\320\274\364\222!\275J>\276\274\215\314\017<q\017\006\276\203\322\264\274|\300\273<\353\262\277<Y\220W>\205\314\260<\377\371\304\275\355)\312;%\025+>\317\331\276<Gx\024>\242\310y=!\343K<\301S\364<\224\357\226\274\2037z=R\372|<Y\017\331;\257\222\254\274\243)U\276\256\333O\273~oc\274N\311\335\275\326\030\331\273\237\361\034\275\001\311\006<lOr=\254\027\022\275v\032\200\275xm\361=:\321\005<\271f\226\274q\334U\275\357\000>=a@9=\321\271F=\350]\033>\216Q\032=\272\021$\274\026<\204=\271\025\205=\220\253\202=\370\016\266<3&\\=\3312\316<\365\354\n\275r\3069<\226#\331=\235\301L=(\256\215;\343\322\234=\314\237\352\275\263vn\275-\345(\275\215\310\001=puI<\227\037K\273\256p\217\274\007\213L\275%\256\244\275=\275\005\274e#L\273\254\211\204:\315\314H\272\312\237S;\347%\204:\003\317\032\274\334z\345\274\034\214\315\273x\221\256;\372\022_;2\305_:S\027\260;\310\304\2149\323\002a\273\221\325\244;\331\207x\273\304\375\260\272\327\226\371\272fMq\271kZ\251<\265\037\223\272\034\300!\272/\320\203\274JF\331:\211\364l;ef=<\252\237\320:\034Z\n:\252\002\337;\031\316\337;\314{\233:\250n\234=\323<\027\275x\361\236<\273\177\200\274\030\225d\2751\022]\274\230ys\271\361}r=\240W\216=\260\340%\275w\014\356<\240{\354\275\372\307\314\275\355j\024\274\321\020\376=\007\265\225=iL\273\274m\275\025<\374G\223<\003v\334<\236m\033>\355d\311<\022\231\372\273d\246\361<\244\336Q\274]\363<\273[\201\307<\317\317\014=\'\223)=\276\372\267;\337\322\252\275Qd\256\274H\333#\274k\262\202:[v\252:dvd\272\330G\206<\007T\243<`\351\253\273\301\327\307<}^\213\273\026\362\020<m\376q<t\223\216;(7q<*\323\2059\202\303\361<\003)C<\340\271\"\273\014\371>:\332\234\225\273\tB\334;\214O\036=7\360\222\272(\263O\272\352\313\r;gC\266;\264\317\2469\212d\324<P:M;\366\263p\273\263\024\346;\341\230\231;\222\221\214:\351\220\000\274!\016\257;h+\343\272\306?\326\273\000\304\242\273\255\307I<b8\035\274x!\023<\277\353\225;X*\010;/Nc;\346\316\236\274F`%<\337\247\030\274zHp<\256\374\267\2730\366\301\273\017YK\273\217R\306\274-\306\221<\344\224`<\326\373\341\271,-\013\275\321\327\370:*^\026<E\377\341\272c\2102<k\343\2009\244\334\330:-\337\r\274\017C1<\2510;\2749\270\026=u\354-<\217\213\203\274\262\310\361\274\010RE>@\r\375;:\340e<\343K\356\275\240l%>G\213\377<Q\264\351\274\310o\260\274\203\223\261<e\261\264\274\350a\205\273\271\235\"=\234\237\367\274m\375\030\275\205u\230\275Q\031\245<\311\235\202\273gs\256<\341\306F;\030\010;\275k0\314\2754\235\361\274\341\214Y<\356\036\014\275\375\307%\273\005\354\325\273\005\3724=\372\335\030\272\347\372\030>\253\334\326\273\207.\r\276\361\263\260=\276\263\201=\246a\r>9\300>\275\2630\265\272\027\371:\276\250\332\351<\374o\007\276\346\271\362=\026\353\225>l\352\0359I\221\206>\254\334\361=\356V =LX#=tT\301\275^+\220<\256\207\'=!\377\343\274\n\272I\275\340(5\275\230\375\203\275xn\374<\253\242\177\275\276\204\263<\325\213\374=5~2>\203\030\031\276\304<n\275\237\211\316<\236\237\001=\240\232\221\275\371]\007\275$\035O>2^j<\241\356I<\003\215\002>L\021h>{\363g=\343|\215\275\367X5\276\261\375\316=\374\002\233\274\335\371.\272\371\252\375<Z\304\334;\207\306$\275\240\033\251\275\213\241z=\224\315\323<\237\216\207<\255\274\201<q\215\331=\364\351G9\030\216\351\272\260\222\251=\360Q\220\275k\263\001\275\237\260\234\274\220\030m=\230\214\201\274\246\355\227=\243\360\205=\004\206i\274\311\2673<\257o\346<\227+\203<\232\360\t=&S\211\274.\205\372=.\274\020=3\326\333;6\007`\275\251J\311<\034\366\037=\360\236\264<\374(\022\275\002\020\203\274\356\r\221<k\365\270\275\245\2766\273GV:=\344d\220<\311Q\252\275\310{\331\274|> =\330\367\323=\024$\252=9^+\274\361w\003\275t$\213\274D.\'\275\251!-\275X0\371\275\301\306\261<b\037\242\275\244.\210;(\310a=0Y\220\274\022x\250\275\3048\243\275\032\341\367\273\201\206R\275\211@\007\276\005\247R=\t\214\014\272>hc<\267\277/\276B\247D=\3073\r\274\234\024\376\2721\241\016=s\212N;\322\254\326\275]\330\320\274)9@\272\010p\035\276pb\032;F\252\311;N:0\275\260!\221\275\340Y\206;\334\341\"\275e\232:\274M\274\212\274ta/\276\326\'\325\275\027e\315=\277\365\355=\t\247\341\275\246\302\273<Vk\247<\334Gw=2\250\310=\206\277\254\275\026\265,>\2645\367<\256\257a\275AI\243;\300\263\304\275\272\0244>\202\303\342=\312\200\274\275+\272;\275|s!>\363\353\255\275\351v\344<r\211\373\274g\037J\276\203Q\t\275\202\217\005\274\316\200u=\305G\255\273.\336\226\275\201/\240\273~\014\201=\022\016\207\275\310\343b=\343\2257\275\244\215\370\274\345S\037=\205I\r\275Y\225\033\276\372\260\251\274(\034\016\276\354Zs\275o\352&\274\264\004\244<\376\002\231;\256\'m<,\373^<\034\177\302\274\017\0256\273\243\374\222\274\357L\241;\336\002\210\273\207\345\203=\347\357\365\274g$\315\273\243\354\215\2730\020)\275\225\2576<\330 \210<U[m\275I\r \272\301\354\233\274\317\2351\275\203@\023\275)Q\007\275.\237\021\274\177\352\217\2750F\031=\263\003\200=\\\023\316\2743\273{<\033\021\016\274=XE=*C\214<[)\224;\252\205\317;04\003>\013\375\037=\006\211\313\274\246*\322=~*\027\273\326aD\275,\366\261<\021\027\207\275\375 \020>\271(\265<\314\260\341\2748\017\222=\251\306\226\275\260\231\311<\3063\037\275\246\356,<i\335\313<3n\231\275ZQ\023\275R\256\'=\201\345\031\275\234\257\211;\315l\357\272\350\326\374\273\354\214\205\272u\307\234<$\034\037;\\9h\272U\241p\274:g\205<AH\000;\034l\345\274E)\027\274\026\017\220:E(\017:8\243\204;J\265M\272\364f\265\272\2157{\272\215L\024\273\356\3014\2733\340\323\273\342\020\3078\375\222\262:\027\235~\271\244\227\000\274!\214\206\273\315\243*:$r\335\273\205rW:A8\273;\206\203f\271h\010\227:\032l\342=\221c\004\275\302\304\032\275\357\310\267\274P\305o\274C\357\210=\224\351\214\272\020\250\247\275\202%\241<r\305H\275\\\231\210\274T\001*\273\033\366s=\004Q\317\271\007\n\301<|\230@\273\001\357J\274\221\312\266:\212\313b\274\372\021\242\272\274p\353\275]mi;S\207N\273\300v\025>Jw\236\274\254\207\364\273C#\363=O\230\214\275\026\265K\274\201\222\304<\026\377j\275\275\275\204\274\035\010\013\274\235\256B\273\311i4<\311R\003\273\210\342\264<\206D\023=]n \272\007,=\274S;\256;OK\000\273\262V\255\273\344\354\032<\002\356\313;$\270s\271\346-\324;G\223O\2721\177;\273\307j\366\2728S\374;\371\317g\273\032\373\235\274\262\237\002:\0341s:\345\313\367\273\024\331\023<i8\014<\027\303\303<<AB\274\225\252\363:8\001\006<\244\363\362\272\370\225\203\273\330b\204\272p\035\313;<\006\332:1\233\214\273\335:\215<\351s\302<\324\027\263\272\322\233\027\272\252\222\003<\307rl:\2014\322:|\254\006=\013\375#;\010\177\3639\030\374b\274\247\20319+V \273\360+\323;T9\206;\332P/\275xS-\273\322e\2429*\331\205:\t\344\211\273)\355\274<\217\323\271\273\351\000\350;\253\006h\271C:\202;g\371\375;\005/~;n|\364\274\272\322\237=f\nE\272[o\373<\316\366\027\273\330\315\326\274\n\346\217\274v{\374<\014\354\274<\216\341\007;}\333(\275Py\034\274\252\216\265\274/Nc\274\034:\t<Y\227\027=\2565Y\275\006\024\276\273\365@/<\261\337\002=\254\305\017=\016\220O=\243\274#<\341{\212;\036]7<r\356F<\030E\362;E\223\244\275d\360V=\0001\212\273i\221k<\353\377L\274\343k\253:\253\326!\276cB\235\275\224\355.>W\323\220=+\324[<i\244\016\276\337\222e<\305nG\275\343\226\337=X\315\340\274:\242\"\275}\326\370\275N]B\275W\324\037<\333B\357=U\227\366\272>\n\301<\311\303\r\275\355\313\245\275\236tF\275V\336z\275w|\260\275\'\r\007\274\031\322\215\270\245\366\264=\357\014\022\276,\305\264=\200\327\226<\010b!\274<\265\036=t\0326\275l\2128\275\223\251k\2747)\334\274\352\314\363\274\2518?\273uL5\275}\033\202\275\322a(=\325?\234\275\033Q\204\274\201n\016=H\323e\275[\365\307<a\237\272<ZS}<\033%\276=\375\307\277;\224\324t<\342$W< ~{\275\262\305d<\202\253\372\2744\215\276;j\256\035<\031\022\260\274\332\331\255<4\032B<|h\230<g^\206\275u\037\336<\235\222\306<\201\206?<\007j\346:\021\320\205\274\027\302I;F\374F\274\367+\017\275QR\237\274.\362\312\2756\377\213=\234\0028\275F\327\024\275\314\007\n=J\224C\274\236\324\032\275j\021\357\274\024A\016=\022\355h\275\235[)\275e\247\256\274\271\364\224=\327\031(\273>T\022>|r-\275@\360\227;\244\201\325=&w\262:\020\221\204<\035\0349=\205x\213\273\006$\243<\357+#\275\010\305c=p\020\341\274y\320\243\272&,\261:\224\302V\274\330\035U\275b\327\327;\345\374\267;\035\254#;\266\246\206\274D\343\221=/\357\311\273d\322\316\274\375\230\357<\343\232/=;\375\331;B\375\267\273)8&<\224u\023=\020\002,\275\212\027\023\273\002\214\371;Y\316\211\273\264G{=`i59\214\203\r\274\001\312r\274\330?H=\364\202\202\2701\207\004\274\0148\357<\352z\230:\336\253k\2744\316\347;-@\242;\202\223\014>T\352\230\275M\261\005>\301}\326<y\224\361\274\344-\237=\302\255\256;Ya\234<\214\205\325\275\262t\245\273\375}+>\204\216\013>;\265\002\275\233\361\200:\272\324\372\275e%\341\274\367\035\010<\266\242\036\275Z\rl\275s&4\275B\270\350=g??<\271\032\277<\330\225\372<\206\223\233=\312\330:\275\026\205\357\274\010\217V\273\213\227\004\276\240\274(=\237\333\252=\224P1;s\231O\275\021|\353\274\221uq\274h\244J;\276S\001<\030\356\002\275\346\370\312\274\255\375\020>\343vo\273\034\3623;4\262\032=\2614,\275\261\310S\275\001\"\"\274\372*L\275\240V\022=\211o\234\274\240\236\001\274\2612\206\274\027\342\310<\377\260\033=w!\017\274\2600W\274\361!&8\234\332\244<\315\240\014\275\211\263\306\274\003\r\023\275}\254\027\271\0003\323\274\254\233l<\322\346\273\273\200,\017=\345\311\277\274dq\332\272\034\3520\275\017\003(<\361R\"<N\370\212\274\304\327\212=\242\311\016\274id\236;\372\032y<\343!\277\2732\331Z</\211\252\274\356\204\203=\224\3627\275\221\206\013\274\361]A<\326P\"\275?\257\236\275i\376P\274c\273\273\273\315\217\235\275\036\230\202\274w\214\242\275Wh\262=\310@2\274~\340]<_M\r< \320\253\275\271\017\031;\304\004^=\013\317\271<\313\270\213\274gK$\275\205p\263\274\237\300\316<\250\357\205<\026\210\200\275\230\265z\274i\230\206<\221\246\332<\201\006\3408)\250\024=\361\261\232<\013\276\203\272e\025\337\275#%S=F\204?=p\246\216\274*\032\330<\214|l<\016\225T=\351p\260\274\326nL<_\362\274\275\247-H\274\307\327\222\274Z&{<C\034\324\272\005^\342;\262\355T\274p\364A<1\243\362\273\376\257\032\276S\312\356\273#0\025>\221\260\004\274\010]\020>\231\244\270;\331\331-=P\245\226\275\202\321>=\212.\275\273\317\250\337;\023\360\302=\017\000\245\275\344I\330\274\003\033)>\277\267x=\013\275\302=\341\247\001=5\230\302\275\"[\251=\263\376\034\275 \325\302={\001\202:\327\030~\275p\330\331<\036\351\007=\312\034\025>\005w\001=(\016\350\275P\351\252;>]5\276]\023v\275\327\256\352\274\320Gs\275\3228\034=\212\245\004\275\227\031\205<\003/\302<\375W\2258 \374\330=\006\022\202\274\317\353\200<\332C\353<\377\276\225=\333\225t<\023\336\352\273\242\331\013> \000\205=\022*I\274\271 \266\274\025*b\274$\323\357<\277\332\234\275|\237V\273\320\233\216<\265\211+=:\314\316<\372\303\244\2744,\222\274\323#+\275$\3554\274\265\032*\273\330\320\033=\237\313)\273\027\255\373<\032;);\307\356\323<\003\265\005=\317&\243<\365d\270=*`\274\273\350\203\261=\016;\232=\351\264:<tJ/<Lq\324<\256\300$=\264\032#\275\203\213\253<W\356\003\275\260z=;\254\232\372\274\"\031\224=\271x\266\275\370\027\255<\377\356v\274\364\342\347\275\010\201\273\275\275\374\246;5V\316\274\001\216\003=\266\t\223=\345=\221=W\327z=\021\217\260=C\213$=\246\265\202\275\266\362\030<W1d\275\234At<\240\366\013\276P0\304\273\306\307\"\274\177\014c\275\367\322\016\274\313\222\226\274\2268\227\274\377\037\220=\033\337%\274D=\r<\325\037K\276CyK=[(]<p\255?=\263\211\211;\013pG<\363\216\373\275\260\346\216;\210/\303\273J\355Q\275:\004\004<\360\2639\274\311\254V;\321\230w=3\203\037\274\010\302.\272\\\342\357\274u\177F\274~\257w\275>\242\305\274\322\r\272=\206\352\222=\231u\023\275w\212.>\3211\020:\271fc=u1_\272\226B\257\275\354\273\213\275\231\026C\276s\255\307=?V\335;\215\020@\276n\3378>D\355\270\275O\364\212\274*\212C\275\252x\035\275\352\300\245=\320\220s\275\005\362\371<\277\354x\275\230\023\333=^\017\356\275\\\367\337\275e\373\346\275X\352\013>C\254f\275\337\340\203\276O\251;\275\372a\320\275\322\026\242<\310JZ\275s?\277<\275\240\352\2751\004\303\275\005\350q\273\353XD\276JJ\016>\003\333\246<\337\232@=\214\374a=^WL\275\273\2574<\027\246\336=\321\020\354<\251\361\034\274\246Bh=\225\304\030\274\032\267\n\274\303\244\204=)S\222:\017r\237\274_\354\"\276\251UM\274\305>\250\274\215\344\234=\202\363\242<\330\036V\274*9@;p\213\264\275\rF\224\274\304\'\226\273\364\306^\275\355B\264\272S\226\000\274\351\276\353;S\'J\275\372w(\274\"I\030<h\020\312=$`5<\332\356\027\272\n\3060=\027d\033;\260\273\240<rB\300=\240\343\321<\221\007\302\274\r\030\352\274\325,\3429:\323\300=\343S\226;\335/\355\272IFJ=\212\3070<\213\246\323\275\240\310\251\275\341\220\n=\201\360\215=\334@4\275?\2005\274\024\227\177\275 \254!\275\215\253\276\272,\033\031\272\001hN<\202\036\201\271,\324\331:\324\235\376:\360QG;\351\036\213;\017\\\262;\350cp\273\213\2409;[\365+\273\214|\2369S\2009\271\374\207W<\350\302\n\272^\316Y\273@\";;gn\307\272\253$\205:D%\3548\0002\017;\177\310\033:\237\312V<\351\323X\273\217\251\221:\353\264\242\2739\017\035\272\245u\2479\260n\265\267\234m ;\303\365\267::o\204<B\353\006\275,9\372=d\364,;\227k\202=\003\n\027\276dM\202\274\313\245\316=\232uZ;\263C\022=(\333v\275\244\254\306\275E\315\253\275\212\373\277\272\037x\310\275\374\305\275\274\302\277H\275\004]\214\273\004BN=\242\007\376<\363^|=\344}\210\274UD\326\274\007\351\207\275z\001\036\275\2607\032\275\334\341\363=\220\273`\275\305\346\257<\365\325\362<\"\226\374;\221\313\263\274a\224d\273\252C\363\271\311\027\253<\334II9\301\014g;r\326l;-*\342:2\277 \274e\025\212;z\214\257\273\374\314\r\274\013\332\316\272S|?\272\340\327\355\265F\3255\275\274\272\361\272\3209S7\213t0;\225i*\273<\3656;f\301\010\274\002h%;]\035\234:\213\205\260<\214\370\236\273 \236\360:E\310\003\274$5\033<\374W!\271\364\347\2217\351q\267;\016\373\207;\231\\.\273b\316)\274E\267\351:\326&\217;\235y\003\273\342\235\3449\246]\206;\201\252\206\273\317X\\\272\353\363\374\272\351\226\235\2713\005\226<\326\354\3349\344 \376\271\037!\215\274\300\347\313;\324\373\007:\253\316\t\272Vd[\274\014\353\216;\375vy\273\n\277\350:bjm<\254\031\332;\200L\274:\2305\307<?\223-:i\301\003;5FS\273\315\225\276;\232\331\000;)\330D<N(\240=/\217\274<\034$R\274\276\354\227\273\351y\200\275\247f\027\274\346\347\324\272\327\336\203\275O1l\275\311 \260\274\254 n=\036\324\217=xC\013\272?y\223;\224\204\031\275\0105\003\275aP\010=M~\032<7\306\357;\n\\q\274\244|O=\006\240M<\'\341\323\273\236.\202=\244\"\006=\363\017\314\273ce\234<\263\3055\275\216\362\023\274\334_\226<&t>\274\0257D\273\267U\000>\331\232\322=}F\344=\320\3115<\rM\326=\236\001\013\276\nR\205\273\252\226\277<\277\277&\276\313\221e\275\215\0304=\275\241\274=NO\236=\nM\247<e\235B=\2407S=\024s\300\275\031\262+\275\370\224\237\275\357wf\275\375\000\274\275\265\354t<\315\2625=\316(\250<K\327\230\274\025\027\210<\014\302\340\2751e\266\274V\331I=\367\341f\275ee\271=\330\324\243=\036\274\2338e\226\205<\010\202\\\275\222\336Q<P\014\t=t,\354<Z\352@\274\236r_\271,\277z\274\027\303V\274\303\3056\275bg\036\275\242\317\370\274\t/\032<\261\215u<-\237\271\274\373\317\034=\211\345}<\377\272\336<5+\n=\214&\254<\326\241\'\272\251(&\274\370/\233<\301\234b\275\363\032B<\351S\301\275\222R}\275!\025\232<\010\371\300<\225p\310\274\231\013\340\274\006l\317<u\030\304<\224\230\206\274\356\275\003\275\264\377\262\275\257\353\202\275/C\261\274W\333[\274-\311\\\275T\263\371\274c*\200\272*s\363<\2737\221\274W\364\002=;>1\272\276Y\004:6\353s<\037\206|<S\336\203=s\267\226;\341qf\274\254\334.;9\201\212=\360\022\022<\213%\251\2745\204\266\275s% \275\202\006\314<\003\2665<;\251*=\206\360\035<\352\224\240\275\243\030\364< l\\;\334x\355<\325\331g\274Zl\364=E\264#=\265\374\315\273\036\223\217\275|\342\270=M\245\265=)bK<{\275\234=\022\265\263<\332\023\250\274\022\301\324\275JEF\274\270W\276;\264\275\217\274\371G\373<+\215\010==\031\222=iMa\273h2\306;\224\334\274<x\257\237\275G\2047\274\332\217\321=@,