node {
  name: "input"
  op: "Placeholder"
  attr {
    key: "dtype"
    value {
      type: DT_FLOAT
    }
  }
}
node {
  name: "transpose/perm"
  op: "Const"
  attr {
    key: "dtype"
    value {
      type: DT_INT32
    }
  }
  attr {
    key: "value"
    value {
      tensor {
        dtype: DT_INT32
        tensor_shape {
          dim {
            size: 3
          }
        }
        tensor_content: "\001\000\000\000\000\000\000\000\002\000\000\000"
      }
    }
  }
}
node {
  name: "transpose"
  op: "Transpose"
  input: "input"
  input: "transpose/perm"
  attr {
    key: "T"
    value {
      type: DT_FLOAT
    }
  }
  attr {
    key: "Tperm"
    value {
      type: DT_INT32
    }
  }
}
node {
  name: "reshape/shape"
  op: "Const"
  attr {
    key: "dtype"
    value {
      type: DT_INT32
    }
  }
  attr {
    key: "value"
    value {
      tensor {
        dtype: DT_INT32
        tensor_shape {
          dim {
            size: 2
          }
        }
        tensor_content: "\377\377\377\377\t\000\000\000"
      }
    }
  }
}
node {
  name: "reshape"
  op: "Reshape"
  input: "transpose"
  input: "reshape/shape"
  attr {
    key: "T"
    value {
      type: DT_FLOAT
    }
  }
  attr {
    key: "Tshape"
    value {
      type: DT_INT32
    }
  }
}
node {
  name: "w_in"
  op: "Const"
  attr {
    key: "dtype"
    value {
      type: DT_FLOAT
    }
  }
  attr {
    key: "value"
    value {
      tensor {
        dtype: DT_FLOAT
        tensor_shape {
          dim {
            size: 9
          }
          dim {
            size: 32
          }
        }
        tensor_content: "\n\002\262\277\272\224\t?\326\215+\277\237J\212?\315\312n\276\250j\035?\342:\004@\312#\007?\300\237\347\277\344\006R\277`\026\211\277\263\022\342\277\261\220\350>\215c\251\276\273+5\277\327\026_\277Y\026\240?v\344x=Z\364z\275-V\254\277c&\232\277\220\314\342\276\313n\301?\261\t\317\277=\004i\274\003t\213?!\326\314>\3535-\300\352\365\346\277\177i>\277T\322r?\246\370\335?\\\357\207\276^\206\214\276)\rr?\014\241P>\377:\313\277R\353\371\276~5\314>\313l\032\277Mq\270>wj\'\277K\225/?\031J\252?\342+Q?\003~0\276K\274\257\275k\200\326;\301\314l\276\350\213J\277\361\227\324?\007\202A?\211x\\\277{(\312>&:\321?\260\257\212?\227\r\'?\222\366!\300\005=v>g\204\213?\244\367\372\277HL6\277A\274(>\300r\377\275\253:\216\277\027\366f\277\262\000\273\275\224\216\032@\002\321\224\277\251\022`>\376\2551\277\364\336\361?\225\245x?\337:\031\277&Z;\300\233\214:\277\213\230\256?5\232\326?\027o\016\277\036\275l?\227=\247?1w\217?I2\240=\3007\204?\373\243\373=vB\031\277K\035V\277&\334\030?\305\217\255\277\000\267\025>\341\222!?=\326\324>\356\202\020\277\263M\232?\032`\302\277\220\036\250\277\341\027\220?Q\223\276>\243\003\203\273\277%\003\275b\272-\277\232:F>`\223\232?\230|\272\276\330\232\240?\273\247\014\300y\241\320>\035&\211\276\233\202(?\240\201\303\277\002\224\234?v\216\177\277\022}]\277\221\337\267>\336\177l\276\021\206\016\276@8\245\276P\3553\300\027\345\251?]/6=\307z\315\276\310\224C>~>\347>\030\034\323?\021\225\347\276\317_Y\275+\037>\277$\325P\277\272\255\255\276\226\032w\276j\325\004@\370T\321\277\237\0131?Z\301\306=O(\322>\220u\301\277\226\204\226?\263\023\346?\034#9?TI\t@mb\310?\365\251\303>\372y\344\276\317i\242\276rs\373\277`\273M\277X\332\n\275\327X\177\277\361\326\004@\022 \226?\032H\214?X\013\222\275\2172\336\276\225\240\260?\316\200\221\277.\330f\276H\0101\277\314Ma?\336m\270?\353~\311>\345\251\326\276ZC\n?\370V\320\277i\351\303\275\177\274\371=\033\356\231>F\203\206>!\031\001\277\005L\003?\350\317;?\250\210\232=a\005\034\277\236\276P\277:\376\373<\251\213\371\274\250Q\334;Do0\276\300\037\323?b\273\300\276x\356@\275\007\036Y?\030\370\253\276$\260\232?\235U!?\260#\267?\372q\177>\375E\007\277H\003&?]\311q\276\315\376I\277\226c-?\225@\344\2759c\365>BTl?\374\3305?E\216\211?O\243\224\277\271\340\370\277\001\345\035\277\303\330q?\217\017Z\277\251\263K>\251\016\261?\014\024\305\276\275\366\200?\262F\311\277\'\377$>r\213\376>\373\316\324\2772\276\337\276\323\035d>\330x\302=\260\246\311\277j,r?\260\036\320>\270`5?k\241)>\231h\030?\302\227\366\275\031\005\310\276\356\367\213>\343\032M>\302\rd\277\246\013\253?\'\317&\277d\021&?\332\320\003\277\234\265V\277\277\026\347\276\003\372D\277\225\214\223>\200e\252?\356\261\261\277E\247\007\300\330\344V\276\022~\217\277\037N\233?\373\223;\2768]\364\277Q\005\316\277\324z\342\276\206:B\276u\346\332\273\217;\303?\256\247\233\277B\266\254?\220ow\276\340e\020\277\\\221\375?\253\251\375?\347\343\263\276ZB\027\277\030\264\377>\177}\274\277\n@\351\276\327\326\017?\255\244\n\276\205\027/=\325\236\323\276\376\255\264?\'\267<\277\227\350\206?\265%\275?\006r\232>\006G\363?!\027\240?\204\243\312\277\241\355%\300\017p:?\273^\244?D\r\263\275x\272\356>\340\231O>\202\334\241\277\036=+?\263\326\027?N\032\246\277\221H\034?\\\322\201>B\352\352\276t\311\312>\362\'\370?\372<f>,W\215\277Me\226\277#\031\357><[\223>\377\003\022\277"
      }
    }
  }
}
node {
  name: "b_in"
  op: "Const"
  attr {
    key: "dtype"
    value {
      type: DT_FLOAT
    }
  }
  attr {
    key: "value"
    value {
      tensor {
        dtype: DT_FLOAT
        tensor_shape {
          dim {
            size: 32
          }
        }
        tensor_content: "\2078\300?\247\242\210?\276gP?\344\2113?\264\332\n@\017\255\310>\005p!?{/,@\341\322\334?\010\331\"?0\316\241\277R2\231?_\250\300?\347\220\270\276~\304\336\276[\226Y@6\224\370>\332)\212?\021X\007@\005\027O\277\324\233\246?\322\346\014?V$I\273)\212K@\364 P@\361\301\027@g\375\215?\331Q\032@\356\251R>\376T\346?\246\222\220?\257\262\261?"
      }
    }
  }
}
node {
  name: "MatMul"
  op: "MatMul"
  input: "reshape"
  input: "w_in"
  attr {
    key: "T"
    value {
      type: DT_FLOAT
    }
  }
  attr {
    key: "transpose_a"
    value {
      b: false
    }
  }
  attr {
    key: "transpose_b"
    value {
      b: false
    }
  }
}
node {
  name: "add"
  op: "Add"
  input: "MatMul"
  input: "b_in"
  attr {
    key: "T"
    value {
      type: DT_FLOAT
    }
  }
}
node {
  name: "relu"
  op: "Relu"
  input: "add"
  attr {
    key: "T"
    value {
      type: DT_FLOAT
    }
  }
}
node {
  name: "split/split_dim"
  op: "Const"
  attr {
    key: "dtype"
    value {
      type: DT_INT32
    }
  }
  attr {
    key: "value"
    value {
      tensor {
        dtype: DT_INT32
        tensor_shape {
        }
        int_val: 0
      }
    }
  }
}
node {
  name: "split"
  op: "Split"
  input: "split/split_dim"
  input: "relu"
  attr {
    key: "T"
    value {
      type: DT_FLOAT
    }
  }
  attr {
    key: "num_split"
    value {
      i: 128
    }
  }
}
node {
  name: "rnn/Shape"
  op: "Shape"
  input: "split"
  attr {
    key: "T"
    value {
      type: DT_FLOAT
    }
  }
  attr {
    key: "out_type"
    value {
      type: DT_INT32
    }
  }
}
node {
  name: "rnn/strided_slice/stack"
  op: "Const"
  attr {
    key: "dtype"
    value {
      type: DT_INT32
    }
  }
  attr {
    key: "value"
    value {
      tensor {
        dtype: DT_INT32
        tensor_shape {
          dim {
            size: 1
          }
        }
        int_val: 0
      }
    }
  }
}
node {
  name: "rnn/strided_slice/stack_1"
  op: "Const"
  attr {
    key: "dtype"
    value {
      type: DT_INT32
    }
  }
  attr {
    key: "value"
    value {
      tensor {
        dtype: DT_INT32
        tensor_shape {
          dim {
            size: 1
          }
        }
        int_val: 1
      }
    }
  }
}
node {
  name: "rnn/strided_slice/stack_2"
  op: "Const"
  attr {
    key: "dtype"
    value {
      type: DT_INT32
    }
  }
  attr {
    key: "value"
    value {
      tensor {
        dtype: DT_INT32
        tensor_shape {
          dim {
            size: 1
          }
        }
        int_val: 1
      }
    }
  }
}
node {
  name: "rnn/strided_slice"
  op: "StridedSlice"
  input: "rnn/Shape"
  input: "rnn/strided_slice/stack"
  input: "rnn/strided_slice/stack_1"
  input: "rnn/strided_slice/stack_2"
  attr {
    key: "Index"
    value {
      type: DT_INT32
    }
  }
  attr {
    key: "T"
    value {
      type: DT_INT32
    }
  }
  attr {
    key: "begin_mask"
    value {
      i: 0
    }
  }
  attr {
    key: "ellipsis_mask"
    value {
      i: 0
    }
  }
  attr {
    key: "end_mask"
    value {
      i: 0
    }
  }
  attr {
    key: "new_axis_mask"
    value {
      i: 0
    }
  }
  attr {
    key: "shrink_axis_mask"
    value {
      i: 1
    }
  }
}
node {
  name: "rnn/MultiRNNCellZeroState/BasicLSTMCellZeroState/ExpandDims/dim"
  op: "Const"
  attr {
    key: "dtype"
    value {
      type: DT_INT32
    }
  }
  attr {
    key: "value"
    value {
      tensor {
        dtype: DT_INT32
        tensor_shape {
        }
        int_val: 0
      }
    }
  }
}
node {
  name: "rnn/MultiRNNCellZeroState/BasicLSTMCellZeroState/ExpandDims"
  op: "ExpandDims"
  input: "rnn/strided_slice"
  input: "rnn/MultiRNNCellZeroState/BasicLSTMCellZeroState/ExpandDims/dim"
  attr {
    key: "T"
    value {
      type: DT_INT32
    }
  }
  attr {
    key: "Tdim"
    value {
      type: DT_INT32
    }
  }
}
node {
  name: "rnn/MultiRNNCellZeroState/BasicLSTMCellZeroState/Const"
  op: "Const"
  attr {
    key: "dtype"
    value {
      type: DT_INT32
    }
  }
  attr {
    key: "value"
    value {
      tensor {
        dtype: DT_INT32
        tensor_shape {
          dim {
            size: 1
          }
        }
        int_val: 32
      }
    }
  }
}
node {
  name: "rnn/MultiRNNCellZeroState/BasicLSTMCellZeroState/concat/axis"
  op: "Const"
  attr {
    key: "dtype"
    value {
      type: DT_INT32
    }
  }
  attr {
    key: "value"
    value {
      tensor {
        dtype: DT_INT32
        tensor_shape {
        }
        int_val: 0
      }
    }
  }
}
node {
  name: "rnn/MultiRNNCellZeroState/BasicLSTMCellZeroState/concat"
  op: "ConcatV2"
  input: "rnn/MultiRNNCellZeroState/BasicLSTMCellZeroState/ExpandDims"
  input: "rnn/MultiRNNCellZeroState/BasicLSTMCellZeroState/Const"
  input: "rnn/MultiRNNCellZeroState/BasicLSTMCellZeroState/concat/axis"
  attr {
    key: "N"
    value {
      i: 2
    }
  }
  attr {
    key: "T"
    value {
      type: DT_INT32
    }
  }
  attr {
    key: "Tidx"
    value {
      type: DT_INT32
    }
  }
}
node {
  name: "rnn/MultiRNNCellZeroState/BasicLSTMCellZeroState/zeros/Const"
  op: "Const"
  attr {
    key: "dtype"
    value {
      type: DT_FLOAT
    }
  }
  attr {
    key: "value"
    value {
      tensor {
        dtype: DT_FLOAT
        tensor_shape {
        }
        float_val: 0.0
      }
    }
  }
}
node {
  name: "rnn/MultiRNNCellZeroState/BasicLSTMCellZeroState/zeros"
  op: "Fill"
  input: "rnn/MultiRNNCellZeroState/BasicLSTMCellZeroState/concat"
  input: "rnn/MultiRNNCellZeroState/BasicLSTMCellZeroState/zeros/Const"
  attr {
    key: "T"
    value {
      type: DT_FLOAT
    }
  }
  attr {
    key: "index_type"
    value {
      type: DT_INT32
    }
  }
}
node {
  name: "rnn/MultiRNNCellZeroState/BasicLSTMCellZeroState/ExpandDims_2/dim"
  op: "Const"
  attr {
    key: "dtype"
    value {
      type: DT_INT32
    }
  }
  attr {
    key: "value"
    value {
      tensor {
        dtype: DT_INT32
        tensor_shape {
        }
        int_val: 0
      }
    }
  }
}
node {
  name: "rnn/MultiRNNCellZeroState/BasicLSTMCellZeroState/ExpandDims_2"
  op: "ExpandDims"
  input: "rnn/strided_slice"
  input: "rnn/MultiRNNCellZeroState/BasicLSTMCellZeroState/ExpandDims_2/dim"
  attr {
    key: "T"
    value {
      type: DT_INT32
    }
  }
  attr {
    key: "Tdim"
    value {
      type: DT_INT32
    }
  }
}
node {
  name: "rnn/MultiRNNCellZeroState/BasicLSTMCellZeroState/Const_2"
  op: "Const"
  attr {
    key: "dtype"
    value {
      type: DT_INT32
    }
  }
  attr {
    key: "value"
    value {
      tensor {
        dtype: DT_INT32
        tensor_shape {
          dim {
            size: 1
          }
        }
        int_val: 32
      }
    }
  }
}
node {
  name: "rnn/MultiRNNCellZeroState/BasicLSTMCellZeroState/concat_1/axis"
  op: "Const"
  attr {
    key: "dtype"
    value {
      type: DT_INT32
    }
  }
  attr {
    key: "value"
    value {
      tensor {
        dtype: DT_INT32
        tensor_shape {
        }
        int_val: 0
      }
    }
  }
}
node {
  name: "rnn/MultiRNNCellZeroState/BasicLSTMCellZeroState/concat_1"
  op: "ConcatV2"
  input: "rnn/MultiRNNCellZeroState/BasicLSTMCellZeroState/ExpandDims_2"
  input: "rnn/MultiRNNCellZeroState/BasicLSTMCellZeroState/Const_2"
  input: "rnn/MultiRNNCellZeroState/BasicLSTMCellZeroState/concat_1/axis"
  attr {
    key: "N"
    value {
      i: 2
    }
  }
  attr {
    key: "T"
    value {
      type: DT_INT32
    }
  }
  attr {
    key: "Tidx"
    value {
      type: DT_INT32
    }
  }
}
node {
  name: "rnn/MultiRNNCellZeroState/BasicLSTMCellZeroState/zeros_1/Const"
  op: "Const"
  attr {
    key: "dtype"
    value {
      type: DT_FLOAT
    }
  }
  attr {
    key: "value"
    value {
      tensor {
        dtype: DT_FLOAT
        tensor_shape {
        }
        float_val: 0.0
      }
    }
  }
}
node {
  name: "rnn/MultiRNNCellZeroState/BasicLSTMCellZeroState/zeros_1"
  op: "Fill"
  input: "rnn/MultiRNNCellZeroState/BasicLSTMCellZeroState/concat_1"
  input: "rnn/MultiRNNCellZeroState/BasicLSTMCellZeroState/zeros_1/Const"
  attr {
    key: "T"
    value {
      type: DT_FLOAT
    }
  }
  attr {
    key: "index_type"
    value {
      type: DT_INT32
    }
  }
}
node {
  name: "rnn/MultiRNNCellZeroState/BasicLSTMCellZeroState_1/ExpandDims/dim"
  op: "Const"
  attr {
    key: "dtype"
    value {
      type: DT_INT32
    }
  }
  attr {
    key: "value"
    value {
      tensor {
        dtype: DT_INT32
        tensor_shape {
        }
        int_val: 0
      }
    }
  }
}
node {
  name: "rnn/MultiRNNCellZeroState/BasicLSTMCellZeroState_1/ExpandDims"
  op: "ExpandDims"
  input: "rnn/strided_slice"
  input: "rnn/MultiRNNCellZeroState/BasicLSTMCellZeroState_1/ExpandDims/dim"
  attr {
    key: "T"
    value {
      type: DT_INT32
    }
  }
  attr {
    key: "Tdim"
    value {
      type: DT_INT32
    }
  }
}
node {
  name: "rnn/MultiRNNCellZeroState/BasicLSTMCellZeroState_1/Const"
  op: "Const"
  attr {
    key: "dtype"
    value {
      type: DT_INT32
    }
  }
  attr {
    key: "value"
    value {
      tensor {
        dtype: DT_INT32
        tensor_shape {
          dim {
            size: 1
          }
        }
        int_val: 32
      }
    }
  }
}
node {
  name: "rnn/MultiRNNCellZeroState/BasicLSTMCellZeroState_1/concat/axis"
  op: "Const"
  attr {
    key: "dtype"
    value {
      type: DT_INT32
    }
  }
  attr {
    key: "value"
    value {
      tensor {
        dtype: DT_INT32
        tensor_shape {
        }
        int_val: 0
      }
    }
  }
}
node {
  name: "rnn/MultiRNNCellZeroState/BasicLSTMCellZeroState_1/concat"
  op: "ConcatV2"
  input: "rnn/MultiRNNCellZeroState/BasicLSTMCellZeroState_1/ExpandDims"
  input: "rnn/MultiRNNCellZeroState/BasicLSTMCellZeroState_1/Const"
  input: "rnn/MultiRNNCellZeroState/BasicLSTMCellZeroState_1/concat/axis"
  attr {
    key: "N"
    value {
      i: 2
    }
  }
  attr {
    key: "T"
    value {
      type: DT_INT32
    }
  }
  attr {
    key: "Tidx"
    value {
      type: DT_INT32
    }
  }
}
node {
  name: "rnn/MultiRNNCellZeroState/BasicLSTMCellZeroState_1/zeros/Const"
  op: "Const"
  attr {
    key: "dtype"
    value {
      type: DT_FLOAT
    }
  }
  attr {
    key: "value"
    value {
      tensor {
        dtype: DT_FLOAT
        tensor_shape {
        }
        float_val: 0.0
      }
    }
  }
}
node {
  name: "rnn/MultiRNNCellZeroState/BasicLSTMCellZeroState_1/zeros"
  op: "Fill"
  input: "rnn/MultiRNNCellZeroState/BasicLSTMCellZeroState_1/concat"
  input: "rnn/MultiRNNCellZeroState/BasicLSTMCellZeroState_1/zeros/Const"
  attr {
    key: "T"
    value {
      type: DT_FLOAT
    }
  }
  attr {
    key: "index_type"
    value {
      type: DT_INT32
    }
  }
}
node {
  name: "rnn/MultiRNNCellZeroState/BasicLSTMCellZeroState_1/ExpandDims_2/dim"
  op: "Const"
  attr {
    key: "dtype"
    value {
      type: DT_INT32
    }
  }
  attr {
    key: "value"
    value {
      tensor {
        dtype: DT_INT32
        tensor_shape {
        }
        int_val: 0
      }
    }
  }
}
node {
  name: "rnn/MultiRNNCellZeroState/BasicLSTMCellZeroState_1/ExpandDims_2"
  op: "ExpandDims"
  input: "rnn/strided_slice"
  input: "rnn/MultiRNNCellZeroState/BasicLSTMCellZeroState_1/ExpandDims_2/dim"
  attr {
    key: "T"
    value {
      type: DT_INT32
    }
  }
  attr {
    key: "Tdim"
    value {
      type: DT_INT32
    }
  }
}
node {
  name: "rnn/MultiRNNCellZeroState/BasicLSTMCellZeroState_1/Const_2"
  op: "Const"
  attr {
    key: "dtype"
    value {
      type: DT_INT32
    }
  }
  attr {
    key: "value"
    value {
      tensor {
        dtype: DT_INT32
        tensor_shape {
          dim {
            size: 1
          }
        }
        int_val: 32
      }
    }
  }
}
node {
  name: "rnn/MultiRNNCellZeroState/BasicLSTMCellZeroState_1/concat_1/axis"
  op: "Const"
  attr {
    key: "dtype"
    value {
      type: DT_INT32
    }
  }
  attr {
    key: "value"
    value {
      tensor {
        dtype: DT_INT32
        tensor_shape {
        }
        int_val: 0
      }
    }
  }
}
node {
  name: "rnn/MultiRNNCellZeroState/BasicLSTMCellZeroState_1/concat_1"
  op: "ConcatV2"
  input: "rnn/MultiRNNCellZeroState/BasicLSTMCellZeroState_1/ExpandDims_2"
  input: "rnn/MultiRNNCellZeroState/BasicLSTMCellZeroState_1/Const_2"
  input: "rnn/MultiRNNCellZeroState/BasicLSTMCellZeroState_1/concat_1/axis"
  attr {
    key: "N"
    value {
      i: 2
    }
  }
  attr {
    key: "T"
    value {
      type: DT_INT32
    }
  }
  attr {
    key: "Tidx"
    value {
      type: DT_INT32
    }
  }
}
node {
  name: "rnn/MultiRNNCellZeroState/BasicLSTMCellZeroState_1/zeros_1/Const"
  op: "Const"
  attr {
    key: "dtype"
    value {
      type: DT_FLOAT
    }
  }
  attr {
    key: "value"
    value {
      tensor {
        dtype: DT_FLOAT
        tensor_shape {
        }
        float_val: 0.0
      }
    }
  }
}
node {
  name: "rnn/MultiRNNCellZeroState/BasicLSTMCellZeroState_1/zeros_1"
  op: "Fill"
  input: "rnn/MultiRNNCellZeroState/BasicLSTMCellZeroState_1/concat_1"
  input: "rnn/MultiRNNCellZeroState/BasicLSTMCellZeroState_1/zeros_1/Const"
  attr {
    key: "T"
    value {
      type: DT_FLOAT
    }
  }
  attr {
    key: "index_type"
    value {
      type: DT_INT32
    }
  }
}
node {
  name: "rnn/multi_rnn_cell/cell_0/basic_lstm_cell/kernel"
  op: "Const"
  attr {
    key: "dtype"
    value {
      type: DT_FLOAT
    }
  }
  attr {
    key: "value"
    value {
      tensor {
        dtype: DT_FLOAT
        tensor_shape {
          dim {
            size: 64
          }
          dim {
            size: 128
          }
        }
        tensor_content: "\357\215)\276\226V\215<\364\260\260\275\313=\341\275\003e0=Z\230!\275\213\377X\275\205N\310=\227\2401\276T\342\025>\2446\204=\036\240\224\275\031\203\027\276j\342\341\275\270\352\004>&\305\024=\316\026\371=c\244\023=H\370f;\216\356\003=\240w\226<y\226$>\332\352\001>|(u\275\205\022\344\275Pp\361=\013Aa;\335:u\275zi\006<\214a@\275\303V\036\276\314\343\002=*\202\261=\220\324(\271\336\037\207=X\374\245=\020\327\341\275\2459\242\272}\331-\276\260\254m=\360c\264\275\376\370\237;Y\277\241<@w\263\275\226=\224\275\251>\252\275\336\264\200\275\2765\201=\007\206\025\276\355\030\351\275CT\016>\001\331+\276~:\203\275\022-u=(\002I=\021}\365\275;fZ<\007\036\006>,\014\222\275\363IH\275t\223;=\250W\020=HYv=\305\337\">\356\026(\276\362\031+\276r\210\022>Q\352Q=e\247|=\315w\021>\217\246E\2752\036\272=\215\214\n\276\342=\027\275\313\177\">\215\251&\276\001  \276\313D\303\275S\366\337\275\312\271\233=\360q\335\275;\377\365\274\\\310\020\274\213\033(>O\216\234\275h\254\022>O&e\274.G\035\275\300D\251\273.\276c=\026[\212\274\244!\034\276\350\3243\276o\354/>\014FT<\226L~\275\337\022\017>\200\241\306\275r\t<=@\037\026>!\2171\275DB0=\202\202\266\275\341\305\027>\3611\212=-\203\020\276)\3353>\360\250\033>6\220t\275\250\337\244\275\230\007\004>\370\201\245<NJ\220\275\337@\251=\036\233\257\274&\021\301\275Bm\237\2754\260\350\275\206\007\316\274\007\313\350\275Q+\313=\251!\321<\260p\311\274?n(=|l+>R\223\267\275p\316\200=z\3611\274\270J\310\274\312\034\024>\\!\263=t\207\024\276\000{\215\275\323}\324\275\220\232\265\275\206?\366<w\200\303<\031\313\233=\022\306\256\274FO\315\275\373\216g\275\212\027\216\274\312;\207\275x\020\314\275\263x\232=\252d\204\275G\022\213<0\373\035\275\336\r\252\27539\317\275T\326\037\276l}\214\275\337\317\207\275g\032\323<\201\317\325=7\327P\275\314r~=\t$\375\275C(,=\312$\255<\266V\331=\3574\027>i+(>\002\200\016\275&y)=\002w\232<OF\241\275)\267\347=\3054\021>x\007\377\275f\177\324=w\372\024\276M\177\250\275C\345\307\275\006H\253=Pb\240=(\257\357<\004\270\004>\034a\321\275R\247\260=\226\230\316\275\247yn<\255f\230\275\271\256\210\2743(\276\275\274?\211\275\350n\326\275s\004n=?A\334=\206]|\274\324w\026\276iMw\275%a]\274\201\207\000>\374\360\n\272%\331\365=\245\314\311<rf\t>?\246\223=\253\244\205=\373\036\324=\312,\036\275\010\314\262\275\021\\)\276>{\334=?w$>_\261\337\2758\2650>\227\224$\275\242K+\276\233&\225=\024C\022>\004\327\365\275\235m\211\274\026\255F=\030\032g\270\030]g=\014\271\211=\202\"\331\275\006.\311\275\374\375M\275SW\307\275\270d\206=K\373\025\276\2454\t\276\202\250\206=\036u\235\273\336?Y<n\224\370\275\265\373\370<^\034\213=4\256-\2768\257S\275\213\351\032\274\324y\232\275\221\234{\275\356\337\014>\276\244\">#F\340=0\334\360\275\003\336\016\275\024\321*=g\346\024>\255\344-\276\030\240j=\177{K<g\214\032>\233w\225=\370\216I=\232\211\031\276\235\026V=3\265#\276\274\260\305\275\rY1;Y\376A<\343\330\301;\202\303\200=X\215\250:\321\231\001\275\276\276\020\276\373\233Q=\202\016\221\275W\307\245=\030\303=\275\201%\270\275\343\005\253\275\346\245\010>\357{\225\275\225\262\314=\177\325->x\200*>j\014\264=\2749\333<\371\244\373={-\211\275AE2>\212\246\251=\372J\333=\315[\023=\252\006z\275\306\245\227=7\222\030>\326}\362=54\022=\021\212\256\275Z\325\257\275gd2\275\030\010==\004\236\014=g{J\275\265W\337\275[C\027\274\033\312\226\275\344\314\264<\235D\265\275F\367\017\276\224\345\243<\257\273\326=\254D!\276`\261o=\010\266\235=\n\263\021\276;\347\207=\352\222\013;\353\314\212\275&\271\341<\375\301\016\275\010\371\350=\363g\327=\322\303\362=\022\331\023<\007\031\360\275ci\377\275\334\004P=\303+-\275\257\354\331\274G\374C\275\332\300c=\344,o=\221\363\024>\375\316\323<\233\272g\275V\371\243\275N\214p\275\2707\365\275\2305\024=\257\351\000>\003)\257\275\375?\003\276\026\333\317\274\024\222\316;\356J\335=\203\036\313=\212\025\013>y7\224\275\376\265~\275\2727\003\276\')\203=T\375l:\242W\036\276>^\027>\355\223\\=n\314/\275\272\376\262\275\\\236\373\275\314\346&\276\303\270\032>\211\303\311\275\356\2536\276\301S\344<h\211\014=o\224\376=dH\212<\210a\364=\212&1\275\222\231\342\275\324\205\217\275\201r\217==\355\376=\220B\025\276\220\274U\274\304\r\356\275\014\305&\276\013\311\334\275t\227\021\276\226\r\005>\367\377\214=\025\0173\276\351\316\371\274zK\345=\353_\344\275\32293>\272#\231=\272\323\270\275\000\251v\275\3664\207\275\362\321N=\355C\275=\202P\327\275\372\243&>\000\225H=\271\321\262\274|)\037\276A\375\274\275=\214\"=>\215[\275\332\001\031>g\356`\275lU\r;Q\233\375=\260\234\031\276\212\353\013\276\317\0340\276\32193\276Y\277\006\276\360\370\367=\334:\\\275\2630\375\275\341W\216=\310D\303=e\032\010>\203Zd=\365\355H=\201\234\350\275\030e\220\275\302Ac\275V\2261\276|\026\225=\352\250\316\275\242\217,\276 \372\023>6\337\261\275$\310_=\351]\305\275\277N\023\276@\373\t=\343Q\376=\325f\017\276,\226,\275\351\036\246\275\216\233\243=\253\2033\275\221\2607>\272\254\025>0\234+\2769\206\324=\034q\376\2759\370\212\275\211\341\303\275t \361\273V\277\000\276\2321\216=\007l\364=H\017K=\027R\346\275\233\342\340\275p\371y=\205\221\273\274`u\223\275;&\000\276\216V\031=\034\"\270=\270\316\314\275q^\004>{\274\263=A8\223\274\257\252=\275?\240\237\275\305\323\270\275\254\2224\275\313\203\366=;\367\326=2\335\267\274\274\025\357<\377\035\356\275f\007\202\275\264\336 >`*\3769\336\316\252\274\347\026\022>5\216$\276\002O\000\276\362\0007=\177\013\010=\256\234\337\274F\022\276\275\014\253\267=\305U\246=\326\000\032\274-\005\265=\377\364\253:\"\262\026\276/\0308>\030]h\275\253\n \276\300\n\255\274\331#_\273\250\"\006>V\321 \275\207\341\r\276\314\317\275\275 w\371<\247\355s\275\025\360i\274I\3035<\315\312\262\275\007)\007\2757\352\301\275D\027\266<G\316\367\275\265\010g=e\271\327\273\021Q8\276@\310\320\275\314FJ<\005;\375=\257N`=V\331!>\205\226\036\276\3460\304\275r\211(\275\340+\034\274\023\034\036\275j\240\036\276\005\2450\275\272\352\220<\027\026\357=k{\200\275\002U\351\275=\010 >\030&\253<k\024\212<`\026\006>;\343}\274\007\"Z<\244\242g\274\304\336\342\275a\r&=Y\014\212=\350\204\340=\257{B\275\016\200\001<\333\202\310\275Ns\254\275\215\262\241==t\304=\3624\202\275\260\275\013>\342\253t\274\243w\224<Y\246\010\276\207pD=Qy\023>\316\022\025\276P\316\200=\256\'\253=\253\007\'=(\250\343<T`2<\260\034o\275\274\3732\276\014\202\332<\313\237\033>\253W\207\275\226.\352=\312\237\030\275(\272\255;S\032\345=u\r\214\275qn(>\360\257\244\275\301\326\233\275f\215\323\274\016\216\220<(\024\027>OS\303\275C\017\315\275\253\236\342\275\365Js;G\250)\276\224\301\355\275\001\"\272\2757\354\034>\026\231-\276F\276-<\367H\'>\221J\361\275lh\236\275\266`\t>\372\364\254\274\341\352\261=wz\034>\260S\354=\226\325\335=\263\200\243\275\364\321\202\275\2446!>{\306J\273\356q\363;\230`\300\274S\222[=Q\005\205=\204/\256\275d;o\275\371S)\276\371\247?\2748|\221\275vid;x\211e=0 \216=r\353\262=\213\242\210\275*\223\271=\005\363\272\275\304.*\275\263\t\016>\221Q\243\275\321\323\023=d\245\010>(}\013<\\c\224\275\n*\t\276\0066\330<\225\304\241\275\347\001\255\275\017|s\275\251\024!>\214\330\032\276_+\276==\r\002>\210I\354=\226\2601>k\250\r= \033@=j\r&\276\267\345 \275\214\205\375\275\335\266)\276=\322\022>\225\005\221\275\310\356\"\275S\217\036>\205\343\301\275\263/\214=P\340R;\024\354+=\311\325&>Q\304(\276w,\370\275\rH\373\275\345\212\342=\"j\321<u\3221\275\2067\303\275\376\263\311=\\`->\200\206\314=E\332->\232\025\376\275\014\377-\276\372)\037\276\247\275\322=*tH<\316\321=\275]d.\276\203\351#>rp$<\266U\264\274\275\247!>\020h\035>8sY=1J\001>2Ai\275\211\236:\2744\254\t>\370\\\276\2732\235\376;}\201\256=\021F,>|Jd\275\004&K\272\204E\311=\233\036f\275\353\035\340<\034\016\340< \333\223\272\373T\245=.;\332\275\305\254\350\275\032b\022\276\264^\301\274\014#\014\276qz\n=\275\332\242=]\365\320<\276\275\013<\336\307\010\276\300\244K\275\243?\017\276dM\306\275d\350\276=\010\266A;}|\346\275~s\350\275\216><=1\242\031\275\017\260\021\276\347\356\337\275\332\200\226\275\337\264\254=\250b\034>\371\323\177\275\026I\224=*T\327\272\026\357<=0K%\276\214\243X\275C\227u=z\3711\274\300\227\023<\362\376\301=-AX\275\252\207\010\276\353\305\364=)rv\275N/\014\274\320o\007>5\314\376<n8\310=q\367\034>\376V\364\273+\302\245=xS\202<Q{\354\275\3365<;\212\227\276\274\037\231\032\276\354\202\256\275+&K=\314\215.<\344\232+\275\302\237\250\275\013\363\232=\251[\023\276\\\351\331\275\334\313X\275}\300\260=\221V.\275?\316!>\313\231\034>\200X48\253\2520>$J\264;l\351\365\275j\204\361=w\376,>,\247u\275\306\254\027\276 \322)\276=\'&\276!\365\353<\216N{\274\314\021#>$J\233\275\036\030\312\275m\255+=)\223\335<\0073\332<\241\333\r\2759:\r\276\244\n\224\275\234I\205\275vmZ<\252j.\275\330\262\226=]\305\004>\334\370\033>\"\362\245\275\315\351\005\276R\360\013\276\272y\262\275\265\313\366=F\0107\275\270q\316\275\206\331\333\275\275\345\264\275\250\214\027>\223$\265\275 \301\371\275\321(\262=M\324\247=\355\313\225=\321\373\255=\261\321\204=H\322\026:\266o{=\251\331\035>\340\315\321\275\214\037\333\275\367\364\321\274\253\344\221=L\316\372<\347\nd=p\271%>h\356\353=\376{\352=\307|(>\221 -\276-\2612>\340\215U\2746\224\033\276\221\0210;V\267\030\276\234zi=\217\024\244\275\364\3301\2768\252\321=\t3\372<T\342W\275\004:\031\276ww->C\371\264\275\240\231\035\276eR\304\274}\020)\276\023\276?\275\224j\035\275d-\223<\326\251Q<\346\347C\275E\n\000\275\327S\205\275\20355\275\022\326\010\276\354\020\322=|\315\213=\334o=\273\037\205\372=~\272\373\275~\372\225\274\316J!\276\020\033\230=\340n\233\274Lg%\275\203Q\304\275\003\000\005>pB/\276\242`\023>(V\262\275\241u\005>\007M\021\276\367\2474\275`\362c9\301<\344=w\2271>fG\016\276\200\350\220;\207\320Q<\253\362\017>0\202\216=\013\331\207=j\334\242=\247\017\307=6\t\024\276\265\363\237;\320It=}\272\312\275\002\277\004\2751\2063\276\333(\023=\3113\206=\273\0024\275\340\004%>\"\336\013=z\212e=x\341)\276\247\322\304\275\0106\024\275\252.\004\276+8\337=\023\2632>@\226\357\275\303\256\022\276|\237\231=\330\304)\275\251\214\353\275\353\006\260=\002\356\372\275(h\310\275\206W\027\276(\2279>\271\275\226\275\227=\n>\2557.>S\362\307\275\3457\361=`\226\024>N\255M\275\322R\321=\326\003\203\274\013\236\372\273\017\000\000=a\244$\276\211\022\226\274,\204\014\276Y5\370;\222J\006>Y\330\246=\rT%\276\030\027\'\275,\337?<3\237\236\275\017\374\271=i\301\r=\024\036\302\274\275\032\003\275\3772\000>&K\242=V49\2758\301\342\275\224\255\332<\372;\240=\032\031O\275\024\017\316=+\263\r>\3430C\275;\017\030\276#l\371\275\363\225\306\275\322\262\r=\003\2627=\177\001(>7\364\342\275\330\221\253=\247\031\013>\236\310\340=\357\332\024\275f,-\276\301x\031\276)\230,\276\026b\274<I\265\363=2\307\026\276\331\030t\275,R\013\276B\030\225\274M\225\201\275bs\n\276\320\222@=\213D\201\275\356Z+>\335\325\006>\272\225\215;,\304T\274\2709\365\2741u\202=\302;&;C\303\001>q\210\210\275\337\231,\276\311(\205\2757\314\210\275\213=\301=\306\324\251=\241Q5\276\342\n\274=\240\314\207<\276C\232\275\'\330x\275\345\235\001>\340\274\223\271s\230\244\275\355\0065>\334|\033\276\37462>x\370\032\276\313J\177\275\332A\245\275\022\216\r\276E\020\364=\356*\'>\335\016\032\276\02781\276h\345\240\275Sb\316\274,\324\217<\367\272\364\275\322J\035\275\312\257\273=e\313\006\276\200\271\310\275\341\375%>\211x\364\275\006\212\031>\302\3353\276\r\266\020>\032\033\272;\213\301\345=]\n\005\275\211\215\300\275\n\210E\274\224\376\032>H*\006=+\335\305=fp\340\275\035\265]=\022G\205=\014\321\225:\036\030\257\274.\343\260\275\335\363\262\275\\\350,\276j\025\274=\266\360\003=V\240)\274\350\253\266\275n\222\026=\351\252\030\276zD\210\275ty\024>\320\006\225\274\215kW==\003[=\2768,\275\311u\220=\213s!\276\035\034%\276\255\310\027\275\275\232\277=.\212\344\275$!\361=~`J=S\274\025\274qo\037\276D\212\276=\351\246\021\274\300x!>d\224\021\276F\325}\275C/\"\275\231\016\366=YM\036\276\206\234\372<\013\302\036\276\341\351\000\276<\023\253=v&\036\276\276-\225\274\252S\234=\302^->\177\314\333=\322\275\232=@\363\241=\365#\346=h\334\373=\r\365%\276\206d\342=\322\255\301\275\t2*\274\177\334\017\2768\304\266=\254\231\235\275\3777\200=\223W\260\274F\003\376=\227y\227\275a\362n\275S\266\362\275}2\031=[\272w\275}\315\361=5C\304\274\347\033Q\275\357\024\306=\002o\000>S\345\214=\'\277\027>k\270\005\275\225\002\037\276\327\'$>\337\261\275\275\024d\007>V\237\254=\366\253\017\275T\037\200\275@\374\230\275\242\3364>\372\3721\276\302\216\214=D`\355<l$\004>\323\301\002>\363\230)>\030\264\300=\305\200\305\275\253\007\030>\261\372Z\275L\203\032\276\365\005 \273\000u\346=\232\004*\276\246F\220=\321\366\">\035?\371\275\356)\022>\263\305\205\275_\247L\275\274\211\037=EI\027>\363k\243\275\007\021\341=lH\r>\264\333\025\276\206H\250\275}-\025\276\316w\376=\341wd\275\345a\013\276q\326\341=\023\200\335=\300\n\002\276t\376\036<\223\017)=\302\343\207\275\331\211j\275\"\347\304\275\216\321\017>\271\266r\275L\026\315\275\300\301\032\276z\224+=x\276J=\010\313\236=\334\376!\275\206\323\347=a\214\002\276V\"\007=\007\336\351=\307p\020\276J5N\274=\362*\276\270\224\350<\232\266\005\276\020\033\354\275\026\311\245=\310+z=\250\030*=\026\373^<\027u\372\275\347\223\266=\316\346O\275\350\226\303<$w\264=\336\322\301=\304l\270\275p\275\255=\033D\251\275\374V\367\275!;\330\274\344\234\260=\357\222\211=7\276\025>\305\013\347\275\365:\220\275B\333.<\224\276\307=\371\0023\276\212(O=\2003\244;\246H\026>J51\276\204\330X=\350J\033\276@,\031>\271d\000\276:\207\326\274\223\333\'\276\300HR\275\241x\030\2760\337\314\275\033]>\275\256\3437=\334\272\035\276\311\r\232\275\230]\033>\263\242V\274\207l\237\275F\207e\275\351\317\016>\204\177\n>\244\002#\276WLL\275o0t;\277*N=Rd\260=6\034~=m\000\n\276\220\313\367\274\002\251\305\275\033\\*\276<\316L\275\227\331\023\276\305X\031\275\205\031\n\276s\252,>q\017>=\266\265\021>\2767$\276\303\355 \276+\274\303\275Hd\275\2745\372\\\275N\301\332=7\0376\276\224\304\006\276z\r\362:\361c\r>\241\244\370\274\233\030\371\275V7\204\275\374\264\322=\355qc=\200\307i<\220\236\\<\333^\'=8\321\355=\326\222\325\275\240\313^=Lr\311\275M\351\242=vX\252<6k\223=\215t\231\275\022\345\317\275\320\224\347=\310\034}=|\260\343\274\203\336\251=c\036\253<\337C\300=\365\025\235\275\034a\311\275x\371\303=\251\235\226\2752\265&=\274\217S\275\2334\023>\256J\252\274\361\343\036>T\023\363\274jcx=2\313\225=\226<\242<H\341u\275P\275\031>\230\004\352\274\n\365z\275\217\2228\276B\201\343=o\260Y=\017\n5\274\2709\033>|\217\316:V\334\247=\377\253\337\275\210u\325\275+\300b=\2164.\276O\332\357=:\014\363=>\336\312<\346\226\211<\313\020\207\275m<.\276\212\231\000\274\334\2374\275A\326\224=\310\227\005\276,\345S=\006\353\034>\001{\211=\210\2377>@\305\223\275\000\315\333=~\2023>^y[\275.\205\375\275%\214\347=\2249|;\241\"(\276%\332\242=\241\362N;\347,\305\275\001\266,\276\355.\001=\364\350\007\276 S9\276S\271\026\276\270\237\007\276\237\262\267=w\363\004>P>.>K\274\330=\246<\023>j\022\366\275)\245\016\276uh\'\275H\215\350<m\372/\276t\256\217=\233]\251\275\254\375\211\275\204\373\325=\375\013\215=\346=\030\276\367\3371>\037.\302=\035\330\355\2752\326\004\276\211V\204=>h+\276\326<\242\275J\321/\275\202\021E\275\217\235p=\307v\234=\272\247\347\275</4\276\214,\021<\256[-=0\333%>\216\'\310\274\225\300\226=\343\017)\275\367\204\307\274\260z1\275B\340\364\274\212\216R\275\363\370\216\275z\3378\273\225\207\200=\225\347\237\272\001\221\340\274K\2272=\237\241\033;C\004#\276\034\204\321<\262/\276\274\014\240\352\275\320^\272\2754V;\274\346e\002>?[\354=6\313\340\274\030B\301\275\237\372\371<\203\224\001>\347\367%\275\214\204 >(\307\000<\366U\251\275\236}\r>\263\304\026>\014\304\023>\343\266g\275\\\240\253\275z\376\221\274\010\370/\276\333o\350\275r\375\334\275\330;\373=\375-\365\2748\r\332\273\221\327!\276\250\007\362=\254\262\255=\267\244\225\274]\3043\275\221Sp\275*\3270>\220\372\255=x\354\257=W=\r>\300\nT=\";\317=\246\001\374=\263\254\t\276WA\276=A\233.>O\2627=\211\270\022\276\247\341\036\275h\230%\276\233\013\366\275+>\026\275iiU\275\311\341]=\005\335\004>\232\301\032\276\273=\337=\215*\325=\345g\007>\036\310\037>\314\255\371\275Y\r\350\275\320*\022\276\212\237_\273\220$-=\247\t\307\275\\\2565\276\333\254!>\016\255$\276\205\312\341<\325>b=i\037*>\364\262\233\275\033\346\215\275\307\324\334\275\306\"O\275\333V\206=\206\242\314=-jD\275\004\033\240\275\244\375\241\275r\333\334\275\357/\250\275\214\371.>\316\002\200\2758\377\355<\215g\317<\002\201\026\276\200Q->\340%\210\275v\331\025>o\361\271=\337\037L=F\274\222=\032\022\002\275\027\325&>*&0\2762+\r\275\243}<<\225*\342=\274o\037>\305\027\305=!\360\005\275\332\241\367=\245a\375=\010\365\204=o\351\225=\353\346\336<\370\341/\276O!%\275\016\261 >\304T\331\275\3774\037\276<\250)\276\212l\341\275\231\332/\274\340\024\300\275Oi\325\275\307wd=|f|={\211\334\275{\364P=d}\002\276&{\242=\335\034D\275\343~|\274\310\255\264=&,\334\2746\202\217;\313\207\003=\345\005\377\275\274\335,\276L ->j\350)<hr\214=q\351\203\274\216\250\314;\235\210h\275\264>\035>\227!\243\274q\237+\274\301\343\204=R\370\007>hp\334\275\024\025\030\276I\276\007\275\357A1\276\r\270\034=\326\0037\275@7\255=s\325\302\275.9\223\275\360\235\261<\005\007D\275\177\246-\276Zi\'\276\332\204W=_j\220\275\206\222\261=\365\267\370=\320\342I\275E\307]\275\322\364\n>$J\251\275\262}\007\275\024\372\221=a\226\316=<\360\336=\212(H=\244\361\213\273\345\210\302\275 \312\031<|V\207\274\322A\305\275\313T\304\275q\311\215\275S\360m<\016\231\033\276}\267w\275\203\2626\275\324\001\345=\330\010\014\276\232\353\005\275\034\231)\2751\221\336=\271K >\362hX=\245\317_=\311\363\344<\330\216\363=\210\360\231\275\371\336\036\276\004\017\004>\304\177\032>x\266\334=T\300,\276(\3038\275<\025\004>\230\221.\276)\327\007>\365Qp\275Z\317\351\2758$\014=K\333\211\274\"\356\003\276=U\250\275[L\004>\246\335/>Dp\233\275z\370\312\275\342QQ\272b\347@\275\231\217,\276\346_\033\276\014\354q=\215\216\035>\021\273\017>]-\225\275\323\240\022>8\021\270\274tz6\273\202x\337\275\200:X\275V\370i=^v\n\276x\371\300<Hw\361\275\325\310\344\275u7\317=\226\330\324=/y\014\276/P{=\211n\">A\326\315=P1\020>\246(\221=\364\370\320\275\273\002\301\275L\n\t\276\'\313\275=\230\243\375\275\244\330\267\275x\344\030\276\202\033\227=\304\245*\276\331-\001=\272N\205;\tD\205\275\010\333\017=\372\201\037>\3617\345=\376\021\\\275\025x+\276\266O%\275P$#>Y+\007\2755\363y\275p41\275\007\232H\275\n\017\021\276r\244x\273&\246\355<di\335\275\017\251\324\275!\316.\276\252\2021>y2.>\326\320\346=\256\305\370;\021%\'=\332\347\205:y\007\262=\253\307$=\276\254\301<\230\206\031\276\037\3239\274\0220\335=\246W\323\275O\3065\275\376\202\032\276\305[\263\275[b\230<\262\355\216=\203\007\376\273\215\025\002\276@\250i\270s\346)\275\273\253\303;\342\000\006\276\227\314N=\200\245\006>\333\3661\276-L\371\275\326\256}\274\375\365M\275\353\002l=]G\343;\214\003\203\2754\303\003<?t\344<\356=.\276Nb\030=\322\203\244\275Pj\305\275\243\254\000<[\340\220\275=\367\346=9\365\330=$\336r\275\007\374\027<\014[\352\275\322%\233\275\220\034\031>\n\303\014\275r\347,>\345F\026=4#*>U\204\006\276\367\316\343=\311d\t=\017Q\033\276#\320\026>\253\254\n;\227f\257=G\317\017>\227@\031=\326m\236\275\000\377\203\275\307w\237\275\230\"\360=\201\272\027\275\300\0022>\271\213\263\275\271U\360\274n)r\275\2452K\275\346OX=\363\361\364\275A#\t\276+u\017;\\\320\264\275\225#->\245H*\276\347g\301<\302\243\261\275\240\227\010>\t\244\207\275|7m=`O\024>q\345\033>,:\034=[\331\n\276\365\304\000>\027.>\275jc\027\276<\347#\276\260N\331=\221\244\021\276\242\210\341\275\032\276q=\246\254\202=\r\254#\276\230\313\031>\230\353\240=\332\242\023>g\366\255=\300oz\272\256p\244\275\361\213\025\276\033V\t\275\354/i<5t\200\275:\020\357=\337\362\316<4:\032\276\322Q\020=\000\334\231=\212\374\023<\000\347\362=\205\2517\276\245\230s\275\002b\311\274\254\r\376<\360}{=\242\001)>-\262\031>T\214\026\276p\231P<VE\335\275\224\277\364\275\232\332\210\275\033\212\034\273\366\003\264=\020\207Y\274)}\216\275\005\no=7\036\367\275\253\014d=\0055\335=~\247\036>{\014\252\274\310\257\230<\364\245.\276r4\t>ff+\276\212\354\277=d\306\342=*6\262\275_\036\003\276F\'\001\276#\250/\2766\303\215<s\207\020\276\372\202\263\274P\264\330\275]\336\013\276oU\020<P\255\007>\221\302\002\275X\013\202=\346t\377<\000\035\230\274w)\t>$n\033\276\206l\312\275-\332\361\274\256\276\254\275L\035\027=\372\203\001>h\000\223\274\t&,>j\035W\275\3533\022\2769\226\312=vm(<v\013\300\275}\232h\275\010\254>=[|\241\275\306-\000>\272\234\000\276Q&\214\275\326\026\352=Z\020)\276\016*\031\276M\207\000=U^\261=\006\344\257\274&\277\036\276}\365\337=\266\017I\275\207)\323=a\337\244=C\336s=\037\243\240\275\225|\344<\037\003\037\276\265\254(\276\224t->\"S\303<p\202\016\276f\035\216<\302N0=\246\034\324=d\252\023>\304u\250=s\031\351<\365j&<]\350\017;e\375\005>?\371\357\275\3150\304\275SB\266=iV+\276U\r\024\276\272\017\025\275\006\203\242\274G\014\'\276CV\336\2758\254\267={\202\025\276\034\373\"\275B\320\021\276\002\266\266\275_\307\320\275\301S]\275\007\335\223=\014\363\340=\n\345\320<\261\363\363\275\255\246\204=\256\242\326\274-\236\246<%k\t\276*|\332\2750_\227<\360/\311=r\332+>\342]\315=\377&\354=\004=\314=\366\355\202\275\243f\002\276<\334\002>pHA\275\235;\237\275\313\"\263=qB\026>\256\305{=i\300\036\276\014n\004>\37459=<r\024\276\223\325\"\276\320&\200\274\336\'\276=\211\234\361\274\201\3740>D\231\014\275BZ\027>0xl\275\220\340\305\275\325n2\275o\001\351\2757\227\023>Ztu=\032\332\013>\350$\365=\356\274\300=\254~\325;7~\004\275S\2616=\000\026\200\274=g#>\024\345\247<\\\310\343=\222F\021>mD\335\275\005\364\233=\342*\315<\203\221\313<g\303R=\375$\264=\311\217\364\275Y(\273\275\237\201\205\275\351G\033>\216:*>gz8>gO\265=\240\367\316=\330\tK\2754\357\215\272\260#\002\275\002]\014\275R\225\322\275\212\253l\275?\220\037>\207\003\312\275\320q\032\276\241/\365=\233\007\200=v\277\t=[\312\235=b\032\234\274>\366*>\2238\202;\213*#=\344\273\371\275\236\324\362\275\367\274\014>\002k\365\275m\364\261\275W?4\2762U\377<\276F$>\033f\332=\0378\004\275\215\215&\276\263\265\255;Q\267\265=\265p4>\306\032\232\275\317&\036\275\264\3636=\242\343\362\275\321\270p=\256#z=\007\226\036>\253\331\245\275\371\224+\275\267\306\312\275V\033\317\274\365\276\355=\331\003W\275\335\0279\276\201>\305=K8\301=\305\307.>\234\010!>\306\330\261\273\231\256q=)\230\'>\347\270\327=\2000c\274@27=\034\004\263=\234\331\016\276\217\343\301<\366\217\365=\312=\213\274\363\361\215\275\2068\004\276\036\373)>g\217\371=B\252\032>\323\361\262\275\005 \273=\314\352\016\276\237\025\276=\345\377\315\274Q\214\266\275z\316\216=\016\216\252=`\341!\276Hk >\324\035v=.\376\246=\301R`=XU\022>\274&\205\275l{\351\2756\222+\2762\251\266\275\266\327\256\275{\350\316<j#\037>\273e\021\276\205@c\2740\233\016>\310\235\236;\312`\357\275\256\222\240=\316I\010\275\227[\364\273+o/=\014\205\000>\021\357\260\275(VI\275\314\247\353=\213\337\025>\370\007*>\3124\310=;\277\365=\300\216\337=T\2642=~W\347\275R\016L=\251a\205\275\\\035\305=\004\272\026\276\234\261\306\275\224\261\272=\304\036\240=7\225\332\275\235\340\375\275\360\226%>\240\263;=\023!!>:\374\">\251\204\037\276\033\316\\\275\344\251\246<\036\225\276\275\2211+\276\314\335\r\276?\246\037>-\3407=\353I\243=\236\270\347\274\014\016\034\275\006\254\243:\266h\264\275\265=\330=]d\312;\237\331\210\275\3475\355\275>\323\221\274C-\024\276;\336\327= \277\353=\260Jb=]\034\260\275\275\240\275=\331\035`=\274\246/>LN\217\275\025\225\271=a9\026>2\203\215=\314u\031\275\352\270e\275A\357(\276\344r\007>\277p\344=\310W\322\275(\350w\275\263\347\376=\010\255\021\2762\025\243=g\303\262=!\221\223=\023\275\272\274\352\274\006\276\244\310\237\275\344\223\342\273\261\334\372\273\026F\262\2757\333,<e\202A\275\226\225\030>\211/\327\274\025\2544;O\377\243\275\262\375\360<\331\r\026\2763\373\341\274!\345\002\276\2025&\274\257t\272=Z]q\275\365\350.>p\r\025\276n$\212=\223\372s=\034\206\325\275\030$\004\276%\r\314<V\003\363<\226\276\243\272\314\304\372=\313\200G\275l\373\277<\003X/\276\353*\272\275;\231\356=c\0258>6\'\317\275\007\377\250\275N\254\366=\334a\254\275J\251\315;\247L\374;F\026\026>.[%>8S\375\275\336>\217=z\225O<\233\377\242=\310\006\317=K]\267\275.e\244=\r\333\214\275\3075\261=\022\276\203\273\\V\256<\2744\025\276U7\260=\362\014\360=J\203&\276b\275\'\274\217\337 \276\375%>=\236\270\005>\356\014\365;\363\210%>F\313\203=\247\247[\273\200\234\t=\225|\037=^\372\253=X\264\\\275\'\330\257\275h\256\023\276\257\233\031>\356\033\014>\245\270;=\376\214\336\275.\276\n=<\215\211\274\373\334Q=\\ @=\353\275\311=rg\313=y|\357\275M\0241=\236\320\304=8y\357<\212\316#:\215\364`\275\326T1\276\324\3350>\327\277X=O`\373\275\333\317\366\275\301\311\356\2751\245\215=\346o\204=\236\352,>\013\032\006>\230\202\027>> \224\275\342\302\313\275\2554\004\275SB\347\275\370\274G=\221)\020>y\306\023\275\005T\266=\264\330\t>\307\003\033\276h\226+=o\243#\275{;\254=\362l\317\275\242\033Q\274-\211*=B\325%\276\252\325\020\276\237o\271\275&\273\364\274#\304\226\275\030]\013=\231Z\215\275\002k\013>\274\027R\2754\332\240<\304\024\r>sr\221=K\246\372=\342\241\310\273\352\025\262=$1\020>\367\036(<\2432\024\275\322)\241=A.)\276\3159/\276(/\344=~g\027\276p\304\327\275\254\004\276=\224\206\031\276}\251+\276\207\033\245<5~\034>2\035\202=F\266\220=N3\354=\3354\314\275\360\226#;m]\245\275\016\220-\276>\312\364=\357f\220=\330\267\232\274m\302\013=\310f\223\274\036\302\214\275j\265\017\276R\276\213\275\342\n\n=K\203\350\2758m\002=\277\362\033>s\323\024\276\037\374/=8\326\272=$\346\t\276\'\013\303\275H+->\205)M=<\022\256\274E\336\005>\033\027\236\275\310\207\362\275&\274\026>\243\253\334\275\365%$>f\260\375\275\303e\312\274\230\215\317\275\353\322\263\274\261\3430>\t?\214\274~o6>d\036\217=E1P\275\005\3637>\225\271\022\276 \014\247=\325K\225\275\234\363\177\274\2058,>P~\336=\r\275\303=h\370#>}\311M=\345\347\277<\366K\356\275\237P,\276\326\001\340\274\334\271]<$[y;\247\271\243=\217\033\203\275FW\021\276:)\354;F(\373\275\263B$\275,\371\031\275h\340\034>X\306\276\275|Uk=,8\032>xU\276\274(\004-\276\215;$\276\\\030!>\270\326\217\275\2503\020>\352\\\021>\004\247(>\304\306\n<\340\365\034\276\006R\253=\275\254!\276G\255 >\320\375\206;PAM\275\200\367\022>\263\257D\275\331K}<\002\357\033\276[%,>\256Fx\275\360\001\005\275\352\315\304=\350H\027\276\232\367\376\275\"\003-\276Y\t#>H\321\214=O\0039=DZR=\322;\227=3\031!>c<\240\275\307\277\336\275\301\346\'\276\217\302\024\276\373\2651\276KM\342\275\326\333\177=\360\327~\275\324\232\310\275k38\276q\225\273=\367\210\214\274E\036\032\276B\201\030\276o\304!\276a\322\345=\254\233\360\272p{\313=\002\314&\276\320I(>N\000\354<\343e\031>\342{M\275j:\241=\313w\010>\252&\303=5_\225\275WV}=\245E\365=\257\3613<\277\315\021\275\373\232\231=RT}\275Ek\204=\354t\201\275v\323\027>eGH\275[\322\263\275\225\ni=\266\235\003\276z\216\004=(\034\367\274\242\272\032\276\242\322\243<\344^\241=>@\211=\202\2635\276 \037\277\275\217j\002\276l\367>\274\360{ >-\215\226\275v\256S\275\3261\314=\271\247\327=\037\335\270=c\351r=Fh\274\275cP\251=<t\016\276\213\366\322=2\233!\276\232\361\034>\013\210f\273\360\266\026\275\232\352\311\275\301\322\336=,R\021>\204P\215=\231\365\327\275\224\330\225\275\314\331u\275\"\327\273=$\361\t\276]\004\250\275\n%\005>\"\206\274=Y`\243\275k\023p\275\253^\271\275\354\366b\275\312\311\010\275M\006\t\276w\352\330=)\357\010\276\346kx\275\210\346\023\275\236\372\353\274v\341\372\275\026=\351\275#\314\305=\302$!=\r\177\375\275\325C.>\205\t2>A&4\276\n\202\304\274X\363\344\272+\351\006\276%\306\240\275R\334\305\275\336\267\227\275\336q|=\353j\332=\360\203\332\275\217<\303\2755\263g=\370~D\275\023\357\003>\223\351~\275V~\023>\244R3>\367\334?=,\004\364\275\341\017\023=r\017\016>\252\206\222\275\237$`\275\201\343\367=/R)>\313\210\031\276T\037\r=b\2466\276\261\315%>^\351\265<b\343\367\274\375\035\241=\030\335\244\273\022A\315\275\tY\003>\246\'\270\275\023\316O\275J\273\207\275\320\334(\2760\031\232=\212\251\007>IB\345\275\206\316q=j\344K\275\303\306\252=\240\335\000\276]\311\036\276\334\2412\276\227\010\310\274\263\210\"\275\'F\004\276\221\230\352\275\346w\375\275~t\360=\000]\355\275\245\253\214\275V\250\206\275\251\254\301\275\325B\375\274]\322\340=\272\371\r\275L8\241<u\331\364=\242A\345=\353\254\013\276l\014\346\272\261\315\235<^\2740=\r+s\275J\246\266\274\352\255B\273\365W\034\276\372j\361\272\351PK=V\031\256\275\367?\310=\306\337\320=a\320%=\254\344\204\275h\273\257=\333)9=m\320)\275\274\225\n\275Z\377\240\275\201J\203\274\216\031\010>\225\347\026>\271\347\034\276\017%\010\275\204@\210\275Y).>\362\366\360\275\245F\241\275K\t,>\375V \276/\216\253=\260\340\026=\350\316\246\2746\361\007\276tU6>|I\001=\314J\341<i:\001\276/\265\n>\240\002\301<T\300\017>\334\004\306\273\221\000\001=@\255\345\275\342\244{=\262a\310\274\237\342\322=\0269<\275\366\036\016\276\276b\352=\273q\303=Z\261I=Y\025\214\275\r\220\026>\201\322\373\275\013\335\341<d\252~;\225\354\373=YU\017>,X\020>t\237(>\320\343x<\336\247\317\275T\346\317\274\333x\004>?\322\001>\252\250\025\276\346\222\r\276\242\251\000\276\340\001\032>\005z\373\275\001rW<\3128\365=9\353\317=p\256C=\035\010~<\377\003\027\276\270|\325=\257\217\026>8\340x=\275)\000>\367\220\256\273\340\342\003>\264\321\247\274w\334\227=#\357j\275Ws\356\275vRU\274\025T\353\275\312#i\275\341\315\'=E\270-\276\304\211\001<C\351#\276\200y!\275\275F\027\276\266\330\016\276\'\344\335\2757a=\275\272\247\210\275\367\263\374=k\227\363\274\'S\233\275\311z|\275Y6i\274&.\006\276ld\014\276\310\372\365=\\\322\014\276\225\320\325\274\214\300\354\275\014\336A=\3027\204\275qY\321=\032\265\266\274\276\037z\275\277\347\005\276d8\374=\020J\267\275>4->_\272\263<\023H\n>\016\r~<\241\032\031\276\320\264\005\276\266\335\033\276\336\324\206<\n\370\231<oE\253=\266-\377<9\314\321\275\271\357\264\274L@\246\275\245U\335=\323\261\001\2767\344\371<\371\235\232\275\2722\">\241u\362=\211\260\006>\270\357\326\275\024\305\203=\277\246\033\276\001\327\345=\307\032->#\224U=q\310&=\353\236\r\274\323B\021\276\315j)<\016\313\224<\305\000\247\275s\363\364\275t\357\'\276\375H\254\275\272\202\203\275\214y\310=)\034\256=`$&>\306\311\322\275\214\330\320=F\211\340=\304t\002\275zN\213=\217n\'\276\316\210!\275\237\001E\275a\227\010\274M\313\016\276+f\016>\226\004\037>\317y\226=-r\205\275\016w\005>\020\236\010<G($=O\222\241=\357\t\350\275\234\245\n\276\021&\327=\250\000\027>+\2372>\207\2370\276&;Z\274\244} \276b\237)\276\350B\362\275\006\303\326\275C\214\037\276a\326$>\020\343\001>:\005~\275k\0336\276\260}\245\275\204H\236\275\177\277\"\276\220\3714\275\310\302\027>\035\346\313=\0302u=ma\367=\257\215s\273\305\3566>\345d6\275\245O\336=\331\372\215\275\246\341\t>=@-\276\232\377\">w\265\021\276Xo\267<\245\377Y=\016\244}=i\2656\276oD.\276\020\023\022\274\336s->\260\374\007\275Y\221\316<\213`\251=\215G\026\276\306\373\354;\352\262a\275f\013\t>\006>\271;>\210v<y\3055>T\342\025\276\266BC\275\344\217\260=\355\305\323\274^\211\025\275\266\244~\275\335\367\322=I1\020=\357u`\275c\006\033\274?V\374\275\256\227*>\310b\343=\350\334\234<F\251\222=>\206\371\274u\337\036;\351]\252\275u%\330=\230c\311=)[\300=\202\313\263<\027\377\232<$\352\357\275\n2\313\275\302\235\271\274wn\332\275\365\035X=?[\364=\206\206\022>C\360\225=d\306\373\275\017q\031<#\357\\=.\034\225\274\357w\327;=\021\001\275\361k\201=\366\365\n>9\3651>AB\210<r\332\013\276\030\"\371\275\365\306\203=\274\226\020>=l\036>\036n\254\274l)\010>\231\024\332=~X\245<0\007\004=\272\r\023>\210\347c\275\322\352\023;\361\016\376\275q\321\177=[K$\276\272\2151\276tT#=o\023\220<\367:\256=\347F\001>ib%>\361\213v<\357W\025\276\361\3051>\321\353(\275\305\025\016>:\201\224\275\274uW=\237\330\324=\363j\036\276\303\300\270=\354V\214<3\315\220=2++>\016\361K<Qr:=-y\363\275E\317\317=~\321\244\275\311\352\031\275\220\231+=)\267\343=E\342\005\276[7\200\275\312\251\006>pL\024>\314-\037>\2376+\2765P\014>\336\240\347\274y@\216;\"\305\276\274!*\007\276\010-\353=\232\251\310\272\014\230\224\275\332-\322\275H\206\035\276\362v\005\276Z\377V\275\307l\202\275Q\n\255\275\305\333!>\021{\026>\034\213\352\275\232\366\222=\236\335\225\275WB\275\275\027H\031\275\316\nH=Jd\262=n\030\373\275\207\320\375;\205\2353\274\246\017.\275i\017\357=%D\360\2738\257\000>\017\211(\276AA\006=A&\315=\177\212\226\274\234\322\202\275\373\372m\274\020\261\253<86\016\276\024\034\322\274\270G\032>u#\014\276\033\000\251\275\021\031n=R\341\007\276\347\257\213=\352\2730>.\316Z\274\235#\345\275\030\3136>)\371\330=\224\314f\275\2779\305\275!\255F=2\333\017>\023\2125\276\345m&>\314\372c=\324\250\340=\002Y.\276\352~\245\275d\'\306:\367\372\265=\352\351\032\276\263\277\n\276\302\267!>d\006\317=\354M\027\276\347\006H\275n,\215=\007#\206=\273N\222=~\320J\275dC\003\275E\237\332=\271\264\024>\270\233\363\275\341\365\335<\202\350\332\275Zw\000\276&\301\030>\334\re\275\023\363\246\274\221D\315\275\325p\'=\211\006\031>\005\306&\276\364\351#>\321\251\317\275\342Z\024=d\224\342=\022\2724=\026 \331\275\343\227\234=SF\014\275w\003\000=C\377\342\273\211n\236\275\3124.\276\276}\212;j\212?<\353=\335=3/6>\027_\227\275\027I\356=c\224\341\2752\255)\276w[\037\276Y\260\371\2751b\315\275^\t\"\276-\037\265\275\001\000\004>p\010\227=\220\234\323\275{-\225\275\372\303%>\322_&\276\360\340\224\275\245\202\200\275\242\352\264\275\230J\023>ED\356=\340\260\353\275\220\r\022>\221.9=\271,2\275Aq\207<\237_\'\276\204\340\256=\\p\312=\\\306\017\275\255z\262\275\216`\340\275\215]M\275\036\211\244\275l<1\276\307\346\031>\334\215\034\276\206\374\337\274\241\275M\275q~a=y\242\232\275\335\374w\274\265A->\021\305\371\273]4}\273Wh\271=\345\375\222=\002\316\357=\254\036\017<p\037\314=#\263\257=\371\022\336\274\370\360T\275\321( >Km\270\275C\324\023\276\225R\013>\210\335\222\275\210\302\250\275\\\310\241\275\316\311\025\276\330<\207\275X\233\\\275e\235Q=\251g3>\340\251\020>j\020Q\273\231J\013>\315x\237\275)\346}\273g<\037>\\]\020>tM/>\025\220\372=\375\306\350\275\356m\002<\032r.>C\221\r\276\361\027,\276\272\246\277\273-\030\323\275\3372.>\321\240\005\276M\221\317=\225gY=Tp\024\276\333\215\010\275\241\003\037\275\010\325d=\003U5\275\306\t,>\300\251y=Qp\362=v\266\304<\327}\t\276\277\324\302=9#L\2751\343\203\275\266\264\342\272jx\361=\266\342\215=\014n\343\275\037\277:\275\256\354\353\274\234\243 \276h\246=<\326\342\307\275\320\217q=\371;\202=\255]\362\272\2347-\275q\\\313\275\204d\311\272\031\027\361=*\201\222=lj\344\2741\036s\274\201\272\337=\244#\320=\364\254}=\346\346\004\275\030\266\357=\007\327\241\275\013\246\r\276\271\222V\275\023,\251=j\322\362=$r\022=\351\020\037\276\"\007\327=\363\020&\276\256\020\322\275\251\267\363=\0106\346\275\333\227\236=\203\t\033=Y\303\r\276\026s!>mGY=n\027%\275\370\246\023\276\314\364\223\275`\031+\276o\236\334;\200\234\342\275\\\351\341=\255\001\r>\254\211\374=i\'(>\312G\326=xv\200=5%\201\275\244\243-\276\037+\342=\016\271 \276\247=\252=8t\312\274\215\240+\275g;\033\2764q\330\275\372\214\022>\365c\305<R\261\353<\024\007\342=~\265\023>\340,P\275\373\001\313\275\035\372\303=\344Z\027\276\377o3=R\r\203\275\256\243\354\275\223M\017>a%\252=\005q\372=\\\276]\275\352\215\350=\252*\201\275\307\310\200<z\246\014>\321\345\223\275\364\242D\275\214\016\300\275\206\205\321\275+1\361=\3408\034\271/\317\210\274\'\2521\276\326M\">\214\t\315\275\235)\323\275R10=\374L\026\276\310\2462=\n\341v\274El\003>\214\3272\276\277y\264\275\344\325\227\274Rr\010<T\177\2159\207\226\010>\265\353\036\276Q\334\251=\333\006\024\276\017\347\245\275\342\205A=\346\253\033\2766\337\335<\276: \276IB\247\275\205D(=\227\205\010\276\016\324(\276o\334,>\227\350\245\275\235w\234=o\032\330\275p\334\000\276\3625\201\275\376j\306\275\274\026\t\276\020\321\321=\222\232,\276\232\240\360\273\276Y\033>\257\\b<\373\363\025>l\356\270<\273\240\206\275\227\202\374\274\002\032\366\275\336\267\013\274\234\353\322=\2452\213=;)\371\274\363r2>\273\200\020\275q\254\301=9+)=\343$\026= X\026\276Q\257\244=\352\261U\275] \363\2751\371\303\275#\333\014>\3132\036=\344\222\201=\362\'\337\274\035\036\217=\250L\t>\347\350\021\276\256\210}<\026\214\304\275\274_\320=\231\3201=\2348z=\222j>=<-\222\275\200\023\201=\274\264\346=\3669\362\275\377\001\246\275p\317&=\247\317\363\274~\324!>\000\307w=5\342\353\274PV\006=T\366\243=|\267\235=\246\301\305=e%\324\274\032m\'>\3715\004\276\337(z=TLZ\275\221\021\025>\024\214\256=Me\212\274\372O\213=\030\0325<\357\r4\275\321i\331\273x\016\222\275\310F\361\274\025\264\017=\346!3\275\004!P\272\356nB\274\017\210\271\275K\035\363=\005}\267\275\316!x\274\232\237n\275U\210\035\276H\244\000>\245\212\246\275b\326\226\275\352I#=\324\300\307\275q\250b=\025\\+\276\'\310\310=*\226\036\276\0013\360;<\344,\272@U\367\275\356.\006>/d\377=\0016z=\367r*\275Ar\364\2754Z\216=4\361\236=\305\024E=~a\213\275\355,6\276\203n/>]\006\344\275=\210\361=\231%\035\275U\\0>\305\371\006\276\234\032\252\275\301\016H=\302\214\034\276_\003\370=\261\305\n>\244\337\t>\034\342\347<\261P?=$\331\202=t.\255\275!N\225=O\3125\276\354=->\256\236>\275n\257\021>\364\264,=\2512\016>+\336\006>VX\226\275\317V\336=\340e\305\274\257!\002>|d\233<\325\032/>\247\255\247\274\025\265\017>\026\266\001=\347^\230\275F\340\037>a\343\370=\025\370\245=\026\227\217\275\374\354\023=\372|)\275\2452\036\276\247<$\274\276\300\237\275\352&Z\274d\247\267=VG\220=|\225\344\2755\317\357\275\353z\013\276\035\013\005\276~,B=\'\216$>\206\240\313=u_\035\276fH1\276\242\335\334:\215\275\027\275\0300\003>/M\216\275\305\006\002>\'\244\270=\301U\314;\273\260}=oa\375=\317\267\030\276\326\227#>\363j\267=\224j6>\020\275\347\271\336\037\304\275&+\252\275\211\317\"\276\034,T=B\237T\275\300\0048\276\254:\023=P\242\262=a\353\371\274\rw\260\274\004\222\324=\244\016m=\022\251\036>\0269.=w\272\326=\320\213\347\275\243n\020>K\002\253\275\362\234\">\341\312,>\321\030\245\275\245\367\214\275\020))>\251\312\226\275@\213\016\276BH\023\276\253</>\'\336\010\275]h\200\275\235\244\202=|\217\320\274\206WE\275\035\017\201\275\310\356\014\272\024L(;\025j\205=\313\331\302=\252\220\016>\0345 \276\315\211\210<\254\340-\276\321\2162>R\037\036\276P\317\300\275\371F\353=(\245->\376v\374\274\256\224\017>\302-b=|\237H\275\247\274%>C\2342\275\350H\211=\221\257\215\275\007\250 \276\007S\271\275\355\314\'\276\3059Y=\261a\230=\204\t\014\276\253,\311\275Aq\223=\215\306\340\275{\342\242\275\273\221\212\275.w\010\276\253\307\253=\024\320\227\275\200\035W=\377\211 \276\342T\231\275~\353\375\2754\242.=\247\262\003>\226p\242\273\266Z\035\276\271sJ=\234g\">\356\324\024=\210G\264=H\332\325=\3660\024>\376\365\375=;\215\001=\303\221+\276b\254<\275\335^?=`\245\031;d{\020\276\230:\010=\264\351n\275\\~\330\274&\210\270\275T\000\014\276\233\201.>\210\243\323\275%b\006\276\330;\027\276I\330\315= \314&\276\211\264\221=!\347V\275\023\234\027\276\363\311\362=\312\022\317=\035\023\t\276\033\262*\276\373y\331\275\030\372\363\275\247\371 \276\341\311\311=~/\200\275\255I\263\275\350?\203\275\025\260\006\276\005=2\276\344\321\010>Xy\010>\214{\241=!6\361\275t\320P=G\363\004\276\231d\273\275\023\230\020>zc\205\275j\021\213<#\262\340=m\273{\275\367S\263\275\365\247\377\275e7/\276,\304\372=\340\220\263=\204g\025;\271\236\234=\346[\326\275!r\210\275\352\2416=\225A\265\275\372u\200=g\\\352\275(\375\264=\330_T<\023\213E=*E/>J\267N\275Z\276\036=_\365\302<\332\343\265\275T\205\n=d\305l\275\311/\325\275V\013\033\276uv\335=\316=\234\275\001\013\025\275\237\251#>\310a+>\032\364\000=\225\350\032>n\t_==\261\307\275`\213\360;S\034:=\254\357\331=.}\320<U\375\322<q\215\254=\305\204w\273\221\223\022\276P\377%>(\307\310<\364Z\024=\352\247\357\272\356\020\316<C\013\256\274k!\201\275u\356\375\275\267\303{\275^\274\303<\367\221\253\275\301\272\346=h/\037\275u\205\266\273\271b\337=\234r\227=\201\2321\276\253:\372\275\346\347(>\275\313\247\275\342\036\231\274\242\335\023=!\260\037\274p\224&\276\351\331#\276\317Pj=v/\023>\376E\024>\311\032\337\275\t\222\260=0\333}\275\320\252C\274\277h\273\274n+\210=\226\2622\275\346\240\201\275V\301\363=\250\257 ={\026\313\275\233\"\023\276\361D\001\274\013\241\312\275\341m\000>\243\346\225\275\035D\237<v@\370\275\244\343\030>\352\306$>\\\022\251=u}\026>Vb\207\275u.B\275\217\346\312\2742\313\312\275\252\330\017\276\342\253\002>]\275\230\274\020\370.>\240\037\325= oY\275\242\307\322=V\354[\275\315t\332;r=\002\274h\352|\273\345\205\307\275\033\010\003>\230\333\003\276\304]\214=\337\373^=H\204\'>.d\243=\353!\026\276\355R>=\246L\245=~\211\255\2753\3741\276[\221\017\276>u\204\275\337\332\006\276\213`\260\275\3334g\274%\345\261\275\360\353&\276\245\275\376\274]\332\023>\263\022\340<\010\005\005\276\323\207(=`\205\250:_I\016>\003L\'\276\343\340\375\275\254\270\312\274!\\\r\276\002\331F\275\006\251-\276\250p\337\271\'4\346=\214\321y\274\035w\300\275X:a\275\314\217\275\275\262^P\275\264\013\255\274\261l-=\306\245\001\276\033\327-\276\257\211\037\276\301\007\352=\3518+\276Y\020\034\276L\254\201<\223\253(\276\210H\021>\276\231\250=\322\267\236\275D\277\005\276\007\201\303<\026\201\226=\2263 \275\024B(\276[\344s=T\363\033\276m\272j=<\3651\275J\366\002\276\022+\211=\023\321\375\275\207\252\000>\230\346\367=\177\030F\275\206\224;=\000\346\315\275Y\376\357\275\304\3438\276\270QH=<1\014\275X6\344\274}Rm\273\016\027\027\276)\225\036>\364\357g=n\343\346\275\331\345\311=E\211;\275\013\336\366<\242V|\275\245U/>\350w8:\251L\026>.\207\366<\005\274\031>\231\362:\275\330\325\256\275\330\344\357\274)\224\033\276\324\033\346=\204cK=)W\323=<\272\031\276\2055\000>\201{\000>\202f\235=\216X\307=\365\236p=\263W\'>PN`=\305\236\020\276\374\370\013>\373\344_\275\370t\021<\316\265\266\273|\307f=\3715\342\275\226\224\024\275c,\031\2765\340\001\274\3231\275=\235\332\316\275v\030\366=\320\361\344=DM[<\207\274&>\024%\030>\367[!>\221HT\275\325\234\250=G.\222=\233\274\267=e\245\\\275\276D\275=>\376\035>GZ\203\274_8v=N\260\027\276Om%\275\277\341\031\276\3060\271\274\270U\335\275\344$\261\273W\215:\275\250T\021<\227\034\250\274\333 {\274\177\276E\275\345\262\232=D\344&\276\261y\370\275\033\330G\275\302\000)\276\372\245\003\276\335L\267<\376t4<*3\340=\375\n|=\203Hx=U\305p=|>\300=jKp<\306\\I\275\305\341\361\274#M\255\275\274b\270\275\313)t\275\232\007\313=\30342\2750\334\265\275n\263\"\276K\357\203=P\355\007>\242R\243\275\017P/>\356\034\364=\361*\314<\216\226\216=_O\r>?\247\031\275\2568\270\274o\365\245\275R\203\316\275p>p\275\\R\232\275\246\347\022\276z\033\007<T\1770\276\'\332\274=\365\257%=\374\3312=\'\2460\276YH\267\274jF\356\275\334T\014\276\261\202\"\276\345\313/\275\027\304\275<0\031\035>\204z\177=\343GJ\274FG[\275\r\223c\275\236G\301=\300\"+\276\205a!\276\344\235\340=\217\225\354\275\006S\255=\317\3721=Q_\214\275\002k\'>A\233y\275#}\003<\367\025y<\322|\300\275\231\373\354\275\200&->\264\224\330\27544\315=5\220\372=tY\237\275\340hM=\000\306\370=\317\265Y=\316M\366<\366\226\036=\317\377\376\274\031#e=\021\025W=:KT=\212|J<b<\251\275RM\211<.\024l=T\260\026>^6\230;\004\315\002\276\346p{=\332\362\271\274\003ot\273}\324\220=\364\314I=s\202\236\275\2778\n>\000\220\364<G\227\254=y\032<<\325\330\362\275\325i\021>\356\007O=\356+\274\274\035\354\030\276\262S\327\274\251\271\261\274\231-\035>\313\305\030>/\2015>F\221\001>\007d\n\276_\177\333\2752%3;\3172\203\274v\016\021\276 \n\313=XV\016>\322\367\r>\211s\234\274\001\325\010>\225\327\215=+\350U<\314\304\327\275\221R)>\036F\277=~\273\264\274O\235\357=\270\336\t\275\023U\003>6\311\004>\211\375\024>\244\200\006\275\3547)=BO\016\276b\363\330\274\034\311\314\275\035\222;\275+\215\374\275\371\\%>zE$\276\220E\311\275`\2416\276\004\262\270\274hZ\306\275\'\364 \276\031o\341<\347]\r\275w &>|$\t>\313\276]=\266\370\362\275\"<W\275\336G\305=\245\232U=A\001\"\275\220t)\276\211\236\355\275\227\325\361\275\351\0345>\230:%>\377w\000\276q}\240\275GY[=\tk\023\276\215\225\016\276\241\357\303=\341K\332\275}Z\320\274\263e\017\276\002\032\002\275?\n\245=\275R\267<\024\263\245<\3452\013\276\356\264\275=,\210\r\276\315\244\220<\261\262\006\276U\345\006\276\314#\212\273\200\377\004\276\210 \026\276\303\332\226\275w3\022\276\025\327m\275\324\3020>0\007\">\225\314\025\276\212tE=\033\000\353\275\356\316\264=\022\"\232\275\313%\334=M\010\337\275\334\306\215\274hQ\010<6\270=\274^\375\340;=\004\342=\364\3641\276\354|3=e\324/>\2522)>j\220\020>\264\367\351\275.H\022\276\271f1\276\344\032\'\276\307\340\"\276\202P\000>:]\030=\034\337\255=\226G\351\275N\244\034>q\244|=k\242(>\366J\361\275}\360\010\276r\300Q=\222\305\312\2734\034\304=\035\212\033\2763\320\224\275\336\374\241=|]\263=?(\006>\261\343\n\276-\224\334<\022\273\270\275L\342\027>\254\362\362<\r\325\006=\2653%\276\205\237\372=\\\355\032\276\250@\240<\220\243m=\240\310\253\274u\036\034\276$S\245=\352\305\r\274\277h\035>g\324\035>\034\331\036\276o/8\275\274\340,\276\335\304\036>\267\3308\276\317\003\237=\236\022\000>\320\230\360\275\271\033\001=\203-\000=|\006p=3R+=\312\252\242\274\035\346\275=(\023\005>\270\377\336=C\353\205\275\024\323\202<\250\r\202\275\271&\005>\013y2=b=\377<\313K\352=\231\257\332=?\341O=2=(\276\nb8\276<\310\365=\363F\304=\027!(\276`\000/>1\030\250=\362G3=1W\002>gz\021\2764d\n>\220H\035>\212\324\211\275\276\340\271=\333\307i<}\261)>(0\337\275\365\254&\276\206%\000>\237x2>\025\213\230\275\256{\017=\206\222\355\275\3473\325\273;\0307=I3^=\373\202j=\306\214\330\275e\213\014\2750%\023>\272l\370\275&\n\377=\355T\215\275\262\000\222\275)\262\027\276\352\n\033>p\023s<\360\331\020>w0\000\275\250\010q\275|:=<\014\346,\275\003\336\017\276\010,a=s\201\033\276?\334\020>E\323\320=\323\316\n>\3611\033\276A\376\017\276\336\226\r=0\314\313=\244\216\335\275Iw7<\336\004\252=&_\r>\264\0227\275(,%>z\315*>\335\"\024>%\222\010\275\303\255\221=\371}\013\276\332&\033\2763\343%\276\032\312\t\276\340\366\005\276\243|\010>\251;->\301\243\034>\213\235\226=\016\366!=u=\001\275\376\256\234;P!\377\275\033\243\361\275U\332\016\275\217\225\270\275K\224?;rB\373\275\215\371\035\275\244U\033>)K,>\205|\265=\016W{<%, =\222h\237=+5\005=\324\t\302\275\201},\276\374\362\237=ch\031>Ot\272\275\362G]\274\363XV\275&\251\301=:?\317\275\231n\035>\264\223\322=\007\253\256=\034\334\246=k\235k\275\222*$>b\376\213\275\\u\036\276aSz=\020U2\276\007\234!\276\374W\237;\237*\332=3\320\234=5m;<\254\337\307=\206\300\375=v,\265\275\345\272f\275\r\246\255\275j<\362\275\323\022\250=2l\026=\204\373\353\274\317m\007\276\362\301\025\276\030\206@\274\031\343\225=\336S\206=)\033\034\275>J7\276\337k_\275\251\002\006\276io\205=G$\320=0\271\200=\236\237k;\033\302\351\275.,o\275x\276\'=\003\334\217=\355\001\211\275\017\271 \2760\037\031\276\3608\010=/\224+>5\242><\024\361\030\275Z\"\215<\263\233\352=\223|\036>IA\030\276\001F4\274\267E\253=\2615\n\276\000Q\n>\350\227\'>\227l\020>P\262\260\274\253[z\275>\241\232\273r\243I=iX\010=\265Y\367=\020+M=\023\337\003\276Km/\276u\335,>\336\360\210\2744\037\030=\335\021\370=t\003\363=\221N\355<*\210\t\276\331\216\207\274\262\247\316\274\210\253\035\276gV\217=N\364\034\276\207\354V\275Z\007\205=H&\377\275\313\2432>\366\013->>\006\021>P\216\367\275\326\264\247=\363\322\000>\251(I\275\005\301\">:c\332=\306\177\366\274/F\020\276\212\021\304=\013\303\307=f\002\033>\037\006\216=\026\'\312<\330\352\365<u\276$\276\311\231\021\275\021P\023>$\312\336\274\314z\230\275\224E\'>\232\377\267\275\201\274\236\275\352\224+=\366\223\t>\316\205\037>~\241\225\275\377\350\026>0\270\t>i\206\024\2766\004\014\276\227k\334=\234\272M=j\252\037\276\253\356\250=t\332%>4\346\267=\302\360#\276\340\0041\276oP\221\275\331)\001>VK\331=\261{&\276\272\001\253\275Pb\255=\t\327\255=\261n\322<MJ\302=\023\300\206<P%\246=\202\356\225=\024-\033>\233\246\270=\207\372\003\276`xU\274\252\241\267\275\361v\213\275P;\r>\317\376\004=#\220f\275t\r&<\016\002\373\2748\304\337\274)S,>hO\\\274\253Bm=\355\030$\276\006L\271\274\321\035\022>\224I\t>\252\270,\275\250\342\352=\000\023\246\274=O\216:\023u\t\276}h\016\276A\032\301\275\202\n`\275\021\254$>*M!\2760\361\002\276\367\006\300=\026\307\007\276\276\033\001\275\260T\024\276]9\377\275\324\376\213=T\325\363=\310aS\275\375+%\276\232\330g\273\257\326\350=}\255p=\332\305\177<\362\260\365\275X@\324\275\254\366/=\220\3421\276\006N@=\215t\034\276.\246\300\275p\270\021>\240\021Z\273\226W%\275u3\261<\317\237\376\274\230*\016>\013O\023\276\341\344\324=\373\302f\274\341\206\217\275\312\024\352\275\225\215\016>Q$\336\275\377S\243\275nC\246\275\222\032\217=\'\216\302\275\322v\237\275\246sv\275D\202\332\275K\234D=\201\333\005>\033F\365=\303\374\007>\266\255\255=\002\313+>\276\370;\275\354\325\325=\214\212\202\275\277\r\274<b\313\221=\263\374\344={\374\257=8J\240=\001\263\036>\3434\216;\256K\326<\310J\252\275R\313\016\275s\035\220=\025\2016=$g\345\275f\013\237\275\375\002$\276e\372\304\275\010\266\\\275E\313~\275\370\231\021\274%\346\220=\215n\312\272PTT=\350\002\037\275\211\300\265\274\225q\351<\0314J=y\366\016\276tA\222=\236\203\374\275\225\240\365=\322o\246<p\2004>\220L\231\275\205\t\021=\0334!\276l\000\212=\362\210\344\275\342OC=.\255;\275\017.j\275d\014\252\275\370>\007>f\t\032\276\305\321\202\275\333\234\n\273$\345\336=\316\025\035>\241\323)>\311b\020\276\371\313\246\275F\3371\275\372\343\352=\216b\356\275\016b\326\274\374\025\234\275i\002M\275\005S\236\274\027\002\207\275\367\361p=\326I&>\246M\204;Nn]\275,f\267\275\353]3>\225\353\020>\210\326+\276$\261.>!\254V=\027^U\275\207\264\032\276\245;\020\276\261]\031\276C\343\034\276\344\276\272=\303\256\001\276<\240(\276S\2148=\200\200\016\2763\273\203=Bq\032>p\317\335=\320&E\275\222\214Z=}*\367=\347\364\371=(\277\027\276\270\261i\275\216\216U\275\275\240\311=I\354\250=\325\254(>\317\322\025\275\214\014 ;}\303\321=\340\256\t>\200\307\312\275F\327\360\275\225\321\264=\274\350\036\2760\340\231\275(\326I=\262\301\031\275[v.>{\252\031>\220-`=\205N\256=x\216\000\276n>{=\202\\\347<\332\345\223=\317\231\033\276\215\023M=7\177\365<\177\207\314=mE\311=A`\201=s^\020\276\362\266\203=\365\213I<\301\210\010\276\2700\007<\237x\013\276\325\033\036>K?\032>\247\240\002\276`\266\317=\257g0>\267>\345=]\274\000>\022\024\005\276\322Y!>\245c\321\275S\242F=.\277\362\275&{\375;bgS=\373\000a=p\241\275=\347\252(<\036]\273\275\200\320\037\276\367M\311=fg\360=j\335\265\275S\362\r\276\013\205\n\276\217Dm\275\202G\020\276d(\336:\361\3654>\235\250\323=,\004\305<z\270\365=\371\032\206<\201\223>=;1\352<\222i?\275^{\262=\375\n\305=\310,%>\236\276\272=0c\220=\212\020\260=\330\020\033>\244\227\024\276\3201\255\275?@\327\274x)\257=3 \252\275wd\033\276CR\336=\013>\206=?K\003\276\365\010\207=\022\230\272\274\324\271\004\276\221\244\267=\310]\255=\002(\035>x\'\352\275\317l\312\275\330Y\314\274\221E\264\275\022X\204\275\256+D<\213\277\204=\263\3323>]\325\251<\037\245\274=\212\305\034>O\246@\275\255\014\250\275*\177)>\314\207\361\2752Y\311\275\315\022\327=5\266 \276\340\356\377=\364\235\267=\361\332\313\274f[\326=o\326\373= 7\217\275\317C\362\275\2742\346\275?\350\302\275\375\272\234=\3450V\274\252\022\235\275\266\003\007>EM\316;S\247K\275b\250\036>@\362\036>P\257\340\275\240\205%>\0346-\275\273\260\373=\256\255]\275\331R\243=%\270\353=7\350\n\274\177\'\037\276t\226\t<\207\241\024\274\0204\326\275.\306\'>\320\032\'>kX\000>\205\265\330\275\205^M<\252\350\373\275\365\033\314\274\010\220\263\275\224\254\320=0\360\245=\237\035%=\330\024D\275\326\325\035\275\221e\375\274\002\217\252=\007m\212=MJ\374=S\243\221=\331T\275<mv{\275\016\271\255\274\323\3319\275Q\342\207<\347\215\204\275\r\035.>\264*\024\276\246D\002=#\370\032\276\214\021\362=+,\014\2761\035\254\275t\237\353=\232\255\r=\320\354\032\276\245m\014\276\250i\253\274t\241\333;\033\0218\276\203\245\342\275\377\037\333<Ko\264\275\3735\002>,\t\311\275\211\271\244;\376\240L\275\310\263\325\275\343\r\030>\017\360\006\276\263\374z=i\320,>\004\222\034\273\022V\241=\033g\r\276\354\001\"\273\004n\311=1\0009\275\372\344\207\275\205i\t\276\352\350\003>z\373\367\275|Q\236\272\013L\343=,/\215\275\204\326\304\275np:<\214\322&\275\376N\037=\227\261\212\274\177J\324\275\213&\266=)\247\340\2758|~=\361\"\020\276\\[\345;\355\223\t>\277\210\014\276\211\215\027>\231\351K\275\304P\276=\355\n\253=\366\320\245\273\265\034\361=\365\206\t>\026R\347\274\001+a=\350\226-\275\207\336\325;v\226\270\275\354@d=\316G\211=\033v\342<Et\004\276\234\247\334=\216\320\247\275\255F\001>\302\021\274=Bg%\276\256\372*=\260\211\363\275+E\341=h\335\243\275}\354>\275%\n,>v\215\247\275\343\327\323<\347K\t\275\312\320\264\273\221E\335=R\023\214=\231\266.\276gj\374\274\310\212\325\275Bl\210;\317\277\265\274\226T\334\275w\375\256\275\271:\n\276*%\007\276\231\\\353=\350<\320\271\322\177\250\2726R/\275\343\031-=\346n\372=\375\340\206\275\277&l=\342i?=\2054\326\275\253\000\244=\316u\t\276\020IC=\307\032&\275\005\300\365=l\014\331=6>\375=\270\371p=\224$\233\275v\230\237=\333\227\342=\221\374\242\275\356\346\257=\224\363\263\275X\216\367\275\020\340\016>*c\017\276\251\005\276\275\302\355\375\275\024\016i<6Q\004>\375P\213\275\354x\376\272\340\004\001=\\n\256\275`h\211\274\'\365\365\275p\324\324\273\320\322\304\275)Y\021\276\017\372\310\275\003k\206\275\001N\t>+\360\215\273\304\227F=\214\n\214\274\201\250\347=\006\362\225\275\335L\'\276\350\327\016>\311\027\307\275\331\326\325\274c\261;=\333V\376=`C\035>X\312\276=!\027\315\275\336\"\007>Q\262\013>\027\261\235=i7\237=\0247\014\275-\211P\275_Q\031\276\032\311\027=\304\361a\275\211\200\354\274\324{\014\276\225\317\333\275\021\215\035>4/\241<H\250o\275\'\236\252\275\252\242\364\274o\025\'>\024\244\035>\027\200\215=\200$\374\274\253\336,\275 \312*>\366M\312\275\237\202\350\275\2723->\315\360\001>\243f\"\276\210 \'\276O\235->\237\037\013\276]\327\017>\362\220T\275b[Z<\334\220\365\275\346\357\313=\307p\255\275\300\216\017>\273\304\032>\\\354V=\315B-\276SV\367\275\303v\303=mx\305\275Z\336\247\275\237\270\215\275\214qq\275\rMS\275\244\213\343;\033\320\177\275/\014Y=\304_\327<\311-\347=\261L\324=7F\213\275\241\234\013\274\202\305\255=s\306\301<\331\325_\275\263\247\025\276d\220\002>\217\331\307=E\224\024\276.\262\014>\261~\374=\362\205c<\261\330\373\274\263\037\316;\373\366\305\275\274\375\002\275\034\302->m\357)\276\341\335\016\276\220\344f\275\221\343\010>\23142>?\375*\273\334.\n>\266\237(\274~\246\r>\253\3724>vp1>A\003\365\275\214\'\253<\266\327%\276r\204e\275\275C\002\276\000o$=HX\306\271\371\353\267=`<\037\276\013V\236=\216\372\275\275\370\261\030>\347\365\014>\322y\261\275\213M\263\2745t\333\275p\203n=S\332\021>^\017\013>W\217\275=\004\352M\275\340\2014>\345n\275\275\035Q\307;O\336\024\275\177\002\330\275\233<M\275\004\224\010=)\254=\2753\232\n\275\005d\033\276.\374\013>\206\013\t=\226LO=Z\243\223=\212\361\037\276\251\016\340\275c\211i\274g\202=;\360\026\263\274(~\034\276z\247\016\276\301\265\361<\320{\216=\340\001>\275u\313(\276@\260o\274\221\347(>\277\244\004>\203\316\225=\222\237\031\276\"\211\034\276\210\331\256\275\223\270\001\276\354F\000>\307F\032>\316\r\024>\272\315s\275\2008\014\276*p\267\275\211\352\305=N\224\372=\3707\324\2754\210_\275F\352\375=9\350\001\276`G5>b\231\245\275\316\317\346=\342\273\324=\310\330\007>2\203%\276N\336\265\272\207\364\013\276R\026\246\2750:\204=/v)\276\255\303\255\274\237c\376=Nu\205\275fj\014\276\271\260\230=6c\024\276j\034\204\275\"\236\232=\331\273\177\2759\205\314=\235\372\345\275\204T\253\275+\341\201=\346\212\t>Q=\215\274g\320o\275S\257\247\275\025\255\254\275\253\357\232\275q\303 >\0044@=\r\306\310\275f!\024>\262\004\n>)\314\271\275\2746\300\274\324R\031>l1;=\004\354k\275\274v\361<u2\240\274\336\3153\276\326I\347\273%\202\250\275\236:\326\274\341\204\216=\376\213\370=\372\014\021>\027\000\227\275\261\036\312\274~\345\256\275u\312\200\275q\373+>d\352\"\276\251M\266\2754w\035>\220.+>\252n\030<yw\320=r2\254\274.\024\005>\032\355\230=\202\177\034>Pz\314=6\262.=\230\374\243=Jv\213\275:\307L\273\227\227\253<lt\332=\343y\335\275\022\262\270=#\035\200\274\020X2=/|&>$\327\\<\227\277,>\322\254\261=\366\247\326\273\302#\243\275\034\r\222=\003\304\026>s1\027>(\256\367\275d#\037\276-\265\254<\264\322t=\361\025\'=T\r\315=F+\256=\004\357\237\275\035E\020>\to\177=\357\360\360<\334M\001>+P\037>(?\240\275r1\024>\271!\263\275o\224(\276\004q%\274`\202\334\274|#$>rN(\276d\204\363\275\321\002[\275\242\013\025\275\340\036\310\275\277\005\035\276&|\375\273\024\317\r>\235#\211\275\333\371\246=\306\264\\=#\034\233\275\305\261\365\275_1\250=\242\222\344\275\371Z\224\275\0176\n>\264\345\314;\3343\261\275\2117\274\275\264\"\236\275\215r\\\275R\336j\274\242`\213\275|\266\244=`\345$=*\247\202<\364}J\275V\347\201\275@w\254=j\\\376\275\313\321y=-/8\275t\206\022>\351{\312=;n\021>\236\310\034>he\220\274K\201\267=\342\333\036>Or\272\275\350X{\273\364&\240;\022P\r\276\326v\036>>vc\275\341+\r>\372^8\275A\"\256=\215\217\004<;\240\022=a\t\226\274\277\343}=\253b\306\275\335\355\231\275(I\367\275\370\320\200\275\027\227-\276\271\027\257<\363Y\033\276\247<\002\273\275wf\275Y\333\354\275I\260 \275jf\255\275\217\303\036>$P\300=`\267\031\276\236\013\363\275R\000\027\276z_&>\222g\003\275H\254\234=N4#=\306\005\254=\0041\020>\326\031\013=\25631\276}B\224\275\354\256\335\275\310\374\030\275D\027\014>\265\300\270=\nu\346\274\244N\232\275\276=\032\276)\227\035<\030KQ\274K\362$\273$\235\355=\355\340\014\276\375\322\220\275\244\233\255\275\317\0025;\234\243T<\362/\002>C\035\334\2720\304\276\275\247\200\233\275\334Q\337\275\027\3455=\335\020E<\310W\250=\270m\202\275\201\243\323=j\300\'\276J\346t\273\231\261e=\375\200\026>gy6=8p\236\273\310|\022\276[\326s=\215(!\276\001d\000\276Y)\222\275\246B|=\357q\336=Rf\021>\266\005,>\264m\325=\n\002\253<\265:\032\276\010H\016\276\340\234\022\276de\336\275\356\027\273=\261[\233\275@x\251<\3354\266\275\020p\350=~\362#>\327\027\326\275\264\205\035>Y{\233\275\002\272E\275Z\302\255=\270%\013>\377\272&>r\335\223\2751\340\263=\236M\371=\302\005\332\275.\247#=SP\020\275Yz\265\275\314\361)\276\357\013n\275{\004s=\036\017\220<#=\221=\023TR\275\241^\017\274\336\031z=\314\310Y<WS\016>\254\002\315=\"\274|=\005\027\224\275\253Q)>\254t\352\275\355\261\275\274T\033\310\275\267\315\"=\276\270!>q\307\014\276d\177\354\275\206\004\241;\373\377\274=\212_g\275\025{\354=\345\324\033\276\351n\024\276\304\203\240\2750\320\211\275h|\327\275\273\275\273=\007\231\004\276KS\027\276\304\373\277=\301\002\020\276\3253\205=n\246\250=%|\260=CH\'>\326|\026=F\367\376;)B\354=\375\235\356\275\236\342\262\275\234\353-\2769t ;S\032\342\275\262\325\253<\272\233\301\275S\307\227=\"\031\352\275\275\217\344=c@\232\275\365\030\036>\245\206\024\276\037Z#>\210\334D\275\213\260\305\275\250\300\234\275\354@\275\275\2676\330\275\210T*>\273\007\252=H6\205=g<0>O~ \276\010\322\206\275\223\347i\275=2A=\266=\010>\245\317\030\276\224\301\005>D\231\326\275\377\312\031>\200\023\266=\300\372\260\273\334T\372\274\032Q%\276#\372`\275\032 l=9O\240=6\227]\2744\3040>\276\232d=\205j\025\276\026\026\203\275\347\360\276\275\310\306\351\275je\020>|\225\013<^\327\232\275\230A\3049\235\325\'\276~A\375=\327\177\245\275\322\026\324<\343\302\250\275\023w\262\275\316J\304\274\200>\370=T\304\260=\002\030\016=\233\336\314\273-\376\006>\\\277\217\275[\231Y\274\' J\275\037a\031>kT\035=\261\371\334\275\336<\350\2755z\"\274|\250(>\005\334\352\274\307\225\026>\201S\357\275\237\362\035>\360\231\0079.L\031=\371\026\030>$-\003=\371\261\267=\365\262\330\275N\032\225\275U{\205<\031\311u\275\304\004\331948/>8\262\'\276%\233\336\274a\314Z\274\255y\341\275\007\034\374<-EC\275`p\202=(\225\331=\251\261\037\276\261\307\206\274\272\005\335=]\376F\273\213\202g=!.\332=\034J\326\275\2242\037\276\253\256\257\275\024\313\343<\221S\347\273m\323>\275x(\007>\271v\312\275)v\323=:\326\023>\236f<\273\017\"\013\276\210\025\311\274\301J+=\277Bj\275\321h\026>`\025\000>?\247\255\274^\370\005<4\013\020>\366\273\254=\202l\322=\216U@\274\306\373\307=\360\207\"\276\350x\014\275\332)\010=\262R\021>\250r{=\223\375\201\275\023\252a\275\317\322\264\27580\270=\317\037\037>\374M\027>s\242\317\275L9J=\277U,=h\326\311\275\021q\262\275\257\330\347\275\020l!\276y\037\364=w4\324\2757I\001=\330\246\006\276\253\342k=|-q\275\300\306\013>(\367~=\"\375\r>1T\035< \363\227<\246\264^\275F{K\275\203>Q\275\001\342\265=\267K\332\275\200\305\234\275y\230-\276m\214\026=E\252\007\275\255\0072>\264\276 >\207\027\334=zl)\276P\223{=b\335d\274j\331\256<\347\340\204\275\024R\277;\347\000\224\275\367j\227=S\205\371=\215\0304\274\207\367!\276\256\211\r>\251\201\377\275\267\223x\275@\304d\275\257\035?=\215:\355=,T\214=\220\223\244=\351\276.>\361\341g<KB\213\275\351\"q<\262q\320\275\210j\t=\210\301\177=\007(\221\275\246\n6\2747\262\252\275?@\371\275.\360\005=\364\200p\275\301\255\303\275\355\275E=\233~\276\274\007+ \276\027-\026\275k2p\275\006\231&<\006\273)>\2627\020>\242\275\032\276H-!\276~\226\307=\342M\372=\030P\366\275\300NL=?;\303\275v\211\004\276p\034\231<\333\275\007>\200\210\252<\231\365B\274\2357\367\275\342\350\265<\261\220\344=K\351\034\276\247g==\334\235a=R\267\023\275\325j\023\276-\036\262=\216\341\370\275\036l>=\341x$\2768\"\274={\336J\275\\\326\325=\246~\274\2751L\220\275\002\365M<\312\025%>\277\367\002>\274\311\225\275\342\351\366;\223y\307<u\347\372=\230\203\260=S\211\324=\262\251\010>\025\233\036\276\221A\245=\243\030\362=\323\006(>f />0A\316\275\267\035\322\275\030\216\023>S\331\273\275I\214\202\273\234\200\035\276\322=\031\276\221)*>\016)\025>\356H\r>g\\\211<\350\215\326=\033\202B<1r#\275\033\255\r\276FX\177\275\253&\004>\357\265\341=\2316\322;\225\245\322\275\223\027F=J\033o\275\260\"\365<\364a\306<\322\346\320=Z\315\325=y\306\017>\005xu\274\237\375\331\275iK\347\275O\210E\275\333\031\343<\006\n\014=r\330\221=\227\234\214\275\373\n\264\274\3112\033>\272\014\331<\274/a\275Dg\300=\360\025\361=\222\377\200<\223\3253>\277G\273=\311\263\254=\370r\177=O0\244\275\303\256\000>\017\326\t>\314%\224\275\006f\373\275\274H\301;W|\035>&\336#\276\352\037/\276U\314w=!\243\357\275\367Q\t\27624\330<\177\202\020\276\204\355\261\274\372~W=lN\353=n\227\323\275\223\230\304\274\246x-\276j\007\025>\256\211\004\276j\245\027\276\345\310/\275\365^g\275G*\246\275\1774\315\275\302L\317=\242\t\r\275\300\206\351\275p\206\300\275\315\344\261\275,\227\364\275\326\377\005>l-->\177Y%=\337\311\353\275}-\235=hJ\032=\3654\357\2752\351\306;!\024\017\276G}1\275\232\216\t\276W\005\364\275\304>\223\275H\375*>Pa\010\276\007\035\353<w\337\320=_\204\201=\357\222\272\275_\002\235;\006C\321\275f\177\352\275\216^\305=iA]\27452\022<\325\237\027=\335\246\217\275\250\004\025\2768\207-\275v\037\243\274s\213\353\274\272\207\257=\300\"\017\275x^2\276\rV\014\276jW\321<Q\332\220=\312\320\031\275\234GA\275\226>\020\276]\325,\276\346W\023\276\240\231D\275tV\242\275f\033\204=\241,\004\274\303\341\021>\337\202=<\235|\227<\310\371,>]F->\270\257\232=\\E\275\275\0327\017>\363\373,>3\006\311\274r\320\351\275\327\372\304=\317\004\037\276\031Z\002\275\27002\274\231_\"\2762\225\026>D\r\034\276\223\002\020\276O\"\254=Q\214&\276\353\275_=>*\355<\333l\260\2754V\307\274\"\357<=@\007\265=h\202\377\275\267\261\r\275\276h\265=\247\006\301\275\232\002\'\276\373\227\243<\026\345\266<N@\327\274\312t\237\275\260\305\354\272cm\014\276\2346\021\276w\311(=\317\200\321=\023\247(\276>\026\232<\226XC=\013_\325=\242E\223=m\377\'\276g\272\230\275\356\375\374=\224:\r>\025\354v=4k1\276\355\202\263<\024\206\334=jko<I\017\024\276V\002\214\275^\303\310=\365Tb\275\273_\216\275\266@\010\274\262\322\n\275\3210Y=\260q\355\2759\027P\275\256I\031\2753c\214=\306\036\211\275\211\235\035\276B!\342=\346{\356=B\375/>g\036\003\275\te\031\275$\242\376\274\005.\230\275\356\372j\275\233\014E=@O\023\276=\370\277\275\363\353\307=\221,\202\274\256\246\016\276\262oH\275\374\270\341\275\362\312\256\275f\237\256\274\267\207p=\023\226 >\366r\354=\\\267\346\275\376`\273\275^>\276=D\237\324\2749^]\274$\234r\275(\225\211\275\313\\\365\275Wn\037>\247\004N=\226\206\261;@TU=\001\351\001=y8\325\275\367\315\307\275\247h$>S\360\227\275j\200\316\275F\356\010\276\210\221\302=,\274\010\276U\250\350=\350\306\006>\325\031\220\275<%?=%\177/\276Y\010\277\274\334\326\034\276m\351\t\276\306GM\275X\363\037\275^1\261\275\215\315+<\350\210\005\276\212\233\254\274\210\321\357<\3619\333=\204C#\276i\030,\2769i|\275\267H\031\276\244~\221\275\024\243\345=\207\220\355=`\016\344=I\303&\276\334U\024\276n\357\030\276\304\3152\274*\372c=\343\331\010><\207S\275\n\322\177\275\312s\353\275\001\241\021\276\226\257\376\275\2346\242=\027\335\021>\241\245\217<\314\362\017\276\232]\257\275\353dI<\016<\221=:\321\237\274\227\275R=\345\323\256<\260V\311=\307\004\354\274:\016\274= T\326\275\022\211\211\273\022\200\307\274\307\366\243=\252\3257<V\217\373=\252\226\030\274\270\326 >`\274/>\265+\265=\217`\360<\2714\267=W\005\037>\306Z <\267\t\223=4\257\007\276\326\377,>\336\231\201<\275]\216=\350\363\211=\031M\302\275f\352\264<i\032#\275\272\177\363=\3473\272=oa\276=s\300(\276\276\214Z<\206\366:\275\300\264\017>a\223/\2766s\245=o\023\215\274\366y7<\244\305\272\275^\034\221=S\215\002\276\201\315\366\2750s\252=eM\227=\350\362\256;\252\301->\025\301\240=\273]\021\276C{\352\275\242Y\230<\2212\366=Z#\343\275\003\210\305\275\335\363\001\276Sd \276\010p\217\273t\r\037>:!\002>\301\317n=\314\203\r\276\021\213e\275\203\243D=O\332\365<Hm\332=)I\367=\231)\'>F\351&\276\025\273\364\275\272\346y=\031\315\205\275\311\255\033\275\217\265\223\275\034\265\272<\034\222\364\2725\010\321<T\301\335=t\030&\276r\351-\276\361\321%\276\3767&=j\363\311\275O\342\357=3\302\032\276\'\270\335\274\360\000\347\275l\354\024\276/1\270\275\334\357\017\276dq\332=\307\024==U\353\304=\253,\272=8\232\307=\225H\366\273\321\234\006\275E\257\323=t\310\213=\251\337\216=w\023\335=\326>\240=\214\242\010>\300t\220=\214w\016\276P\233&\276\330\324->\361\227\260\275@T7\276\037\263\366\273\035\306\026\276\365R\032>\225\267\017>$:b\275\336\220\224\275\323\030\312=9N\247\275\333\3023\276\335b\035>\010\t\'\276\244\0270;= \245=u$\270\275g\274\'\274\375\275q=\204=$>\020w{\275z\270\361\275\273\033\377=Hd\027\276\344\362\031\276v$\276=\301j\035> \t\214\275$\332\202\275\251\031\025\276\"4\256\275\251\330&>\032P =\224\tu=\265\010\302=\207\006z<\027\266\345=\215\373\241\275\346F#\275\2004\004\276\376\234\355\275\006I\024>\276\000)\275\214.\332\275 \326\205<\234v\276<\364b\032\275\307L\360=f \373=N\212\203=\372U,>v\016\202=:\221\325\275\315\035\005\276\276;4\276\374\202p=+\246\227\275IF\320=\361\2374\275\233\333g\275\t\217\t\275,\n\301;4!-\276Vd\034\276\001\243\006\275\220\022_\270x \226\275H\030\362\275RhK\275\377\314\254\275fj\252\275\326I\353\275\260\205\231;\024D\033>a\0030\276L\027\325=g]\312=u\004\037>\364*\027>`\306*\276\217t\242\275\025\305\250\275\017&\r\276Ms\236=*\023\315<\340\306\212\275\350\230\371\275\2509)\276]\013\252\275\336\231\340=\"\010\242\275\211>\317\275D\000+=\235\235\237\275\267|\t>,\332@\275\311\237\023\273J\267\020>YO\232=R\211+\274v\026\277=vf\302\273]%\"\276Q\036\215\275\334T\333=zo\217<h&\027>m\215\230=\226~\003<\324k\340\275\t\320\217<M\221C=\215 \000\276\212\234\324=_\275\267=\203\'\237\275\324\246\017>01\026\276Q\333\260=??e=\3706\000\276\244H\352=\374\312#>p]\n>\3549\327<\n}\270=\326\035\260\274\274I\022>\000:c=\303\250\371=A\032y= \312(<\357Z\356\275\036\023\371<a\227\022\276\372\266\243\2758\272a=\334\267\264\275\374\'\270\272)W\207\273\324\267\374=\216\306\342\275T\265\'\276\010\253\355=\265#\215=`\034\227\275\264?\244<\002O\221=\307\321\310\275e7\034\273\246\206j=\244\023><8\301\002\273\267\\\026=,\252\235\275\002n\225;\306F\215\275J\377\216=\2743*\275\372\n7\275g\325\345\274\256\341\023>:X\035\276\224\373\211\274\226\010\030>8\205,>\000\213\017>\210\007i\274\344\211t=m\375\242\275\3676\031\276\252\350\212=\023\251!\276\252\254\257\2755\265\n=\244L\263=W\267\277\2759\343t<\346\225\003=\014\310\235\275\224\026\r>\003Z\245\275\206\250\353\275\206\363o=\301\361\236\274\334r\207\274\022\313\361\275\372\353\n>\356\337\243=H\251R=eR)>\253\031\022>\231\004\'\276\240C)=++\031>\347\251y<\n\273->\376\241*<\375\036T\275$\233\033>\204t\254\275\313*K\275\035,\n\276\0213/>\016w\324\275G\347\217=Z\221\226\275\217x \276:\213\374={z\001\276A\006%>\n\330>\275\313+\035\276m\342$\275,b\005>\265#\217<\245~\267=-\354\360\274iv\364\274\235J#\276\312W\001>\223\326\207\275\345\246-\275\2043&=i\244\336\275\205\352\006\275\034\221Q\275\371\004\r=\262\014\351=i\254\246\275l\245>\273\326\211\260<=\002\026> \212\2018\226_\261=\247\253/<g\227\003\276\261~\">\331\276/\276\353\037\353=%H\257\274\224Q\252=6\032 >\017\007\366\272\377\207\264\275x\264\207=p\304\344\275\331H\316;\231\226\364\275\361\014\257=7\306\"\276\340u\0219!\006\'>\335\324\004>\355\305}=\265\263\017\275\021\240\253=1&\201=\270&\314=\2558\205\275Q\341\207\274\322|4\275j\374m<\031\353\025>>\310\003=\222S\346\275\026\\\005>_F\037=\346w1\273VIu\275\226\251\244= \"\356=`\252\377\275\316\304\036>\036\036`\275\372\304\227\275\222\264\035>\260\235\241=\313eJ=T\206k\275\032\336\321=#\204\337= \0251\276\316\031\271<\352 \005>\340c \276~\246\232\274\003H\000\276\017\034\022>\373\361\233\275j\322\370\275\237By\275\332\321\t\275\327 \346\275 \225\004\276X%\217=M_\357=Ug\003\276\347U\004>\330!\302\274\232\257M=\330\030\023\276\235n\303=\327\014)\275\334\232\032\276=B5\276W\030+\276\'Q\271\275\006m\'\276$b\305\275\325\216\346\275\365\n-<%\252!\276\351\312\234=\321\330\351\275\271\223!\276\326\216\366=\332\254&\276\272\266\275=$\352\004\276Z\366\'>_}\327\275\355D\321=\374\"\000\276\003\347\027>\362:|\275\r/\335=/N\003<\205$^\275\364!\362=a\203\215=\255\251\221\275w\241\322\275\376\310\315\274\321m\223<\361\256\275\275\341$\"\274jN\212=\005\033\254\2757\200\022>\376\274\250\275\032R-\276\240\321\002\276>\252(>I3\361=@F\217\2757\235\031\276\270\326\252\275x\324\305\275\327g\372=\276\230\321\275\216\366\322<\'\277X\275\"\361#>\005\373\234\274W\346\320<$wI=\232m\">\254N\350=\3604^=\207<\277=\330\356\260<\345z\337=L4\374\274<g\034\272\334\312\302=@\320\034\275\363\316\023>\205\t\257\273\374\350\353\275\271\210\342\275UW\260=\036\037(>\352\226\035>b-\303<|\007==\260\271\261\275T\'\314=\377\030\357<\222\033\370=\304\022\332<r+\'\275* 8\274\r\241\343=s\371\304\275>\353\216\275}\307\241=\315\023\t>\310\300\177\275\367\n\013\276\255!\315=\314+\002\276\314\315\037>\273\233#\276\370\003\026;!\006\370=\245\232U\275\240\231\306\275\337\177\325\275\241\343\377<;\034\204\275\212\311&\275,\352\316<\270\210\331\275\313\347&\276z\240\037\276\334\363\305:\335\304\030>n\315\307\275^4\260=2\275\307<\2044\035\275\014R*\276\334\234\r>O\240\204\2753-*\276\376\223\014\274\343\216\322\275V\225\034\276pv\327=j\014\257\275w\313n\275\336\245\034\276\325\266+>\274x\020=\345\034\334=EQ\320\275D\210\033\276\235\264\320=s\024\260\275?N\221=\375\306%=D\023j\275\350\304\016=@\373\343=,z\217=\3555}\275\302#\366=`\024\035\276\275\244\337\275\266A\002>\216\370\302=\201$\023\2766>\245=\300*<=8\345\340<\340\357\323\275\305vr\275\207u8=j\211\257\275YKu\275\276\210\313\2753\322q\2750\311d=\366\315\234=h\3002<%\313\t>*\220\013=p\245\314=\264\244!\276\213)\254\275\020\\\276=}R+=\036]{\275\340\017\005>\021`\242=\233\025\216=yg\371\274]a\002>\260\324\333\275\0373\310\2757WC\273\257\005\310\275\006^\241=\221%\353<\234\355\354=\201\006,\276p\330\350=$\361\306=\246/R\273\226\235n=)\300\037>\231\006\263=\356W2>\037\266\377=\342{\016>\004\353\">\320m\274\274\244\276\t>{\220\306\275\200\005\n>\036\033\323=\363\301\017=\224\232\355\275\014#\007\276\304G\017>\347\035\363\275K\252\341\275e\345\263=$\201\216\273)\177\226=\306\273P\274|d\006>\231\210\360=\247\024\225\275:\236\002\276[\227\030><\274\001\276\302\315\301\274\2700\251;2W*\276\347\241\016>\025-\255<\324M\302\275U\025\235\275Vo8>\205\212\027>\305\\.>\030+z\275N\215\n>~\277}\274\321\260\254=u\277\024\276\303\232\'=\241!\253\275\351~\022\276\036\356\313\274~q\032\275\"\001\325=\205\225(>\222dI\275\364s$\276\nr*\2754\233\257=v\377\273\275&\320\220=\227~/>\211\254\024\276\031\274z\275[\347\331\275\356\262\243=zr6\276\371\331\021\275\306f\376=\317\262\257=\"\026\275=f\'\031>\037\'\\=`\002\"\275;\223\266=t\336\024>\t\305\025\276`\3660\274\200\226\373=U\225\376\275\206Z\240<\254\223\327\275\262^\254:\336<\t=\343#>\274q>\255=\257\222\020\276\3709P<}Q\020>\344\267\r>\267\365\257=\351\355\200=v\204\331=\204\244K=w\"9\276\362\346\323<1\215\216\275\252\311\237\275\361\0324\276U\340\213\274\270\tH\274g\"\'>n>3\276I\243\360\275\r\216\023>\024\343\274<\257\312\025>DS\004>\225\206\231=JDp=P|\013>R\'5\275}\316\376=\210\337\033\276$\303\373\275\002 \331\275o\214/>1\026Q\275\222LZ=3\354\355\274V\033\003>\336\226\346\275\013\350\303=|;!\276oF\355<Q\177/<\227\025\004=p\345s=\302ay\275Q\200\024>\340^\335\274\264J$\276\334\204\307\273\221\306\315<\225AS\273y\227(\275\376\017+\275k8\242\275K7n\275\265\2542>c_.<XW\273\275z;\030\276\205-\306\275\222\371\262\275\325\232B=\271\273\031=\317\307\027\274D\254\234\275Y\363\020\276#1\023>\024\304\342\273\t\372%\275\024\301\251\275r8\320<b\355\375;\204p\001>\366\261\367\275\004\020\331=,\236\034\275\233\277\214\274\304Ac\275\376\310\025<K/T=\240H&>\317}\362\275k\217\202<d\224\255=>\251\274=\375\227\014>\265\013\325\275~`\311=\030\323\354\275\367\324\002=\354g\026<]\236\347\275g\336\263=\217\0010>\234\301\341=\225\375\330\274?\366\253\275C\250\213\275\212}\251=\221\324&\275G\336\375\275\334M\323=\360\234\034:\324\337\273=\"J\027>\215\304\364=\t#\032\275_\327\327=DY\003=\261\247\233<\305X\275\275gM\333=e\332\016=IK\350\274\260l\222<|\026j=\024\3119=\262\303\275\273\226\205D=\033j\031=1L^={x5\276\362\2316\276\343\322\311\275\221W\255=O\375\030\276\365\372\032\276\035~\034>>\253G=\374\302K\275\236v\252\275\275\275\205\275\2334(>\362\004\304\275\360\326\n=\010<\"\275o \361=]\254\037\275\024\213.:\275}\017>\n\312O\275\365H\341\275\223%\270=>\203\356\273$\233w\273/\234\026>J\'\347\275\035(#=/\'\313=\014\263\376\274\215\230K=\r\300\210=\225f\351\274\202\010%\275E\204\031>}\260\300\275\'\357\370\275C\303\371=F1\244\274^\264\247=\020\261o={F\002\274\303gw=\227\215(\275\003\344\247=E\310\346\275\177\215\334\275R)(=U:\033\276\036\331\027=`0\231\275\215\355\362\275\345\3672\273\030\200\">\304\336\222=\323\336\261\275h\350\371=f\363o\2756\322\207=\237\202(\276\2337\275\275:\014\220\2753J\362\275\001o\017>\304\332\274\275\256\274\237\274\370o\225\275\360`>\275\324\242/>D\221%>X\264\233\275p\\\307\275\216\374\014\276\330x\242=\232\036\230\274W\323\315=\362\312\017\274Jr\017>\014\370\004\276\327e\357\275\033\321N=V0\347=\253\221\325\275\375\204l\275\2262\317\275-L\250=\345\316\365=\2278 >\177\343\240\273\343\244\031\276\224\031(=H\nc\275S\340\023\276[\335\022\276\202\210\366=i\342m\275\307\332\355\275\276\332m=\017\360\246=\371|\013<\250\271\306<K\001\230\275\000\303\271\274/\nT<\373\242\232=\337Ig<,\020\005>\236T\274\275B\276D\275u\202\230\275\315\344\357\2748\217\200\275\245h\240\274T\027;=\202\031\n\275\004\343\024\276%b\n>\3504~\274q\373\026;\376v\007\275U\037\013>\377\321\025\276*\270\242\274\313\023\256\275\234\274!\276<\337\031\276\256~\245\275\326\355,>\316\207]\275\311\303!\276\"\227!\276\241I\234\274t\302\242=\023\335\236=\000\005}=\351~&\275\275\221\221\275S\275\020\276\357 b=v\262\024>\\K\000\276P\003\214= \033\026>\236\205\025=V*\213\274\000\235\327<\315\342\316\275\243\273\216\275\316\t9=\010/\371=\320\321\026<\373\027\025\275\324\025\021=Pw\020>1G.\276;A\006>\312\237E=Pn9>T-\035>~L\017>\325\242\022=\327\320\231<\236m[\274ku\017\275\310q\235\275\213\313\001=\n\"\352=Y?G\275%\301\335=\353\214\003\276\321\2720>$<t<\001\024\226\274\366\273\276<\257\255\030>:\0249=6A\274=\363\002\005=\003/\007\276}3\003\276\363\274\323=\277\256)\276I\222\333\274\372/\246\275\257\321\030>\234\033\354\275\311N\313=\323\031i=\314\252\005\276\035\276\334\275\254\357\236=J\231\376=?k)>:\210\177=\206\013\361=\r\300\324\275{cW<xp\331<*%\370<\337\264*\275\336\214C=C\203\307\275\013\307\341=\014\201!>3\317\027>B\2511=\223s}=\207\033-=p\024j\275\225\024\374\275\003\312\035>\264(\313\275\005\350\024>\345\307+\276Q\243L\275\353\016\223\275\276\325\002\276\252\240\327<\255\216\206=\361\3118\276\317\0108><\013\351\275N\317\030\275\032\001\001\276I}\204=\277U\330\275*\326y\2755W\227\275RV\301\275\342>\n>\210a\304\275\311Sc=\332\341\272\2751\005Q=l\322=\2744C\333\274\'4\'>\213\224E<\024\376\205=\322\201t\275\364\377\020\275\272\034|\273\30470>\271\241\027<o\327\023>\233\322\034>u\272\367=e\214\271=\'D]=\223\305\370=\231\263.\276\205\376\274=\240\241S\274\264\026q\275&{N\275\352\274\244\275~F\230=\0204\000=,\216\025=\375c\032\276\270#\020>\364\241g\275\250T\n>\320Q\344=\332\263\032\275\231\325.>\242d\034>\214\'\264=\200\262)\276\257\314\333<\016\204\207\275\245\375\253;p\013\213\275O},\276\270\331\252\275\252N\024\276\360}\257\275\317\350#>\001\353\365\275q\325\345\274SX\261=\3304\266\274$\317\032\275\010\274,>\330G\315=W\356\307=\033\007(\276\002\367\265=\302\255\025\276\223.\025>\265s\334\274\362\326\204<\211.\023\276\334%\201<\202\363\352\275T].\276|\"\230\275\005(\034>\254r\361\275\205\224\031\276\215[\314=\375\"9\275\372k\321\275\350\177\022>\2608\357\2754?.\275A9\346\275\271O,>\022\316\224<0S\227\274\235\024%>\260\263\030\276\321\253S\275R$\333=\201`\237\274 \023\311\275?B\256\275<\241\034\274H\016\024>\300\372\262\272\331\353\036\276\3424\233=\327\021\314\275D\243\037\276Gz\247<\316!\030>\214\201\217=Z\255\226\275\2228\273=:\227\240;o8\216\275C\307\t>\330\315\264\272\327\325\311\274\367R\026==\317\212<\210\300\035=\0275\256=,#\360=\342%c<&\202\277\275\000\237\276\275\'p\370=\306w\224\275;\030\351\274\006\375\256:\300D\266\275\352L\033>\273\275\037\276\340\226_<\305\006(\276\027\211\001\276M\016\001>c \273\275\020t2\276D\337\265=\333H\027\275\241}\316=\213\344f=\371w\035\276D\211\017>\316\262)\275\"_\n\276]\324\362\275D\200\356\275\211\234 >q\\+>\266\205\254=$\300\036:s\374{=\274\246\230=\275\251\303=\220\356\327\275\006]\251\274\36367\275d\231\337\275ttx\274\0301D\275\314C\247=\"%*\276\374\333\322\275|\221\024>\360\355\027>\236\031\037>z\306\243;\351\220\320<r\247\320\2757\333\355=+B\301=\271\020*>\221\265\023\276\364Q\020=/5\n\276\370\026\332=\232$e\275\301U<<\276+6>\345\366\021\276\032\005\036\276\366I\336=P\347,\276\tE\014\2765\243\346\274\367\306\314\275\216\201\267=\366\025R\274\006\n)\276J\350(\276\021\366\022\276\212s\022=\031\253%\276\226\300\376<\2258\277=\356\021\335\274\341\331D=}1)\275m\026(>S_\001\276k\343-\276\0131\375=^\354\310=\314\340L=\332\310\003\274\3278\377\275\316\361I=\254(\032>\000\033\302:R\032\010\274\312\034\300\275T\026\363\275\264\t1=\316+\310\275J\322\003=\362;\327=\351~(>\356`\026\276[\351&\2760\226\320\275\326a\231<\237\300\372=\302\200\350\275FG\376\274mSW;\303\227*\276[\003\006>\212\3666=\303\306\035\276I(\313=X}\252=\262~a=\373\320\022\276\371D\247\275,A==\336\177\233\275S\355$=\361]\331=\205\201\001\276\223\312\005\276\206\271\207=G\220\267=\004\245\335\274\245\202]=\3243\"\274\036\243J\273\222Hj=vU\271=H\016h\275\014\003\024>\205\350\264\275\036\032\206\275\221\205\254\274c\344\377=D\216\242\275\336\364\022>\207\203~=G\300/\276\322\010\345\275\237\243\">pmX<\222\036\316=o\361\377\273|D>= \261n=2\310\002>;\365\253\275\342\003\017\276\273\020#==(\353\2759\324\215=\230\030\024\276**e=\270\303,>\367@\211=\336N\371=\376\377\021\276\2630\301=\224B\352<\350f%>Q\323&\276*\242\226\275m ~\275\313A\314<A\317\r>\317\276\t>\242\265\r\276\372\2232\273)\223}=\234\220r=-8J\274\256l\001\276A\\\367=S\372y;8\265\030=\206\312\021>!b:\275\302\342\023\276\240\036\355\274q\340 >,\250\036=\367V\375\275\244~\333=\034$\n\276\311\212\267\275\357\247=\275\342D\027\275\2150\004\275\370:\017>5~\360==\315\313<\372X\316\275&,Q=Ei\034\2765x\021\276\201\213{\275\330\005\363\275!\235\027\276\334\030\027\276!k\366\275f\0201=:\341\020\275\207\034\353\275\322i\264\275\227A\214=\273\215\251:.\315)=Nq\372<\217\2514\276\222n\214<\314\241\025>\216M\t=\2459\333\275\253\357\253\275V]\027\276\200\310!>\314\235\271=m\223h\275M\205\351\275\346o\231=t\347\214=\216\311\007=\214\371\000\276\344\330\017\276\251\022w<\377`0<\344+\232\275\212\275\300\275\221\014\n\276\236\313\264\275\234\215\302=N\276\346=\302\257\326\275r\233\244=\270\216\265=\325\206/>E\275\027\275 \353&\276\025\322\343\275\222W`<\306\347\370\275\031Q\t>4<i\275d\251\244=\007\005\010>\224I&\274\013\306\253\275\335\372\313=8\024)><\237\231=e\025\315=;\300Y\275\331\250\034>v\377\242\275o\277\332=\253\330\022=\204\370\236\274\240\003\014\276J\232\321<\332\254\227=T\312\254=\300\317k\275\254\2504\276\261\221)\276\024\343j\274\236\316\236\275G\r,\276U\344\304=\372\207\337=r/\233<\304\355\030\276\273\335\265=\325\253.\275oM\360:\244\242\264<NA\206\275Q\264\353<\333\363\024\276\351?\323\275\206\337\362=\366\007\007\275\316\237\306=e\271\233=>\315!>\200\324\355=\357\271\254=\217\030{\275DS\024\276\206u\311\274\347\005\362\274\274:\267=\213\312\374=m\020\326=\331l\202\275\2141\034>3\217G\275\324\200\350=\014\277\005\276c\251\'\276\275E\201=\2745\030\2765\020\202=|\367\214=\203N\273\275i\341m=\225?\374=\260a\010>HC\372<G\370\035\276/\020\031>\361\222t=\314b\371=!X\221\275\215\201\221\275\324\032\277=Jv*\274\022T\247\272\025\027\"\276\360\350\'\276\245\031\245\275%G\001>\215\031\352\275\340\205i=\030\237\344=\321.X=\357\2654=R\301\">\307\010=\275-\'+\275\344\203\335\274\037}\357=&\014\322\274\264\214\352<\200G\262\2751Q\035\276ed1\276\376,%=\314\257\271\275\026T\327\275\357\330\310\274\206\000\232\274\352\277<\275\036\031&\276\300\247\025>\302<\006>\234\332-\276\242`\016\276\251\216\003>\001s\377\273\270Ib\275\200X\014>m\310\343\275<\316m\275\023\361\226\275[\001!\276B\035\264\275\346o\017>M\t\205=\343W\332\274\010\317\224\274\017i\262=\214j\001\276Y\303Z\273\326\'\332\274<\376\232\274\002\0253=X\037,\276-|\017\275\312\300\245=\024y[=\332\010\272\275\372\345Z=\303V\225\275\200P\t\275\0063I\274\310\272\t>\222l1\276\323\032\344=\246\213\374\275\350.\314=*\305\010<f\317\020>]\215/>I%4\276\t\334\367\275v\357(<\213\356\374;a~\024><\033M\275\004\365\234\274.\344\225=W~\354\275\324\013\355<\362U\275<Q}\203\275RF3\276\364\003\305<\265\345\374=\201\035\305\275]\323\252\275\204\301\341=\277\366\314\275\235\037\271\274\371\357\013>6\004\351=\010\353\r>\344\321\"\276\262\277\376\274M\223\r=\373e\343=.4\037\275\312\332\310\275$\"\037>u\035\000>}c&=\006/\216\275\333@\337<\031i\263<WW\000\276\312\254\274=!i\360=\355M\220\275\2762\345=\253\r\305<\217y/\2769\272,