node {
  name: "input"
  op: "Placeholder"
  attr {
    key: "dtype"
    value {
      type: DT_FLOAT
    }
  }
}
node {
  name: "transpose/perm"
  op: "Const"
  attr {
    key: "dtype"
    value {
      type: DT_INT32
    }
  }
  attr {
    key: "value"
    value {
      tensor {
        dtype: DT_INT32
        tensor_shape {
          dim {
            size: 3
          }
        }
        tensor_content: "\001\000\000\000\000\000\000\000\002\000\000\000"
      }
    }
  }
}
node {
  name: "transpose"
  op: "Transpose"
  input: "input"
  input: "transpose/perm"
  attr {
    key: "T"
    value {
      type: DT_FLOAT
    }
  }
  attr {
    key: "Tperm"
    value {
      type: DT_INT32
    }
  }
}
node {
  name: "reshape/shape"
  op: "Const"
  attr {
    key: "dtype"
    value {
      type: DT_INT32
    }
  }
  attr {
    key: "value"
    value {
      tensor {
        dtype: DT_INT32
        tensor_shape {
          dim {
            size: 2
          }
        }
        tensor_content: "\377\377\377\377\t\000\000\000"
      }
    }
  }
}
node {
  name: "reshape"
  op: "Reshape"
  input: "transpose"
  input: "reshape/shape"
  attr {
    key: "T"
    value {
      type: DT_FLOAT
    }
  }
  attr {
    key: "Tshape"
    value {
      type: DT_INT32
    }
  }
}
node {
  name: "w_in"
  op: "Const"
  attr {
    key: "dtype"
    value {
      type: DT_FLOAT
    }
  }
  attr {
    key: "value"
    value {
      tensor {
        dtype: DT_FLOAT
        tensor_shape {
          dim {
            size: 9
          }
          dim {
            size: 32
          }
        }
        tensor_content: "\316\251\350?i\000:\277\265\324\363\277\272t*?\"\247\377>A\234a?#\334\\\277\001\025|?\032\251\002\277\024 \300=\372\231\265?\336\026~>\364\263\023\300\312\037\031\2774\257\n?\300\215{?\360\010.\277\207\013\223\277\"\n\276\277\374\244\301>\3363\263\277\014\360\215\276\373\017\005\277\246\220-?|a\236=\376?\231?#d>>\030\301\325\277\272\001\\?\033\375\232?\220g\004\277\024\220\265\277c\264\024>\007`\214\277\322\"\306\277H\007\001?bo\340>I\025\353\2762=\206>\004\324\"\277\036I\354?9\"\035?\216\335\t\277|\347\214>\032F\223\277Y\177\273>\330A\226?\333\325\023?\342P\005@\254\240t<\005\321\335= \226\242\276\306h.\275[u\330>Q\030\"\277\2202g\276^:\031\300\353!\232\277\024\332\237\276P\177\234\276=\325R>\340h\210?)U\030?\370j`?\225\301/\277d\343\261\276\273\226\341?\220xX?}q\224?+un\276D8\016?\023yx?\233\212\214>W\347\323?\000\014\207\277\300\235\356>\230\237\242=\240FZ?\3078\177\276\234\216\371\274\242\250\031\277\227\322\224?\357\252.?\362|\267\277w8r\277\264\200\241\276Tl\352\275P\036\237\277\014\'\023=\n\003\222>\357\331\005\277b\035\215\276$\352\021?\226wV\276\362\354\025\276/@\240\277\226\234\022?s\372\305\276;\307\213?\002\206\006\300,\313+?kt\021\277D;\347\276\265\335\007?j\342\307\276\317\001\003\277\031\242g\276Fx\007>\312x\306\276}\350X?\342D\013\277e\236\347?\026\224\006\277\327\216X\277z\373\264?\253\307\202\277\261\036\372=\036\363\022?\226\254\334\276\225\302\307\276T\013\234\2772_\223\276\304\331\033?\005,\003\277\371\253\343\276\232n\277\277\200f\317?s~.\2777\356\274?\353\'d?\034\363\224\277\304>F?\213\315\232\277\342\235\225\277\315\231\'\276V\233\367\276V\356\266>\260u&\277\336\242\016?\342\001;\277\341\333\016?\177\355\005?\016x\353\277\375\232C\275A\323\334\276\224\3501@\322\272p>l\247\267\276!\332\010\277[\n\267?aO\312\277\027w\370\277\266\2253\277a\226\244\277a\3054?Ry\213\277c\200\027>\232x\363>f\224\252?\205\361\273\277@\371\236\276\360(\214\276\346N\220\276\331{\343\275\231\271\010@\322\177\355\277\251\311\201?\203\320\253\277m)\021?\'\366[\277T\213\370>\032\220S?V\332h>F\014\257?\356LQ?\234\315\211?Y4\022?\304\317\037\277\006\372\231?\263S]\276-\225\364>\377O\216\2775\001v;\033@\310=\317\302b=\\@\271>7\251\204>\271\235\321\276\002\314\207?F\201\205\276\276\275\354\277\023\346\263\277\3361z\276\250\335\027\300C\020\375\277h]\235?\211\345X\275\301?\n@f\270Q?<\'\217;\177\2740\276>\302\272>P\220\304?)f?\275\311\333`=\036\232\217\276D\245\t>Yd\214\276\234/8>.\312\251\276\215\266\273\277~\262]\277\313E7\277\313\230G=\343R+\277\274\351\314\277Z\330\003\277;P$>\001\377;\276\274\034\232?\375.\223\277]{_?\304\010\355\276\220\314\225?8\346\266>j\200N?\037\035g\277\264\272\000?m\351\337\277\360\211W?!\322\201?\356[\004\277)\372z\276\256\336c?\335W$?\0312[\277.m\343\276\304\0002>\034\327\242>H\023j\276\345u\031>\004T!\277\306\351\317?NF\021\277\224\3455\277<1\225?\245 \207>\246\316\203=1\300\243\271\270E\220\274\324\320\330>\365\245 ?\254\0232?.\343\226\277\275_\265\277X\353*?\013,\005\277\276\266\205\277v\275\024>\001\342w?t\332\301\276\203\230\311?\321\246\212=<\370\033?W\031\275?\302\002\007\277`\225\275\275-\275\006\300\334\177#\276\351\216\005\277\214\027\177?\240\025\264=\372\247L\276j\310|?\211\221\324\276\322\252\357>\025\347\016\277\031\321\247\277\327^%\276\362}\301\276>\212t\277?w\022?\265qv>\021\2009\277=\021\017\300\375&\212\275\217]\254\277W\334\r@"
      }
    }
  }
}
node {
  name: "b_in"
  op: "Const"
  attr {
    key: "dtype"
    value {
      type: DT_FLOAT
    }
  }
  attr {
    key: "value"
    value {
      tensor {
        dtype: DT_FLOAT
        tensor_shape {
          dim {
            size: 32
          }
        }
        tensor_content: "\274=\262?u\321W?:eJ?zV\006?I\326\002?9\202\362?\230A\001\277\352c]>\350\213\332?X\t\315?\374>\366?\007\006!@\351\004\005>\216\316\371??\257\200?\272L\275>\346=\374=6M\223>i\035e?\370\315N?\2608\330?i3\360?BM\305?\345\"\342?\021\354\334?\014\031\200?\n\223\337?DUy?\023]!=\324\320\201?\310a\240\275\217\262\004?"
      }
    }
  }
}
node {
  name: "MatMul"
  op: "MatMul"
  input: "reshape"
  input: "w_in"
  attr {
    key: "T"
    value {
      type: DT_FLOAT
    }
  }
  attr {
    key: "transpose_a"
    value {
      b: false
    }
  }
  attr {
    key: "transpose_b"
    value {
      b: false
    }
  }
}
node {
  name: "add"
  op: "Add"
  input: "MatMul"
  input: "b_in"
  attr {
    key: "T"
    value {
      type: DT_FLOAT
    }
  }
}
node {
  name: "relu"
  op: "Relu"
  input: "add"
  attr {
    key: "T"
    value {
      type: DT_FLOAT
    }
  }
}
node {
  name: "split/split_dim"
  op: "Const"
  attr {
    key: "dtype"
    value {
      type: DT_INT32
    }
  }
  attr {
    key: "value"
    value {
      tensor {
        dtype: DT_INT32
        tensor_shape {
        }
        int_val: 0
      }
    }
  }
}
node {
  name: "split"
  op: "Split"
  input: "split/split_dim"
  input: "relu"
  attr {
    key: "T"
    value {
      type: DT_FLOAT
    }
  }
  attr {
    key: "num_split"
    value {
      i: 128
    }
  }
}
node {
  name: "bidirectional_rnn/fw/fw/Shape"
  op: "Shape"
  input: "split"
  attr {
    key: "T"
    value {
      type: DT_FLOAT
    }
  }
  attr {
    key: "out_type"
    value {
      type: DT_INT32
    }
  }
}
node {
  name: "bidirectional_rnn/fw/fw/strided_slice/stack"
  op: "Const"
  attr {
    key: "dtype"
    value {
      type: DT_INT32
    }
  }
  attr {
    key: "value"
    value {
      tensor {
        dtype: DT_INT32
        tensor_shape {
          dim {
            size: 1
          }
        }
        int_val: 0
      }
    }
  }
}
node {
  name: "bidirectional_rnn/fw/fw/strided_slice/stack_1"
  op: "Const"
  attr {
    key: "dtype"
    value {
      type: DT_INT32
    }
  }
  attr {
    key: "value"
    value {
      tensor {
        dtype: DT_INT32
        tensor_shape {
          dim {
            size: 1
          }
        }
        int_val: 1
      }
    }
  }
}
node {
  name: "bidirectional_rnn/fw/fw/strided_slice/stack_2"
  op: "Const"
  attr {
    key: "dtype"
    value {
      type: DT_INT32
    }
  }
  attr {
    key: "value"
    value {
      tensor {
        dtype: DT_INT32
        tensor_shape {
          dim {
            size: 1
          }
        }
        int_val: 1
      }
    }
  }
}
node {
  name: "bidirectional_rnn/fw/fw/strided_slice"
  op: "StridedSlice"
  input: "bidirectional_rnn/fw/fw/Shape"
  input: "bidirectional_rnn/fw/fw/strided_slice/stack"
  input: "bidirectional_rnn/fw/fw/strided_slice/stack_1"
  input: "bidirectional_rnn/fw/fw/strided_slice/stack_2"
  attr {
    key: "Index"
    value {
      type: DT_INT32
    }
  }
  attr {
    key: "T"
    value {
      type: DT_INT32
    }
  }
  attr {
    key: "begin_mask"
    value {
      i: 0
    }
  }
  attr {
    key: "ellipsis_mask"
    value {
      i: 0
    }
  }
  attr {
    key: "end_mask"
    value {
      i: 0
    }
  }
  attr {
    key: "new_axis_mask"
    value {
      i: 0
    }
  }
  attr {
    key: "shrink_axis_mask"
    value {
      i: 1
    }
  }
}
node {
  name: "bidirectional_rnn/fw/fw/MultiRNNCellZeroState/BasicLSTMCellZeroState/ExpandDims/dim"
  op: "Const"
  attr {
    key: "dtype"
    value {
      type: DT_INT32
    }
  }
  attr {
    key: "value"
    value {
      tensor {
        dtype: DT_INT32
        tensor_shape {
        }
        int_val: 0
      }
    }
  }
}
node {
  name: "bidirectional_rnn/fw/fw/MultiRNNCellZeroState/BasicLSTMCellZeroState/ExpandDims"
  op: "ExpandDims"
  input: "bidirectional_rnn/fw/fw/strided_slice"
  input: "bidirectional_rnn/fw/fw/MultiRNNCellZeroState/BasicLSTMCellZeroState/ExpandDims/dim"
  attr {
    key: "T"
    value {
      type: DT_INT32
    }
  }
  attr {
    key: "Tdim"
    value {
      type: DT_INT32
    }
  }
}
node {
  name: "bidirectional_rnn/fw/fw/MultiRNNCellZeroState/BasicLSTMCellZeroState/Const"
  op: "Const"
  attr {
    key: "dtype"
    value {
      type: DT_INT32
    }
  }
  attr {
    key: "value"
    value {
      tensor {
        dtype: DT_INT32
        tensor_shape {
          dim {
            size: 1
          }
        }
        int_val: 32
      }
    }
  }
}
node {
  name: "bidirectional_rnn/fw/fw/MultiRNNCellZeroState/BasicLSTMCellZeroState/concat/axis"
  op: "Const"
  attr {
    key: "dtype"
    value {
      type: DT_INT32
    }
  }
  attr {
    key: "value"
    value {
      tensor {
        dtype: DT_INT32
        tensor_shape {
        }
        int_val: 0
      }
    }
  }
}
node {
  name: "bidirectional_rnn/fw/fw/MultiRNNCellZeroState/BasicLSTMCellZeroState/concat"
  op: "ConcatV2"
  input: "bidirectional_rnn/fw/fw/MultiRNNCellZeroState/BasicLSTMCellZeroState/ExpandDims"
  input: "bidirectional_rnn/fw/fw/MultiRNNCellZeroState/BasicLSTMCellZeroState/Const"
  input: "bidirectional_rnn/fw/fw/MultiRNNCellZeroState/BasicLSTMCellZeroState/concat/axis"
  attr {
    key: "N"
    value {
      i: 2
    }
  }
  attr {
    key: "T"
    value {
      type: DT_INT32
    }
  }
  attr {
    key: "Tidx"
    value {
      type: DT_INT32
    }
  }
}
node {
  name: "bidirectional_rnn/fw/fw/MultiRNNCellZeroState/BasicLSTMCellZeroState/zeros/Const"
  op: "Const"
  attr {
    key: "dtype"
    value {
      type: DT_FLOAT
    }
  }
  attr {
    key: "value"
    value {
      tensor {
        dtype: DT_FLOAT
        tensor_shape {
        }
        float_val: 0.0
      }
    }
  }
}
node {
  name: "bidirectional_rnn/fw/fw/MultiRNNCellZeroState/BasicLSTMCellZeroState/zeros"
  op: "Fill"
  input: "bidirectional_rnn/fw/fw/MultiRNNCellZeroState/BasicLSTMCellZeroState/concat"
  input: "bidirectional_rnn/fw/fw/MultiRNNCellZeroState/BasicLSTMCellZeroState/zeros/Const"
  attr {
    key: "T"
    value {
      type: DT_FLOAT
    }
  }
  attr {
    key: "index_type"
    value {
      type: DT_INT32
    }
  }
}
node {
  name: "bidirectional_rnn/fw/fw/MultiRNNCellZeroState/BasicLSTMCellZeroState/ExpandDims_2/dim"
  op: "Const"
  attr {
    key: "dtype"
    value {
      type: DT_INT32
    }
  }
  attr {
    key: "value"
    value {
      tensor {
        dtype: DT_INT32
        tensor_shape {
        }
        int_val: 0
      }
    }
  }
}
node {
  name: "bidirectional_rnn/fw/fw/MultiRNNCellZeroState/BasicLSTMCellZeroState/ExpandDims_2"
  op: "ExpandDims"
  input: "bidirectional_rnn/fw/fw/strided_slice"
  input: "bidirectional_rnn/fw/fw/MultiRNNCellZeroState/BasicLSTMCellZeroState/ExpandDims_2/dim"
  attr {
    key: "T"
    value {
      type: DT_INT32
    }
  }
  attr {
    key: "Tdim"
    value {
      type: DT_INT32
    }
  }
}
node {
  name: "bidirectional_rnn/fw/fw/MultiRNNCellZeroState/BasicLSTMCellZeroState/Const_2"
  op: "Const"
  attr {
    key: "dtype"
    value {
      type: DT_INT32
    }
  }
  attr {
    key: "value"
    value {
      tensor {
        dtype: DT_INT32
        tensor_shape {
          dim {
            size: 1
          }
        }
        int_val: 32
      }
    }
  }
}
node {
  name: "bidirectional_rnn/fw/fw/MultiRNNCellZeroState/BasicLSTMCellZeroState/concat_1/axis"
  op: "Const"
  attr {
    key: "dtype"
    value {
      type: DT_INT32
    }
  }
  attr {
    key: "value"
    value {
      tensor {
        dtype: DT_INT32
        tensor_shape {
        }
        int_val: 0
      }
    }
  }
}
node {
  name: "bidirectional_rnn/fw/fw/MultiRNNCellZeroState/BasicLSTMCellZeroState/concat_1"
  op: "ConcatV2"
  input: "bidirectional_rnn/fw/fw/MultiRNNCellZeroState/BasicLSTMCellZeroState/ExpandDims_2"
  input: "bidirectional_rnn/fw/fw/MultiRNNCellZeroState/BasicLSTMCellZeroState/Const_2"
  input: "bidirectional_rnn/fw/fw/MultiRNNCellZeroState/BasicLSTMCellZeroState/concat_1/axis"
  attr {
    key: "N"
    value {
      i: 2
    }
  }
  attr {
    key: "T"
    value {
      type: DT_INT32
    }
  }
  attr {
    key: "Tidx"
    value {
      type: DT_INT32
    }
  }
}
node {
  name: "bidirectional_rnn/fw/fw/MultiRNNCellZeroState/BasicLSTMCellZeroState/zeros_1/Const"
  op: "Const"
  attr {
    key: "dtype"
    value {
      type: DT_FLOAT
    }
  }
  attr {
    key: "value"
    value {
      tensor {
        dtype: DT_FLOAT
        tensor_shape {
        }
        float_val: 0.0
      }
    }
  }
}
node {
  name: "bidirectional_rnn/fw/fw/MultiRNNCellZeroState/BasicLSTMCellZeroState/zeros_1"
  op: "Fill"
  input: "bidirectional_rnn/fw/fw/MultiRNNCellZeroState/BasicLSTMCellZeroState/concat_1"
  input: "bidirectional_rnn/fw/fw/MultiRNNCellZeroState/BasicLSTMCellZeroState/zeros_1/Const"
  attr {
    key: "T"
    value {
      type: DT_FLOAT
    }
  }
  attr {
    key: "index_type"
    value {
      type: DT_INT32
    }
  }
}
node {
  name: "bidirectional_rnn/fw/fw/MultiRNNCellZeroState/BasicLSTMCellZeroState_1/ExpandDims/dim"
  op: "Const"
  attr {
    key: "dtype"
    value {
      type: DT_INT32
    }
  }
  attr {
    key: "value"
    value {
      tensor {
        dtype: DT_INT32
        tensor_shape {
        }
        int_val: 0
      }
    }
  }
}
node {
  name: "bidirectional_rnn/fw/fw/MultiRNNCellZeroState/BasicLSTMCellZeroState_1/ExpandDims"
  op: "ExpandDims"
  input: "bidirectional_rnn/fw/fw/strided_slice"
  input: "bidirectional_rnn/fw/fw/MultiRNNCellZeroState/BasicLSTMCellZeroState_1/ExpandDims/dim"
  attr {
    key: "T"
    value {
      type: DT_INT32
    }
  }
  attr {
    key: "Tdim"
    value {
      type: DT_INT32
    }
  }
}
node {
  name: "bidirectional_rnn/fw/fw/MultiRNNCellZeroState/BasicLSTMCellZeroState_1/Const"
  op: "Const"
  attr {
    key: "dtype"
    value {
      type: DT_INT32
    }
  }
  attr {
    key: "value"
    value {
      tensor {
        dtype: DT_INT32
        tensor_shape {
          dim {
            size: 1
          }
        }
        int_val: 32
      }
    }
  }
}
node {
  name: "bidirectional_rnn/fw/fw/MultiRNNCellZeroState/BasicLSTMCellZeroState_1/concat/axis"
  op: "Const"
  attr {
    key: "dtype"
    value {
      type: DT_INT32
    }
  }
  attr {
    key: "value"
    value {
      tensor {
        dtype: DT_INT32
        tensor_shape {
        }
        int_val: 0
      }
    }
  }
}
node {
  name: "bidirectional_rnn/fw/fw/MultiRNNCellZeroState/BasicLSTMCellZeroState_1/concat"
  op: "ConcatV2"
  input: "bidirectional_rnn/fw/fw/MultiRNNCellZeroState/BasicLSTMCellZeroState_1/ExpandDims"
  input: "bidirectional_rnn/fw/fw/MultiRNNCellZeroState/BasicLSTMCellZeroState_1/Const"
  input: "bidirectional_rnn/fw/fw/MultiRNNCellZeroState/BasicLSTMCellZeroState_1/concat/axis"
  attr {
    key: "N"
    value {
      i: 2
    }
  }
  attr {
    key: "T"
    value {
      type: DT_INT32
    }
  }
  attr {
    key: "Tidx"
    value {
      type: DT_INT32
    }
  }
}
node {
  name: "bidirectional_rnn/fw/fw/MultiRNNCellZeroState/BasicLSTMCellZeroState_1/zeros/Const"
  op: "Const"
  attr {
    key: "dtype"
    value {
      type: DT_FLOAT
    }
  }
  attr {
    key: "value"
    value {
      tensor {
        dtype: DT_FLOAT
        tensor_shape {
        }
        float_val: 0.0
      }
    }
  }
}
node {
  name: "bidirectional_rnn/fw/fw/MultiRNNCellZeroState/BasicLSTMCellZeroState_1/zeros"
  op: "Fill"
  input: "bidirectional_rnn/fw/fw/MultiRNNCellZeroState/BasicLSTMCellZeroState_1/concat"
  input: "bidirectional_rnn/fw/fw/MultiRNNCellZeroState/BasicLSTMCellZeroState_1/zeros/Const"
  attr {
    key: "T"
    value {
      type: DT_FLOAT
    }
  }
  attr {
    key: "index_type"
    value {
      type: DT_INT32
    }
  }
}
node {
  name: "bidirectional_rnn/fw/fw/MultiRNNCellZeroState/BasicLSTMCellZeroState_1/ExpandDims_2/dim"
  op: "Const"
  attr {
    key: "dtype"
    value {
      type: DT_INT32
    }
  }
  attr {
    key: "value"
    value {
      tensor {
        dtype: DT_INT32
        tensor_shape {
        }
        int_val: 0
      }
    }
  }
}
node {
  name: "bidirectional_rnn/fw/fw/MultiRNNCellZeroState/BasicLSTMCellZeroState_1/ExpandDims_2"
  op: "ExpandDims"
  input: "bidirectional_rnn/fw/fw/strided_slice"
  input: "bidirectional_rnn/fw/fw/MultiRNNCellZeroState/BasicLSTMCellZeroState_1/ExpandDims_2/dim"
  attr {
    key: "T"
    value {
      type: DT_INT32
    }
  }
  attr {
    key: "Tdim"
    value {
      type: DT_INT32
    }
  }
}
node {
  name: "bidirectional_rnn/fw/fw/MultiRNNCellZeroState/BasicLSTMCellZeroState_1/Const_2"
  op: "Const"
  attr {
    key: "dtype"
    value {
      type: DT_INT32
    }
  }
  attr {
    key: "value"
    value {
      tensor {
        dtype: DT_INT32
        tensor_shape {
          dim {
            size: 1
          }
        }
        int_val: 32
      }
    }
  }
}
node {
  name: "bidirectional_rnn/fw/fw/MultiRNNCellZeroState/BasicLSTMCellZeroState_1/concat_1/axis"
  op: "Const"
  attr {
    key: "dtype"
    value {
      type: DT_INT32
    }
  }
  attr {
    key: "value"
    value {
      tensor {
        dtype: DT_INT32
        tensor_shape {
        }
        int_val: 0
      }
    }
  }
}
node {
  name: "bidirectional_rnn/fw/fw/MultiRNNCellZeroState/BasicLSTMCellZeroState_1/concat_1"
  op: "ConcatV2"
  input: "bidirectional_rnn/fw/fw/MultiRNNCellZeroState/BasicLSTMCellZeroState_1/ExpandDims_2"
  input: "bidirectional_rnn/fw/fw/MultiRNNCellZeroState/BasicLSTMCellZeroState_1/Const_2"
  input: "bidirectional_rnn/fw/fw/MultiRNNCellZeroState/BasicLSTMCellZeroState_1/concat_1/axis"
  attr {
    key: "N"
    value {
      i: 2
    }
  }
  attr {
    key: "T"
    value {
      type: DT_INT32
    }
  }
  attr {
    key: "Tidx"
    value {
      type: DT_INT32
    }
  }
}
node {
  name: "bidirectional_rnn/fw/fw/MultiRNNCellZeroState/BasicLSTMCellZeroState_1/zeros_1/Const"
  op: "Const"
  attr {
    key: "dtype"
    value {
      type: DT_FLOAT
    }
  }
  attr {
    key: "value"
    value {
      tensor {
        dtype: DT_FLOAT
        tensor_shape {
        }
        float_val: 0.0
      }
    }
  }
}
node {
  name: "bidirectional_rnn/fw/fw/MultiRNNCellZeroState/BasicLSTMCellZeroState_1/zeros_1"
  op: "Fill"
  input: "bidirectional_rnn/fw/fw/MultiRNNCellZeroState/BasicLSTMCellZeroState_1/concat_1"
  input: "bidirectional_rnn/fw/fw/MultiRNNCellZeroState/BasicLSTMCellZeroState_1/zeros_1/Const"
  attr {
    key: "T"
    value {
      type: DT_FLOAT
    }
  }
  attr {
    key: "index_type"
    value {
      type: DT_INT32
    }
  }
}
node {
  name: "bidirectional_rnn/fw/multi_rnn_cell/cell_0/basic_lstm_cell/kernel"
  op: "Const"
  attr {
    key: "dtype"
    value {
      type: DT_FLOAT
    }
  }
  attr {
    key: "value"
    value {
      tensor {
        dtype: DT_FLOAT
        tensor_shape {
          dim {
            size: 64
          }
          dim {
            size: 128
          }
        }
        tensor_content: "\326Y\250\275\374\325\242\275\357\275\202\275\232(\311=r\177\025>\363\024\024\276.\277+=\"\372u\275N\3341;oz;\275\237X\353\275I\225\235=\357\212\004\276\035\0317\275w\225#>\263@\000>\261\212\005>kC0\2758z\030>\254 G=\235%{<\207K\226;\322\262\032\275\374\'\340\275$6\303\274\321F\031<\212\243\362<\324$N\274\\\234\031\276\270 \201\275\027\035\n<\377P\213=\241\300\376\275\263\206\355\275u\336\205\275\3221\262=2\\\220=\327\005\036>\257\027\235=\200\211\'>\r\201#\276\204\004\305\275C\371\004>1}.>\027\361\226<\317\236J=\226Wm\275\223\206\316< \351\370<\213[\205=\\\273\313\275\367\013\332=\346bl<?(\241=q\\(\275a+\010>\3510\220=7\377\347=?&/\276\343\346\007>\201\300\355\274Be\226\275t,>\275\361w\">0\362\207\275^\276<=\373\276\032>b\376\030\276\0144\256\275\'?\026\276wM\t>\351\212\266\275\356^\013=\006`0=6`\261\2744\250\r\275\337\262\035=\222\254\221\274\007\006J<\270\265\340\274\n\026\371\275\\.\263=\355\027\211\273\375\231)\275\316\364P\274\320\022\211<\372\353\200\275oH5>-S\031>9|\224\274b\246\236\275\301>3=\314\340\274<\021\314A>\356\351+\276b\016*\274\215U\253\275\217\232\201\275\014\353=<-9\">\355\337\250<\2654\316\275\254\303M>z\357\214\275E\372\310<\232c\220=\202\371\003\276\356y\205<\357\363\314=\010\213\372=\005J\020>\345\270`=\303\313=\275\255\033\254\275UA\251=\326+?\276\2767]\275\344\304\312\275<\373\025\276\354\205\274\275\265\315\235=`3\261\275H7\377\275\204\210\205\2758b\260=\313\005\006>\002\275\222<\317D\317=\377\370\022\276\263\221\251<:\240F\276]\004\301=\273\373e=\327\2527>I\206\347\2754\262\240\274k\022\267\275\222gq=\307W\257\275\017\266&\275\327ll<o\273\307=:\261!\275Q\237\001=\363{\236=~B7\275\267}\235\275\226\027C\275\246\2657=\320]\214<)/\220\275F\305\214=\301\007\275<w\201\322\275h6\364\275^\240\203\275\002w\004=\314\360(\275h\377u\275\r\320\347\275\025(\223=\256P:>\206\260\"=x\214\t;\202\013K<\262\351\267\274\252o\366=\027b\275=\366\252\017<~\331\237=\204B\026\273\201\247\354\275\265\313#>\256\354\302=\326\250\262<\354C%=2+H>f\220\003>\331\365\032=\'\331)=\034\354\242\275\277]\002\273)W\251\273trq<\251t\333\275\353W\306\275u\326\346\274S\341\231\275\315A\253=\202&\224=A\035\032\276c\337.=\235\004\311=\200%:\275\204\215\353=\374\014-=;\323\344=/\270\222=!\210\245=\324Rt<S\326\351\275\010f\252=\211b\001\276#+\317=bcH\276zY\205<\036\353\311=\375\003F\276:R\250\273\262\207\034>o\362\034\274\000\304\035>FP}\275w\341h\275\014\242i<d\'\"\276\351\354\341\275\213\255$\2761\037\260<D\\\014>\327Q\000\274\343,q\275\022\317v\275c\027;<\362\213I\2742\013\301\271M\314B\276\263\343\202\275\0256.>\344R\305\274|#R<\307\236\222\273\252\334>>\202\244X>\276\014\245<\271D\250\275\310\365\255;H\375o\275\226l\246\275\233\206[\275P\272\"\275\316\235\006>\317\325y\275\274-\033>\243\020\247\275\343\223,=\354S\027\275\341\217\227\274\"!\247=\237\3669\275D\265+\273_Q\n>\004\201\004\275V\335E\275\255\2076>\261\rS= \250.>/\003\021=\312N\252<g4|\275\331u\373\275\225(\335\275A.~=\246\037E<.\333h\275\t\337\302\275\300\255\017\276w{\333=\036_\030>\342\315\331<0\236\202\274u\355_=\325yJ=\004k&=\321\310\016=QA\345\275\251e{=9q\n>\362\225c=\202\226\227\274\217W\000\276\317\224\231\273\257\372\244<\234\220\217=\332a0\2768\271\212\2750P\201\275{\324g\274 O\274\274\t\020`\275r\250\021;\025\215*\275/\345P\275\002\032\372=\204zZ\275Qw\r\276>\221\r>\020\0200>\014_:\275\313\330\331=j]\250=\366\327\242\274q\363==!U\037\275\023\247\260<>\021\261<\237+\t>\337\363\355=\304ut\275\322\232\312\274@%Z<*\006@\276_\t\310=g\322\225=B\256\003<\374>\240<z\tZ>\323}\';\214\030\240=\202\330D>`\361\321\274\315\322\221\275T\266\026>\240\022\335<u\177\010>5_\303=:\211\226=2\036\351=\352b\221=|\377\007\276}\301\250\275\356\342\004\275Y R>\311\364\327=f\324\222=I\330\305=]y\362=9\371e\275\014\314\240=\364\230l\275\231\023\023\276UvP\276C$!\276\026\036\'>\233\271y\275\255\021\312=\"m\265\275V\360-=\321\027\"<t\036\246\275\334%\t\276\216\253W\274f`\241\273V\347\034\276y K\275\001\331\345=\267\210\306<\314\264\014>\022\234\031\275\004Q\217=\363\376?<\374\254\030\276\372\274\242=\273M\327=\002\257+>\373qP<\276\251X\275t\322\307\275\223[\367;~\010\210=\342\026\266\275kc\333\274\245\365\023<\326\325\364\275\211\256^=\202\307\242=\210\220K\276\324\206\317=L\227<>\022*\247\274\036\355\026\276M\331<\276\3235G\276\034$\035>\224\266>=?\206&\276\216|\222=\213\373\205<\202\027\371=C\355\350\275\314x\374\271\356\372\253=C\356\316\275P\232\004\276\330\263)\275\237\274\021=\225\242\310<\215\007M=\350\343\322=\233\334A\274#\266\344\275\352\331\272<\222b\247=\001 \233\275\352\237\200=\215\351\246=\340\253I\276\316\013\314\274\022\177\325<\260Xy\275\310\357\020=\316\002E\275\311\317)\276\262\272$=\261\235\027\276\371w\035\275l,)\275\332N\314<\n4\337\274lHm;\177e\235;\235S\370\275T\337\245=|\0363\275\307\200\022>\314P\361<#\225\372=\365\333%>\302N\006\276d\017\344\275N\031\343\275e\357\'>\317\351\353=\320\324\223\275\246\241\207=\356\'\233<\334h0>\333\204\341\274\004\"\014>(\371r\275Mp\266=\376\354Z=}b\346\275\231[2\276\242W\201<]\364\212=\325&\004\276\226@\377=V\352\305<\201\035\025>7\247\235<\013do<M\010\375=i,\271\274P\035\007>\213\223\362\275\300\353\027\2761\263\226\275\261uV=\343\"\003>2\265K>\307\376\322\273\200j\367\275\nJ\270\275\277g\376=.\033\374\2746\217L\273\211=\031\276I\274 :2\306\243<I\305\014\2765Z_\274\006\021\334=\347\014l\275E\352\302;\241i\253=\277$V<^\323\266\275\351\273\345=N-\005\276B\332\210=\025\025:>\230\236\255\275\307\027\021>\033\255\346\275\376p\002>\335\233Y>\016s\221=1\257\010\275\032I/=\235j\361\275b\372\222\275\341\306O\275\277\321\003\276\tX{\275\307c\320\274\227|\004>.\302s;\303;\315=K\314\035>z\253\010\276x\007\017\276\271\2000\276\020q\360=Lz>\275\033\234\363=:\346;\276UP\313\274\233k\361=\003u%>\036\001\311=\206\327\004\276\2178\302<\200\336\255<.\343G>m\036\000\275\001-\026\275\317F\366\275\225fL>BL\333=\331q<\276\3253\341=#m\262<\324\200\322\275\226:\333=0`\036\276\035\212\001\276b\240\211\275h\267\273\275H\334\227\2751\250\336=@\247H=\2061\312\275)3\256=\223\025\371=\276+\221\275m\267\021>=\355\351=P\210K>R\000\244<T\270R\276\302\224\021>wB\244\275\356VM;C\326\217=\320WE\275\260I\331\274v\313\342=F9\021\276\255\307S\275\306\002(>\252\327\034>[y\211\275\020\237\022\276\351 \020\276\354t\341\275\222\nB\276\324\303(\276;\365\211=O\210\020\276\210\372\333<\037\365@>36\232\275\2056\354=hs\326=\020\264\260\275r\353E\274\333\231\255\2755\352\332\275\273yr\274\000\377\332\275|[\255=\346n\207;\031\033\304\275\260\334\206=%\033\005>\244\342+>\221\364\250<\234{\213=\273(}:\376\031u\275*C\215\275\250\253\271\275\237\274\035\276n%\302=\007\'\317<\010\010\357\275\333\234\370=\304vD>)\267\341=\"[\000>\1775\365\275fY&\276\202\244\007\276\261\375\230\275n\233P:\350<\223\275\025\252\332\274\316\347\n>U\276J<e\216\216=\375\221\000\276\024\224\251\275y\036\264<\376\254\313;6\230\336=\344\241\006>\014\2047>\031\377C>_\r\363\275\365\000m\275\307\332\342=[\032\232\275lz\337=(1o\275\261\235\220\275\314\030\346=\216\262\230\275\rL\367=\245v*\276\223p\355\274\346$\262=\330g\372=6\214\024=}\325\002>\376\335&=\213\203\">4\025\036;\260 \337=\326\r7\276\310\026\254={\243\025>\350t\362\275|/\354=\250\250\356=\325\021\037\276\220\034B\276u\370\310\275f\371n=\371\265\306\275\313\363\241<\333\321\021\275\t\032J=C*\307\274\340j\003>\205C\210=\276XO>T8\316\275\371\014\210\274+C8\275R\354\250=b\226\016\276\334\302O>\243\350\277\275\275s!>\304\316\223=\247\3065\276\341\000\310=\341^\202;\334\373\025<eU1>+\377$=\033\323\351=N{\215;\353\304`=E|&<\321\356\306\275\177\033g=\245\235\377=\201F}=\213\326\251\275\001\3564\276fw\250<\324\027\">ic\250=\007\205\342\275\006#\266=\357\266X\275\273wQ=nCT=\242\352\241=\331\353\354\274/\233\033=B\031\332=\037\215\362=K\237\362=\006\3011\276\361\342\275=\375\030]\275\363\273:>E\347\310\275t+\010\276\2545\231<(\201\035\274\030\256\360\274\203\307\346\275\027\304$\276\253\250\'\276(4\252=\374\"\027>u\205\306=\362z\203\275\352a\334=F4\377\274s\237e\274\306\232\377\273\367.\026>\\\347\270=\336\203\014\275\0061\030\276\317S\216\275!AA\276J\224^\275\016\007\337\275*\231\025\276\376\013\032\276\347\374\306\275\013\342\007\276Z@\266\275\005\003$\274Y15=\200\206\027>\370q\230=F\214\221<\202\235(=\316\264\n\276-\351\311\275\276\274\375\275fo\245=\211\331\365=Y\304\276\274\362i=<\255\326\243\273\322U\025>!g0>&d\216<\334\302\027\2751\343\367\275\235\320\311\275h\2743\276J\001\360=\341\243\006;\3110\032>\014a\254=HG\215\2744\206\027=\3305\342<\331\345B=N \003\276\366\367\245\275\036{\232=bW2=:\316\244=\347\314\315\274\030)\207\275\3629\020\275&\364\005\276\315\336\342=(\327\017>\326\366\005>\377\037?>\227\231\205\275\340\205|=\357\311\335\275_\366d\275Gb\016\275\312\'\326=\0109\n\275\rK\322\275\206X?\276\027I\017\276>\007o=xe\267\275\351\234\031>|X\026=\023\244\230\274\332e\333\275\200^-\276_\311\005<\356 \266=\264\316:>b\253\010>`s\311=\002&\355\275\220\366\350\274n!\313=E\302\353=\255<\247\275\320V\210=\261]\246\275\354P\212;Mf\247=\000\332\240\275\266\205T>\230\374}\275\340\257\227\2754\367#=\216\364\261\275\007\332\373\275%\307\014\275\301\306\275\275d\331\337=HXb\275\374g\271=O\343\245<\034\374+\274\361\222\223\274>\322\363\274\327!M\274\230S\376=\302`\255\275\263\310\031>\\\002\232\275\217M\007\276V\304\n\276\302\035\255<U?\305=p@T=t\326\240<\0000\211=\370G\254;\"t\331\2752\327\213<=T\027\276L\305d\275{\344\232\275\333\372\231=\301\003\020\276(\223\003\276\271\341\326\275KQ\272\275G\225V\275\265\\\311\274\357\205\233:\245\3015\276\305\007v=\240\3519=.]\364<5\351%=\007\t\232\2747\372 \276\350\216\272=\210\351]\275e\2159>o\202\022>\'\207B=\244J}=]\342\014\275\350\345\306\275\013\370\246<H\210\251\275\222\203\313\275V\240\312< \'\003>\276]v=\322\206\350<uh\214=\274\244\035>*[\317\274\210M\377\273B\365\035>NG\365=C\213\245=\334\021\333=\304\205K\276p\377\222=\373G:=\023\260S\275<F\t>9\312\321=\364\332\357\274[\350\007<\\9\215<\025\273\202\275\265IT\2751\334\310<\002\332\006>\216\275_:>\373@>-\177\250\273M\353\232\275\314\352\001\276\335#\261\275\244\221\206\275\023.\253<K\003\327=\310`\037\276\206\360\374<\362LG\273\227\270\240\274\031\246\n=\235t\322\274\301u\017\276\225~\034>Z4/<}\355\024\275\217\211\200=\370\347\252\275\037\013\204=\226Z\210\275\247I\367\275\247\3356=&\3371\2758H\037\276\032\220\330\274W\312\342\275I\330H=\3276\r\276%\211V>l\325\262=3\325\364\275\014(\225=M\274\301\275\246\027f\276\266\347\332=\215\272\273\275\306\026\214=\r\332|=\033\360\362<\2528P;v \005=\304\006\'=\311\327\031=o\331f\274i=0\275\212\277\346=\036:n\274|\326\326\275\026~\030\276Z\006+\276\335\003+\276\317\230\365=\340\n\334=\200\260\003\276*Tr=N\357,\276Ud\370=\026ay\275\276\022\212=\017\274\235\275\333\024\020>6\361\007\276j\337\314\275\321\302 \276\355\005\026>\310\227\007\2761\031\356=\305\005\372=f\021\330=\273[\'>\250\273\t>\237r\023\275o\322<>j_\315\274\265\"!\276Z\302,<\'\323\211\275\324\007\210=\324\225\363=\323|\267<\3057n>\023=\023\276\275;)>U\330O\275\037\332=<|{\035\275\356\277\352\275\344\320\177\275\376U\337=\342\245S\275e\242\357<\234\300\216=\216\214\314<#\217\361=\305\020\231\275\334\305\010=\207\360s=q>&>sL \274M\224B=Y\014\275=\207\002\343\274\340ZM\2766Vw\275\310\332\304=\242IY>^S\314=_\270 =\244\324\263\274n\227\331=\245\271;\275\023\372E>\224y\002>\365\375\010\276\356\022\265\275-\3259=\372\273\317=.\254\331=4\025\236<\311\326 \276\205\222z<L_\000>\230\201\277;\256h\227=\005Kp\275\355Q\216\275c@\257\273\300\020\212<\370~N=\277\025Z=k\214\035>\3662\023\276\336X\343=\3420\031>\310f\030\275\235\\9>\274\316,=\'C9<@\t\200\274\2524\352\275M\371\027\276\357\354Q\275\252\312\376\275`\324*<\313!\252=\214\327w\275\351\021\025\276J\035\277\274<%\n>\320\007\017>\254\n\374=_\301R\275\332\226\034\276\210\036\223= \036\007\276*\367$>x\262\017\275\237\271\344=7\240\004>u^!==\325\000\276\231\006;=\325\247m\275g\010\t=q\251\222=N\"\361=\374\027C\276\301\201\307=G;\270\274\334e\231=\345a\340\275\315\2340=\263+\024>\307\225\016=\224$\266=\236\304h\275\304#!\276\244GH\274\371\2710>\243~>\275;\332K=H\217m\275\330\274(\276\307g0=\267\330\351\275\277\016J\275\202\344\003\276w\262\275<\006\205\243;Df\277=\374h\224\275|\252c\275\306U\022=\017\036\010\276V\314\204\274\327@\010\276#\311\037=\330\004=>u\034\302\274\367 \362=\315\000\302=\271 \032\276{\335\302<\241Qm=\266\036\355\275*\032\312\275V\017\010>\271\225\361=\263q\377\275jC\207\273\037\324#\276\t\3044=b\\\353=2-\203\275\247 \351\275\225\267|=\263\032\251\275\301\244\203\275Gx\310\274\314\201!\274\236rJ<\377\245\213=\231]\022\276\036\316\000\276\310\321[\275\265\306\021>\224\0326=}\351\215\275g\r\254=p\276\202=\326D&\276\263\352\274\275\256\000 \275\313\242\r\276\275\246\006\274\300\265T=\346\210\321\275n&\230\275\347#\033>\201\224$\275A\207\323\274X\237n=\212)\022\276C\262\215<\342\240\303;6\202I\275s\225\013>\303\261\033>\332@\215\275\346Y\302<;\251\232\275\332\000\361=\031\337\t>l\214A=\231\331\'\276\n\326\017\276\302Q\372\275\031\013\023>D\331\217\275\301S\010>\336\271\302<\216q4>\023\306\023\276(\345\334\275jl#=\274k\002=\347J\016>\370D\270\274\246t\324\275$,\0219\325h\371\275fJ\374<\034\354\244=\263z\017>9\246\t\276\367\305\024>\327\366\021\275E\210C\274\2135\032>\233\t\005><\205\335:\342R\376\275\372a\247=\324!\032=j\013\n\276\237;\034\276\347O_\275x\331,=\277\370\030\2745\276\327\275\r\246#\276\2204\314=&\016%>\366\371\224=Mn\320=\367b\302\275\206\332\320=\324\233/\276]\225\030=\325(\361\2754\264\205=\361\364\215=\tG-\275[A\315<\210`\362<p\032\220=56\n;\3447\340=\365zT\275\266\374b\275\300\360\026\276~\301\343\274\201$\337;\264@\315\275\010\372&>\261Z\317=~o\014=k\335(\275\240\375\371<\242\270\036>\031%\006=\271\025\324=\315|\241=\200\251\214=\032\357P\275\353<\322<\\\361$\276\304\221\037\276\254\207\207\275\230Vf;D\2703>\344\347\t>\177\016\347=X\204?\275\320x\004=zr{=\212\327\010>K\034<>9\254\033\276Nw\250\274s+\232=J\255\237\275<\'S\275+\236\246\275g\375C\275\223\017\t>\r\3277\275o\014I\275`Y\321<w\254\261\275\365\351\371=2\211\023>\273\3250\275\362\205\005=\323y\026\276\r\247%\275)\303\\\274\3705\326<W\004\340\275\234\220\257\275\332\324\013>\332\237\253=\223\345\213\275\373\340\025\276Z[\366\275\340\212\320\275\035F$>\267\362\013>\035\233\035=\221Q\300=\267\201\317\275I\366\222\275\265\351]\275\013.\350=#uL<j4\314\273\020\264\003\276\001R*\276P\377\273\275i\314:>\372\347\021=#\216*\276\026\261\366\274>[\n\275\033\236\341\275\34554>\330\344\200\274\204\312\006\276;\343\324<\376{\342\275L\275\031>\316_\223\275\337\261->\316\357\306=\347-\364\275\354o\314\275\247\274\207\275\241\002\350<[\3563\273\020\267\241;\376\266\315\275\235\017\025>c\323\026\275\237\217\r=\307|\004>\23772\276\341\034/>Qi(\276\366e\220=\321\345\200\274\252T<\275\206\312\007\276\324y\275\275\360F\t\276\247\002\366\275\304\'c\275\343f\000>\222]\006\276\035J\357\275g\350\020>\277\200x=\347\025\t\275\312\356\224=C\326\224:]\377\252\274\240\373\320=\251\364\201=\031h\311=Z2\355\275\006\231<;\220\323\254\274[\236\006\276\304m%:G6\001\276\237h\033\274\344\\\026\275IY\001\276\202d\320\275\'\n\235<\347\006\327=\227\242\254\275\366\365\016>\257\275.\276n\010\230<D]\005\276\224\033\362=\320-\003>E\245\273=\315\256 \275\326\277n<*\200\213\275\341D-<\2679\224\275M\346\001\276\3502\334<\225\274\347=\r\374\021>a\214\007\275\002\021\364\275\021\361\266\274\240\331\006\276\240\376\344\274y\316\257\275!m\345=\372\036\317\275\324f\300<\023\263+\274\237\371\024>)\2309<o\251z\274V\324;\275\344\344\221\275\010\314!\276\033\227\327=t\020,\276\217\337\302\275@YQ=\362\222\003;\036\210\304=_\275\315\275\304~\361=\010\372\205=c= \2746\236)>\302O\275=\225i\010\275]\352T\275CWt\2756\211\203\275\3400\233\275P\370\335<\014N\021\276\226z\221\275\031\217\321<ex\325=\221X\016>\224\226+\276p\237\025\275\224\315\331\275AS\357\275\2228\350=\225\322T\273H\221\236\275L\003\326=M\275\313\275\256~E\276\271\226\241\275\346b!=\\L\223=\202\211\324\275\335\361\230=\206\004\225=\032\316\370\274\242\360\"\275\372\340R<\264\035\356\274:\250*>\221\365B=n\351\235=\370;\032\2762\235\005>\362P\022>\371\325\372\275\365\354\327;\220\350\330\275\316s\356=|\270\234=nk\034>\273a->d\030\253\275\255!\004\276$f)\276\327\002\013\276\301\361\307\275d\247\030>^\324\251\275K\'?\275\217\n-=\231s\307\275\006\r\237=\340\007\014>\201\330\014\276\221\325&>\2064\361\274\017t\243=M\313+>\227\347\260=\'\326\004\275p3\021<A|L\273\213>==ty\021\276\306\230\364=/\220\265=i\313>\276L\211\310=\3150\227\275\r\2150>\037\032\037>\226\363\356=q\032\367\274\273\351\273=t\224\317\274~V7\276\265\274\'=\314\367\035>\273\016:>\263Rc\275\353\233\225<\320\251\327<\366L1\2751\236\007>\351\035Q\276\254V>\276\036\031\034\276\r\237\232=\241\262\020\276\353\345\255=\003\017<\275\366\355\312\274lC\350=\'\264\253\274\225\213\267\275)0\364=\210\240\">x\324\267=/\351*>\207r\n\276{T\241\275\343\205\332=\347\213w<\363u\025\276]\234\013\275`\013\004\274\327\024e\275\343\316\222=\223\340\354\275\315\302=<n\271z98\344{\275\300\235\376\274 \252\264\275,\036\201=qI\267\275\356\330V\273h\321\"\276\026:\320\275\004\0368=I\240\t\276\220\271\\=\334\323\334<v\273\033\276\300\n\202\274\272;\237=\261E\267=-\325\351\275\213\300&\276\224\r\312\275LB1\274\211\231\303<\355M$\276\305{\224;h\332\'>\005e\034\275\037\313\r>]\217\273=u\314\311\275\017\227\372=\002\217\317\275\340\005\303=\354\177\255\275\261\343\311\275|\206#\275d\270l\275@>\035=4x\233\275*\246\353\274H\362\373\275\274\332\034>$@\225;\010\264\265=~(M=\002h\364<\275\346\006=\020\201\356=\356\257\217=\245#\251\275\270\027 \276l#\"\276\361EK=\250~r=\030\270p\275\307A\212<d\251\363=n.\305\275X\265\"\275,2\274=\265%\250<\201\326\035\275W\017\250\274\332\234\337=\340\035\312=\027\031\352=\367\226\265=Di3\276[\023*\276\345I\023>|\202\016\276GM5>\364\334\034\275\251\342\022\276 83\276\035\034\211\275@E\347=\216w\n>\324\361\230=\035!\200\275\016\274\201<\310\230\277\275\300\356*>\227\207\211\2754\316\020\274\350\223\004=!f\370\274\263af;W\301\037\275\243/3>\016r\t\275H\231\240=\323F\351\273#j\033\276\006\211[=5\036\207=\350u\252\275\331\230%\276\372\213*\276\277\271\037\275\"8==\262\324!=\354{\342=|\2031=\025\241B\276\306++=bX\"\276\255g\353=<j\361\274\315>\013\276|\007\257=\261#j\275 <2>%h\266=\002\237s=8w\212\275\023\235C>\033\262\026\276\304\344\r\275Q\256\202\275\210\323\346=\321\375D\276\262s\310\274\255\363->\334\370\005\276\302\2432\275%\331z\274\275\360\022<+\021\272<|\337e>\351\251\234\275Myj=\266,R\276Y\322\345=C\342\037=\022\272\'\275\264;q=t\2631<\340\335\254<>n\250\275@F\037=z:(>\032\262\023>E\n\206=\242\021H\276\246\242\267=!Z`\275u#\263<w\014C>\255\200\350=\261\246\367\275\"\354j=\r\026+\275;S\017\276\226B\375\274\316\316\236\273\254\227\301\275)\003*>\225\305]=d\000?\276\213\345\213=\251\327\323=%\017\316=\203\224d=\304\036\004>\304\325\240\273V*\270=c\313%>i\352\312=\306\355(=\2212\"\276D\303D\275\023I\037>\367\261\230\275\272\235\032\276G\305,>\234\026\375=q\373\020\276\206\302\301\275c\262\335\274\366?\036<\202\210i\275\321\215~\275\326\241\260<]A==\351bf\275\246\374I>za\311<N\353*=(\030-;\232\217>\276]\276\272=\336\225\031\276\325\000\325=\'\243\323\274\035\262\311\275&BN\276a\024\256\275\0175\021\275t\246\013\276\355\\z\275\345B\032\275\324_\206\274Nc\002\276\245C\336=\347,\226\275\324l\322\275x>\322\275\306k\247\275z\222\230\275T\213#>\347\330k\275\320\230\023<\035N\036\275\256c3\276[\3342\276\213G\371\275\362\026\273\275\220\2272>\204(z\274h\370+>\330K0\276$\341-=\034}\253=0.\212=sq\207;A\215\341\275uQ\276\2754\302\036<qV\374<\325\345\035\273\020\216\371<I#\210=\026\230\027=C\325\014>u\307\032\276\317\326\265\272+\242,>2\035D\2747&\031>J\001\007>3\344\335<>\367v=\303H\035\272\036\360\r>\344\304\037\275\223\2252=\003\256\253=\355\264\003\276\376\317\262=\\\350\016=\254\271#>5m\026<\264!_=\030\256\376=V-V=\263\240\031>\233l\020=\364{\326\275\030\320!>\324\370\317\275+P\223=v\212\265\275\223\0332>\247i\250=\354\343\345=tG3=\321\220\017\276T\336A<6(\017>\253Xy=\000\n$\276a\314\312=p\307\004>\314\322\026;\277\005\021\276\265\254*\2745\356s=RH\037\275u\273\245\274h\332\322\275L\2602\275\261\375\231=\350Fc<\271\003\362=\223\"J=\234\250^=\026\022?\276\240n\221=\220\302!>Gy\004<+\214\201\274\366\005\324=\017L)\276\215\0104>\001k_=\371\256\014>8|\374=\031\237\010>\255~f=\314\256\212<o\001)=\352\222\234=\243\332\037>\323\2751>\020pA\274Y\0060\276\256 \370=\311\245\257=.\013\024\276o&\024\276\304\302\317=\225\263\314\275\321\221\200=\"\255\222\275\331\2535>e\362\244=\213\305\004=\2434.\276\244`E\276\245])\276om%>\265Y#\276a-B>yK\037\276\270\232)\275Y\310\200\2755o\211=\241\001\247\275\232\013\013\276\242\335\307\274L\n\325\275M\315\376\273g\210\354\275t\t\203\275\266\001\246\2740T\350\275\346\203,\275\237\237\220\275bt^=\034\245\320\275m$%\275C\364\014\276g\2104>!I\215=R\377\315\274\317\351\017\276\t\022\004=bA\000> +\256\2758\005\237=\261\016\037\275\207\260\347=e\003\203\275e\353\r>7\2651\274\2169\231\275!U\">\346\003$>\\i\243\275\300\021\336=\363\204O=\221\353a\275 \3147>\310t\005\276\005\255$\276\303\214\254=o\302\031>\007\361$\276\256\023\021<\230\365\r\273\256\374\244\275\233\375U\275\253%\233\275\277/=\276\215\312\006>}]:<f\003\366\275\265\306*>V\326G\275\232\207{=\\\250f\2751t0\2760=p=\004#\002\276|<\010\275\340B\n>h\312\340<Q\232\343=\233G\331=,\327\367\275nZ\301=T\212\"\2748\376\016=\245\205\033>\025\016\221\274D0 >4\003\014\276|\241\010>\207si=\304z\177\275#\212\211\275\017\001i=\211\211Y\275S\020u\274\321\226N\276\007\223\270\275l\002\002\276#\360\304\275\\\203\256<\352\356\020\276\240\273~\274g)\322=0*\265\275\326\033*>\037\271\360\274V\222\024\276\233\225\314\275\003\350\013>\030\222&\276\236\375\231\275\004\273\031\2764\"\324=\305E<\275\033\244\322=\351\326\000>\225\'\024\276>o4\274B\316\000\276\035\326\343=\367\336\213=\366\346\307;\215\271\023\276(\'\006>\240<[<D$\257=E\303\232=\037\223\252\275k\332\355;Lx\023\276\024#\231=@\"\354\274\317\031\021>w\277\">\3234\252\274\374.%<\354\247\357\274\222|;\276\321\234\240=\256\267\336\272\265w\324\275\2676N=\334\023\265=\375\027\010>\236_\227=\340\td=;o\006>~\"N\2753G\3069,\252\225=4Z==SR!\276\211v\016>u\301\033<\236\350\371\275\356\200\241=\340\255\005>\030i\321\275 t\321\275\231\345:\274VC(>\024X\313\274:\350\007\276I\357\352=\246\204\246:\024F\372=\243\365\024=\346g\037\276A\226,\276\275:\027\275\312\326\222\275/_\243\275>\273\324=\341\2269>D!K\276\\\t\007>\367\005\013\275\013*7=\216\375;\276Zr\354;\317a6\276fT\302=\305\235\256=\214\232\363\275_\031\030=\243\217\241\274 \001\031>\302\"@\276\223\375\367=\"\362>=\232\327.>\300\003\031>\036\252@>OL\340=\035\302\321=\270\246\223=M\253B=e\202\033>\307\312\275\275\377[,>\356\321\337=\235\3077\276\353\221\206\275\350\2279=\'}\014>\332N\247=o\340\323\275\321\364\350=\237\234\336\274\327\241\243\275+*\237\275\274\3729=4p6<\323\316\025>\322\230\032\275\330\030|\275\"B\231=s\246\202=\356\017\361=\251\247\357\275\274\214\n>Y(\275=\013\343e=\260|\255\273~W\226\274]\205$<\247B\016=M2a\276\340\334\321\275DT\017>\3050\365=\007\331\220=N\343\214=b^\010\275\246=(\276u\351\266=\323H\273\273\350\3013\276\314\024\351=\312\331\24797\316\017\276\"\033\366<\324\335X=2D\333<\255v\215\275sg\n>\225\020\026>z\201\326;53 \276\252g\277=Y\031\355<\241\202\370\275\r\371\005>\371\265\260=\226\314<>r\010\330\275g?\356\275\373\226\231\271\203\266\257=\317\211o=\242\206\000>TOJ\275fc\346\275g\366j\275\257!\177=\224\237\374=\325h\036\276|1\324=\226\306\333;\333y\032\276\267\360\202\275\035\316k=\367R\310\275\rq\254=^\030\300=\375\030\222=\216\326\355=\225Ns<\321\277\354=\255\325\234\273\231\361\322=\355\352\302\275\335hO\274\245f\\=\034\370e=6\246\247\274\324\224Y=Pj\373\275p\2252\274r\357\333=\251\010\341\273\236\255d=\311\313\017>6\003\354=\347\"P\276Y\253\227\275\222^\274=D\013W=\255\000\247\274\022\021\370\275\220\'\360\274\026:\240\274iq^=\370`3=5;\215\275\357\n\t\276X\250\366=l\243\333\2754\233\356\275\002\024\001>\265\034\">k\235\341\275\231\376\311\274<\377\230=\247\306\363\274\016G&>fH4\276\327\031\'\276\375W\331=\221\344\302<\327\323\205=)\2268\276\022\225&\2744\325>\276\014\223\327=-\340\263=\315\016\036=\262q\223\275#@;\276\225\235F\275\\D\316=\004\265\t\276@q\204\274\240q\\\275\013\313;\275z\317J=\252/\202=\310H>\275\367\024:\274\2769F\275\022tj=$\262\303=\222\362F\275}\355u<\347$\213\275\235D\336=\024\0149=,#\226=\r\224\374\275!\337\375=\224q\377\274\234\373\372<\036r\022=(Q\331=3\336\264\275\024\007\273=\272\320J>y\000+>D4\030>\227m\024\276\241X\316\275\030C\323\275 \020\311\275\r:\t>x\325\314\275\355\010\177=\202\370\024\276*m!\276Yk\354=\335\306\022>\273D\013\275\365Y\345=0K!>\342\373\364=\300\020[=B\240\350\275\333\347z\275R\021 >d+\202\2745=\370=\010\316{\274\221\0240\276\211\357D=\020\220^\275\346\003\310\275\'\324\010\2759\007\017\275\333\245V\274\270\031\301\273\0356)>\222\212\023\276\215\264]>\226~a>\n\270\347=\245\263\322<\337\367\034>\200\217\256\274\336\333s\276e\025\245\274\032T\214\275\327)\020\276\305Q\010=\242\244t\275\344v\223\274\306;\004\276\312\013f\275.c`\275\302`@\275u\323\271\275l\210\240=\254\037\204\275?\337\217=;.p\274\371\333\235=\333\265]>\301\"\033\276\000*w\275\034\341\247\275\220y =\266\367\266=\253\3677\275\221;\037\276\230\244.\276\3354q=\327\344\006\276&#O;\314\215\336=\026\207\372=,ga<\224\334\351=\272\001\230=\036\307:<7\241\227\273?\220\203=G\262\323\275\n\232\030>\023\004@\275\'u\006\276\0245\215\274s\362,>\221\030\304=IO2\276Pd\332=\034\203?<\226\222\342=\201\033>=\005\274\323=L\r\307\2759\222\301\2757\000\361=\201\036$\276\246\307g\276TKa==\265h=\316\275\243\275\260\246\257<\032\303&>k\362\007<\271s\371\273\240\252\032>\365d\244\273u\267A\276\014\220!\275v\200!\275\001\264\017\275\305\373_>6\220\341\275\223\373\026=N\202\364<\025\'\370=0\336\341\275GY\330\275\276\352\014\275]}\372\275Q\357\300=T\343\357\275P(\305<\201\365\235=\364^\001>\\\243+\275v\276\374\274l\270\344\274\234\253\222=o\336\031\276RDX>\'\256\347=7\216\222\275\200:\n>W\221C=u\222\016\276R\345\235=\364\022Y>`\034/=\215D[\276\376d\357\274\211\221\315=A\243\023>Z\332>>Hh&\275Y\207\230\275\0173\256\275lX6>WF\206=Y\212\321\275+\252\322<p\237\014\273\t\322\206\273\216V =A\220-\276Z\025\242\275\301\211\330\275+k\022\274\017\320%>\261a4=\345_,\275e\231\324\273\026\002\337\275\351\367\360=|l:\2754!\311\275\277W->\230$\352=\037\231\304\273\367]&\273U\310\206=\336\346Z8/\220\223=>\021%\275TUX\275\02241>\276\277\372<\023\231\314\274\264\362R=\006\205\307\275\203M\016>\223\023\215\275\236n\033\276\312\014\253=\026r\r>\200-\305\275m5\233\274\004!\032\276\235K\200\275\366\367y\2757E\303=\032\223\210\275\361\357\371=JE\315\275n\014\314=\374\206\274\274bl\365\275B\277\226\275A\235>>\277\\\027\276c\200Q\274y$)\276G\010\347=\363\365\004>:\234\266=F\032\254\274\330MC=\014\306\020\275N?\3639WN\025>\016=\005\273\234\356\340=\240\203\004>\242\021.>f\272\">\356{U=eF\263=\005\002\267=\305\000%=b\n\231= \036\001=\233\363\317=\304\030\375=J\321\274\274\200\222$>,j\252\2759\257\027\274r\031G\275,\313\"=\302\325\210=lA\217\275\335{\037>\004\350\324=c\3055\275r\363z\275S\310G>e\307\217= \230\370=$\177$\275H\375\314\275\371\r*>\316\227\320<\033\252\340\275Y\341i\274\261\324\334:\255\302\020>h\027\376\275\2376\211=\214o\310\275\034\334\031=K\027\263=\261N\332\275\351.t\275t\0004\276@\205c<Z\0050=\323\331\n\276\277{c\275|\276,>\21142\276\325\227\374\275>\263_\275\021\034\352=\'\340\034>\2478\246<\204\266\177=F\230\356\275\343I\033>CW1=\233d\"=q<@>\030\202\340\275<\327\366\275\207\010\256:\277$I\275\024\317N>\240\232\021>\371\212\333\275\031\210\332\275D\023\007>\022\275\372\274\363\226<\276\217\365\300=)P\325=,\0270>h\267\010>\213\005\375=.X\027=\027\305Y\276^\264\371=:l,>\233Z\206=\333\001\033=\230\312\264\275\366TA>\3569\024\275u\007b\275\005\3560\275\334\306\367;]mD\275.\301\314\274\027\215\271=.\321D\275P\376\026\275\"\204\351=\236\2008\276k\232\346<\234\273\263=Kx\244\275Ul\310\275N\213\306=\023*]\273U\332\256\274\334.\024\276\332E\362=R\242p\272\250^\233=\277\324\030>qQ\\\275\251W\212=@\214.\276s\022)>O+\361\275\375\263\006\276\036\307\271;s\3268>\3542\320\275 X\032>\\g\022\275\r\273\350=\234\331\013>\3730\236<R\010\316\275S\371\317=W\025]<\004\226\206<\371C\034\275\304]\203\272k\273\026\276T\323\227\275Z\325\\<\241\226\357\275\025l\030>pJ\322=\247d\007\276\254\225\355=\235\210\321\275m\202\034;\337\313M>2\177]\273\226/\217\274\346Y\037\275a;\367=\356\201\r\276a\221\"<\010\220H\275\335\2201\276\311\033+\275\321\251\025\275\356\343\256\275\365\342\016>{\364;>\3754N\275\221\371\031\276\273^\245\275m/Q\275\214\255\244\275\227)2>t\267\346\275\210\000h=\240\201\222<`O\373=\316Z4\275\252^\360=\216\364t\275M\2131=\356\257U\275\325\200\272\275\225\234\333;I\277Y=\022\031O>\013<\354\2754\247\315\274+D\026\276\277\367\312<\022D\'\273\016Q\252\2750\332*\276\024\036#\276\272\256\022\276\206!\212=\322\373\226=i]\247\275\315\303\266\275\306/a=z\006\024>\216\003\324<\307\013%=\260:\210\274 \014\223\275\213\305\276\274$\236/\275n\030\021\276\226.\363=\252Y\316\275\234K\323<\377b\023>\352VD\276-\365\311<\212\226\277=\375*\211\275\340\250\030\276k\333\021>][\306\275m\037\007\2762\010\210\275\324\302M\276\334\260\341\275\251_\333\274#\025\326=\232\027+>6\223\332\274\\\006\016<\303\375\021\276\315\216\306=\t\177\267\275\335\203\243\275:\262l\275w\247#=,\351T\275\367V#>\273)\320\275\244h\357=\240^\023>|\246\212=*\247\372\275\246\231\255\2754T\n>\260\222\332\275\262~\010>\t\226\307:\036\324\270=\347Q\267\275\265\253\351=\221\210\323\275\241\n2>\025g\210=\225z\265=z\0212=P\305B>\031\356<>jZ:\276Ms\r>\264B$\276h\n\001>\023#\265\275?\322?\275<w\n\276\224\030\372=\n\311\315=\340\265\017>\363d\342=\214\002o=\306\t\021>\212\305z=\342\211\004\276\000\306\267\275\243\261[\275s\320\355\274\031\265\312\275\265\367\016\276\211\177E\275D\262\265\275\213\232\271=v\251\367\275\321\367\270\275\000\355\r>\\\355\233;g)\\=\373\r\036\276\371A?\276(RL\275\222\353w\275}\200==9\361\270=\n\231w\275\002\2236>\346\317\326\274A)#\276&/\314\275Nc\262=\024\342\300=\034E#\276\013B\021>I\366\346<\302\262\211=\346j\354=%O9>9\363\215=\204\0205\275-\355\341\275a\204+>\310@\344\275\340c!>\323,l<\'\027\212\275;w\356=W\257\032\276uA\217=\nH\"\276\322(\377\275o\205\303=\265s%\276NP\322=_\266\007;)h\007>\366\317@>8\347\335\275\254\351\036>\300\2542\276\242\373\204=\306il\275\243\262\315=\223%\032\276\366n0\276\177Z\025\276\220.\271\275[\222\226<\330\216v\275\n\224k=\002w\003>\353\024!>e\271\034>\037S\372;\030\250\007\276\240|\016>\341\3067\275\327\250\241=\270\242\002>\354\316L=\302\311\010>\302\267C\276$\321\020>S9^=\325\212#\276D\311u\275\334\316C\272\275\324\004>Z\241F>\313\010\232=\205Bw\275C\223\275<\250\177\254=\344\010w=\034\346\302<\'\014\336=\276\226\327=\271.H\274)d2=t\300\353=`\345\025\276\020\3350>\023\256\">\226\007-\276\036\275s\275\214\025\000=\246\245\004\275\301\005q=\317\230\312=)\030\000\276\331\177\301=\317\006\037\276\341\234\335=\023 C\276\256\026)>}H\311\274\377P>>\362\264\027\276\212\213\207<\330y.\276\222\362\031\276\373Q\014\276|L\260=(\003\231\275\362\347M>\243x#\276J_\253\2741\301\036\276\226y\267=<<1\276<\337s=4\313C\276\374\340(\276\017\250#>0\273\244\2759\241\277=\236\226\025>\234`1=\334E\036\2766\316\314=\377h\000\275\265\364=>>\353\337=\033(\220=\336\211K<\001\255-\2768\252\t\276\032\024\325\275\301\275\000\276\020y\007=Nw\013<\3406\334\275\006\007\223=\217f\206=\226\323\277=\321\'\332\275GU\372=F\004\035\274(\005<\276\354\002\305=\354\003Y\275\255\262\222\275\372$_<\000\2141\275\306~\217\275pI\033\276\034\342\255\275\320\354.\274\371\273\035>\2040\353\275\'\256#\276\t:\002\276\331y\333=\\-\220=L\327\364=5_(>$\263\020>\240\245O\276T\257\246<\313hO=l%\002>R\245)\275\255\241w\275\005\034\301\275h@\322=\356NX=\340\260\036>\337\234\246\275\364\330\320\274?\322\234\275\305\300\371\275^Z\250\275\363\343g=\024@\037>\237[\373\274\034\030\317\275\t\212\326=s\t\351\275+\363\217=X1\331=\303\2413\274\2605\263=\032k\271;l\030\202\274U\335A>\216\307\t\276\205\343\252\274\212\341\013>\'\267*\276qsr=\205\330\242\274\360\244\306\275\353\004\250\275\321?.\276\311\277\007<\027\310\226=\262\205\202=}\347\241<O0\373\275\021\256\306<6\0302>\227\340\255=\302%\221\274\'\364+>k*\231\275\370$\316\275\253\307\265=\241j\364=$\033\341=\255\211\312\275\270SS\275\361y\036>\325^\354\275\211\3658\271\230\262\217=\354:\253<\024\0242>\234a\302<\273\312\263<\006\364\345\275\006\271\335\275\201z\005\276**@\274\262{\004>|\313\031\276$,\217\275-\'\020\276\277\277H\2745L\332=m\306\321\275\273\013\001\276\314\324(\276\316\231L>+5\203<G\275\346=kF\377<\235\017e=aq\235=\227\225%\275\242n*>\266\361\327=kT\024\276\362\332\256=\324V\313\274k\340\001\276\214\310\202\275[\006\320\275\236\256A>\234\352\263=\237\244#>\276x\222:\037U?\276O\337\372=\322dW\275\337=\036\273\363\226\241=\322K\000;`\227\345=\264\313\013\276\226\2044>\032\021\214\275\264q\303\275\364\255\365\275\226+\005>\007C\023>\205\205K<`\364U;\256\320#>&\353R\275H\035\210=\002C\250\275\355\225\245\274\023\372\372\275F#X\275\2676\332\274^L\310\275\340\243g<\211\252b=\317\363\201=\324\026*<J^\332\275o\005\303\275y\023\007\275\331_\t=w\222\313=c!\236\27542m\275\373a\205=\334w\260=\021\262\032\276\361\333\024\274J\314\007\276\t\017\t\2763\210c\275\320\242#>\037\312\033=uB\001\276T\013v\275oi\332\275\250\206\302:\252=\000\276\236E\261\275\370\361\030\276\324\246\213\275j\277\323\274\276\0017>\246\256\035\276\251\211\335<*\362K\275\373g\031\276{U\336\2755\342\331\275\336\017\245=\017S\323=\233|$\275BZ\007\276\300\367\2257\033\016\232=i\266N=\360R4\276+2\303\275\265\271(>\212\247O\275\177:\303\275\004W\312\275\2004\000=!\005\025>\244\007/=F\n\273<\002\3339>\364\014\312\275\370}A>\3326\340\275\230)\235\273\256\'(=\177\315X>t\354\221<k\367\251<d\207\002>\222J\267\274\013\341\020>Y\251\256<\326\373\320=+\003\215:,\277\316=\021\375\214\275\203\212\263=\354O=\275\013\007\226\275\364\306\t\276\233\367\327\275\252\314\240\275\t$\014>\006\205\023>\323T\245\275\211\364?\276\010\326\341\275{n\327\275\374\272\270\27524J\275\034O\323=\023t \274\353\255F\276w\026\022>>\270\013=\004\016\254\275\213\336!>\352&\254={\352\226<Q\230\273<L\035\360=w\266l=y`9\276!\366\231=\335\255Q\275\032l\345<\016\\\022\274\334\244\264=\005]_\276\234\252\004>\032(;=\032\325+>\234\013\274\274Z\350\r>dl\013\276\370R\221\275 \221\355\275\273\366\331<\351HO<\236\246<\276\223B\243<\023z\315\273F,/>\315M*>\221$\201=\"\2060\276`\375\247\275~_\325=Tl}=n\"==\377\013v;\236\2732\276\356f\031\275h\2318>p\232%>\253/$\276M{\201=\001\276\346\275\3064\\\275\332t\224<\'Z\240;3\352\341\275\200\372\210\275 \306\343<\326Qy\275T\230\241\275\336Vg<\007b\245;\277\033\r\2753{\n>>t,=\335\355.\275A\236\">t\0047\275\331Y\023=\237\346R<\270\250\314\275\377\207\243\275l7\030>\207b\017\276N\357\022\276\235\376\337=\020\311\007>fm/\276\261\316C\276K\257\316=\025yI>`\010\177=\200\t\352=\376\253\017>\326e\027\27642`\275/z\021<\025\246\006\276\227\202\022>\210\205\311<s&\232\275\363\033-=8+\330=\207\371\346\274\204\036\211=\357\211\023\276ns\321=Q&\360\275\177\216P>Q\337\337=%^\313=\'\016\217\275X\301\310<\\u\240=\001\177\233=SJ\346\275+\355\017\276{\3649>\252\345F\274\226\205`=|\245x\273@,d\275\374\220\333\275`\377\250\273\360\243\017>\207\017\246=\037\264\351\275\274tu=\025\364\371=\243\250\270=|\216\023>\317&\250\275\264\214\003\275\370\023\256\275\036\357\334\274\314\344I>\202\230\300<U\203\375=g\005\331\275\253\322R\275\272R\267\275NQy=\220\2558>\304l\257=\351g,>{\337\335\275\261\355Q=\347\315\021\276\203<j\273L?\3629\321\264\030>\324\236:;v\257\307<\001=b\275n\231\362\275\253\023s\274r0\332=@\2768=\301\233\377\275\266E\332\274\304\300\312\275\240\213\014>\366\217\223=\030\016\031>\254\266(\276\212*\030\276F\321\335=\014\230A\276<\257\315=\034\211\336\273\027d\034>L\223\247\274\307/\367\275\341\257D\276\023qE=\3442\032><!\327\275l\274\025>\303\222\021>\271\033A:5\336\326<\303\356\341\275\021\233\213\275T\177\335<W/#\276*?g\275\247\311\212\275S\215%\276#\241w\275\261*B>\240\350\261;\253\006\255\273\346i\014=\024\027\">m\212\213\274\333\3624\276\302o\310\275\2074x<\214\207\023\276\320\370\003\275\336\t\271=\275J\311\275|\201M\275K\264\251==\330\027>ui9\275\261\005\025\276\375:S\275T\332A\276\25250>\355\363|<\360<\016\275\225``\275\n\264\023\276`\367\026>\340\332\221<\364AJ\274\007\304v\275\343\003\313<\267\336\343=\305]\317\274K\224\220\275\201\352\267<~\3323\275CE\320\275\363\305\326=\206\213F\275r\372Z\274l\340\362=\"\373\213= \314\356=xk!=U\322\265\274\367\314\t\276q}\'\276\257~\026\276\277\270\210\275+/\307\273\210\360\357\275$c\253\274<\225\005\276\240\0018\275K3\262=\320\357\340=\0047\'>\223E \275\275\035\246\275%\326\371<5@\310<\342\\%=\315EK\276A*\205\275\004\006\257=\024\020\006\275\034\306\276\273\354\373U=\030\2176>\203\346m>\337-\224\275\262\t\345\275|*\317\275\303\332t=\354O\271=\200\230\216<T\261\311=\212\250/\276lM\033>Um1>q\212\350\274\327\376\354\274\032a6>\377\377\365<\343\247\213=\270\321[=\321\"\341<\302`2=c\003\366=?\023\264\275\343\346\313\275\311\000\200<\326\305&>\244\206]\275\006\262k\275\034Q(>\322@\226\275\263*\255\2759\356\010\276\355\351\017>\253V\215<^\374\006>\263\334\025>\3657\241\275\267\036\274<G\236\n<\363\370\214<M\204\314\275\326E#>\026\354;=\325\271\321<\016\022\205=j\202\336=A\316?\275}\250\027\276\207\362\013=\241g\321=b&8>\227\236\261=\'<(\276\306\300\014\276\205\222\032\275\026\260\317\275\220\234\324=\221ET\275\330\361\334\275\233\214\277\275\016b\016>\200\327\036\274\202\262\023>\035\316#\276\231\004\241=\273\025\276=\'#n<\223\257\035<\322\034\006\2762w\311=\024\206\353\275\274\336\352=\225\225\331=\222D\n=\270f =F\331#=\210\000i\274\242I->\211\321I=\265<\374=\351H\232<\353L\355\275UB\010\274\002\337\205=\225Y\037>\023\212\366=\314\037Y\275\276\316`<\366\331N=\331\033\351=?*\273\274\207\216\000>M9\275=\305w\366<\225\377\007\2745jl\274\315k8\276\2641\376=\324\036\243\275\006.\243\275\205\347\264\275\276\277\250=+\325\223\275\343\023\272\275O^\330\275\211\217 \276\313\016\352<\223\256i\274\237\203\014\275u\254\372\275\005\267\274<~\342\314<X\031\333\273\361\302\330;K\352U=h\"n\275n\354\\\275\020\240\013>\203l\020\275\210:\200=!\307\217=`\306\276=/\365\375\275\363\036\225815\313\275\2268\320=\370k~=3\001\343\275\2620N\276\306j\003\276R\246o\274*\222\311\275\304\027+<\244;\206\275\343[\251\275\241\301\367=g\265\272=\352h<<\327#\000>\243\336\375=\325a\266\275\237\332\261=\237-\266\275\205\037\247=K08<\0213\354\275\352\255\t\276\001\014\360=t\224\335\272\344\335\275\275\331\364\010>Z\310\320=}\354\246\275\216\364\305=tK*>\316g\304<\025v\277\275\3744\022=\373)\025\276\033\350\325=\004?+>\300\3710\276\n\275\034\276ml\314\275\232U\203=[\276\356=.\377!=\322.\275\275\017*\302=\342\227\333=\003i\003\275\360R\264=5\226\234\275C\242\341\275E0\033>TS\021\276W\207\262\2755\'\240\275\n\321\260\275\231v\r>h\242\264\274\264\013\366=l\0349\275gH\033>\311\022\000\276\234\270\000\276}\337\001>U\375\301\2756\004U<O\030`=~\244\322=\276\311\206\275\260i\036\276T~\251\275(Xd=\241HE>\265\351c\275\363@?\275r\222\363\275\362q\351=\276\307+\275\200\3410>G\007\340\275B1$>Zq\300=\304\\=<\002W\263\275\323\342\224\275d\016F>G8*\275\332r\205=\225\301\230\272\024y\321=^\375\311\275\\\342\020=\362\013a=\223\260\276=T\200\276\274\215x\350\275\304d =\373\271\354\275\262\233\035>W\232k<X\2728>`\032\010\276\374\017\022\276m\246\267\275C\257n\274K\207\315=T\276F<l=9>\\q\020\275\251\240\222<\276@,\276\023,\033\276\0005\367=\343I\022\275\366\342\363\274m\220 \276\216\371\347\274\017tE\275S\340\244\275Kn\215=\330lH\276\271\'o=7P\037\274Z\312\024\276\006\313\006>\312n\357\275)D\345=K;\317\275\321\313\000\274\334\261\312\275\373\347N\275\224\006\330\275\230i,>3\253\r=m\177\251;\226.\312\275sv7=\302PT=\013c\314\275\343\\S<\243\203\370\275\203\366)\275\013\374\030\276\300\315P\276\303\014\207\275\004\274\014\276\233\361\373=K\205\030>\335\224\006\276\307(\220\274$\3279;$#\265<\235c\273=\360*,>\033\005\226\275<\335\276\275\330\306\206\275\317\207\207\275\000\314\274\275\306\031X\275@\322\311\275\344\346\300<\277_\313=]\363\370\275\374\212\314\275\251M\000\276a?\031>\312\351\231\275[\214\014>\225\222)=n\363q\275\260r\t\2766\274\265=\324\032h=e%-:\021\261\347\275P\244m=24&\275\214\204\003\276\244\"\344\273mZ\010>\377\"\370\274\366\330\227\274\225\272Y\275\320\010\017=e \025>\"\231O=\326G\366=\315\271\000\276jc\243=T\016\356=\303\276\265\275\345\231\237\275\024\347\305<\374\212\003>\264P\215\275\242\302\323=\236\222\324\275\321\240\310\275\336t0\275\354\313\003\274\200\210\227=\256\321&\276g\340\244=}\363\302\273.\211#>\203z\321=]\251\314=\305&i\275eD\315\275\017Q\334\274\250u\371=\330\241+\276BT\245=Rc\235<\257\277\206=\027R\037=\246v\n<.\037\022\275yB\350=\301R9=\341.\254=(\345\236\275\202\274\000\276l\004\304=\006,\274<\256R\314\2741\240\035=\t\031E>W4\'\276\233\204\320\275o\347\000\276\376\344\307;\377F2\276\027\340\243=7I\001\276\240\251<\275|,\035>\361\300\315</\365\010=\327,\273<L(\r\276F\000!>\216)B=\204=\317=\265\372Y\275\322\215\201=t\246\247\275\033\364\014>5l:\276.\033\273=\216\203\317\275\235\233i\274\357\t\033;\237\365o<m5\033>\200\243C=vz@\275\356Nv\275\004(u=\3256\200<\254\221\014<\226,\244\274\315\r\033=\315\r\252=d\006\017\275\351n\033=S.\352\274\224\003\026\275\215\257\024>\320@\240<\024\225\004>\021\263\026\27623F;\324\036|=\243\036\026\276\336\261Y>N\334\024\276\257\202\271\273\024@\340<\326\000\003=\2647,\275t\334\366\275\nC\313\275ho\351=\205\327k=\203\214\350\275\260F\016\275\025\321\336=C(\004\275\341fS=\356\204\354\2744N\023\274\246\243\315=\307(\r\276^\304\021>\241\376\227=\225R\276<G\310\231;_\350\352=\316\253\030\273!5\007\274\331l\315<V(\302=\207O\272\275\026\r\227\273\360\273\355=\356\242\324\275N)\\\275\036\353Y<nW\362\275J\275\313\275\351\244\201\275\372U\030\276\036)\233\275\271\017\035\275\312\354\200=2U\023\276\257\210\271=\266\351\336\274\341-\304\275\321,\216\275\223\220\035=\373\360=\275\323\222r\276\004R}:m\247o\274\014\027\215\274u\206\375=D\005\212=U\200\352<8l\236\275\215\314\241=\002\277\211=u3\"<\316\260#\275A}\266=\362\024x\275\302\014\037>\225*\226\275\342\365\372\273U\305\216\275Cg\221<\271S%>\032\rD>(vG\275\220@\320\273zc3=\320\212\272=+\032\363;\215)\341\275\345Ov<f\276\216\275\306\241\356\275S\364\027>\241\336w:\245\270F\276\364\220\235<\377\273\006\274\214\306\375<\255z\021=\207L\222\275\014X};\204H2\276\371\"\010=6T\241=\002R\257\275wM\233\273*\202\276=c*s\275\217\337\352\275\232\366+\2748\374\002\276\373\262\324\275\362\305\367=!\252\310=L\024\325\275\025+\t\276\350\370\242<\n\\4>\021\3233\276\232O*=\351i\'9T\005\016>8\272\274\274\002\303\354\275\254\320\203=\360\274\020\274\361\212\017\275\0140\r\276\036\251\213\275?\240\000>\025\r(\276\302\231\016\276A\260\024=\312\327\007\276\250\007\376=\310\265\300=W\324\010>\351\343A\275X@\311=\037\304\253\274o$\003\276\230@\265\275\022\2121\276\202\237\262=\\\220\233=\201\361\357\275\373>\005>\211S+>\r\346\370\275\346\342\021\274\350\302\374\273N\007K=\224\266\t>\343\357\202=;\030\032>E\037\013\276F\000\260\275\377\324\337=\276\001\303=\237\266\337\275\216\350\304=\336\216\244=\254\264\236\273\2020\323\275KP\020>\231Cc\275o\337\230\273\301:\254=&\"\313=4\014\025\275\227)\244=\346Q\022\276\255\344\006>m\013)\276<_\'>\231\360_>\213\006r=t\261\262\275\227\347\251\275\261,\315\274Z\037\371\274~\225M>!|\271\274\221\317\341\275uF\017\276c\313\n\276\302N_>\210h\037\275\235\265\241\274\371\267x\275\010p\325\275>(\347=\030r\343\275L\330.>\371\243\310\274(>\252=\342\'\356\275?\004\204\274K\320\214<\246\351\000\276\325\233\r>?\006=>\342y\004>\016\216N>c\r\203=\377\235o\275b\233\'\275\'\346==\304\271\017=\220\223\245=\246\035\025>Q\247\001>Ld \2760\316\027>a\312\347\275\246(i;7S\356\274;\264\300\275t\262\337=<\336\351=V\036\035>\241A\236\273B\034c=\035\206\326<\204\263\363:\375b*>i\004\000>Lu\003\276]\251\301\275N1\232\274\311\245\333\273\223Rz=\037\205,\275EV6=M\364\034>\321\245\221=v\376\310=\206c\220\275\177\235\377<C\254\227=\270Q\305=\251\211\247\275\375\305\272;u\323V\275(\375\026>\031w >\337\263\316\275\351\226\023>\320\300\036=\312b\343\275\010\006\213\275u\324(=D\025\371\275\240\304\324\274-\307\202=\214\'1\274\340\032\372\275\221\362\202\274\352P\227=+\303\370\275<\343\013>\304s0\276\356m\"\275\200!\034=}\354\272\274\224c\317\272\215\360v\276\363\230\230\275\006\216\321\275p\336A>\302\\\257\275\024}\201\2756\002\233=\266nH>\313\230\376\275X#4\274k3L\275\377i\340<\277\303\t=\263\244\233\274\367M*\275\264\334->xRF\276mMP\273\307(\r\276\000\365\364\274\322C\246<\272O\270\275\351\020\346=\177\340\r==1\376<\371\364\025\276k\022t<((O\275\261\317\200=s\337\255=\272\013->4\317\001>\246\353\266\275K\013\236\275\202\260\224\275l\357\037\276\"j\331=n-\037\275\372[0\276\323\261D\275\303\377L\276\010sT\276\255\266\031>\317l\'>\221+\301\275m\250\226\275\343J\217=\374\326\345\275\277\014\326=\371\341\232<\'O`=\330\264\336=?_\266\274R>\255=`2\r\27606\005=\314\311:\274\177\201\224=\256\253a\275(&n=\207[\003\275=@\200\275\t\374\375\274\004\014\367=F`\330\275\341\256L\275\375\177\230\275\231\216\211\274\006K\006<\370\224\336\274+F\010> \214~\275\355\226\006=J0\225\275\007A;\275N\001]>\270`a\275\345R\364;\216r\253=\347\250w=\"\262\201=t7\243\275$\350\014>\300\225\223\275$\373\215<\205?\370\274\251Y\300=\225\177\210\2769\017\002><\330\027=kCp>\003\324\341\275\270\313\010\276[%`\276/\007\201=a\2474=v\374\342=\347\" \276\360\347\217\275?\276\220<b\321\267\273\203/=>\350\3255\276\2325\206\275\376\375\217=\014U\036\276\373\3250>_\271\315\275v\017W=\001\272b\273\310!\307<%\353\251\275\247\316\n>{S\373=\207\220v=\202\360\347\273\231P\005\275!U\306=\t\223\303\275\007K\016>v\321\001=\262r\344\274w\320\220=\026\214\351=\377%\314\275@\261\032>\357\010\"\276h-1\276\nAY<\332\350\276\274\322\326\206=\004\342u\273\371\316\347\275\375\302d\275\301\236I=\320~2>\271\034\216=WR\234=\030<m=\027\313\277\273\"O\255<\324^\334\275-\272\005<\261\2657>\357y\034\276\t`W\275\231!/>\033c\350\274_\0260>n\275\016>\203\211\241:\340,\203\275\002\367%\276\034L\316=}Z\233<\336\226\307<\253T2\275\332\224G<\270\231\020>5\200\330\275d\202%>\\\231\272=[\020\341\275\320\3513\276\366\005\232\275\240\316\215\274t\377,\276\370\370\035\275\302\224+\276\331\365\225=]\301\323\275?\006p\275\214\351\311=\376D\326=\271\312\205\275\245\3213>\226\304B=\020n\036=\235\241\370\275\235\t\275=\021&\346=o\256\024\275\224rX\274\234?u\2753\t\240=\200\207b\275\352\r%\276\014\300\373\275p\363\347\275[\331\227=\037\235\366\275\266\340-\276\230\334\026\276#m\037\276\3734\n>R\332\247=\237\352\366\275\n8*>m\n\355\275\277\262\231\274\340u\025> \371\037>CE\215\275\357\017\335=\027\307V\275\013M\300<\245{\006>\343\352\224\275M`\000>/DK\275\333\2219\276E\244\037\276gK\343\275\370\265\362<t\312e\274\034)\026\276R\306\206=Z\032\022=\231\252\204\275\016\t\235=\213\321\227\275`b\317\275\272\177i\274\3242\243=H\324\316\274\306,\301\275\336z\010>\014H\010>\313\301\025\276\240e\347\275\360:M\274\242\256\235\275`\\$>\367\260\262\275\245\232\330\275\324\327%\276\320Y%>\370\264J<+\206\354\275|l\272\2749\373\r\276>;!>@\341\323=0\261\220=\335\031e\275\217\371\"<\241\033\326=\303\2658\275\344;L\274\307\256\006\276d\230\234=\251\2162<%\252\n\276\300\263\023\276\333\205\021\275\354\025\220\272\374\347\n>C\365\003>\200\276\010\276\t\321/\276\314p(\275\233W\033<\035<\030\276a\334\246=\232k\243\274\361\315 \274P\010#\276\376\363@\275\220g\r>\216M\276\275B\216\212=\376\304\035>MD\035>.\311\213=&G\031\276\010;\024\276\023\303\255=\215<h\274\242\206\353=\242\032\037>\324\030\376\275:d\274\275\354L\320\274O\266\001>\267\340*\275\027h\363=\257\255\234<pd\'\275\316j\352\273\010\327\020\276[\271\033=\037=~\275\370\302\037>M\376\340<\3246\206\275.w\003\276=>\027>7=\275\274\206u\306=\027\255$\276\237\204\331\2750\337\\\275\217\347\346\275\331`u\274\223\345 \273TD\025\274\033\305\002>Y\317\307\275h\304\020>z\031/>t\216\037=d]\267\275\222c\354\274\006\373\321\275\013\331\307<\236\223\262=\353\251X\275K\361\026>\204j%=q\025;\276\034\242\000\275\255\357\333\275\003@1\275\350,\333\275\2606\326\275k\325\'\276\317\250\265=\354\217\234\274\010+C<\201\314Q<-\357\252<\360y\304=\003\233\036>\253+\016>CJ\324=\347\000\004\275HC\224\275-\213\334\274\225\221&>\323\335\303\275\254\351~\275h\024\354\275PF\237\275\223\212\257\274Q|\213\275\207z\321=\364_\243\274\331\345\202\275\344\007\360\274lq\315==\026\030\275\227_\206\275`\207(=\377\221\254\275\350$M\276L\254\000\276\230~7\275\316\363\275=:\277\204=\316aY\275\362a\242\275\303\030\007<\341\360\237\274WI\315\274\274>\023=\215(\300\275\244- >\347\260\211;5\205C>\024\312\203\275\322\320Y=\177f,>\t\030\213<O2\024\276,G\302\274\017\241a\275c\275a=s?\017\276\212\336S\276\321T\225=Yf\324=\300<\235\275B\312\374\273\\\227\363\2758=\217<\265\203\316\274w.\024>5\032\262;V\204\322=\252\330\016>M\332&>\314\201\355\275\3479\007>\247\224\013<BV\013>\013\330\213\275d\305\375\275\030f\034\276q\314\353\275j\214\241=\351\277\244\274\343\353\357=\0143\033=\362\374\345=\001\313\317=a\"\231\275\037v\331\275<\351f\275s\271\206\275^V\362\273\246\037\350\275\352U\003\276\311\332*=\242\242\233\275\217\336+>\263\032f;B\177\317\274g\235\022>a\032\236\275\321\346i\274\004\254\202=\247\211\361=\216&\260\275\266\312\032=\230r2\276\032\232\345;\230d\275\274\346\2411>\243\275\357\275\366\001\207=?\255\006<\227iX=]T\340=\315\333M=3\276\004=\240\374\355=\251\326\343\273\237\367\204\275\316\373\027>\204\272\235\275i\327\025\275.\267B\276t\341\351=\206\010z=\220\004i\275L\231n\275\323\202\224==|3\275\236\014\300={2W=\206a\223<\242P\302=\270\373*\276\210\336\251\275\272\035\232=\325\215\000\276I/\021\276\310\350\254\275\233/\376<\034.\005>\363/\304\275\322V[\275\2054]=\304\341M=.4\354<\224\022\365=r\032\r>\304\243.>\022*\356=\246\273\377\2746\036\245=\307\243\223\275E\204\330\274\255\332\212:\013\231\234\275R\307\344=}1k=\312\030\253=\241\225\014\275\223\001\233=\235L\255=\341s\255\275\371\r\334\275\374\373\366=TMX\275q\227B\275\242{\213<\274\260\246\275\264\235\307\275\363\257\007>H\356\340\275V\375\345\275\240\277\000>Lu\002\276o\255\230\275~\317\240\274\206\316.<\212N\265\275\024\335\366\274\372\200\244\275\324\005\365=2\267K=<f\271\275\230\220\340=w\361E\2748\337N=\01617\275\230\361\271=`\314\013=~3\022\275\021\023\233\275um\025\274\021(\211=O\267\343=\342\275\213\274\007\200\273<\234]\310=\221S\212<\t)u=\007\207\237=\276-\265\275\357]\276\274\225\333\006=\250\027\313=\236\302\033<\274!\332\274)\232\266=@\261\221\275\364\351\014\276\210\227\277=$\243\031>`>\276\273ygs\275\nB\265=q\334\373\275\033;\365\275\240$\272\275\3779@<\244c\017\276\007#\000>\250w\004\274\364.\221\275\236\315\013=\310\017\274<\267\303\375;\014a\316\273\006\375\270\275\241\236t=eS,=\356\260\202=f\254\031\275!\365\002>\237\350\227;\365\226\250\275lEY\274~\330N\274\\3\242;\372o\003>\"\014{=O.C=P\366\034=OU\303<\325\254/>k\013\212=\010\276\304\274\351v\314<v\247\213\275\200\361\305=\317\253*\272\220\277\265=\250J\037\275m\002\235=_\310\361<\346\243}=\266\303\270\275\372C\347=\361!5\275\214\250\350=o\236\310\275G#\035>\037\312\222=\357\251/\27645\270\275\216Z\316\275\321s|\275nph\275\240\216\020;\250\257\357=\n\312m\275\037B\t\276\227\202#>a\266\252<\252=\001\276\217\233^\274\\\231\036>A\200\350=\245r\313=\001\000\363=\236\023\024\276\221\223,>\226`\203\275\035N\217=n\363\325<R\277\340\275\024ta=i}\334\274\355\275\337=\256[\037<\315\306\267\275\222\006\261\275\034\"\306=L\035\341=Xfq=\025~\003>\323\007\327=\002\353_>\247\023\032>/\265\007\2758\266\267\274\271\336\213\275\222\001\373=6f\331:\036b5>\362Q<>Fj\003\274\305\350\274=\024\237\335=\374\300\245=\243\375K>\261\236\034\276\000\'e=Q\272a>2b<>\363\024\n\276\030;\237=W\017\264=\316\324\252=\307\002<>%\352G<t\366\017>\272#^\275H\331x<\313F\271\273*\210#\276Q\323?\275\364B\336\275\347tu\275\224\241.\276\204\323\336=\220\272\311\273l\354\\\275`V\021\275k,)\276\177m\005>\307}.\275\220\0109>\232\367\324;\342\2352>1*\030>&\257\n\276\254\370\261=\216|\014\276c\307\274=K\201q=\363\331\351\275/\307\002=\266.\236\2756\363\240=;-\322=\333L\253\275\324W\274=a\360\322\275\337P\002\276J\354\013\276\240F\377\274G|\005\275\231\312u\275g\213\002\276t\023\017>\">\\\274\317\3665>e\303)\276\254\007\234\275\214o\273\275\243~\201\275\263\330\236=\007\022\303\275\334h\311=;\242\035\276\t\306\364\275\377O\216\273{m\370=\2659\255\275\202GA\274\306\230\232=$E\267\275\230t\034\275\233\222\337\275\310\255\334=\235?\033>M\340\331\275\247S\354\274\204\317U\276\026\013\200=^\220\274\275\216)\026=\244\224\022>>S\014\276\254\030`\275q\301\027>\0218\266<v\247\300\273\300m>>B\373\272\275\320K\n>\350\214\373\275\352>\334=\005[\367=\035>\023<\037\226\206=$_g\275\353c\374\275\313r\352\273\247h&<\345\232\260=\\\006\257\275\r\020&\276\373}\233\275\220,y\274\225\337\324=T\353\363=7\216N>\253\035\263=\326\026\226<\234%\037=B]\325=?-t\275T\257\206=+\206\n\276\241;\363\274\372\n\\\275\231\227\362\275\324\177\232;\264Xa\275\210\024)>\221\201m\275\025^\276=\332LD\275.\372\344\2750\216\320\273\245\013\237\275\303\327\267\275\n\301\373\272\024\341\317\272\300o\273=\ru\311\275\353\212\'=\324\240\222=\0149M\274\367\3014\276\212\036d\274\314G?<W\221\307=\346{\217\275\031\305\206=<\263$\275\013C\034>Ny\332\275^\352;\276<\350\002>\216\277^=\032 \010>\246\027?\276\253\250D> \261\r>\336\333\262=\024_\204\275v4y=\251z\311<\340\256*\276\013\347\013>\263A\306\274\0036b\275$eg=\306\243\003\276\213\325\001>U\2060\275\312rA\275HX\266=Q\353\207;\366\2131\276w\3256;\022\261\222=#\215.\276RTy<\227\357\023\276\033!\366\275\333|\003>\024\336d=\354Z\367\275\001\235\013=\251\305\324\275w\036\226\275RL\322=R\026\260<\253\245\360\275%\230R=@>\202\273\222\002\207\274\236\025\347=|K\337=\344\0050=\267\010\004\276\n\345\273=w\363s\274\230\032/=\241!\203\275]\212Y=N/\025>Z\266\261\273\224>\">?^\014>\017\206\004\276\002\203\322<\317`V=\226\256\342=\324\330\005>~\317\364\275o+\212=nn.\275\227\020l\275\376\003\364\275\033\356\271\274\006\245!\275\036\246\023\275\364\202\366\2750d\323=\303\2277\276\334\200 \274\356\267\221\274\206\235\226=\3504\020\2768\177\301<\026b\362\275\216)\002>\376[\217=\366\371%>\371\300\257=\316\341\026\276H\005\215<\200D\t>\177-\007\276\311\306#>ZY\344<\306\r\213<*\356\337\275a#\014=\004s1\275\350\t\343\275\324w\220\275o\330\351\275\241\325\274\275\035\347n=\256\025q=;!9\275\3260\224<\334E\032\275\375&\243\275\021\345\325\275b\324z\275\317^F;\312\013,;\353\335\030>M\353F=\006\316\361\275*\237\213\275\026\272\031\274\234\310\004>\373\301/\275\004\274\020>\237\336\\=3\220\006\275{H\372<\3755H\273\366\367\350\275\224\342$\275\362\246\274\274=m\032>\303\313b\275\274\3171\274\320\016\201\273}w\253=8\210\332\275\226=\252\273\252\n\004\276\3352%=\006;\2309\303\277\236\275p\362\370\275*\224\t>\312\022\336\275\356\263b\2762\0363\276EQ\254=\367\222A\275\352\366p=)\251l\275:\237\237\275\010\351\001\276\032T\210<\332X\363\275\350[\023=T\223q\275|\357\320\275p\205\026>i\276\363<x\301\357\275w\004\255=\326\246\314\275]\211\006\276\010\242\353=m\233\270\275\024\312\307;L\276\213\275*\240\327=O\037\337\275\247\005%\274\313\336\004;{h\025>\265\201\303;\327\363\001>CS\370\274%}\004>U\003\262=\330z\345;\377YJ\275\347\032\007>\036\240\273\275\365\226\304=\326t\365=\246\311\017>&\313\340<6b|\275>\272\013>lp\226=\344J\314<\020\234\034\276r\346\026\275\341v\304\275~G\213\274\343\026\246=\277\341\200=\003\336u\275\027_\353\2756\032\213=0\263\017>^a&\276\037;;=\345d\204\275+\223@\275\2635\370<\337\323\177\275\210\013\217=Q\231\202<\271\217\274\275\206\365\235\273Ea2\275g\3751\275\266u\224\274\010\244\261\275\3026\264=\2159\303\275\370\304\342\275\240\000\316\275\334\314\333:\365X\020=\003\027!\276\344k\033>\243\265\231=t%\014>[nC=u\373\032>@\360p=)]L\275pJ\311\275$\201\231\275i\314\000>\004#C<\003\361&\276\316f\264\275j\237\235\2738\372f\275\225\265\253<a\364Q<\352K\201\275\026P\223=\375t\314\275\357\2517\275}\230\334<\340\315\222\275Mg3\276{\337\257=\025\310\247;,\370\377=\223\010\215\275_n\t>\034\375\371\275\357\201\356\275`\334\034\275\337\014\257\275\364\031c\274`3\246\2753V\340=\217\202\240\275Ux\010\275\360\254\r\276\037\331\310=\375\303\263\274?H\342<\230\226\375\275\026\275\003>\232\277/\276\240\217P\275\343\222`\275\310Z\003\276\034\361\327=\324\315\247\274\003\357\376\275\352\360\230\275\'94\275\201`B>\311\310;\275\341\314/=\257[\350=\017\326\257=!\016\345<\033]@>\217:\r=Awp\275>\346\211=\370D\035>\367\341\001\274\003\326y\275q\225\n\276a<\361=\374\365\212\275|\221\031>\3167\224\275\375T\026\275\321\221/\273\212\233\027=\242(\346\275\214\326\355\275$\237\273\274\026\000\340=;<\003>z\036 \275\334\267\223=\2548k=Y\n\366\275\037\250\350\274\357\016\263\275!\267\246=P<B\274g\337x<\222\276\350=\005\221\357=\024?\210\274w\216\001\275\331\375\273=\320|\034\276\253\363}\275\317\211J=nB\361=4\000D>\034H\214\274\231\267\365\275F&\010>`S\020\276\374yR>\375C\031\276\351\271\364\275\371Z\230=\273,\303\275\017\032\357\275+\271\006\275\\\320A=R\264\306\274\347\353\306\275<o\351=\214\266I=\035\304\n=!=\331=<W\177<v\2753>\376\3016=\253T\\=\345\002\302\274 \t\024\276\267\313\265\275\006N#>\001\002\316\275\3221\024\276;\274\023>\030\333:=\353H&=\237\275\316\275\265*\373\275\005MY=\243v\272\275i8S\275\035*&\275x\322\220\274\031\037\010\276\2611\216\275W\027\323\274\3023\316\274)\nI=\261%\222\274\325\316\212\273\0351y<\236\023\007>\002?\216\273<4\371\275I\026\302=H\371\270=\210\031\341<\375n\234=hR\337=\032m\002=\340\004\000>\3349\307=j+\304=E\036\357\2745I\206\275\273Q\203=4\r\232\274\372\205\352<S\250!>\264\363\021=h\231\360==r\341\275\201p[=\027\242\315=\001\247%>\211~.\276KY\270\275<V\327=\242E\337\274\304\226\026=\235^u=W\262\224\275\237\027\237\274OW\342=\351\024\320\275(\202\210=3\177\370=@\327\330=Jv\025>\320LI=\275\370\310\275\325\010\310=\310H\026\275\332\265\365=\027\260\n>\354\030\005\276\007q\n\275\200\345\346\275\t\225\334;n\"C\275\235\224\002>\007\354\277=(\362\r\276\034\360\024\276D\261\277\2756,\023\276\007\345\242\275\003\244\250\275\333\226\226=\211U\207=\r\342\340\275}F\241\275^\214\315\275\206i\336=-\323\273=\021\260\017\275\362\220\026=Go:=\nJ\234\2741\250\021>\224\340\r\276\033I\354=\257T\t=\272,\360=\014I8=\247%G=b7\032>\346\006\017\276\307\357\006\276\313\223\027>\3155\032\275yf\031>\010\243\271\273\243\276\025\2763\006\036\276\3008n\275\237\022v=9J\007\276\356\363\203= \361\r\276\322\t\002\276P\\\252<\351\017\275\275:o\"\276\362\\|\273\321\322\357\274\231).>\200\275U=\305\340\026<:I\036\275&\251\201\275\2467o<`f!\276\216f\203\275\272\261\317\275N^\350\274\200o\022>\244\350+\275\001F`\275\251D\022\275\371\"\347=\236?\356\2754\367R>\370\357\353=:\217&\276u\033&\276f?\273\275s\373 \276zPv=:S\242=\244\341\310\2751\322\224;l6\003>\301\255\350\275\016\033}\274\271m\260=\220\334T\275\346\014\237\275a\245\245=\241no\275~\313\226\275n\320y=pN\302= \322\265<5\005\313\275\334\356\322=\362\345\014>&\r\332=\3377}=\020\253\375<y\346\007\275\373\211\230==\237\355\275}I\013\273\276\370\264<W\203\031\276x\344\271=\320\306,\275\334M\030\276\232\201R\275M\211)=\252p=\276`&(\275\257qY=\346\231\341\275\230\027]\2757\273\363\275\326k\363=f\240\323\275\315q6>\225\025\344=\032\347\334<\004\254#\275\310\204\257<\313\256*=\242\367m\275\231q\306=\033\021<<\250\334\271<\360\027\341\275(\216\261\275Q\207\026=|\323\001\276\375\321\332=\202\231\210\275\314)+\276H* >\363\237\237\275\300\017\250\275\207\375\344\275\237-\034>\204\325\251=\316\036\027>\227A\\\274U\217\343\275\242\304\024\276\210\316\357\273+\200?=3\021\036>\306\322=\274-\020\234=\245*\373=;\271\243=\2649T\273)\310\305\273\320\252\323=\006.\001\276\265\305\023=ae\347=\313\252\277\275n=\357=\254\035\000\276\265R\215=\231c\317=\251\343\037\275\253\205\021\276\301&i\275$\033\331\275\202=\357=u\2169\275\236\261\037\275\323\002T=\301/\241\275{<B=\23379\275\377\344t\275AR\r=\025\355\270=\242M\344=\207\010\314=\257\030\325\275\342\037\345<\377\370\223=\206w\347\275o\233\327=\234\230&=\234\377\316=\034\331\006>:<\316\274?:\024\276\216N\245<\350\254\310\275\370\303\225=-T:=\177\002\370\275\300\302\034>\306\021\\\274\004W\340=\361\355\022\276\033*q=(~\300\275\214I\240\273\242c\013>\324\353;\275\354\322\213=\262\t\363<e\320\033>\267H\276\275\376\340\317=\273=@=\232\217\010\275\232\273\021=\336\007\365\274\312\315\271=N\027]=J\360\377=\337\\\313=\326\324\r>\033,\246\275\365\225\311\275\003\254\n\276\375x4<\233\262\250\275\344\325\027>p\355\333=\255\330\036=\034\343\026>2y\321=j\326Y=\3354\271\274\030e\037>\326\343\243\275\314\276\271\275\316^\025>5\027_=\326E\010>\211\246\317\275\261\271%\276p\320\010\276r\351\316\274 g\265\275\255\310\r\276mo-\276\203H\022\276@E\301=\270X\030>Fd_\275\'V<\276\240\375\235=\363}B\275\274\303\013\276\343\257\017\276\253H\246\275\357\221\203\273\234L\306=\337#?\275\360^\346<\003^\261=\266\263\000>\213\371\220\275wX\343\275\3127-=\032c\223\275\343\331\021=\327\211#\274\370\245\267=(\233\345\275\236e\253=`\327\034\276\302\021\247\274\243M\201<\344\324\034\276z\257\244<\335\n\n>\010\036\236\274\023k\245\275\231.>\276V$1\276\t\325f=\003n\021>1_\212\274\311%\222=^^\303=s\323\315\275|\317O<\240,e\275\0135^=\3446\024\276$\t\244=^\3521\276\'\220\032\275\360\017\223=1\037h\275\220\361\000>\320}Q<&\240\204\274\322\276\276\275\273Q\020>\215/\004\274^0\243\274\362W\300<# \272=\3558\204\275\002\013\016\275L72>\261\246\226\274C\363\014\276,\344Q=^\"\"=\231\351\214\275\361\232\365=aM\344=Q\251\361=\272\247\255\275\311!w\275\016b3\276\374\036\016=\375nA=\023\325\316;uR\365\275\000!@\276\025W\201\275U\224^\275\"g\231<\201\036*<fRL\275\206\202$\275\321>\024\276\250\001\240\275\315\253\375=I\275\353=8\256k=6\361\001=\306@\373=\214\306\277\275;\277(>W\241\031>\215\245\367=\"\366\333=\301\240i=\325K8>\245\361\022>\016G\202=\274i\244=\373T\216\275\355B\355\275\211\227`\274\273\263\224=\364\334\033\276\304{\225=gZm\275\211!\247=\371&\260=\236\363\277\274,\027\260=\342\310$>F\177\315=\2028s\275\243\3413\275\2733\"=8\312\323\275\230\362z\275\304\032\225\275\227W\212;\337\233\002>\024v\365=x\344\351=\354\200}\274\374*\341\274\321\350\013<\351\230\005\276\237\215\233\275\305F\237=t\257\353=\003P\000\276\323\303\233=\316\235\332\275R3.\275\314\017\037>\250\276\245=\253\311<>U\325\034>\327B\n\276u\027\013=\321I\371=`\'\262=\224\300\271=L\003\031\275\325/\213\275\353~\326=C_\263\275:\255\244\275\231\264\003\276\227\004\327\275W\342\033<\354R\026>\'\217\365=\004\201\346=?\332s<\220\025\034\276\304o\311=\205$\265\275\306\023\362=J\267\277\275\332\327\312\275\017\360<=E\202\030>M\250s=\204\374b\275\276\025\007>?0\343\275\177\347\327\273\353\221\275=~0\311=G\261\251\275\350\321&=k\244*\276*\247\234\274\022@\376\275\300r\377=h\023\'\275\ne =L\014\222:\231W\276\275\037\313/>/\n\327\275\001n9=;\343\017><\244\210\275\023\264\344\275Rz\245\275\216\202\211;r\005\336=/\240\235\273^\014\377\275D\265\002\276.\333\336=\211\357\357\274\253M\021>U\300\302</\316\243=R\032\221\275\\\206\022\276E\006\010>\213\215\230=\215\304,>\372^\277\275\343{\326\273\300(\222\274\342\321\327\275P\rI\275\306PS\275\373\323\027\2765\362F\275\315~\301=\20625=\"\202\306\275\\\277\240<>\363\027=\016@\307\275\030\324\032\276}\372\025\276e\376\211\275T_\021=)\345\320=9%>=\0233\357\275T\235Y=K\214\006\274\265?*>)\372\036\275\215!\207=\037\312H=\222Q\035\276\227\335(\276\325\342\250\275\350\014\">\231\2148>\027\354\214\275t\313\036\276_\377\014\276\250\364\353\275CQ\315=\352^u\274\257L\023=\323\0320=,\020\014>t\342\004>\025\022\222=\274\'G\272!\265\303\275X+\325;B\267!\276A\370\007\276\314\266\031>\367\005\323=@\'$>\357i\241\275-0\021\276\2446!\276\347V\023=\200\312v=l+\362\275\352\310\334\275\t\345\022>a:\026>\353G\205\275\217\321P\275\214\021\035=\254\311H\276\257b\361\275\256\224\n\276\216\263\t>\371!\255\275uu\311=6\022\335=\266\r\335\275\330:\274=\330\323\006\276\r\231\301=\363\325\'\276\342\220,\275\273\013\225=\311\2675<\374k\211=h\224V=\017\341\364=\335N\\\275\217-\037\275\000/\214=\362G\270\275\333\252[\275\257-\307=+\007\347=\262\026\252\274\346\3372;\347\222\322\272>\215!\276\304\007\271<\202\261\267=8H\026>\312\253y\275\361\216\216<\377\300\347\275\304\206A\276\270\031\337\275/3\241\275\032\213\224\273I\343\361=\262Q\245\275a\005\233\275\320\332\323<\315\341\340\275\201@\301\274\220\335\014>[\352J=\306\335Z<\273\346\023\276\247\265\376\275q\327\273\275d4\331=\323V\356\275\334\201\327=\266\212\304\275\350>o\275y\270\265\275\002\t\210<\222\333*\2742%&>Y\335\354\275\030\312R\275\024f\362=o~\030\275G\234->4\006\251\275\346\207\021\276\271;\034\276\014\036\327\274\016\332\216\275\326(c\275\356\274\032=j\343 =\031\321i\274S\341\242\273\215 \330\275D\313X<2N\022>\274\352\221\275)l\207\275\240 \230\275\230\343L\275\371\246\036>v\360>>Q\303A\276TI\231\275\376s\365\275\025\316\264\273\027\237\"\276k\256\343\273\3333\227\275:y\016=}Y\036=\300\304+\276\260\254\252;~\327\227=\247\2102\275\006J/\275\260+l\275\224\377%>\260M+\276g\322\334<\034\372\000>oh\264\275zf}=\252\260\036>\237rX=\025z2=f\236\352<\010\211\230\274\005Ol\275\035\213{=C\340\266\275\255\270\006>\371\264\262=u\235H\276\260\026\010>Bs[=\333\334\233=Xc\013>\200\337c\275\300\236L<\240\242\361\275[Y/>\241\350\320=\023\215U< \272&\275<F\020\2764\020\000>\374\217\232<d8\363=\315\'Q>\323\222;\276\271S\037=\372\376\023\275\004\375M>\256\n\'\276\032]\304\275\372P\222\275Y\265A\275\210\320/=An\350=5\252\016\276\342\315N<\376\336\374\275X\264\200\275_9\241<\n=!\276Q\3413\275\333|\014>j\3619>\3335,>\351\340\244;\034\360\221<\341\t\243=vZ*=$x>\276n\237\205=\321\276\003>\245\022\304;\232\202\007\276\255L\034\276(\256\242\275&1L>;N^\274\022\335\202\275&<u<\325\207z\275\373M\r\276\251^\275=\303%\354=\265x\374=5@d\275,\337\000>\321\210\321=~Q+>\3428\036>\277\242\323\274a\263q=7\223\252\275\336\021\255\275\227\256\035>\023\345V\273cZ.=a\017.>$i =\353y\326\274\261W\013=V\014E\275\362\337\t\276D\301E>t\217\304\275\334\276\032\276\231\270\265<\376~\034>,\000C=\035\373P\275\004)\236=\327\252\354=3\225\242=\377}\253=\224\200\000\276\232\307\020<u\375@\276B\365\"=\'\235\201\274\333\203\004>\005B\212\275\312\330.>\n\211\307\275nV\227\275J\230,\276\020l\323\274v\357\035;\252\303b\275\361j\030>xB\213<z;|\275\277\204\244\275<o\006>\024\221)<\336\320\303\273\242\225\250=\265\235\360\275\3108#=\330 \004;a_\242=\02196=\355\302\022\276\324S\303\274\251\330z\275X\275\353;k-\351;a\263\374\273\2719\t=\203z\351\275 \217\341=\007\025\326\275Z\325\227=\240\353\215;#\224^=\367^\355\273\200>:\274x\016\303=\027n\371=\231\216\266<\023\203\027=1t\334\275\316\222\354=\300\001\"\275V\254\016\276\031\320E\275\n\260\342\275\233\236\235=>c\266\274\353F\366=\210\036\253=}\217\025\275\327\273\343\274\317#~=P@\026\276\232\350\325=\201\221\257=\302\233:\275? \025=b\341\206\275\322\223\271=\'(\354=\214\211\235\274\322X\004>\022\233\014>x\261]=\224\236\212\275fR\027\276\262\213\037\275\275\273b\276\302\3373\2769\377\374\275\334S\014\276\222\243\371\274\223\321 \276\217S\222\275\356\347\205;v\\\266\275g\262\230\273un3\276\275a\220=\227=\006>\367\336P\275\013LY=\244f\207=\037\227O<N\257%\276 8\312=\246\013!>j\356\251\2753\256\213\275\006#,\273\303\t\022>h,\002\275\023O\006\276;N\375\275\261&\r\276\305\217\363=\007\"L\275\030q}\275\257Q\270\274\001\377\323\275\250\374\370\275\225{\374\275J\2668=\003\014\353\275M\206\000\275M\222G\2759\211\267\275>\305\312\274\266\3401\276\345\364\027\275\217\331X\275\256s\361=L\276\033\274\"/A\275h\005\236\275\346\255\'>K\260\265\275\016\251\270<\010\300\220\275\340\360O;\017\320\367\275W\307\r\276\342\207\303\275\006\025)\275R\001\362\275\034\276\333\275\\b\204\2744G\355\274\211\213\233\275\225d\270\275\232\257\020<!\3564\275\214\234\353\275@<\013\276\223\313\377\274\177\375\354=[\301s\275\023\230\205\275\354\221\226\273\214\020\307=+\032+\274KH\247\275~\200\241\275\006\013\202=\010\333(\276{g\262=\025uk<k\020\025\274\371}\n=\236\323\022>\372?\322=U\177\006>\277\025\244\274n\205\202=)g\316\275\221z\001>\3325$>\307\373q:\337\241\306\275\274\223\264\275\344\213\003\2752\253k<\207vx<\010\234c\275\260*\027>}j\374\274\354\030j\273\251N\237\275\244G\376=\230\224j\275\316\240|=\022\350\265=(EO\273\001i.=7\300)\276\247\343\001>\271\316x\275JHr<\374a/\276\230~\223\271{G\361\275\253>\365=4h\370<\375\335;>\372\207\022>\331\374!\275\036\343^\2756;\367<\276Z\004\276]\332\360=\324p\177\275o\237\333\275\243\307\245\274b\334\030\275N\2747>Yt\230\275\377{\256\2752\365s=\2022.>\344b\004>\245\331\252=\3179\004\276Y\270\352<\363\376c=m\007\035<z1.>@\326O=M\344\025>\241T\314=h\330\217\275\233z\215\275)\341%\273@\253\347\274\247(\252=\354\222\270=\256h3\275\004V\000>\334\234\230\272\306s\360\274\211\3707\275\346m\316\275\'\350\215\275N\223\3108\033q\317<\014Z\373=\371H\n\276eR\211=(\021\025>\016\244p=*E\336\274S-\"\275\202KJ\275\025\255c=<\024\006>Y\311\274=U\234\342\275\275\234\023>\250_\376\275r\223\030\276\333&w\274\250\237\314=\275\367U\275KJ\371=2\2672>1\265\003>Y(\001>\234K\010\276Fx\027\276\006\260\013\276\304\305\376<\244y\036\276\222N\221\2757\232\177=\221\366\240\274.O\227\273M\023\032>$\227)>n\250\371<\225\357\256=\264)\253=\221\002\020\275I8\262<\257\271\006<tF2\276u\263 \276\004\202\245\275?\264\276=\366\373\261\275\231ZE\275H\017\035\276H\033\371\275\345J\303=\241\201\006>\0369\374=\330\2464<C\026!\275\2068\036\276\017\336\274<\0204\333=\340\0174\276!(\r\276A\212\034\276f\345\374<xE\272=.\367\235\275\232\240\004\273\032\177\200=\\J\254\275\244\3435\275\253\313y<\263\037\020>-\"5>\305\363K\275\265\033\274\275\177\346\014>\212G\300=e\017\374\275\025d\272\275!\010\024=\247q\003\276j\025\350\274l\363u=*\263\345\274\020\357,\275w\260\230=\350Q\257=Y\346\216=l\365\321=\'\227\">\215\013\325\275\014\212-<uGl<\367a\227\275\234y\004\276\247v1\274\023\223\345\275\010\306k=\300f\\\275|D\032>\007\033G\274\260A\232<=\3648\276\240+\020\276\351M\262\275T6\004=\234q#\276=e\371=\272\321\206=\376Hp\274Dn\262\275q0\004\275\223\305V\274\204\"\350\275Ml+\275\317}\007>\205\333\227<ya\021>\201\363\211\275%,\230\274\353\036\275\274\266\217\0278j\371\305=A\334L>\353 \030\276\227!V=\306Y\302\275\223+q:=\324\325\275\374:\216=\014}\">h\022\251\275<\317\020>\242\257\371\275z\263\026\276\261\004/\275\335\334\032\276(T\277=y\035\216=\240\3725=z\244\246<\007\301\324\275\255\233\006>\177\256\002>.?V\273X2!=\177\016Q\275\341\352\273\273\266y\367\275F\r\261\275\207\250\377=\203T\373\275\032.<=\3132\264=\273k\024>\346&5>\221\210\252=\255+\317\274\002\254\016\274\264\205\027>\301\027\023>\354\266\274=\234 9\276\026$\337\275[\247\r\2762_\264<\270\225\265=\034\035\317=\373\347K<\022\3215\276.\300a\275J\266\222\274]\353R=)\t=\274\222\323\250=\253\212\324\274\325\327\256=\250\'C<\247G\236=\244\221\366\273\273\373\334=&\236\336\274\347\236\002\276\230Kf\275H\"\026\276\214\335\344<\001b\372<nc\026\275K7\332=\262^n<\016yK\275,\177\374\274[\377\376=Q\233\345=\210\360)\275u\203\027\273\024$\214=\202\360\037\275>\340\315\274\254\267_=6-_\274\377^\276=E\273\314<u\374\354=\245\303&<\360h\263\275\374z\307=7\025\263=\367]\235\275[M\034=S\004G=?\312\315\275O\241\233\275F\251\320\275\230\317\375\275T8\315\275\375\335\270=\242\251+\275A\276\272=,B\372=>\240n=\031\327\272\275\025\305\344\272\205\227\323\274\203i,\276\021u\225\275\032$L=\362\233\307=\327\014|\275\013B\216;\202\350\312\275\031D\267\275G\376\031=E\337\205\275\312E\235\274h\3675\276n\250\212\275\330\270\333\273\206\330\276\275\025*\n=\366\007\321=\263\005&\275\353t\361\275\254h\023>\221\256\026> b\222=\222\230\263=m<,\275b\217\002\276{\310\032\275!H\004\275\342l*=\346\331\034>\007g[\275Q\254\240\275\355\236\220=j\313\273=3o/\275D\323\'=0\236\244\273r\233\267=h\020j=\221\004\t\276\334\213\327\271;]\021>=z\376\275\304\0149=YI\320=<\233\352\275\234\276s=>6\216=\337\327\035\276\20006>\224\327\212\275\235\305\301:9-\363\275\246\276\311=\3653\252=\257\267\261\273kd\335\275\267?#>)W\253\275\332\\\002\276_\324\007>\014u\244<h:\356\275\332NO\276_\026\n\276\013c\362=\217\331\246\275\215@\204=\265\212\266\274\252\304\001\275Co\277=\255\330\360\274L\036\231=\t\346\037>\356\320\206\275wM\376<\371\350 \275\203:\211<0\202\202\274\314\n\332=\"R\246\275\270\2167\275\010sG=*\205P>\220\303z\275p\025K>1\214y\274)\033\275<\330\021\370\275\341j\013\275G\347\344=f\217\307</K\311\275\276\346n=\314\257\360\275\201P\034>\253\366\326\275TjL\275\355\230\">s\277t\274\325\243Q\275\tbR\275\022\235\014>\'\256\n\275\375\002\001\275\347Ex\275\215?\027\276\245\357\022>Kuh\275r\224\023>h \004=\"\354L\275rb\016\276X\333C\275\215\317=\2762\207\037\274_Yj\2756>\201\275(\352\225<=\274\274=\375\200\301=\221\331\325<\344\206\276=\2418\361=K\374\202=\216\037\335\273<\335m\274\026\210\213<\006!\021\276\370\004\"\276,\")=\237\354,<\003\033\010>\000j\032\276\017*5\276-\265\014>r\243)\275\337\340\035\276\301Rl=UY\316=\222\300\375=n\273\231\275\256\356J=\377(\021\276\206\311\235\275DZ\252\274~\006\205=4\034\032=\3535\003\276$~\253\275\213\227\254=\362\210\016\275\335\355\031\276\260\374\367\275m$\277=>T\275=C\355\223\275\346=B=\223q\034\276\207\303\300\275\240\027\010=\005E\306=q\301,=\205\233.>\305\271\223\274\211\242\214=\01461</O2\275\237\356p>\351\203I=\\o5\276\3438\346=jT\223\275\300\032\204\274\2462;\275\207Vj=\023\303$>\226\311\367;\271_d\275\256\035\270=\243\257c<\301\210\327=\375\321\014>\004\257\264<\027G\177\275j\211\373<\231(d=\276l\332\275\264\260?\276\356\354\"<7L\255\274\031\024\306=-\323\361=\336\260%\276\263\237h<\230k8>\231\221D>\214*\245\275\"=\010\274h\022\311\275\223\3070\275Q[\270\275\177\243\334<\247\303B<\331\240/=\327\272\322<7\t\005=^Xh=Q\010\344<\014\002\";Q\022\271=jr\330<\325\334w\275f5\'\276v \345\274$\304_\275?\227E=}\226$=\214\005\264\275NkC\275P\324\004\276\372\rM\275\001\300>\275\341\372\331=\206Y\021\275\306\222\265\275\244|\031\275\343\225\022=T\220\374=\233\331%\276\201\014F=\024n\252\275\224\376N;\2457\274\275\335)\221<\203\001\212=eC\212\275\271\320d=\264\331f<\352\257\374<\031\353:>\315\030\306\275:\312\r>\254\326$\275K\304\013=\247\007\262<p\312\025\276\345=\031=\211\321.=2\214\216\2751\"$\276CR\206\273h^R=\225\317D\275Re]==\027\226=\240\321\231=\024C\372\274\013\2512=\217&]\275\303\304\330=\334$\037\276^\016\036=\036\374\261<\2554\251\275Qj\016;\010\231\034\276\03024>\221\275$\276\004\324P=X\227?=\242[\r<\301`\323<\211J\023>I\226\376<\024\250\312\275\353\032\236=\245\031\217\275m\223\000>T\224\227\275\227p\372\275\327\330w\2758N\341\275\032K\021\276\363N\013\276GK\005\275Gx\343=\370n\353\275\243?\264\275\271l6\276\206\2062>\243\024\260=\377\263\313\275Y\315\335\274\344\232<=\030N\220\275t\317\327=O\336\361<}\276@>\250.\010\276K\311(>\035\237\004\275W^\n>\031\310\266\274.\266S=f,\376=~\340\232=\203\215%=>|\223\273\010>\312=\346\321\177=L\342\t>\350\033f\275!`\001=RA&\276r\213\177=\261\006\251\2753\177\313=\341\200\007\275\2050\330=\377\213\r>9\253\017\276v\254m\275\320_\300=\326\306.\276\325?!=\253\233\253\275\361\235\227\275D\306\267\275\340\264\006=\036\310\022>&8\340<\2701\223\275(p\212<\3074.\274Cq\303=\301Y\003\276\010+\322<\365\265\366=\245\276\324<\325R\010\276\003\263z=\002\266\206=ObR=\340\214\355\275=\n\350=+>\036>v\026\006>\250?\327=`\347z=\311m \276\346-\200=f\022\n>\347y\022\276Z4H=3\3110>P^\372=\tF(\276\217\021\247=\322\2440=9\215\005>\352\006\026=\332\016\240\275_\202\032\274\000\233\254\275\023\205\344\275\035\337\330=\320m\236\274\240Q7>O,\366=\220!\n>\005\037\236=\000\027\300\275\006\351>\274\322\241\345=\027\223\001>\311\335\034>a\334*=\3569\277=\226\'\362<3\254\004>\354=\274\2751K\234=\010\231\212=\257\234\210=8)\241\275\022j5=\003\2266\2756g\036\276Q\t\017>\013\344\265=]=s\274\244\243\000>\267; \275\256\221\"\275\377\203\017;3\341\311<hD\376=\365d\027\276y!R=\302\310\020>\303l;=\031\177\035\276\000\342\277=\323}\016\275.\201\346\275@\2724=\350\370\253\274\2031\203=\214<\276=\313\267\007\275t\035y=*\313\021\276\005\022\360\275Z5\222\275u9\376\275\323;\310=\347\353~\273\033(\302\275I\201\330\275\333\314\341=Y\001\255\275\017\354\330\275\004j\360=SF{\275\030\232\247\275H\355\374\275\241\267\243=\033\227\201<{\363\362=\256\211\014\276W=\035>\307:\261\275\367\254\305\275\252G\316<\357\017\242\275\010\277=>\357\003\327\2752B\317\275.Q\257:#\214\007>\rbD>6#\325\274\370\205\222=\347S\021>a^*\275T\357\016>\231dR=\2354\020=\004\"\243\275\254\342\212=\205\356b=\373\200\220\275\224\220\376=\220\027\014>\232\317\256=Q~\321\275\267\240\035>\260]\215=F.]=\013\005\020>y3\'\274{\277\027\275\365\311\210\275\360W|\274M@\223\275\325\000\376\275\177>\227\275\334S\241\275\025\"4\275\031\030\337;I\357,=<4g\275\214\224\367\275\376F\256\275\362\247\017\275lr\001>lf\360\275\333\275\211=\030\373\266=v\246\240\275\253\026\262=5+\016>\214\202(\276\212m\024>uF\'=\000N?\276\'\032\327<\023\220\353\274\203\252\203\275s-\266<K\242\215=x\304\336<\363\352e\275@\352\3269\270`\365=Z\214\347=\017\252\213=tR\027>\276p\030>r\313\353=-&M>\266s6=?L\321<\201`\324\275\305\321\372\2753=\220\275\246\317H=J\220<\276\n6\334\273y\374\336\275\211\260\346=?\2641\274\374\247-\276\345v\364=\223T\001>\217\306\211\275\177\210\263\275<&\247<\n \016>c\017\034\276*\243\026>\364B\006=\277\350^<X\"-\276\334c\022>\205\036\026\276\0109\003>\325IQ=^\010\\;`\265\023\276Z\036p=B\352\271<\210\004L\275\206\360\217=\216\276C\275\365\353\305=u\246\330\275\376[)>\261f0>Qd\341=\277\224\267\275\262\t\222\274\323\361\250=e\300\002\276Y\256~\275up\252\275\375\026\231=sL\t>\216\220\"\275c\353\027\275\212\235\027>\021&\'>;\316\024\276f\376\355=\007RS=\001\240\330\275m\261\361\275:\235\322\275\371U\220\275\255\272b=/\260\224\275\005\261)>\004\003\r>,U\036>\034\200\344\274\331O$\275[\200r=\314@\260\275\t&P=\351K\206\275\321\237Z=ix!>R1\">\264]\030=\303\242,>\366\2176\275\232R\266\275T\276\t\276k\356\322\275\350\231\024>\251U\021\276\t\353\211;Xh\356=\023UB\276\261\2609>\353\352\223\275\260\226\031>\305\261\310=\314\240\331\275Xz\234\275\034\210\367=\355\037V\275u\266\033\276Ih\010>\325\257\217\275,\237O<x\372\246\275\020~F\276\220\2661>a\246\313=\363\306\010>\035( >L\260/=/\324\252=i\355\257=Sr-\276N\356\267\275\331b.>R\300Z\274E\273\010\276\001\227\033=\2635\220=\214\325\225\275\223\276\264<!\316)\276\244\2340\276\307\370o=\025B\027=K 6>\330\021\016>\235\306p=\307\266W=\006(\375\275=\035\r\276\363q\251\275\203\255t<\302\352\304\275\334\236\313\27574\n>?\237\246=\240\032\363\275u3(\276\321\374?\275\024?\300=\327\326)\275\360q\317=\1770P=\351d\325=?\323T\2759\261\321\275\002A_\275\345\005-\276\212\334\377=\327\270\034\276<\t\013>oV\322=\371}E\275x\325\344=\024\210,=\265\271t=\272\255,>Y\237\334\275\334q\n>\217(:<\201z\202<\356\024\256=\021r\023>h\006[=\314\350\025>XK\022>\337WE<\355\2661<&\311\371=\265\025.\275\270y\353<\322!\030\276/Y\"=P\006\030\276\237/\017>\377\n\005\276bZE\276\'\344\263\275\034\315\246=P\335\037\275\314\367\034\275\376\306\207=\246Qt\273I\302&>\352J\376\275\027\3700=Q\271\302\273\227m\321\275\227X\353\274t\026\360=wH\340\275\013\302*\275\244)\020<\237\243\316\275\256\272\014>H\005->\371\230\n=\304\305\\<hA\234==+\320\275I\030\315=\323g\313=\325\014)>\367\023m=\3531*\276\037^+>\256z >\262b\270\275\200\212\351\275\017||\275\302V-\2765\270b\274X\276\262\275\223\247\344\275\306\224G=\315;\273\274\001I\364=p\3303\276UY\262=\316\205;;\313\222\215\275)\307\013\274\367\\\035\275C\355\002=w\343\037\276\321\260l\275\342\222.=\267\375\205<\034|v\275\361\245\010\276_*0\274SF\001>\037T\360\274\363\253\273\274\"Q\211=\270C\017\276o\302\366<\341\211\004>/\353\226=uvq=K5@=\306\267\003\276\244\343\362=*\'\306<\010!\010\276\263\234\322;DI.>\376\261\307=\305j\225<\270\306*>!\312/\275tep\275\235u\366\274HM\020\276|\226\003>\033\200y\275\330\224\366=\247K@\274\257\326\211\275\037~\237\275\305\334\014\275X\013\266=\t\206\370=\'\n\t\276sk\013\276o\207\014\2766\331\271\274\207\017\211\275\"\364X\275JW8<\363s\310\275\n\002\271=\231(@=\t\312\005>\340\001\022\276\252\310\034=\324\345\370\275z\2563>\304\2678\275\372zx<\013\372\t\275\310W\025\276\257\027\225\273e\220\276=:\037P<J\346\276=Z\347>\276r\353\001\275\215\252\340\275}\251\020>\232)\215=\350\274\322\275]\257\344\274\252\022F=\330\367\007>\337\236\253=m\354\204\274\342\223\345=\314\020\265=\216\226.\276\246+\244\275._\367<4=\265\2750\024\234\273y\306\227\275\3509!\275\371\264\037>\376\013\001\273\357\256\240<M\203\004\275D\031X=\006\353\336\274\020\204\337\275W$\371=\333\013\215=\251\316\270\275\364\343\201\275\036^\346\274\344\306\351\275\032?\321=\257\347\332=\265\023r=\261\312\371=*\323\000\275\004\303\237=\322\2316\276>+\274=i+\230=\225\352u\275}U\356=\'\246\016=\3126\303\275\343\246\374\275\025\210R=\353\363\360\275\253\364\351:\t$5\276\333\275\254\27535Q\275\t\323V\275\350\332\251\275\311p\221={8f\275\250\323p;\254\335\355\274\252U\237=\343g\264\275\211\237\032\276\323\3221\276\377%t\275\022J\001=-M\367=E\323\366\2756\361%=}\317\341<r\251\252\275\325\236c=go\275\275@\325\302=\232x\254=,